66
57
B4
1C
9C
C4
3D
1F
F9
CD
47
62
9C
D1
97
1F
60
BF
43
13
53
6E
58
5F
1C
E4
1F
E8
36
35
2E
B5
71
F4
BB
54
1F
40
35
3F
13
67
B8
50
C8
21
E4
C2
84
86
98
3F
96
15
04
83
04
00
79
EB
9A
71
7B
86
A5
86
DE
19
0A
CE
33
23
20
C9
EA
52
C9
ED
60
DE
7E
53
09
6D
2F
4A
42
A7
C0
07
B6
5E
8F
96
39
C8
04
19
17
31
91
8B
C0
DD
0A
30
43
7E
EB
01
16
B0
D2
CF
9D
4C
AF
3E
CE
3F
0B
BC
D3
87
86
C4
EA
DD
5C
D7
CA
23
BF
9F
DD
DC
A1
08
A2
82
7D
BA
33
40
0E
08
BC
BF
09
D5
1B
76
E8
8C
1B
7C
94
F7
DC
9F
89
B3
89
EF
49
0D
54
1B
67
82
F8
CC
79
A3
B0
E7
D1
89
C4
38
25
AE
F9
67
0C
5C
46
E3
00
40
34
CB
90
47
1B
5D
C4
CD
2E
F4
D0
4D
60
8E
57
5C
F8
8B
C2
85
9B
53
CE
2F
3F
F0
30
EF
D3
3E
EB
EA
83
62
DD
3D
59
E2
88
DB
B5
FE
19
ED
0A
32
AC
4E
EB
CE
3F
49
C1
D2
E8
CA
3A
3F
BB
96
E1
F8
58
C7
0A
B3
3C
7B
AE
52
14
C9
E6
0C
D6
67
D2
1D
8E
88
91
17
51
7C
EB
D9
73
4E
D4
48
CB
48
6A
47
27
33
C8
02
FE
21
98
3E
CA
59
61
44
06
83
55
7F
6E
4E
A1
35
8D
AD
B4
DF
A1
43
6A
ED
91
BC
8F
F8
77
11
21
8F
D8
E6
3A
24
37
0E
12
DE
DA
30
2A
89
89
C9
BF
98
14
B6
0A
B5
42
97
6A
88
A6
58
5A
6D
9C
7E
F2
1B
B0
FC
44
67
41
12
ED
D1
47
B6
16
95
CE
D9
F6
C1
AC
BD
6A
16
A3
F8
DC
03
79
99
B7
CC
3C
BC
48
0C
6F
6D
70
5C
A0
AF
C1
DA
EB
0C
2E
DC
06
BE
29
5F
20
E9
85
34
92
29
99
FC
43
5C
63
6F
B5
5A
7E
B5
A5
B9
45
83
FC
A6
9C
EA
2D
65
B5
1A
82
DB
F7
64
5F
DD
11
4B
C7
85
B8
F9
AC
34
D5
D4
D3
85
53
F0
04
38
34
6C
F6
FD
76
06
6A
79
81
C7
48
18
03
CC
67
00
F7
2B
B3
62
44
84
00
E5
9E
11
74
AB
56
70
C5
E7
BE
C4
4F
83
8B
79
FB
06
2D
6C
EB
66
BB
53
61
15
06
6D
54
2E
2D
E0
9F
7E
96
AC
1B
39
27
C4
B3
12
3C
52
C3
18
2D
5C
1D
F8
5D
BF
A7
66
1A
BB
D8
4E
C6
7A
5E
AE
24
FD
A8
B3
3A
B9
5F
CA
E2
FA
74
7D
32
74
F7
48
CA
D1
27
5F
FF
6F
72
01
61
C7
30
DD
6E
0B
B4
81
03
99
19
50
58
DE
34
AC
1F
CE
DD
E2
A9
74
5A
FE
52
AA
D7
6D
7E
92
F6
B6
69
A4
3F
E4
1C
B7
BD
1B
3A
D3
42
AD
D4
E7
FB
F0
0D
43
73
EE
E7
39
95
EF
11
1B
68
66
68
EB
35
CB
9F
CA
1D
CB
08
3A
6E
22
A8
70
98
CF
F5
CC
51
47
DC
10
2C
FA
C3
F9
38
59
63
54
B9
B1
24
AB
BD
AD
4E
7C
7D
DB
50
AC
E4
7C
18
F3
F6
F0
E6
D6
66
1B
B8
F3
DC
2A
A8
12
95
2D
50
48
6B
FD
15
5F
A6
F1
EF
09
5A
FF
7B
40
60
3C
A9
0B
ED
AA
F5
C9
F5
3E
D0
4B
C8
88
B5
03
CB
1E
F1
AC
D7
11
CB
4A
EA
2A
A2
CA
B3
20
C5
15
05
33
7D
5A
2A
27
5F
47
92
16
6C
24
A1
CC
FB
60
9C
C8
A1
9E
DB
C8
62
97
10
E4
FE
F0
87
BD
93
CD
A3
61
87
40
63
42
A5
B8
E7
7D
C2
51
B8
C6
CF
EA
C5
00
1D
7C
4A
B8
B2
B5
1D
1B
19
7C
2D
DD
7D
46
01
AC
A6
CD
B7
F1
0C
84
DD
2B
77
DA
5F
0F
D0
5B
A1
6A
E9
85
91
7D
3A
87
26
C6
A9
A1
00
52
2B
C1
C0
4B
14
A7
EB
58
1C
6F
19
8A
92
6B
A8
05
B5
66
8B
9A
90
3B
A5
9A
1A
6D
20
92
A1
0E
47
4D
37
69
DC
B7
DB
24
E9
36
A6
5F
36
DA
98
2E
21
4A
88
3A
14
2A
05
05
40
AA
30
60
1C
B1
49
84
76
60
2A
79
28
6C
C8
8E
4F
6F
F4
A2
8A
B8
D6
5C
01
26
32
BE
C7
04
20
37
A1
AD
5F
25
6A
97
E3
E6
A8
12
0F
5E
C5
7D
6C
00
58
E1
07
FE
DC
86
16
24
19
42
96
37
08
B8
7B
A9
E9
DC
9F
6C
C4
4B
87
AD
85
7F
0E
28
9C
F1
5C
67
CA
6D
31
7E
06
E7
C4
A5
EF
84
41
4A
6B
EE
36
7A
C0
44
4A
3A
28
29
33
FE
83
69
C6
FB
EB
5D
DA
6D
E2
90
E0
46
02
73
9B
8F
44
56
CA
95
A4
79
56
66
2D
E5
6B
CA
18
14
8D
56
00
5B
39
F3
55
8C
7D
B6
0B
05
25
0D
0A
E7
A5
FF
AC
58
11
4E
D2
66
36
D7
5F
F1
66
4B
B2
4A
ED
A0
62
00
C1
15
5B
E2
21
4D
84
79
64
AB
E3
A9
02
5B
E3
68
41
2B
A0
DC
F7
E8
75
FE
6C
CC
B7
86
0F
AD
6C
84
84
43
D8
66
54
82
77
2D
0B
FC
5F
3F
97
9C
5C
90
95
EF
82
3A
52
D5
ED
48
3B
F0
EB
3B
EE
D6
EE
63
83
30
8A
EC
CB
63
17
4C
CB
FE
57
BE
72
E7
BE
69
9C
DA
A4
2C
29
EB
26
33
00
A2
C2
EA
DF
1B
FA
C6
E5
4C
1B
73
9A
4E
22
5E
20
00
66
39
F6
68
72
A2
10
18
2B
DA
0F
C3
46
FA
4C
7C
13
8B
A8
A5
0E
0C
FC
DE
DA
0C
A1
85
DD
FD
A4
F2
12
C2
E4
BB
91
02
00
D7
45
90
19
12
D3
6A
C7
8A
64
22
77
8C
D8
6A
2C
02
C3
2B
58
2A
40
3E
E6
AD
DD
4D
18
2E
3E
5C
43
96
C6
EA
1A
66
9A
64
27
C1
55
A6
3D
23
BF
D5
92
A2
D0
EC
13
8D
DD
DC
11
9C
1A
1A
74
BD
AB
58
A2
CF
FF
79
0A
1F
67
66
9F
BC
A8
A6
24
72
22
6C
E9
DA
4D
0F
FB
E4
24
DA
DA
A5
85
C4
06
00
86
EB
00
60
B4
B3
41
0F
21
04
69
7E
0E
2F
86
64
3D
3F
76
FE
E6
5A
5F
EC
9F
25
CC
E7
B3
CD
B5
86
2C
8F
D8
90
29
E0
E3
39
44
E5
A8
EC
85
E7
B7
E5
47
EA
65
00
41
85
2A
73
A1
4E
05
A6
61
0B
FD
1D
BA
F2
11
BA
B9
73
52
08
F1
33
3B
A0
C2
43
66
2D
84
B0
79
C1
44
BE
98
7A
6D
DC
08
4C
5B
BF
EE
30
A9
01
E4
5B
83
B1
DF
95
E6
3C
2A
C0
F7
C7
84
A1
3A
E6
64
A3
75
BD
C8
D1
B8
36
51
68
AB
57
4D
87
59
BA
4B
B3
F9
22
03
24
4A
3B
77
BD
D3
85
F8
11
A9
CB
DF
04
E3
6F
5E
CC
74
F9
D1
3F
B3
11
4D
EF
44
01
FB
CE
3F
F0
01
31
57
24
D0
AE
B9
E7
5A
0F
D4
AA
C5
13
68
17
C5
37
1D
ED
3F
38
BA
8F
0B
ED
59
B3
8D
6B
6D
1A
38
B6
E0
41
AC
44
B7
8B
38
58
39
3D
94
06
4D
57
21
17
28
7D
82
B2
3E
FE
08
72
4C
FA
E3
11
D7
56
75
61
57
92
6C
64
B0
51
6C
B1
76
45
27
00
64
89
00
23
ED
1E
B1
9E
CD
15
13
03
D9
58
D0
09
B9
9F
98
59
78
2E
D9
D0
C5
EC
5B
2C
64
6E
DE
39
F4
02
9D
F2
DA
72
32
E7
1D
58
79
86
92
5F
F6
EA
88
34
0E
3D
66
D7
3A
B4
AB
06
FD
A8
D5
16
33
C9
BF
0A
04
EB
34
D5
D4
14
DA
CE
59
AF
09
72
84
47
F7
AC
DE
96
EE
C7
3B
20
F8
43
85
46
35
D9
53
0A
FD
E5
73
F8
52
B2
9F
34
2A
9B
7C
2B
40
60
75
03
9B
76
81
59
1E
41
26
5C
90
89
79
61
3A
AB
9C
27
66
A3
AF
38
AE
0C
9F
D4
A0
29
31
A3
EA
A5
D0
A2
35
69
B9
AA
18
42
41
36
9C
84
DE
DF
C8
05
FC
D0
B7
3B
5B
4C
62
C8
66
65
4F
20
51
9D
97
A2
A1
58
F4
98
A2
57
74
9A
C4
43
EB
06
12
AD
ED
CA
DC
18
5C
6C
34
E4
85
5E
86
4C
2C
71
A6
64
AB
B2
EE
EC
6B
C3
6C
2F
00
0A
9C
9B
7B
BF
2A
DE
22
F8
BE
8C
AE
3A
4D
FF
8D
58
BC
47
98
E6
70
2D
DD
75
E0
19
24
9F
B7
84
91
D1
1F
30
EA
D7
E3
F5
56
04
C0
8C
AE
92
54
EA
11
C9
EE
75
DD
82
CA
A3
DE
C7
05
96
4D
BD
90
8E
3D
90
FA
AA
F2
10
AD
93
EA
63
C9
5C
13
AE
38
2E
06
EC
E6
AF
01
18
BB
41
95
A5
05
99
E0
E4
E8
1C
11
02
16
27
9E
22
FF
73
A2
8B
1C
77
DE
92
CC
C1
DC
4D
06
78
AE
27
4A
43
52
53
26
5C
A6
1E
95
10
24
42
7D
74
5F
09
DD
D3
A9
46
B8
7D
5F
70
BB
F0
C3
50
59
0A
1A
CF
67
C0
71
44
42
11
85
4A
A8
16
2D
08
E2
16
C1
DE
89
7A
69
FF
9C
F1
6D
F2
EF
45
9F
6C
15
FE
62
B8
DA
F7
CB
26
6F
ED
03
B3
1B
01
49
A9
5F
D7
66
14
7A
5E
2E
8E
D6
4F
FC
67
29
FC
3E
1B
74
39
CA
92
30
40
C8
E4
24
90
0F
A8
B3
F6
30
86
E4
38
32
EA
CB
11
AF
3B
71
0C
F4
D2
05
21
9F
B0
C2
93
12
87
7B
2D
DE
A2
76
BF
A6
95
3E
50
10
4C
64
CB
66
4D
18
60
EB
28
AA
EC
25
1F
68
5A
00
BA
FA
00
83
9E
D3
EE
E7
DC
E3
8B
89
01
2E
76
08
B8
E1
E8
37
D3
AF
02
A5
1F
7A
74
86
18
85
02
61
3D
B0
2E
3C
E7
45
22

