68
C8
12
1A
E5
D6
09
45
4E
6D
E2
59
8C
56
63
D2
90
B2
60
12
79
C3
CE
FF
DE
69
AC
A2
69
1C
B1
9F
EB
FE
6A
D1
91
C9
10
09
3D
2F
B4
53
00
FE
B5
E6
E5
F9
FA
D2
DA
62
D6
24
E6
3A
19
C9
E5
90
23
54
14
A3
66
D6
99
A2
A4
65
24
C0
4D
78
28
DC
CA
48
DE
D7
7B
07
00
47
2C
0E
86
5C
37
5F
CB
A7
C9
2B
D5
77
98
F0
22
3E
93
A0
BD
7E
58
DA
BE
62
6E
89
39
21
EC
FC
46
8A
C3
44
B4
B2
1E
6C
68
C6
E9
3D
4B
06
EE
49
92
D8
3D
B3
F1
2B
70
3D
94
57
A8
EE
D0
45
AD
1A
D5
DF
8E
A9
DC
6B
B6
CB
6F
43
A0
0F
51
37
25
6A
E7
46
8D
82
BB
4C
1F
0D
54
2D
58
25
24
70
9B
90
53
D6
94
DB
BF
ED
12
D7
A8
45
7A
34
92
C2
EA
BD
7C
43
67
55
FB
DD
34
F0
A6
84
6B
50
15
ED
CA
B7
8F
36
C2
48
EB
BA
0C
65
E0
98
AB
02
26
29
D3
D1
79
51
08
50
A7
8F
D4
21
B7
18
B9
EB
B1
18
71
0C
FE
CC
1A
A3
5E
49
50
B7
C9
90
47
7C
71
E5
09
1A
70
E0
74
86
3C
FE
C8
3A
69
2C
63
1B
93
57
5B
34
AF
F7
49
8D
0D
0C
5F
40
82
2F
68
F9
E9
19
40
94
7E
C3
61
FC
00
76
95
E3
E1
B0
20
7C
CD
F0
72
41
19
26
D8
A8
4F
23
C8
3B
17
D1
0B
B8

