09
DF
43
2F
04
D0
DB
F6
A4
89
22
E6
E5
2C
A6
8E
94
D9
09
64
DE
21
C6
CC
4F
FB
7E
EB
5C
A0
09
0D
6F
56
F9
5E
44
B7
EA
A0
15
13
5A
D9
DE
9E
39
B7
A4
E4
1A
1C
EF
55
5F
6A
B8
AB
6E
89
BA
00
FF
FF
B4
26
B9
3C
0A
83
31
0D
89
8D
96
91
AC
B7
87
37
DF
D2
44
E3
D9
F6
21
8B
52
14
55
B3
BE
85
37
D9
E4
B8
53
5C
CA
56
1F
A9
3F
2C
B2
D0
B2
50
72
D4
AE
74
D0
3F
D3
9B
1C
5D
CB
4E
87
BE
B2
8F
45
03
73
2F
FB
25
0B
F9
44
9A
96
B3
D1
36
B2
19
B3
9F
67
D6
5A
9E
5C
66
F9
53
E3
75
5B
43
BD
91
E2
A3
F7
5B
50
1D
66
B5
F7
8B
9F
B2
B5
A9
29
58
C1
3F
AE
7D
69
A1
47
12
9B
93
EF
EF
3D
C4
CF
2B
52
63
D3
44
65
96
5D
FD
2D
86
96
DE
C7
0D
54
3A
39
0F
F5
5D
57
A3
92
2C
C0
77
59
0A
B4
93
75
02
1D
39
D9
87
ED
DB
13
37
01
CD
2E
6B
ED
6A
93
EE
FA
8D
12
63
4A
AC
18
ED
BC
FD
5A
89
19
39
E1
B0
71
E8
A3
37
F8
C6
7B
E3
D7
0E
DC
7B
A6
BA
24
18
B0
87
5E
06
07
C2
DF
43
5C
C6
18
42
E0
C7
CB
EA
A9
92
F0
21
5F
46
26
AA
E0
E8
CB
E3
39
7D
C5
8B
78
AA
73
A1
18
53
8C
AD
03
3E
D3
F8
82
A0
A8
F5
41
0D
66
F6
3F
EF
16
DE
8D
58
A0
C8
09
45
DB
55
E8
D9
EE
FF
47
EE
EE
BE
58
9F
28
37
D2
37
67
86
D4
D8
25
B4
D8
73
79
CE
9A
59
47
AA
A4
C5
46
F8
EB
77
FE
73
4B
B1
BE
92
DC
2A
84
03
A3
6F
6A
00
5E
6C
4D
95
F4
DD
2C
68
C4
3A
21
A4
66
C3
33
E3
F0
DA
FD
4A
16
53
81
BD
F9
DC
A4
76
B0
C1
C4
7A
CB
2B
9C
07
3B
6A
A6
16
8D
DE
8F
56
47
07
72
2F
0D
7E
CD
A5
FF
99
C3
63
CF
8C
A8
25
B4
4A
65
12
5E
6E
A7
79
5A
EF
7B
D2
C2
20
40
06
F4
20
57
1E
E5
34
84
FA
AF
56
0C
A2
9D
B3
0A
3D
D3
0F
5B
29
49
6A
68
64
08
BC
2E
48
1C
B0
5D
98
9C
B1
36
65
9F
06
29
55
CC
C0
AC
F7
8E
5A
7B
B6
FD
F6
0C
FF
1E
C2
F5
AC
79
79
44
15
51
5B
96
9C
EA
F4
49
EB
B0
9B
DA
1F
A1
BA
20
79
7C
FD
9B
DC
78
F8
E2
E3
17
F0
23
F9
EA
1D
B5
7F
0E
DB
19
65
DC
73
64
41
BA
EF
50
BD
20
50
3C
43
0F
4A
AB
CF
62
A9
84
20
62
A8
7C
06
20
02
68
B7
ED
74
8E
B3
9B
7A
A7
C5
B5
8E
AC
75
F1
D1
44
FA
E7
DB
A5
A1
9E
25
A6
D6
75
B8
59
94
48
04
43
D0
8D
C5
BE
4B
D1
01
DA
8E
6F
11
C4
BD
D5
BD
3C
43
8D
BE
12
7C
26
DE
03
1D
AA
75
77
F1
93
40
4E
E7
9D
42
98
F2
5D
B3
A1
E8
53
54
D5
1A
8A
2D
89
2F
5B
17
B8
AC
4E
76
A9
3A
95
4E
6B
5A
01
24
2A
8E
53
01
28
DD
95
99
5C
CA
AC
78
B9
AF
B4
E2
D5
36
5D
5A
34
FC
A5
30
04
8D
A3
22
DE
B1
32
E7
F1
77
27
91
98
B8
6F
8C
CF
A0
1E
07
FA
35
83
6B
FB
32
DF
AD
DA
B0
D1
89
66
08
46
89
AD
E2
71
62
E6
CF
7C
06
37
B9
D7
BA
3D
27
AA
2C
89
70
D5
8E
B4
2A
F0
7E
97
F1
E9
8F
38
C6
A6
D4
7C
60
94
35
38
74
2A
B0
CD
99
0C
59
70
75
03
57
20
F9
0F
BA
AB
89
E1
EF
C9
6E
19
99
4B
39
6C
8C
D4
CC
07
D8
79
B4
E0
3D
26
C7
45
6D
D7
FC
C4
EE
18
D6
F0
6C
8E
2C
BB
95
F5
B8
46
7A
F0
5F
85
C2
20
9D
F7
30
98
28
47
B2
8C
E7
7A
A8
A4
7F
8C
73
8F
68
67
7D
D1
14
7F
E8
2F
50
71
FD
DE
9C
E1
70
63
7D
7A
00
B0
22
87
5E
D8
50
43
AA
E5
52
93
37
B4
C0
70
27
85
4A
E9
CA
14
C4
88
A2
9C
CD
16
E7
C7
69
F3
27
BB
E6
F4
3B
C7
93
7C
25
BA
B3
A4
DA
D4
34
40
A9
70
2F
3B
83
3F
A1
18
46
05
0D
EC
17
FE
CA
83
69
B3
2F
B9
56
AC
70
ED
9B
C3
A6
37
FC
AC
56
1D
8B
EB
A4
93
97
4F
8B
75
BB
98
BB
6B
A9
5D
0B
CE
A0
3D
A1
08
E8
FA
B4
19
68
99
C3
89
D9
86
E1
89
6F
E1
24
62
F3
9A
A5
24
35
DC
F5
7E
77
CF
27
49
23
EF
DA
3A
6E
D1
5A
7E
92
FD
FB
3B
C4
A5
6F
F1
A3
30
69
A0
DB
3D
53
BC
7A
4C
AA
33
58
00
9C
CC
58
34
40
E4
AB
88
16
8D
5E
BC
C7
94
F2
9B
CF
C8
5B
A9
93
3D
D8
07
31
00
15
F2
6D
A3
74
01
00
66
B7
B4
B7
AA
D6
74
B0
62
5D
E9
B7
FE
1C
55
38
98
79
73
8E
4D
A3
6B
BA
37
61
22
6E
27
19
5D
F2
84
E3
1A
AE
FA
72
F8
9E
C5
B0
82
0D
75
92
41
C9
E8
02
71
0E
24
0A
24
A6
EC
6A
8E
39
27
98
4D
A0
72
EC
5E
BD
12
4B
64
64
8A
67
2E
46
18
A1
E4
52
4D
7A
15
46
66
5F
D7
CB
F0
7E
C8
04
46
17
7E
CF
65
8A
D4
D4
97
2C
67
D4
EF
97
78
D8
CA
7A
4D
53
FA
5B
1C
B3
8C
17
25
86
C9
D2
A2
1B
A6
E9
88
5E
BD
8C
18
C9
5E
EF
A4
B9
E3
58
7D
1D
12
B8
51
0E
74
70
BB
82
2A
5D
FD
9A
E9
CE
C8
EE
CB
56
EC
34
14
DD
7F
16
3C
F7
68
42
F3
30
6B
8F
9F
5C
52
00
CC
2F
4F
D5
A9
DC
25
CA
18
6F
C0
9F
DB
03
5D
6C
E5
00
7B
2D
5E
82
59
5F
60
D8
24
F9
04
79
14
76
3E
5F
A8
A6
05
90
A1
E9
57
12
4A
4A
7E
08
78
84
D9
14
7C
82
BF
2E
F6
37
5C
19
96
3D
FA
3C
54
0A
B2
BE
C8
06
AB
92
85
53
05
50
67
0F
56
22
64
57
31
BC
0E
DF
8D
0C
38
36
00
FF
CB
26
97
C1
95
C6
FC
2E
DA
6D
AD
4D
D9
DA
9B
8F
37
BA
9A
09
DB
93
86
13
D2
B8
31
82
27
C1
1C
A3
AC
3F
E9
B4
4B
00
9E
3F
BB
41
37
1C
40
4A
04
3C
AC
D3
59
CB
4F
BF
3D
52
47
68
D2
15
E2
15
93
40
CA
B0
93
6C
14
93
70
4B
7E
BB
61
E2
66
91
B3
72
BE
00
7E
99
9C
9B
63
02
04
0F
39
0C
34
39
A0
8E
6D
06
A8
A6
CE
88
4E
6C
DB
C1
E8
B6
35
78
DF
1B
87
F7
10
FC
2D
F6
EC
F4
57
3D
04
6A
39
C7
C6
E1
9C
D5
19
63
BE
15
9B
A0
A7
4F
97
23
C7
18
8C
BE
F9
37
B3
4C
70
00
8B
18
77
00
5C
6F
EB
20
48
A7
2A
61
37
B4
11
70
30
89
3B
69
A8
54
E1
BE
FB
28
AE
D3
0B
7F
5B
E9
0C
DB
B2
07
6A
4F
E0
1D
6B
2C
B0
F1
89
91
6F
B4
A9
FA
92
73
B5
C6
53
79
BA
3E
F0
E6
3E
C5
DC
AF
EE
39
71
A4
70
0E
23
37
A6
2A
32
6C
95
39
B0
B6
C3
FF
25
C1
8D
D0
94
40
9B
96
3B
FB
E9
1F
D7
98
14
97
62
59
5B
BD
D1
23
ED
A0
07
64
DC
EC
0D
36
ED
47
02
BE
89
E4
01
69
8A
D8
3A
B8
4E
78
66
20
DE
0B
DA
77
1D
1A
90
73
77
92
5E
1C
98
79
77
2F
09
C8
DE
27
D3
2D
4F
64
F4
AB
E4
61
6D
60
5E
3C
F1
16
8C
5B
CC
0B
6C
37
32
69
DF
EB
EB
AB
3F
B1
2F
9E
61
BF
E3
72
5B
DA
86
5D
E4
4C
FC
05
2D
93
ED
35
C8
58
9D
99
9A
3B
3F
90
D1
A7
9E
95
F8
27
17
38
E9
0D
42
0F
2D
65
FC
17
1E
D6
D1
37
21
FE
4F
5B
55
3D
A2
74
6B
21
76
79
79
A4
13
63
AD
29
D1
D8
16
B7
6B
3B
AB
34
10
0B
B7
37
9E
8F
74
F4
EC
93
AD
D0
73
7E
98
1A
68
64
CD
63
9E
DA
AC
E6
6F
B5
4A
7B
96
48
C0
45
9F
F9
8E
14
0E
AB
99
9A
BD
69
3F
F0
29
B4
ED
94
62
4B
78
1C
AE
2E
4E
EE
63
C2
FB
3A
28
9E
0C
2D
AD
43
AF
6B
78
DE
96
8C
A3
BB
70
0C
54
F7
AE
2C
E0
0A
63
CA
56
1E
3D
B0
CD
41
7A
00
10
F3
92
AC
F7
FF
47
87
2C
C5
19
6A
5B
A6
A2
2B
5D
C6
EF
74
94
F7
66
02
BC
2F
1E
62
52
D5
77
61
CD
6A
27
9B
C7
39
8F
1C
46
1B
9C
78
31
D1
75
3D
D9
2B
E9
F0
D1
B8
7A
E6
4D
07
B9
89
DA
CF
14
7E
F5
39
7F
AD
40
97
E3
60
7D
04
42
F2
95
EF
DD
B1
04
6A
06
03
87
78
88
C9
6B
96
0B
49
AF
FA
46
3D
88
1D
91
DE
0D
14
4D
2C
B0
85
02
6B
88
F7
42
C3
4C
A9
50
BD
01
0A
93
41
76
11
F1
DD
25
EE
BC
74
A4
49
ED
B8
35
42
BF
9B
A5
D3
EA
F9
3D
F0
CC
D0
14
F8
5B
58
1B
3E
BF
18
AE
F3
A6
EF
C9
63
A2
59
F7
1C
71
2F
D6
E4
69
B4
48
AE
36
40
E5
4B
74
5E
C9
AE
90
4D
AC
74
37
3B
DB
21
63
41
57
F1
84
2F
AE
4C
81
D1
76
6B
C1
07
03
49
12
88
02
28
2E
DD
7D
AA
EC
2C
F7
9E
50
C0
5A
9B
31
08
F7
6F
40
78
A4
DB
61
4A
48
C2
42
FA
2C
F9

