ED
E2
FE
E5
32
B8
0D
0E
FE
15
27
A0
4F
1A
F6
C4
F1
03
07
1A
F1
23
F9
08
38
08
FE
0E
2C
27
15
D1
D7
2F
F1
EC
23
03
ED
42
E6
37
26
DE
09
08
1E
CE
1D
D6
EF
06
DF
10
25
46
1F
36
42
E3
4A
2C
04
FD
F8
16
FB
EC
25
D8
1B
07
F1
DB
EA
E9
0E
1B
0A
CE
1B
14
DB
EB
FC
E8
22
22
2A
FC
23
17
DD
0E
FF
0E
F8
0A
E0
26
1B
0B
19
EB
F4
07
07
34
EC
1D
14
14
E3
FA
3B
37
DE
E2
30
E1
0A
E0
BA
BC
0F
DA
DD
4A

