08
14
2C
ED
17
DA
1C
E1
E5
D8
EF
25
17
2D
17
0B
F5
2B
D3
FC
19
DF
08
FE
D5
18
F8
F9
DE
FC
2D
ED
EE
CB
E4
19
4B
24
1C
35
EA
1C
0D
11
FC
F0
21
D5
00
F8
19
46
F3
24
F1
3A
0E
F6
26
FB
1C
EA
36
0C
F7
2D
0D
17
1F
DA
EB
15
F2
F0
FC
E2
00
05
E2
E4
20
F5
10
F0
EC
1B
21
E3
0D
ED
ED
09
06
21
FB
25
0C
DB
1E
E2
E1
05
1A
34
13
20
16
FF
0F
04
DF
FC
1A
02
AE
2B
19
F7
16
CA
30
E0
ED
B6
F9
F2
0C
1D

