70
0B
13
0E
73
7C
12
78
7F
76
06
73
15
77
72
04
7E
11
10
7B
11
08
02
0D
7B
0D
7F
74
05
7C
02
7A
6E
08
0E
01
18
05
7E
68
7B
73
1E
10
03
7F
13
0E
16
11
17
06
7B
0A
78
12
7E
0B
0B
65
62
04
24
25
18
04
0C
3B
1A
1E
18
33
30
22
70
07
00
77
0A
2A
01
6D
04
72
6E
6E
0B
79
75
0D
1A
0B
16
66
73
17
0D
6B
06
04
1F
06
11
13
20
00
16
1F
11
0B
7D
71
71
71
1B
0B
30
13
12
03
20
08
0F
70
00
0C
06
73
13
66
6D
69
6F
09
09
0E
7C
7B
64
6C
0D
0D
07
2A
33
0A
0D
30
76
74
74
69
16
11
04
11
24
74
6F
6A
50
6F
0D
07
24
07
0E
6E
72
7A
02
1F
24
26
32
0B
6E
13
14
7C
16
19
7D
7D
70
6A
5F
77
5E
65
72
75
7A
0A
06
77
73
21
0C
76
23
10
0A
07
00
0C
1A
14
09
12
0E
74
04
69
67
6B
7D
6C
01
6D
68
6A
24
11
7F
14
73
6D
0D
17
08
26
65
79
79
0B
1A
1A
7C
1C
72
7B
6E
6D
6E
60
71
0A
62
6E
11
7D
7A
1A
08
0E
70
73
6A
05
77
05
7C
69
09
0F
22
7E
06
0B
62
7E
73
74
7D
0E
7C
7A
26
11
13
18
62
11
62
48
5B
6C
77
73
08
6C
79
13
0B
05
71
78
00
04
13
04
0D
72
11
06
7F
2D
00
7E
5A
77
6C
49
50
77
14
7C
68
6B
68
03
10
09
6E
59
7D
76
73
75
00
6A
6B
6F
78
1A
7E
0C
5C
64
50
66
63
6E
77
76
71
73
78
04
20
14
6D
6D
08
7F
02
7D
0D
79
08
0D
04
3C
05
6B
0D
74
4E
4C
77
57
6C
64
54
72
76
01
24
0A
74
7F
0B
79
12
1D
6D
6A
15
14
0E
07
0C
05
04
62
54
69
70
71
15
72
68
02
10
1B
20
09
76
7B
61
1A
17
23
02
79
63
09
5E
7A
74
7B
7A
1B
70
0B
0C
06
68
6E
64
03
27
2C
3D
06
7F
03
7A
14
71
04
28
7D
06
6A
7B
6D
00
08
07
1A
0F
0A
15
04
75
7E
7D
02
17
3C
27
18
7B
64
12
02
6F
05
1A
7F
27
0F
5D
62
10
0D
0A
09
21
0A
22
7C
03
57
5D
18
16
34
15
05
0A
71
12
18
0C
12
12
1B
30
25
06
6D
7A
18
07
29
7F
7D
6D
6F
76
7D
0A
02
2C
35
7C
00
14
7E
09
09
79
0A
06
0B
09
1B
1B
01
72
55
7A
08
03
71
75
05
7C
14
05
05
13
02
08
7E
02
0E
7A
7C
7D
05
05
08
7D
0C
05
6F
7E
6C
60
12
7A
66
7B
11
75
11
11
14
0B
12
02
7F
6C
02
76
78
18
18
74
60
73
06
73
75
7F
7B
16
08
6F
6E
77
09
02
6D
7F
76
7F
71
79
76
0E
70
68
0B
76
06
7F
67
59
13
1A
01
12
08
7D
6E
7B
7F
70
7D
0B
18
09
00
07
74
7C
06
05
72
04
12
03
67
72
5B
59
0C
20
7E
12
6F
10
65
16
6C
14
09
65
7F
07
04
77
18
04
76
7F
74
78
7F
7C
51
62
5C
6C
6E
0A
74
74
01
04
03
03
04
20
6E
61
67
03
19
13
7D
0B
71
05
7F
6B
55
5D
53
59
57
64
0F
13
7A
74
76
7F
7B
22
7F
02
7F
74
70
01
04
04
0E
0E
77
68
79
58
64
74
4D
5B
02
6D
01
06
70
73
77
03
76
66
60
7C
00
1E
7C
0A
05
56
0E
63
7F
76
73
67
0D
62
61
6A
6D
07
17
0E
72
78
79
7A
0D
1C
13
64
6B
0A
7A
01
5C
63
66
65
6B
09
5F
61
07
7A
77
75
0B
06
02
03
73

