FB
03
EE
0A
10
06
05
F0
F4
0B
0E
10
12
12
0F
09
0D
FA
0B
F4
FD
FD
06
FB
F8
F8
0B
FD
0D
05
00
F7
F4
F9
F7
0E
08
06
FB
07
09
FD
E8
E4
E4
FB
11
0E
0F
0A
07
0C
F7
0D
F1
FA
EE
01
F7
01
09
04
10
FB
27
0C
04
23
22
F5
18
06
D9
FA
F6
D2
ED
F4
F4
1E
1B
16
EF
08
EF
F6
F6
FA
E7
FE
FD
FC
0E
23
1A
07
17
EC
D1
D7
D4
E2
F3
00
F3
1B
13
09
EF
08
1A
FB
F7
00
00
E9
DA
EF
08
F0
0E
0D
FA
FE
06
DB
DD
EC
F1
14
E7
F4
0B
0B
0D
FD
06
12
10
1E
06
12
05
F2
DC
FC
E6
EA
04
FF
F0
FA
00
E1
10
05
13
FD
07
FD
F6
0B
0F
EB
07
1A
21
1E
F9
04
0A
F1
EC
13
DF
F1
1D
0E
06
FC
17
04
F1
FF
01
FF
01
14
05
15
EC
12
03
0D
05
F3
0F
16
1A
0D
F6
EA
FB
07
17
06
19
FE
0D
01
EC
F8
16
19
11
11
10
1E
21
0A
01
F4
3C
22
0D
22
FF
21
F9
F6
11
20
16
05
F7
16
0A
0B
12
16
23
16
2A
1F
17
21
16
2F
FA
E9
22
0B
F2
08
26
1A
18
0B
26
2C
19
1E
FE
1A
08
0C
12
17
26
18
0B
15
11
FE
07
1A
09
06
1A
04
FF
03
18
14
22
24
14
F6
0B
02
31
08
0B
2C
10
F8
07
EB
06
08
F6
FF
06
FC
21
21
23
F8
0F
07
06
1E
4A
31
17
11
FF
0C
18
0A
09
09
E8
EC
D9
E6
E1
03
0C
F2
DD
F4
06
12
2C
F2
F9
FC
0A
18
0E
21
15
1E
09
03
F3
FD
E5
DC
CA
C0
C5
D6
F6
E4
DB
EE
E1
D0
05
16
21
15
F7
09
01
0A
E0
0B
0B
F4
FC
FC
E3
F3
F6
D7
F1
DA
CE
E5
DB
F0
E4
CC
E6
DF
E5
08
0A
16
18
FA
14
D7
F5
DE
EB
DC
E6
DF
EA
E7
D6
E5
12
F4
E0
DF
BF
CE
E1
ED
E0
F6
E8
03
22
1D
17
EF
F9
D6
D0
E7
DA
DA
C8
E5
E7
E7
ED
09
F7
FB
F3
F8
E1
D9
DA
D9
F7
14
10
F4
EB
F0
F4
F6
FA
F2
BD
D5
BC
E3
DF
E8
FB
F6
10
0E
12
F1
1A
0C
DA
DB
DA
07
0C
04
11
F4
F9
0A
FB
FE
02
E6
CF
EE
CA
DB
E7
F6
EF
0F
1C
15
21
FC
FA
FB
ED
F1
F7
FD
24
FA
0F
FB
F8
19
F9
F8
FB
0B
00
F4
F6
07
E3
04
06
1B
21
16
FE
19
FD
FE
FC
08
F1
0C
05
F6
24
F2
0A
2F
F2
FF
0D
11
01
FF
0C
FD
0A
F3
E8
18
12
12
12
FB
ED
07
FE
FC
1A
05
0C
08
05
FF
28
18
F3
0F
20
0F
1B
0B
2B
18
1C
F4
07
01
05
0D
16
09
0F
F9
12
0E
FD
1D
0D
F7
04
12
08
07
F6
09
0B
1A
28
30
23
0B
02
0A
0C
25
06
13
FF
11
19
2F
26
28
12
23
1C
15
14
09
22
11
05
EF
1B
17
29
41
2B
07
FB
0E
F4
0F
16
0D
11
23
0D
18
13
17
06
08
F9
11
02
17
FD
11
FB
F6
01
F6
33
1E
2D
0F
F8
FC
F3
0A
FF
0C
0E
02
07
14
1E
21
0D
EC
06
31
11
0E
1B
0F
04
0D
F9
EE
EE
0A
11
F1
F6
04
00
17
0E
06
0C
17
28
34
45
2F
11
12
F0
FD
1F
04
0B
0A
EE
F9
D5
17
06
F0
06
19
1D
FC
F4
FD
19
16
20
20
02
1E
09
26
00
1D
0A
E8
FB
07
F8
F1
12
10
06
EF
EE
E0
F3
FA
08
05
0C
15
0B
13
09
FC
F8
01
F6
21
FF
FC
FB
0C
EA
16
12
00
F1
F3
0C
F3
23
30
31
1D
1F
11
E8
F1
FD
17
02
FB
F4
2F
F3
12
F1
13
02
17
FA
EF
FD
F9

