F3
10
FF
F8
FA
0F
FE
01
02
0E
FC
F2
04
FB
03
12
F9
09
F6
F4
F7
F0
08
04
F0
F9
EF
0C
FD
03
07
05
06
EC
F7
EE
F5
F7
EB
FD
EB
E3
D3
E9
0F
0C
EC
D8
D8
EC
F2
E2
06
0E
F8
07
FC
F3
0D
27
05
EB
E7
FB
07
05
ED
F2
0B
D4
07
F1
F4
07
0B
EB
F5
FB
E3
F6
09
FF
EE
0C
F5
F6
FD
1E
0D
E8
E5
F2
F4
0E
EF
FC
F2
F8
E8
01
F1
F4
E8
E0
FA
26
FC
0E
F8
1C
FB
10
09
F9
06
E9
E9
DD
FB
FF
D9
F7
EF
E5
F2
DF
D8
FD
E8
07
EC
E5
FA
EF
03
F6
2A
22
20
0A
0A
F7
F1
F8
F1
F2
F4
F5
23
07
F6
10
F3
15
08
EE
00
F9
FA
E6
E0
FD
03
DC
ED
0B
12
19
0C
EE
1C
08
02
14
F1
16
F8
06
17
0F
13
18
15
03
FD
1E
09
15
05
10
F6
EA
F3
01
FD
F7
F6
F4
17
0B
E4
F5
13
E2
F8
08
1F
14
0E
03
08
18
0D
1D
30
21
11
17
FA
F9
02
0D
F0
EA
05
07
00
FC
DB
E9
1B
E6
12
0E
01
21
0E
17
1B
20
2B
23
18
0B
27
19
14
0A
03
EE
F3
FB
F2
17
00
02
FF
F5
1F
09
09
F9
08
15
1A
11
06
0B
FF
19
24
09
0A
F0
EF
01
1F
1D
F6
27
0B
EF
0B
06
03
0F
2E
F4
EE
00
F2
0D
F7
0F
0B
F2
FD
EC
FF
E7
E6
F9
F2
07
0C
0F
05
03
FE
0E
0C
F2
09
0D
18
17
0E
F6
F4
EC
F3
03
F3
E8
FE
F3
E6
FF
EC
E9
0A
11
19
FE
12
02
F0
09
10
F5
13
05
02
FC
16
15
F8
EA
E0
FD
F5
E6
F0
05
F4
03
07
01
0D
F3
EA
F6
24
0B
F9
F9
F2
FF
0A
0D
F0
FC
E9
F0
FF
00
0D
01
EA
06
F4
F0
01
FE
02
0E
0F
08
DE
09
FE
07
10
0A
FD
17
1E
F0
E5
06
F5
F7
08
EF
03
06
FD
0C
ED
F1
02
03
0E
07
03
08
07
FA
17
18
0E
0D
E1
EA
15
FC
FA
F9
E7
06
F3
F9
FE
EF
FF
01
0B
0B
0B
F0
15
11
EB
FD
0A
06
04
13
02
DF
E6
02
1B
05
11
09
0D
F7
FB
15
FE
04
ED
09
FA
15
F7
FF
13
F4
F9
FF
F6
12
18
14
F8
00
F9
07
EC
13
23
12
13
06
04
1A
07
F4
06
24
06
11
F4
F0
F5
FA
E5
F0
FE
FB
10
0A
0B
F3
F7
ED
1B
F9
1D
10
19
07
05
15
09
F1
F7
08
1C
0A
EE
0E
F5
04
09
0C
06
EE
13
FD
F4
FD
0A
EF
1A
18
14
F2
0E
02
18
11
04
0E
07
F8
EB
F2
FE
11
10
F8
05
FC
ED
0C
08
17
FE
0C
FF
E1
F4
02
F3
EA
11
0B
00
0E
FE
F8
ED
FA
EF
E2
F1
01
E3
EB
FC
05
0B
FA
0A
F2
EE
11
D6
E9
F7
0A
02
02
F5
02
06
FE
F1
00
F7
E9
F8
04
E6
EF
D4
DE
EE
03
0B
0E
11
F5
00
03
0D
0C
EA
FA
0B
EC
F3
0A
12
F4
FD
F6
F3
E7
F3
02
FA
E7
DC
DB
0D
15
0E
07
EE
F4
F9
01
F8
0C
01
F7
F1
EB
FF
E5
FD
02
06
E8
F9
E5
F3
F3
F6
FE
ED
04
10
2E
1B
F2
E5
F0
F9
F6
F7
03
F3
18
FF
03
F4
E0
FA
F1
0C
0C
F5
1C
F3
E5
EC
01
1E
04
20
1D
2C
F2
FD
00
11
0B
15
12
19
0C
0F
14
E6
E3
15
05
F8
F1
0C
09
FA
02
0B
18
12
28
2A
24
27
1B
08
F8
07
10
FF
03
16
46
36
2C
26
12
1C
12
1D
21
2B
0D
2E
0B
11
40
27
1A
1D
1D
07
0F
FC
05
FE
FC
0A
06
08
EB
09
0D
F9
17
28
28
18
12
22
0F
F1
0C
0A
05
01
18
0D
FA
0A
F8
F7
04

