F6
F4
F6
F5
02
F6
11
F0
F9
F2
F8
FD
F4
02
05
02
FC
F2
FB
03
F0
06
04
0A
EF
F4
06
F1
F4
05
0D
F2
FF
EE
12
10
F0
F8
EB
DD
02
0B
1F
0C
ED
EE
15
13
1A
01
F5
06
00
EF
0F
02
01
F3
F5
12
02
07
E2
F8
EB
EA
E7
0D
14
04
02
00
03
0A
13
11
14
09
06
1A
F7
08
F4
0D
0D
F8
FE
0A
03
17
0A
14
F3
D9
DA
DB
F6
FC
FC
F7
0B
1B
0D
1C
0C
0D
17
09
F4
01
E6
08
FA
F2
0D
0A
1E
FE
EB
01
F3
F2
EF
DF
F3
F5
01
FA
01
12
0C
02
F1
07
F7
0E
18
0D
29
E0
F4
12
09
15
FD
FA
FD
10
EF
F4
05
E6
ED
0A
0F
EC
0B
13
01
1C
23
13
06
00
08
F6
0F
E7
06
0E
1A
0B
FC
F7
05
DC
E9
E9
09
FA
06
12
F6
19
FB
0A
FB
07
2E
02
F1
0B
17
21
F3
FC
FA
08
F9
FA
EC
F9
F3
E0
E5
FC
FB
FD
F4
03
07
1A
00
FC
F2
0B
F7
EC
F3
18
08
1A
3D
03
0E
08
0D
13
0A
FC
FE
FF
F1
FE
E6
EF
FF
F2
FC
F1
0A
11
06
02
F8
EC
FD
02
28
39
1D
07
EE
10
0F
10
10
F6
F8
0A
E5
EB
DD
E7
DB
F5
08
0A
0E
13
15
1F
03
10
0F
1F
23
43
1F
FC
EE
0E
21
41
13
FD
FF
EA
F4
D9
F4
D0
F8
F4
0A
F3
05
14
08
1C
27
10
27
37
31
31
FD
E8
05
F8
F3
2D
3E
12
FE
D1
D3
E1
E7
DA
FE
1A
0C
18
12
00
F8
FD
FC
02
FD
EB
1C
14
2D
07
06
17
EC
2E
10
05
EF
FD
E5
EF
E3
EE
02
1E
2B
02
07
11
05
DE
D1
CB
EC
D0
F3
DA
FD
EF
02
0A
0F
40
F9
F5
EB
03
09
16
E8
FF
18
0F
1C
06
0D
F4
EE
E6
BF
B2
AD
C3
D3
F6
10
EE
05
FA
2C
50
27
23
F4
F0
21
F4
FA
E5
FE
22
0B
0F
05
EE
DC
D4
DC
AC
96
BE
D9
02
F7
E7
FA
12
2D
1C
35
2D
08
0D
07
14
EC
0C
09
29
2A
0F
F8
E1
EA
E1
E8
DB
B3
DA
DA
EC
FF
FE
F7
0B
05
09
3F
09
03
0F
F3
01
DF
09
F9
28
17
15
EB
01
1E
16
F0
D2
DB
C2
D6
D6
EC
F4
09
01
0C
1C
1F
F8
F7
03
FC
FE
DE
03
01
02
FC
FE
07
16
2E
28
02
FC
E0
D0
F0
F1
F5
D9
E4
18
0B
04
0D
F6
F2
14
01
F4
F2
12
FE
14
FB
F8
1E
25
11
1F
0B
E3
B9
C1
C9
E9
FD
04
F7
E8
04
00
E7
09
03
F5
F9
E7
EC
EC
F0
14
F2
14
0C
28
18
17
05
C5
C1
CB
D5
08
FF
0F
F8
F3
F3
FD
FB
F7
07
F7
F9
EC
F1
FC
06
F8
0E
1A
0E
20
21
15
F9
F5
BB
CB
D7
F1
0E
07
F6
F9
04
06
02
F5
F4
F9
E7
F9
00
02
10
03
06
F5
11
0B
18
09
FB
DD
C4
D2
F3
D9
F6
FA
F6
12
05
21
25
EF
F4
0A
09
00
F4
18
17
1D
1A
1C
17
1B
08
F8
E3
E5
D7
DB
00
F1
0E
0C
0F
12
1E
19
25
17
05
F5
FB
FB
08
1E
FA
09
11
14
FF
EC
F9
F7
E7
CE
DA
DF
FA
FF
0D
0F
02
0E
0E
1F
07
12
F6
19
22
25
0E
0D
28
11
0A
14
F5
F7
CC
D0
D8
DA
F0
DB
F3
05
F9
F4
FE
FA
0E
0A
E3
F4
00
09
06
22
19
0B
0E
0A
DD
EA
E1
D2
C5
07
D5
ED
FE
EA
FC
F7
02
EE
12
00
F2
EF
F6
EA
E1
E2
E5
E9
09
EF
DE
E1
B3
DE
F0
F1
06
0B
EE
FC
00
0A
03
06
FC
F5
F1
07
F2
11
12
04
07
FB
13
ED
EC
D6
F6
ED
04
FD
03
F5
DF
00
F2
FD
F8
ED
0E
0D
FE
F4

