0C
FD
05
0B
0E
F9
EF
0D
05
09
0C
F5
F6
F8
FB
EE
EE
FB
FE
0F
FA
FD
06
F4
FA
F2
F2
EF
F8
F4
0F
FD
F9
F5
01
09
F9
18
08
01
0D
F5
0D
0B
14
06
FA
FE
F1
F0
F9
0D
F6
EF
F6
0B
F3
F7
00
F1
F4
F7
FE
02
02
F9
0E
09
2A
10
FA
FB
FC
EC
E6
FB
01
F4
F9
0B
0B
FA
F9
12
F8
FA
07
08
06
00
FA
F0
F5
FB
FD
E3
FC
E2
F2
F7
03
EE
DE
EF
E8
EE
F5
0F
F7
0F
11
11
F4
0E
FF
FB
EF
03
F2
F8
0D
E8
E8
EF
13
0C
00
0C
FD
E7
DE
CF
D9
E5
D9
FA
07
F6
04
04
FD
F0
11
F9
0A
F4
07
F2
04
E6
03
EE
EC
09
0E
25
11
DE
F9
D1
C1
EB
C9
F1
F6
E1
F9
05
09
02
E8
01
DD
EB
FF
FC
18
09
F7
F9
1A
07
1C
F7
0C
04
F4
CB
CB
DB
F0
EA
F0
E8
D8
F7
0B
0A
F9
FC
04
FC
02
18
12
0F
05
0C
0C
27
08
19
09
FA
E2
E4
E3
C8
CA
EB
D9
E2
F3
E3
02
15
EE
FB
0D
FF
0B
00
10
FD
07
15
0D
0F
10
1A
11
FB
E2
E1
EF
DF
BA
F0
D9
E3
E2
EE
0E
08
1D
D1
FB
23
F6
FE
FE
01
07
17
FF
24
18
20
12
EF
E3
E7
DE
DE
ED
E5
C2
12
14
1F
08
F9
1D
C8
E6
03
0C
0C
FA
F7
08
FD
0C
18
2B
34
26
0C
CA
C8
CE
E9
DF
E5
FD
15
22
2E
FC
F7
19
E8
00
20
13
1A
EC
EC
11
0C
ED
FA
17
14
14
0C
F0
C0
DB
0A
08
F5
E0
F9
FF
0C
FF
0F
21
ED
19
FB
0E
01
00
DC
FC
03
F9
02
1A
10
1F
09
DC
C6
F1
08
06
FA
01
0C
1E
29
07
0D
21
16
1B
FC
F5
D1
D6
F2
E9
ED
F3
04
13
08
2A
05
FB
E7
F7
13
14
24
FE
14
27
FE
F1
04
12
2E
08
05
C5
BB
D7
EE
1F
FC
FF
02
01
02
0F
FA
06
F5
04
23
0C
25
F7
18
20
00
F4
02
1E
12
21
00
C5
DA
D8
FB
05
04
FD
0E
10
F3
19
F6
D0
FB
EF
F5
DC
01
F4
1D
1A
0B
F7
04
0D
2D
32
0F
CB
E2
E7
09
0E
08
F8
1C
19
01
F6
D9
C9
D6
F5
E2
CE
0E
E3
16
33
27
12
F6
FE
F0
03
FF
D9
BE
BE
EF
F1
E8
0B
0F
18
F4
E6
CF
DA
E0
F7
D0
CE
CF
FE
49
48
18
06
0D
0E
FA
02
FD
E7
C3
B5
CD
D5
E0
F7
0A
1A
F4
D1
ED
FC
E2
F3
F1
0C
0F
06
47
30
11
0A
21
05
FC
F5
0C
D9
E3
C3
C9
D3
00
1C
37
1E
F8
F9
F8
F4
0E
18
EF
0B
03
FE
35
33
0A
0A
FD
F5
F4
F3
DA
EA
BF
BF
BC
D9
0E
34
2A
27
04
0F
FF
FD
F1
06
0B
FD
F2
14
3F
0F
F9
0F
FD
01
07
04
CD
D4
E1
DF
EF
EE
12
32
20
11
15
F7
00
F5
04
0B
F3
09
09
0D
13
28
F9
10
F6
F6
1A
FB
FA
EC
EE
E5
07
0D
F4
FF
08
1E
11
06
EB
08
21
31
24
09
0E
0E
0D
19
0C
12
08
FB
0E
12
F1
CF
D1
C8
F2
09
0F
19
0C
19
F9
10
08
07
14
0F
0D
14
19
0C
1E
0A
08
FA
F9
FD
0A
F1
EA
CF
D7
DB
E6
F2
F7
16
F0
0E
15
FD
24
0A
1C
28
23
0E
14
27
0A
26
07
FB
0B
05
0F
14
0D
E7
D6
F2
BE
B8
E1
E8
E3
0A
07
01
18
F7
D4
E8
02
FC
08
E7
06
00
01
0C
02
F2
EE
F5
1A
FD
08
E7
02
F4
0E
27
1D
43
1D
E2
EA
FA
F0
F9
F7
D4
DA
F6
F4
F1
02
F5
F7
FD
06
04
F5
F6
08
17
03
1B
21
15
35
02
ED
F4
24
33
30
1F
0C
0F
F3
12
0C
02
F3

