00
F5
03
FB
09
04
FE
02
F0
02
05
F6
F5
17
08
03
11
0B
0A
F0
01
05
F1
FD
0B
F9
13
F0
F6
F2
0D
F1
0C
14
23
0A
18
F6
08
0A
FE
17
06
2C
15
FC
1D
01
05
11
1B
FB
F0
07
13
01
EE
F4
F3
1A
0C
02
16
10
12
04
F9
18
13
FA
02
14
08
08
0D
1A
F5
0A
08
2C
FE
FF
EE
0B
F0
F3
12
1B
1E
0D
09
12
00
F9
FD
EB
05
FF
FA
F3
11
10
2C
03
1C
04
0A
1E
01
FA
0B
0B
F0
0B
02
0B
FF
FE
00
04
F3
EA
08
15
07
12
F2
0F
03
02
0F
0A
FF
0D
F6
E5
E1
E4
0A
F6
EF
F4
F7
F9
14
06
FE
F0
0B
F2
E5
F9
FE
F2
ED
0C
04
0E
F6
0A
06
EB
DD
CD
DF
DF
F4
E6
06
FD
1E
08
1F
FD
19
FF
F4
F7
EF
F9
06
0B
F3
F3
0C
F9
FB
02
FE
10
EA
FD
01
F3
09
04
F0
30
14
2B
07
08
07
1D
0B
0E
FC
04
0E
E8
FF
0F
10
14
18
05
F7
F3
F7
07
FB
00
0F
F8
09
0C
F1
04
04
09
F6
13
0B
FF
0C
EB
07
FB
FE
02
0F
04
09
04
03
1A
11
12
12
0B
01
0E
0F
23
0C
08
18
FB
F9
0F
11
F0
EA
F1
EE
01
03
F5
10
12
FE
09
0A
11
25
12
18
11
07
0D
FC
1D
F5
0C
10
F7
00
E9
EC
EA
FE
FE
09
1B
02
09
F9
FD
FB
10
08
0B
0B
06
FB
23
35
24
14
0F
2D
2B
22
EF
FD
0B
0C
F7
01
01
08
0B
03
FE
FF
01
21
0E
04
17
0F
15
00
0D
2A
25
F3
FA
1D
19
07
F6
E8
EF
FE
F7
0A
12
06
02
24
13
FD
0C
0B
FB
16
0D
0E
E3
D6
F3
0C
23
F9
18
29
24
01
01
FA
04
0D
0B
0D
0A
0E
10
27
FE
05
08
F9
F4
0C
F9
F9
E5
ED
F8
F7
EB
F9
0F
0D
1E
F4
FC
15
0C
00
0C
FB
17
03
12
01
04
F6
FC
0B
F9
FC
14
0C
11
FE
DB
FD
E3
FD
F5
0A
FA
EE
0C
06
09
F7
04
FA
03
09
FB
FF
04
10
0B
0F
0C
0E
0C
16
13
12
EB
E5
FF
02
0B
0B
ED
01
1F
0A
F9
F6
EF
ED
EF
E7
01
EF
FB
0A
F8
08
06
18
F6
F4
E5
0E
D1
E0
00
09
F7
FF
FC
F5
05
01
09
F5
FE
F0
E7
E6
0B
14
0A
FF
14
0C
FF
0E
F8
05
03
EF
EE
F0
04
08
FB
FB
E9
EA
10
EE
03
ED
FA
02
F7
FB
1A
00
02
FF
FD
05
EB
F5
04
05
D3
E2
1A
21
F9
00
FD
F2
00
E7
07
0A
FC
F5
FA
E4
FA
FF
0E
1C
0F
F5
FC
06
E9
ED
E7
E0
E7
EF
17
FE
09
FF
01
F7
FF
02
E3
10
04
F2
03
EE
E6
09
16
1B
0E
05
F7
0A
EA
ED
DA
ED
DD
08
19
0C
F0
FE
FA
0D
0D
E2
E7
0C
15
0C
09
FD
0B
02
06
0C
F5
FB
06
FE
FD
E5
E9
DF
E2
F8
08
F1
07
F2
00
0C
F1
0B
0C
FB
06
13
0F
1A
FA
05
F5
07
09
F5
FA
EF
F7
F5
D3
E2
E5
F7
FD
0B
11
F1
F5
0A
10
15
0E
0C
1D
ED
FD
15
FD
06
F5
02
01
F5
E1
EE
D4
D5
E1
EF
F2
F7
01
05
0B
0B
F8
03
16
35
2F
29
FF
FE
06
15
00
F9
F6
FD
EB
04
EE
E4
D1
D9
D8
D2
E0
F9
EA
EE
F3
0D
0C
D6
07
26
40
F7
1A
07
15
02
06
1D
0A
06
FE
F5
F1
F5
F6
FA
DF
0C
F8
00
06
03
F2
0D
0E
01
0A
01
FA
0F
1F
0D
18
1E
15
F8
14
28
16
10
0B
16
33
26
14
19
FD
FF
16
04
F3
06
00
0E
F3
04
08
02
18
06
16
27
1B
FC
16
18
18
1B
37
0A
0A
01
FA
F5
14
11
05
06
0F

