02
0D
06
00
03
F3
FE
F3
0C
F3
08
01
18
01
05
F0
F4
F5
F5
FE
09
EE
00
05
04
F9
EE
09
FB
F9
06
FD
05
04
02
07
13
F7
16
04
10
20
F1
21
15
0B
14
06
20
0E
FA
0B
F3
05
0F
FD
10
F5
09
19
26
19
20
19
11
EC
00
0F
15
0B
00
05
1B
0D
26
FF
F8
15
20
1E
EE
FA
0F
04
EE
0F
0E
06
08
FB
14
0D
0E
01
17
23
21
10
12
0C
14
0F
1E
22
0E
03
EC
FC
08
F4
F1
12
F6
03
F0
08
0B
0C
0A
14
02
06
0A
10
E7
FB
FA
E9
07
F5
0C
1A
12
F6
F6
EC
F3
E5
09
07
FB
07
0E
F2
E5
F7
09
FD
0C
09
F2
E5
FD
E6
FF
0E
07
FA
14
1B
1A
FE
FF
01
0C
F3
27
13
03
0E
1E
06
0B
15
09
00
FA
F6
F6
ED
E1
F7
EA
F0
00
07
06
13
FE
F2
10
14
30
10
10
20
0A
05
F8
F4
0D
07
F8
08
EF
08
E4
F1
EE
F5
F5
0B
09
0A
07
FB
11
0B
03
10
07
08
0D
08
00
E3
F9
F8
EA
FB
DB
F4
F9
FF
FA
FC
F2
EF
06
E7
02
0C
11
F0
14
03
0C
11
0C
0B
02
12
FA
FC
ED
ED
F5
ED
ED
06
FD
02
F4
F8
FD
EF
04
F3
0A
0A
07
FC
FF
06
F9
ED
18
12
F7
E0
EE
F7
E9
FC
FE
02
F4
0D
08
F4
ED
EC
EF
FF
FD
12
1D
0C
F0
F6
F7
EF
FD
0C
2B
04
10
F2
05
FC
FB
0D
FF
F3
FC
F0
09
05
ED
F5
F7
0E
0F
0B
14
04
0F
F8
E3
F8
E9
03
10
09
FB
EB
F3
E8
E8
DD
F2
DB
F8
E1
ED
0C
14
EB
F5
15
2B
23
F7
ED
F9
DC
DC
F6
EF
F7
FD
F8
07
E6
18
F8
D9
01
FE
ED
01
FD
01
0D
10
20
22
18
1C
0A
E2
0F
FD
DE
E2
F2
0D
27
04
E8
F4
F0
07
02
EE
FA
04
0F
04
02
11
2A
0A
0A
1C
09
FF
EC
ED
06
11
F0
0C
FA
02
F0
04
F6
D8
E2
F4
08
F4
F9
0E
1B
EE
1A
11
01
FC
03
0F
FE
F6
DE
0D
00
0C
F8
13
08
03
03
F6
FB
F6
03
EE
00
E6
09
1F
13
0C
06
06
0D
F3
ED
F6
01
FB
FE
11
05
03
10
16
14
05
1A
EA
F9
F4
09
01
0F
FA
10
11
27
1D
25
08
18
E4
D4
E6
F8
F6
FB
FE
11
1C
11
0F
04
10
E5
EB
EA
DE
19
05
0D
F2
1A
F7
23
1E
1D
27
0B
ED
E6
D8
F8
F0
FF
0F
14
11
0B
E5
EE
F6
E0
D3
FA
C4
E6
03
02
15
0D
00
07
23
25
15
1C
0C
15
06
02
F7
F7
15
10
05
F7
0C
EB
01
E9
EE
F2
EE
F8
F2
15
13
04
08
1F
0F
11
07
29
31
16
1E
0C
02
0E
0B
FA
FF
FA
E8
0A
02
0B
F5
F9
03
F4
07
EC
FC
0E
F3
FC
03
FF
19
22
17
2B
2A
22
0A
11
05
0B
F6
04
13
24
0D
E5
FC
09
0E
F9
0A
01
EE
03
08
FF
E3
E2
01
FB
1F
11
22
1A
1B
1F
F6
ED
03
07
0C
F7
06
01
D4
00
1A
0F
00
05
0F
13
FE
04
D6
E4
F5
13
F4
F7
FB
03
FC
0B
04
04
04
FF
E9
F2
E3
FC
F8
07
05
04
12
06
FC
1A
1D
0A
DE
DF
F1
0F
E4
E1
F1
E2
F9
F0
FB
EE
01
E8
EB
03
EE
FB
F4
F3
F5
08
10
EF
0E
F3
F0
E1
E0
DE
BF
E5
E7
E8
EB
CC
DF
DA
DB
DF
F2
13
0D
F3
05
FE
01
FA
03
12
F9
F2
F1
06
F6
F3
D5
CF
CD
EA
DA
E9
FA
01
D0
E2
FA
E7
E5
E3
05
0B
E4
FC
11
F5
EF
11
04
02
FF
F6
F8
13
13
F7
EF
E5
E2
E9
03
03
06
F7
FA
EF
F8
04
FF
F3
F1
F3
0D
0A
F7
EF

