08
FC
09
00
0D
07
FF
07
FD
FF
FA
00
FB
0B
06
F0
FE
F0
F2
FF
FC
F1
00
0E
F2
F2
03
04
08
F5
05
05
FE
03
01
F4
07
F0
0A
2B
1E
F8
FF
F0
2B
14
09
F6
E8
FE
ED
FD
F2
FA
05
02
01
FB
09
E9
F0
F3
FE
F2
14
22
0C
1F
2C
00
19
FB
F6
F4
E2
CF
D7
FE
02
01
0C
0D
FC
F3
FE
FE
F1
08
01
0B
02
EB
24
14
02
29
14
0C
10
F4
17
F4
E2
E9
FF
EE
EE
09
2E
1E
12
FF
06
F4
1D
0A
07
18
0F
03
12
0A
0D
07
00
06
05
FE
0D
FA
05
E9
EA
E0
DC
07
0B
06
22
17
06
F9
06
F5
F2
E8
0D
EF
FE
FB
0F
09
FB
18
07
08
F6
EE
09
EB
E5
D2
E0
F9
ED
0E
0A
21
12
F8
12
0E
12
FC
DC
F7
FF
FD
11
09
F9
11
16
20
1E
0A
19
02
D3
DC
DF
D8
DC
EC
0A
1B
EF
2D
21
FF
F0
F2
EF
F1
00
05
FA
1F
18
17
0B
16
2B
2B
0A
1A
FE
DF
F5
C6
E5
05
0B
0E
00
07
1A
E0
F4
F4
F9
DE
11
06
07
0C
FA
DF
EF
06
0B
1A
22
14
02
DE
F6
C3
C7
C7
EC
E3
F3
F6
E2
03
0C
F7
0F
13
1B
F7
06
E9
DF
DA
CD
F4
0C
21
21
29
07
F1
D4
C0
E1
DC
E5
EE
F8
F2
E6
05
DF
0E
13
FA
07
EE
E5
D2
E0
C5
EE
05
1E
1B
24
08
0A
FA
E3
BF
E5
F9
E7
FE
08
FA
DF
00
E1
FA
FD
EE
F9
E3
05
E2
D6
D7
F4
F4
02
1C
09
26
2B
06
EC
E4
DB
EF
EA
02
0F
05
01
FE
09
E8
DF
FA
F5
E7
ED
EC
FB
F7
12
F1
0D
FB
17
12
04
06
EF
EA
DB
E5
EF
0E
0F
FE
07
08
EF
F1
FF
EF
13
0A
0A
01
FF
FB
F0
ED
FA
FD
02
1D
FF
03
03
F2
0F
F5
FC
08
04
06
EE
FD
FA
E8
ED
19
05
14
1E
01
09
0C
E8
0A
F1
0F
10
00
FD
10
FD
E7
F8
F1
2F
09
FB
FD
D8
EC
E6
F2
F8
0A
09
01
19
F5
FA
F9
E0
0B
08
13
10
16
F3
09
0D
F9
FD
0D
10
F3
09
0F
08
FC
06
EE
E8
F6
FF
04
23
FB
18
FA
FE
06
0C
0F
EB
EB
FA
0E
14
E7
F7
02
FE
14
FF
F8
21
F7
E3
DA
EB
EE
08
07
15
12
0B
0D
03
11
FC
0F
04
F2
FF
00
F7
D4
E3
0E
19
27
15
0D
FE
F1
E9
DA
06
12
F4
FD
13
06
0E
F8
F6
03
0D
18
F7
15
03
00
F2
DA
F1
17
20
32
E9
06
F7
F3
09
E8
E7
FA
02
F2
0A
FA
1C
0D
0B
FF
10
FE
03
0D
FE
0A
DC
FC
F0
07
12
04
F8
25
03
0D
E3
FB
EF
F9
F4
F8
FF
FA
14
FA
07
F6
F6
F7
08
FD
E9
07
DC
05
DE
F6
F8
FD
00
09
0C
FC
03
EB
E9
FF
FC
02
14
12
1D
FA
02
E7
02
06
04
FB
00
0C
07
0E
06
F6
37
0A
F5
00
24
00
F2
17
07
17
1B
F5
FE
FE
F7
F4
15
09
F8
FE
13
16
1C
05
0B
00
0F
EB
1B
F1
F5
0D
1D
FD
DA
F9
ED
16
02
F0
06
0D
E7
E3
06
FD
FF
F8
13
13
17
1B
08
16
16
FC
21
02
F6
FF
08
0D
0A
04
ED
0C
F8
09
EE
EF
EA
F8
EC
EE
EC
EF
FC
F5
04
2A
28
24
21
15
F7
FC
F3
F8
03
F8
12
26
1A
21
0C
04
15
25
FC
F8
0F
F2
D0
F7
F2
13
0E
16
08
F9
DD
07
05
FF
0E
0B
0C
08
1B
23
14
20
16
0D
27
10
15
02
15
EB
EC
F6
21
19
2D
0B
07
F5
0E
0D
F4
0A
06
0B
0F
00
F2
FA
FD
06
07
10
2A
23
01
01
F6
03
DD
F6
2B
11
FD
FC
FD
E8
0B
09
11
F9

