F3
F5
03
F6
F2
03
01
FA
02
F2
FF
F2
02
FA
01
10
0A
F8
0D
0D
0B
07
EE
07
F0
11
05
F1
FE
F9
EF
03
F6
F7
05
0B
06
F9
F6
F8
FC
0F
F1
D3
EE
FE
08
EC
02
0D
0C
01
F4
FE
F7
F6
F4
F1
FB
F8
F7
15
F8
F2
17
2D
0E
07
FD
ED
FF
F5
EF
F2
D5
E8
FB
02
20
F9
0B
06
0E
F9
F8
F9
00
DF
11
06
13
34
34
36
33
27
1F
0A
2C
13
01
08
E8
01
00
14
F6
FE
F2
EC
0E
08
FF
F7
11
09
1D
2D
20
17
1B
26
2B
08
05
0D
FC
0E
03
F7
10
01
15
1F
16
16
02
11
0A
0B
0C
F4
F4
1A
13
F4
05
31
06
16
11
FC
F6
07
F8
07
FA
F7
FE
F8
00
19
00
2D
14
26
12
03
09
08
27
12
1D
2D
22
08
FC
08
FE
F8
0D
01
EE
E4
F1
E1
E2
08
EC
0E
19
17
1E
05
08
1B
0D
2B
3C
24
0B
13
2D
2B
15
07
FA
F1
EE
0C
F8
F4
EB
E6
FA
02
F4
E7
03
15
1F
0F
F5
08
03
10
2D
FE
12
26
19
17
14
FD
E9
EA
FC
F6
E9
03
E8
E3
EB
F0
F5
0B
F7
F1
00
04
E2
EF
F6
F8
27
F9
FF
20
FD
ED
EB
E3
E1
F4
0E
03
FC
00
03
F6
FD
FF
23
05
F9
07
08
E1
E3
01
0E
01
FE
20
DC
F7
FC
EF
D6
DF
F5
ED
13
1A
0F
F5
07
0E
02
09
13
01
09
01
E3
F6
E4
09
06
08
ED
FF
DB
E5
D0
C3
D7
09
F9
0B
2C
07
EA
F2
E4
0D
0D
0D
FD
EB
03
C6
CD
FE
F9
E8
FD
06
FF
F7
BB
F4
E0
E9
05
11
26
34
1A
16
FC
F1
FA
FE
F9
F8
03
FB
F3
EE
E6
FB
E3
E6
04
05
10
F4
CF
E5
01
04
30
17
2A
21
11
EB
F9
03
19
00
1D
F2
FE
0B
02
1B
0D
EF
F2
02
F5
F7
F2
F5
FB
02
0B
0D
2A
2B
13
0C
FC
F2
EC
ED
10
01
FA
10
FA
09
14
16
F9
05
F5
F8
EE
0A
16
17
1E
02
16
1F
15
FA
01
EF
E3
D2
02
02
0F
FB
0F
17
1F
00
24
36
08
F9
03
05
0D
0E
09
13
0D
FF
01
19
F7
0C
EF
EE
DB
E0
05
F5
EE
0D
16
14
17
2E
25
19
2A
19
0E
F8
0F
EF
05
15
0F
01
F7
16
12
EA
FB
E6
FC
14
F0
F1
F6
01
03
21
17
29
2C
1E
E4
02
E5
EF
EE
F9
17
08
20
10
21
06
12
17
FB
1F
0D
1E
02
14
0D
F6
F3
05
FD
26
2A
09
DF
EF
F5
0E
EE
F0
FE
0B
1F
16
1C
10
08
12
25
0F
1A
20
15
0F
F7
F6
F6
02
F6
00
07
05
E3
09
FD
15
0C
FF
04
02
07
03
F1
FE
FB
1E
11
FC
05
14
05
04
E5
DE
F0
F0
F5
05
0E
DD
DA
DE
0D
FC
EB
0D
E2
F7
FD
E1
FE
FA
09
1F
04
15
0D
11
FE
FB
0D
EF
0A
00
07
F6
11
F5
E4
FF
0E
0B
EF
02
F7
F7
D3
E3
DB
EE
0B
0B
0B
0C
13
00
FE
0B
11
09
EF
0B
F2
11
0A
F1
FB
01
17
0A
EE
F3
11
19
E4
D7
E4
04
F4
03
12
11
0A
FC
00
02
0F
F1
FB
F8
01
00
1B
EC
F1
08
00
F6
F1
06
E8
0F
E9
ED
E9
07
F2
D0
DC
E1
02
03
18
15
F9
DF
E8
F1
F4
05
05
0D
09
F0
EB
05
FF
F7
F9
0B
10
EC
FC
02
EE
F1
03
ED
F0
0C
FA
00
E9
DF
09
FF
E2
ED
03
01
1B
FB
FA
F9
03
F5
07
E6
DC
F9
07
C9
F6
EC
F1
DA
E9
F6
E5
DF
ED
F7
FF
0B
E4
DD
E3
EF
FA
F8
F0
00
F4
0C
F1
0B
F0
00
F0
F3
FD
F0
DE
E4
E8
03
D9
CA
E8
0F
DE
04
13
F2
D9
F3
10
F9
F7
FE

