0C
07
06
E7
E6
02
23
EE
F2
26
E1
3F
D2
EC
EE
2A
02
04
F7
E7
FC
01
02
29
E3
41
D0
52
E3
27
18
06
38
F7
D6
F4
25
2F
ED
27
DD
01
21
1F
DF
1B
13
4A
E0
25
E9
1E
2E
14
E5
EC
06
D7
FD
19
E7
F2
04
0A
52
14
F6
18
F2
62
DD
DB
E7
D3
D9
F9
21
EF
F5
13
0D
09
02
30
01
2F
CB
E0
22
12
CE
11
1E
E1
25
16
14
22
E6
1F
06
11
05
F4
1C
FE
28
FC
E9
F6
D1
F9
F6
1F
FB
1B
2D
EB
10
49
2C
FC
DC
D9
0B
18
0F
3F

