FE
0D
10
11
F1
04
EF
FA
0B
04
08
0F
04
F1
EC
00
07
12
FD
04
0E
00
0C
04
FD
F3
00
13
F9
F3
08
FF
02
03
F0
F6
F7
F9
04
E1
E0
E8
17
09
E6
E3
0F
00
0E
22
06
08
09
05
EF
F5
0B
00
F0
EA
DE
F9
EF
05
00
FB
F9
F5
EE
1B
F3
0F
F8
EC
03
11
18
ED
05
E6
F8
E9
F4
02
F2
F3
10
E2
EE
01
FC
0C
26
FA
06
13
17
03
22
09
04
1C
F0
FD
10
F4
F0
0E
FF
05
0F
06
F9
05
0E
20
1B
FB
F1
FE
F8
04
00
0B
03
04
09
14
02
E9
0D
17
15
1F
08
FA
30
2B
13
FE
0F
08
0A
05
17
1B
F0
10
FD
FE
0A
10
F9
F7
FE
E4
FC
FC
12
05
0A
F1
FC
FD
2F
0A
00
FA
F1
05
1A
2C
0B
0A
14
09
14
12
0C
F9
09
FF
E2
D7
F7
0A
FE
15
21
20
03
12
23
2B
1E
17
F0
07
07
05
FC
FB
10
21
02
22
11
03
0F
F2
F8
FA
F0
FC
10
0F
2A
F3
F1
FB
07
1A
0C
FB
07
06
03
F1
F6
20
11
1F
01
0D
F9
0C
02
0D
0D
18
F9
F8
16
EE
01
14
08
07
FC
10
08
F6
FF
14
F2
11
1C
10
1C
F7
12
08
EF
15
11
10
0F
06
03
03
09
F9
FA
0A
01
EB
D9
1B
F2
F8
09
08
F6
1C
1E
F8
0D
F0
03
13
FC
FC
F0
09
F8
1B
07
F8
0D
03
0B
00
EE
D9
C0
E6
DD
F4
FC
12
0E
18
14
13
0E
F5
10
FB
12
FC
06
03
F9
18
0F
06
10
FD
FE
00
F7
E0
C7
DC
D9
0D
F8
15
00
15
08
0D
FF
0D
02
F4
FD
F6
F8
F8
0C
0F
07
00
18
F9
EE
F3
05
F1
E1
EE
D7
FD
E8
0F
0B
0B
04
30
0B
0B
03
F5
02
EB
EF
FA
0D
13
18
0B
F5
E8
F2
FF
E0
E6
FB
F1
EB
DA
E7
0E
0B
06
11
0C
F3
EB
01
1A
18
0D
05
00
FB
16
04
09
EE
FA
F0
F0
F2
F9
ED
E9
F1
E6
05
0A
18
FC
06
F2
15
07
06
0A
09
17
05
EA
14
24
FE
FC
0A
01
FD
03
20
00
E1
DC
F2
F5
07
19
0E
10
F9
F9
00
12
FB
F7
FC
EC
01
F7
FB
26
11
0F
11
15
20
EE
0E
07
05
DD
EF
D0
FA
FF
0B
11
EE
FE
1D
18
10
ED
E8
EF
F0
F2
09
26
12
1C
27
20
03
0F
FF
05
03
C7
01
DF
02
F3
24
EE
F2
0B
F0
02
FF
EA
E0
D8
EA
F5
1F
11
20
11
24
20
1F
0A
1D
1E
03
EA
11
E9
10
F0
0A
F6
FF
02
07
FF
FD
F7
EE
E0
F7
F2
16
14
FF
0B
0A
0C
09
0A
E3
EF
FF
C5
F1
F6
F6
F0
EB
F2
07
FC
F4
F1
F4
ED
CB
F2
EC
FB
27
0B
19
14
08
13
00
ED
02
E7
0D
E5
E1
FD
F1
FE
E0
EA
EF
F5
FC
01
F0
D8
DD
E8
FE
13
25
18
15
14
24
21
03
01
E5
E1
E4
DF
C1
10
00
EE
F6
DB
E3
E6
D1
E8
CD
DF
E8
EE
0C
0C
FE
22
27
13
FD
02
0B
F7
FC
07
0B
EE
D7
0F
F0
FE
F4
FF
F7
F7
EB
D9
BE
E2
E7
FE
F1
00
0E
12
07
FA
18
0B
F4
F7
F8
EA
25
E4
E6
0A
F2
08
04
11
22
FD
FD
E9
ED
ED
12
08
F3
1D
0B
06
FE
1D
F8
EF
02
F5
F2
E1
EE
FE
EA
F9
F7
EF
EE
F3
21
13
FD
0A
2F
25
23
1F
2C
28
22
02
03
0E
0D
09
0A
F1
FA
07
0D
FC
FB
EE
10
12
0E
FE
EF
F1
F7
EC
06
24
FB
F9
0A
25
06
0D
1D
1C
07
1B
08
FE
14
03
00
07
0A
F1
0F
10
0B
0B
16
07
05
03
F8
10
05
F1
F0
0D
07
E0
FD
29
05
0F
10
16
21
1D
F0
12
FD
09

