FD
F1
13
FB
02
ED
F5
F6
FA
11
FC
0E
FE
F0
01
0D
0E
09
FE
0C
01
05
00
F5
F6
06
12
0C
03
0A
F2
F9
0B
F8
E8
EA
DE
EE
FE
EF
0B
F3
05
E8
04
F2
F8
07
EE
FA
F5
FB
0B
02
FE
05
05
F1
F0
16
18
03
F1
F1
EA
D3
E8
DD
CB
E8
CE
D0
F9
FD
EE
F3
00
F6
E2
01
E3
EE
F4
F0
F8
F3
02
0C
21
0B
E0
E3
DD
F7
06
FA
F9
DA
E0
E2
FE
12
E4
E0
F4
F6
FA
EC
FA
11
1C
F8
FB
0F
FE
EF
FB
0A
F8
EE
DF
07
E2
1C
03
09
FE
EB
E6
02
09
F3
EE
02
FF
F4
0C
1D
2E
09
08
01
F9
FB
F4
E7
F9
E3
04
03
14
2D
19
0F
09
F7
F2
03
00
D2
DC
FE
F6
FD
05
04
1D
1B
0C
FE
22
08
04
F9
EA
EC
10
25
00
19
0F
15
01
0A
FE
24
FB
FF
EB
08
FF
FB
06
1D
19
30
FD
F9
2B
22
EE
F0
FD
EE
1D
FA
17
12
15
12
FA
15
09
22
15
05
08
03
FA
1E
0D
1D
1D
0E
F2
1B
02
FA
EA
F7
19
18
20
0A
1B
1E
F7
03
19
1F
26
25
25
F4
19
F4
F8
FF
24
07
F2
00
EF
09
FD
16
12
FD
23
F9
15
0B
04
05
03
0D
10
0A
0F
1B
0D
F4
11
10
04
F4
1C
16
FC
FD
0B
0D
0B
F0
F7
00
30
16
20
19
18
22
00
21
0B
FD
07
17
0E
06
FD
05
02
F3
29
0F
F5
EB
03
16
0D
FE
07
03
10
19
16
F2
13
21
FC
18
F3
1C
FD
FE
08
F8
F8
FC
05
08
FB
F4
FF
01
0D
13
1D
FB
15
0B
08
06
1D
FD
17
00
F6
F5
E8
F4
F7
07
FC
FD
05
19
0B
03
EA
E8
F7
ED
FD
0C
02
FD
1F
0B
F2
20
0F
FE
09
FE
07
FC
F9
05
0C
E8
00
F7
0E
0E
12
0A
ED
E3
FB
F6
F6
F8
0B
0E
00
FC
F9
05
11
FD
F6
03
1B
EE
F9
EA
F0
01
07
02
1E
08
1A
22
07
F2
D8
F6
09
F8
FD
EF
12
11
0D
0E
FE
04
FD
14
F8
F6
E8
F7
E4
0B
F6
09
0D
1C
06
21
19
F5
FB
ED
0E
12
05
F6
0D
EE
EA
01
F0
F4
10
06
EC
EC
E2
E9
F9
18
08
F5
0E
12
00
F8
F0
DB
EB
FA
0C
F7
E8
F0
EF
FB
FD
EE
01
F0
F9
E8
FC
EF
F3
F8
F6
2D
14
0B
09
0F
07
FC
0E
E4
E4
01
08
F4
F6
EA
ED
F3
07
EE
E6
E9
DF
DD
CB
E4
00
0A
03
10
06
13
15
F8
0C
04
07
08
0C
0D
05
FF
26
FD
13
03
F1
02
F5
CC
D1
CE
06
00
F9
F1
FD
FC
0F
0D
FD
E5
E4
03
F7
F9
F8
12
F9
09
21
05
00
14
FD
EC
E7
FC
E1
FE
F9
0D
04
FD
0B
0C
F3
16
E7
E3
EF
02
F5
FD
07
00
F3
F9
1E
FD
11
11
19
0A
FA
F2
05
11
12
09
EF
0B
F8
EF
D8
F5
E7
C6
DB
F6
00
EE
05
0F
F3
06
00
15
05
FA
26
00
0C
1A
18
10
16
00
EC
05
E4
F1
DF
D6
F0
B8
EE
1B
20
05
F7
14
12
07
FE
25
0B
11
20
1E
15
28
21
1E
0B
02
07
08
05
04
ED
F1
F5
DC
F9
08
26
FF
D8
F7
F0
F8
EE
0B
20
1C
04
16
22
25
12
12
01
09
F9
01
F0
F5
04
0F
14
0A
08
30
07
00
FC
0D
FD
00
08
09
0C
05
23
14
11
FE
02
16
13
EC
01
04
1C
1A
00
26
20
23
0C
18
0F
FE
FD
06
07
EF
FF
18
13
15
06
1E
12
25
02
06
1F
15
27
1E
1E
1F
19
30
3E
49
23
FC
F2
F9
07
F3
03
FD
F4
08
EF
F8
19
15
13
18
36
1C
11
1D
13
23
22
2E
19
1A
0F
0E
26
1E
FE
0D
0F
0C

