F6
F9
FA
08
FD
3B
0C
04
C5
DC
31
22
E5
1D
FD
15
33
17
C3
0C
E4
D1
04
0B
E6
1E
E4
F4
0C
F0
7F
2A
00
E0
10
0C
DE
DF
03
DB
1D
E7
D0
24
E9
2A
05
F6
11
17
E8
ED
FB
FA
EF
C8
18
10
EC
04
DB
F5
23
FC
0C
10
4F
FC
F4
0C
E5
2E
01
15
FC
19
27
EF
0A
20
3C
23
1A
0B
24
1C
ED
00
EB
C9
18
01
F3
E7
F3
0F
1E
33
EB
DA
19
13
27
2A
09
20
1B
E5
1D
17
DC
13
F1
0C
F9
26
1A
F9
15
F8
FE
05
5C
39
1D
22
1C
B6

