07
0A
F0
FB
05
04
FF
11
01
07
FA
F0
0D
00
06
0A
F4
F2
0D
F4
FD
F5
FA
01
FE
EF
F3
F6
05
0C
EF
04
04
03
03
FF
23
01
15
FE
18
08
0F
0F
F4
EC
1E
09
28
07
1B
11
F4
02
11
0A
F7
FF
F8
0B
06
1F
1E
1D
08
06
23
25
06
16
08
15
03
0D
03
22
11
1F
17
27
EF
01
03
10
F3
0B
12
0C
02
1E
1D
17
13
10
FF
0A
FF
0C
F4
FB
FD
18
FD
01
11
0B
2B
2F
0E
DA
F2
12
FE
EF
15
0A
1A
13
0E
14
1A
13
00
FE
12
22
1F
FB
FB
E8
ED
0F
13
F1
00
15
FC
EC
04
01
00
F4
26
F5
25
FA
FC
11
06
18
0E
13
19
11
05
13
06
F8
E9
10
07
0C
EF
DE
F1
FD
31
1B
02
0F
F5
0E
04
00
14
16
02
00
06
14
19
07
11
0C
04
00
0B
FE
F2
F4
E2
06
EC
FB
FE
08
EE
2A
F5
F9
19
F5
F8
F6
FF
F9
0A
EC
EE
EB
EA
FB
F4
E8
0E
F8
05
EC
09
0B
DD
F2
E7
29
01
02
F5
1A
11
01
09
1B
17
0C
09
02
0A
00
05
F8
03
FE
FA
FF
08
0C
F4
FA
E0
EC
F3
FB
FE
1E
F1
20
13
01
17
F5
FA
EC
E8
02
06
01
08
01
FE
05
02
FF
F9
0E
0B
0F
0D
06
FC
02
F7
03
DD
FF
17
FC
F7
F5
F3
FE
10
F4
E7
06
F9
FF
F7
12
00
0E
18
1C
0A
17
F9
F7
F1
FA
FA
F9
19
33
20
18
F2
05
12
0E
0F
EF
EA
1F
1E
26
FE
F4
08
05
1D
11
18
10
11
16
20
15
10
F0
F5
23
1E
17
07
FE
FB
04
F1
00
FA
16
2E
1C
27
22
EF
05
F8
1C
00
19
1D
0D
F3
0B
01
10
18
1C
26
08
E3
F9
0D
FC
F5
0B
FC
05
23
2B
20
F9
11
13
F6
FB
13
10
01
00
EA
E7
F8
18
02
30
10
06
D8
FF
F9
04
F9
F9
01
1C
10
0F
04
15
09
05
F6
14
12
ED
E7
1A
D8
EB
EF
05
EC
0E
F8
03
EA
F5
07
FC
09
11
02
02
24
0A
F6
02
F7
F6
0D
E7
F2
0C
FC
04
F8
F7
0B
15
08
01
D7
F4
13
FE
22
11
13
1B
EE
09
1A
F0
F9
EA
F5
F5
E0
EA
EB
EE
ED
F9
D3
ED
11
12
0A
E8
E4
08
11
FE
18
04
14
FE
11
06
1B
F1
11
FD
F8
FA
00
02
FB
08
FD
F6
04
D2
09
11
0C
D6
F1
EC
07
0E
12
0F
01
F7
F2
16
F3
E2
E5
ED
00
F4
F6
E2
07
0F
E6
0C
FB
F4
12
02
EC
F7
DF
DB
05
0C
F2
03
FD
00
F3
FA
F7
05
00
F3
F6
F5
EE
FC
02
01
E3
E3
FF
00
0E
E6
F7
E5
E8
00
ED
09
ED
F2
ED
E3
F9
05
00
11
E9
F5
F9
05
F8
FC
FA
EA
EE
0B
F5
FB
F1
1F
E0
F2
F2
0B
0E
FC
00
0D
05
F1
F7
09
14
13
FF
19
07
ED
05
EC
08
DB
F5
01
D8
00
0C
F6
DC
F3
1B
1A
17
10
F4
FE
06
14
12
06
F1
F3
F5
10
E6
EC
F2
F7
DD
D0
EA
FE
DA
F8
F8
F0
17
D0
FF
0A
0B
16
00
05
03
E2
01
04
07
F5
19
0B
03
17
EE
E4
FE
E3
E3
EC
E4
EF
F3
FA
09
E3
F9
20
25
06
16
F1
FB
1D
04
F1
EC
ED
0B
E4
FE
F2
03
E7
E6
CE
ED
EA
05
09
06
F1
FE
01
1D
1E
1F
1D
23
07
27
11
0B
0A
12
01
FA
FF
EB
2B
07
F3
DD
D9
DF
F6
0D
EE
07
04
FF
F0
0A
34
4A
29
30
43
1C
1B
1A
24
1A
0E
FB
1B
1C
23
41
1D
32
F6
E8
05
F4
13
F7
03
11
13
12
02
18
12
05
1B
25
23
1D
2A
3B
38
0E
11
0D
13
0C
18
24
E8
F5
EF
F0
F4

