EF
0B
0F
0E
0B
04
FF
F1
12
00
03
00
05
04
F3
F1
EF
FB
F8
F5
07
FF
0A
EE
0C
FC
08
03
0A
EE
F6
FA
02
03
10
03
02
15
01
FC
06
05
16
22
EF
F8
FC
0A
1C
FE
FD
0C
09
08
FC
F0
06
0B
10
F8
EC
06
1F
12
15
F3
2E
39
11
11
11
29
29
1A
08
10
18
19
11
13
14
0B
ED
10
EF
F8
F4
F3
F5
FC
29
29
00
00
F8
08
09
17
00
08
F6
DF
E2
F1
EF
05
00
09
07
14
24
FF
FD
F6
EA
F4
17
06
05
0B
FD
FA
09
15
16
1A
27
00
E1
D4
CF
FB
E2
F0
08
13
13
0B
F5
07
FB
EE
00
FA
20
12
17
FD
F2
0C
FE
18
17
03
FE
E7
DC
E5
F4
08
0B
DF
F7
02
0B
1C
05
09
FE
0C
FC
F5
15
FE
F9
E0
D7
F4
10
18
10
F8
F9
D8
CF
DB
F0
FA
06
F5
F1
05
0D
FD
1D
19
0A
0B
0F
D5
FD
EA
F9
EA
F4
0D
1D
27
03
06
D3
B9
CF
F8
07
FC
F0
07
E5
D1
F7
12
2A
1E
F7
F0
EB
DB
06
FD
E8
EB
E6
04
04
11
14
01
EA
C7
D4
F2
EF
0A
0C
04
D7
EE
D1
FA
F1
E7
F2
FC
11
FC
10
10
E2
DB
E4
10
04
1C
0A
EF
D7
CE
E2
0F
14
F5
04
0A
01
D2
ED
D1
E8
E9
FA
01
09
FE
F1
14
DA
F8
FB
F9
F3
1C
04
F2
E6
F7
EC
01
13
F3
E4
02
E8
D4
08
F3
E6
FC
F4
06
02
F7
FC
11
F4
F4
F9
DC
E1
FE
15
FC
07
F2
17
F9
17
07
EE
FB
E4
FC
F0
0D
E8
E7
F5
1B
FC
E8
FC
DE
F1
E1
F7
DA
05
0A
0B
22
12
0A
F8
0A
08
F9
F7
0A
09
03
20
FD
DE
D1
FE
1E
F3
FB
D1
EC
DF
F3
E0
FA
F5
F6
08
14
02
13
F8
04
05
F7
FC
FE
FE
22
12
F4
F0
30
07
F9
1F
1A
D6
E8
FF
F6
03
15
F7
09
1D
12
0D
0F
13
07
FD
EE
F9
03
14
07
0C
31
FC
15
F7
F8
2A
18
E3
F2
E3
15
16
0B
00
F4
0E
29
18
1B
16
0C
01
0D
13
13
16
F3
0C
1A
0E
0A
03
EB
11
18
D9
FB
F7
18
1B
14
0A
FE
FA
09
22
23
0B
13
FE
12
00
19
05
14
08
3B
18
FD
F1
FA
04
04
00
FB
0D
FD
25
00
FE
FF
10
13
10
04
0E
0F
28
F6
17
32
21
20
14
31
FD
F6
0A
12
E6
1E
21
FF
13
23
1D
11
00
F3
F6
FC
1B
20
09
16
0C
FE
EC
01
08
0B
0E
11
DA
F5
0F
07
ED
3B
1F
FE
06
08
0B
FB
F2
03
EA
EB
20
23
1E
21
0A
17
F6
14
0D
30
16
1F
EF
E8
F0
EB
19
4C
3C
F2
09
0A
0B
FF
01
03
02
01
08
11
26
F8
11
FF
19
03
1C
0B
01
EF
05
FE
0E
FB
0E
17
1D
EF
F3
00
0E
F7
F6
E2
E3
0C
04
F7
FD
03
15
06
1D
EB
EE
E7
E6
F9
23
07
06
ED
03
F4
06
0E
07
05
05
06
F9
FA
EA
E6
DD
FD
F6
E6
E1
0A
F3
E1
ED
E8
CC
FA
2C
09
EF
ED
1A
F4
F9
01
15
02
F8
E0
04
E3
E9
E6
F2
E3
E2
D3
CE
F1
F7
02
DE
CD
D2
EB
24
FE
0C
F3
00
F8
FC
0A
F5
FD
0E
F9
FB
E5
01
FA
E1
E7
04
F5
C7
BE
C9
F5
E9
E0
07
05
14
13
FA
FC
0B
0A
D5
D5
D7
F5
DA
FC
0A
0E
09
F9
E3
EA
F0
D6
E6
D1
B9
E0
F7
F1
03
09
17
0F
FE
0B
0B
EB
CF
E6
EE
E2
C9
DF
D1
D0
F6
EE
DB
D1
DF
D1
E6
FE
DC
E4
E8
06
01
F5
05
01
FD
09
F0
08
08
F9
F0
FE
E1
FA
DF
EA
F0
E9
D0
E6
FD
02
E4
E7
FA
FD
05
01
0E
FE
0E
EE

