0E
02
7C
07
6D
6F
12
02
0C
03
72
78
01
18
01
02
03
04
0C
0D
7B
09
78
05
0F
0C
10
7D
79
71
0A
79
12
07
06
79
7C
10
7E
26
06
1B
7D
06
1F
11
0C
19
1D
69
68
0F
08
01
08
73
0A
6F
07
6D
6D
0E
1B
02
13
3A
30
28
2E
0F
1D
14
14
06
65
6B
6E
06
06
0E
09
1D
73
77
06
7E
0B
6E
06
71
19
00
01
10
79
0D
79
03
28
03
1E
74
6A
02
77
65
60
7E
12
05
19
71
0E
73
01
74
04
0B
23
15
0A
7E
11
0D
04
04
0B
0E
05
17
00
19
7C
7C
07
72
73
5E
6D
0D
10
7D
1F
0F
01
08
0E
02
10
7B
7E
7E
67
00
6B
0C
0B
0E
1B
14
0A
08
03
19
05
17
18
19
01
09
0A
6E
7E
73
71
5A
6D
6A
75
6B
71
73
64
76
12
0B
7E
00
77
0A
17
71
04
0D
7C
03
7B
0B
73
6A
22
58
6A
5C
66
7E
78
02
06
75
6D
6E
06
00
0C
10
7C
79
0F
0A
09
00
76
04
09
00
14
79
03
79
79
60
6D
6B
10
08
7A
01
7B
65
7A
13
7E
76
77
73
6C
02
08
70
61
71
07
71
0E
07
7D
09
66
7C
74
08
0B
77
70
76
68
70
05
08
08
16
06
75
68
68
55
45
5C
74
00
6D
04
7C
74
1C
12
79
71
70
6F
75
6B
54
68
7D
02
05
18
00
77
65
6B
73
63
59
6C
71
70
0B
73
6D
7C
1D
22
76
6D
7C
7A
69
58
65
5C
01
03
08
16
19
76
0A
00
74
78
0A
55
63
73
68
76
08
7E
7D
12
79
04
75
7F
7C
5B
5E
69
78
75
7E
05
0D
68
0F
7B
6C
6B
11
77
77
7C
03
04
7D
0E
69
08
7A
11
0D
78
73
75
0F
70
69
74
7C
09
7B
05
18
19
77
7C
08
75
0B
19
01
54
1F
11
1A
16
1A
15
03
13
22
13
15
70
6E
0C
10
16
69
71
19
0F
05
7F
1F
25
04
0B
0D
13
0A
7A
1A
09
79
14
1C
24
1C
1C
1C
74
00
72
09
6F
15
09
74
0A
76
01
1D
16
0A
12
7B
14
12
7B
00
6F
07
0D
17
1B
2E
21
10
06
7B
0C
0F
79
06
03
0C
7B
73
02
3A
1B
0B
73
77
76
7C
0E
0A
67
0B
77
01
16
1F
17
7D
08
13
0F
11
0A
70
7F
0B
0B
08
74
1B
19
32
01
04
71
22
01
04
06
76
0A
10
20
7F
10
15
7C
02
6E
74
7A
05
74
06
14
00
08
15
73
29
08
70
02
7E
1D
04
05
75
75
09
09
18
12
77
16
0A
0F
70
03
06
77
04
1C
08
74
0B
13
0D
79
78
0A
17
1D
19
76
16
0A
06
1A
06
0F
75
12
19
7E
09
0C
0C
0E
19
12
0E
01
07
11
0C
7A
0C
18
1C
2D
04
75
7C
1A
11
0C
08
13
7A
0F
0E
26
20
12
0C
02
06
18
2A
0C
03
3A
79
02
05
02
24
24
2C
0D
7D
0F
76
14
1A
0A
7D
7B
77
0B
77
77
11
07
11
0B
14
6E
0D
34
70
7F
0F
03
05
05
70
7B
05
7F
03
78
74
7F
03
07
6A
6E
69
77
05
07
16
13
0E
6F
0F
0B
10
7B
7E
78
0E
09
61
5C
65
6E
05
07
69
6A
50
73
74
79
75
72
72
70
03
01
09
09
0C
03
7C
03
7F
2D
6E
47
5E
5B
65
67
5B
4A
57
72
6E
72
02
6C
67
60
72
74
75
6D
75
6C
78
7C
7D
71
7C
6D
06
12
06
7F
09
18
08
62
7B
22
7B
66
56
79
6B
73
73
0A
01
58
7E
11
11
05
03
0C
04
06
11
06
0C
08
07
7A
14
01
01
18
6D
0F
5B
5F
62
1B
08
17
6B
78
5D
06
79
0F
79

