0B
F9
02
F6
FA
F2
F3
F2
07
12
F4
06
14
11
11
09
EF
05
01
F5
FB
00
F6
0D
F4
0B
FF
F4
10
F6
04
01
0E
FF
0D
00
0B
12
0A
05
1A
19
2B
24
21
1D
1F
19
22
13
FC
1E
11
EE
FC
11
0A
F7
08
02
0D
00
10
18
0D
19
12
22
11
15
18
1C
06
09
04
F5
08
24
27
16
18
F8
02
FA
F0
0B
12
12
FB
19
1E
1E
00
F5
13
15
09
02
F3
FC
01
FC
D4
02
22
02
13
1C
0A
D8
F8
EE
F4
09
09
00
2E
19
0D
02
23
EE
14
11
13
FB
F9
01
F3
EC
DF
F2
E9
F2
F8
EA
DB
E2
DD
09
01
F7
02
06
24
FB
0E
02
03
FF
01
02
13
F7
06
15
06
F1
E9
CB
D5
CF
F4
FC
E6
F0
EF
FE
09
FB
06
1A
19
EC
F2
E7
DA
0C
FF
0D
07
10
03
09
06
E6
05
DC
BA
E2
D9
FC
F3
D9
F4
EE
F8
2A
07
1D
20
F3
EA
F7
E4
F0
09
FB
F9
04
FE
06
11
FF
FD
DC
B0
C2
E2
FC
EF
E2
F0
E6
F1
FE
F4
03
28
16
EC
11
08
15
F3
F1
DA
FE
2A
13
0C
13
EC
CF
B2
C5
D3
E3
EE
ED
F0
0B
14
08
FD
1E
11
0E
0E
FE
F5
E7
D9
DC
E8
18
2F
30
0E
F8
CB
CD
CA
BA
E9
F0
F0
ED
F4
19
10
02
E5
11
FE
0D
F4
08
D7
D7
D0
02
05
1E
36
25
EE
E8
DF
C8
E6
EB
E6
FD
F8
EC
09
0B
10
FD
CF
1E
02
11
F5
F8
EF
DD
11
0A
19
39
30
FB
D3
D5
DB
DC
02
0B
FB
F8
C7
C0
C8
0E
FA
07
F6
E3
EF
FF
ED
EE
F7
FB
20
21
28
17
1A
EE
DE
F6
F6
03
F5
00
1A
FF
F9
FF
01
26
11
17
08
D9
E3
DB
EF
FA
0B
23
00
0C
04
13
FE
E0
15
10
01
18
14
1A
0D
25
10
FF
F1
0E
EB
0F
F7
00
D0
DD
03
00
09
23
08
16
07
F5
11
E8
F2
F2
F1
12
15
27
37
20
20
06
10
FE
F1
F6
F6
04
E1
E5
0D
FF
17
0E
1B
08
17
19
03
DD
F0
05
F8
1B
16
08
1E
28
04
0A
03
FA
FC
0F
03
FC
DF
FC
00
2A
1E
07
24
10
00
09
0A
ED
11
07
19
0A
0A
0E
1A
03
11
23
06
FD
09
14
0D
FC
E6
DF
F7
F9
08
0B
0C
FF
F5
16
01
F2
FF
FA
F6
14
EC
1B
16
06
F6
20
04
19
FF
F5
F3
E7
EB
E4
EC
F4
F5
09
EF
EA
00
15
EB
0A
09
13
12
03
F0
08
1A
08
E8
2D
20
26
F9
E7
E8
D0
D5
DB
D8
EF
EC
11
00
01
11
FF
0F
06
0C
01
0C
05
09
02
1C
08
E1
27
1C
08
0E
EC
DD
FC
D9
E3
E2
04
05
19
02
08
FE
FD
1E
0F
01
FC
05
00
F5
F6
10
E8
DE
F2
13
0E
16
FF
08
E5
F6
C7
DB
E2
F7
07
04
EF
00
06
ED
07
0D
F5
11
EE
ED
EF
E1
EB
E4
14
FF
0B
F1
07
1C
1D
09
EE
F1
FA
12
03
01
FF
F1
04
F9
F7
E0
E1
FB
E3
FE
DF
F7
EF
EA
00
17
09
01
08
04
37
08
14
03
F9
0A
13
06
08
F3
0D
F7
0E
E6
E3
F2
DE
E6
F8
F3
CE
F4
EE
19
08
0F
0E
FA
09
10
1D
11
24
00
11
F9
F7
09
05
17
05
07
F9
EA
EC
FF
0F
FC
E1
F7
1D
0E
FF
0D
F6
F7
0B
1C
10
37
1F
26
22
20
18
01
ED
04
F8
FD
D9
E5
03
07
F5
EB
EF
F1
F7
09
02
02
ED
03
FC
F1
ED
F9
EA
09
0A
2D
FF
E7
E3
ED
15
FC
E7
F9
FE
FD
E4
EC
EE
F5
0A
F1
EF
F0
FA
0A
0F
FD
EF
F1
E2
D7
F2
02
FD
F2
EF
D4
F8
EE
E3
E4
E6
07
F5
10
F8
0F
02
EE
FF

