0C
02
F6
03
10
10
F3
F8
FA
03
EE
07
ED
09
02
03
0B
01
F2
05
EF
0D
12
F1
FF
0D
FF
0D
08
0C
12
12
04
F6
07
FC
08
10
01
EF
0A
FD
F0
F0
03
F3
10
0F
F9
F8
EF
05
0C
12
00
00
06
EF
06
F0
0D
FF
FB
04
0F
FD
10
02
FD
0E
07
F1
EE
F7
E5
07
ED
06
01
F0
0F
12
F5
FC
FD
0E
F7
FA
09
FA
FB
FE
03
09
01
EB
09
07
EF
E6
03
FA
F5
E8
FC
01
07
EC
08
09
0B
F6
EE
09
06
0F
10
13
26
22
0A
01
01
01
E6
FC
FB
F4
FE
DD
E2
F3
0E
20
3B
23
2A
F0
F7
F2
12
04
0D
09
00
2B
29
0A
08
0F
E6
F1
DB
EB
E3
E9
E4
F7
E4
02
FC
1A
25
1B
20
F4
E5
F8
F6
F2
F7
23
13
F3
0D
14
0D
15
05
CE
E4
ED
E6
CD
F0
DF
E4
E9
06
03
05
02
1A
03
0E
02
07
0A
EE
F2
F6
F6
05
FF
F9
05
F1
F3
D0
BF
E0
CD
FD
FF
FD
FE
FE
02
17
0F
01
02
21
04
0F
F7
0C
FC
FC
08
03
F8
FD
0B
04
FC
EC
DA
D5
E9
E6
E6
E3
FB
09
2D
26
23
04
0E
29
0D
FA
FC
0C
11
09
0E
13
0B
05
FD
05
E5
E3
E2
E4
E9
EA
06
0A
FC
13
12
17
0A
0B
0C
2D
F6
FC
1D
0E
F6
F4
1E
16
07
F9
16
0D
F1
E9
F6
DB
03
FE
0E
03
22
10
10
0A
27
20
18
3C
F7
03
0C
17
F7
20
1F
0A
F5
0E
FD
EE
F9
FC
F6
F6
04
0F
04
17
0A
09
01
02
11
31
18
1E
FB
07
EF
F8
19
10
21
FE
F5
FB
16
F5
E5
00
F4
00
0C
07
17
10
02
05
E9
EC
FB
F8
E7
02
EE
03
FE
10
10
17
F4
F5
02
0C
12
18
02
F7
09
05
FF
EB
F2
03
07
D6
FC
FB
F5
FC
FB
F0
F5
FB
F9
0B
13
18
01
F7
05
16
0A
05
F9
FA
F7
FD
04
0C
02
E8
E1
F4
07
0E
E4
DE
FD
FC
03
0D
F9
FB
1F
18
1C
F3
11
1C
EF
FF
02
F9
0F
FB
FF
EC
D5
EE
DF
F5
1F
12
FB
EA
EC
E9
FF
F9
F6
07
FF
F3
2A
15
0E
FA
FA
12
01
1A
FA
E2
E0
FA
FE
EA
EC
09
16
0B
02
EA
16
01
FA
FD
F2
F2
F3
15
1F
15
FE
E3
F8
0B
16
17
D9
F3
D6
EA
DC
ED
F3
04
06
FE
E2
02
11
12
04
08
F3
08
F5
00
F4
DD
E7
00
FB
2E
0A
E9
F1
D0
FA
F6
F9
EE
14
15
FD
0B
02
05
FC
05
08
12
0B
0B
DD
E8
04
E5
03
FA
17
11
FF
FC
E0
D8
EB
E3
F8
E8
06
FF
1B
02
0C
F7
00
06
FE
FF
08
02
E3
F3
0A
0D
03
06
16
FA
09
E1
EE
E0
F4
D7
06
07
F1
FE
FB
FA
1F
09
EC
05
FE
FF
F1
11
EC
FC
0F
04
02
17
0B
11
E8
DC
F2
E0
ED
E0
FB
EF
06
F5
01
18
15
E9
FF
04
FC
FA
F1
EF
F0
EF
0F
03
04
0C
FC
F3
E3
D5
E9
D8
E0
D1
F0
01
F4
00
1B
12
05
E2
0E
12
09
EE
F8
11
00
0A
1D
1C
11
21
09
0B
F9
ED
EF
D3
EE
E8
FD
F5
F3
0C
36
29
F9
E4
F6
F9
F0
0B
02
08
05
18
16
FC
00
11
1F
F3
F8
F6
04
E6
16
F7
0C
17
14
30
17
20
F8
EB
F7
02
09
12
FD
12
05
F3
FD
D8
F3
08
18
F7
ED
07
0A
0A
01
0C
F4
00
09
FE
0F
14
EC
0A
08
07
F5
05
F2
09
F2
F7
1D
0D
06
F0
05
04
09
04
00
05
03
03
15
F0
F6
E4
02
FE
03
0C
04
0D
01
0D
0F
01
09
0F
F1
09
F6
F9
10
04
EF
EF
0E
F8
FB
F8
02
00
0D
FA
19
0B
0A
0E
FB
F3
02

