7F
73
71
05
6E
03
0D
09
09
05
7B
71
1C
78
7A
0F
0E
04
0C
7C
0B
07
11
00
74
7F
04
73
74
79
09
04
02
77
1B
05
05
04
02
01
0B
1C
79
65
68
7B
21
09
0E
1F
16
23
0E
03
06
7F
73
0A
01
0F
14
12
14
16
7C
78
74
06
74
52
70
7C
72
7E
2F
0D
6F
6D
14
0C
07
6A
6F
6F
73
01
09
19
19
19
1D
1F
05
08
08
27
02
0A
0E
09
77
04
7F
7F
30
27
22
12
79
03
70
76
02
7D
73
0B
0A
12
04
0E
08
71
11
0A
24
79
06
08
78
7B
03
78
15
21
14
7B
00
72
20
09
7C
12
6B
02
0A
12
74
0E
14
09
6C
76
7E
78
77
07
74
0F
08
79
62
65
5F
54
7C
6F
21
17
79
0C
1B
17
0B
06
00
10
13
7C
6C
19
76
7F
74
6B
6C
0A
71
76
70
7F
5E
5F
03
17
05
23
06
14
07
1B
77
6E
16
7A
15
00
75
10
04
6E
76
11
6E
7A
07
10
77
62
65
6B
75
16
19
13
74
1A
0A
12
6D
16
08
01
09
79
0A
0B
05
1C
18
7E
14
78
09
08
0C
7D
13
14
24
19
75
7A
7B
1A
71
12
05
05
13
6C
7D
0D
02
00
08
18
11
10
05
16
01
06
0C
03
1D
0B
34
31
1B
23
17
06
13
1A
14
04
10
0B
15
17
0D
24
13
1B
04
05
04
0F
0F
74
16
18
13
04
1B
3B
0B
0E
13
10
1D
28
0F
1A
12
0D
07
16
11
0F
0C
78
6E
7C
71
0C
16
7F
7A
02
0B
13
15
67
31
2E
09
7C
0D
11
26
10
11
11
0D
0E
19
7E
09
6E
71
11
7E
01
0C
11
10
05
09
77
00
00
1B
21
05
79
16
0D
14
1F
1C
0A
76
7F
1C
0B
63
76
0B
7E
0C
0A
0B
16
0B
7B
0D
6F
09
7C
7D
73
6E
16
14
0B
12
14
7F
05
10
01
1A
1E
7C
6F
6E
0E
08
7E
1A
0A
11
7E
18
1B
0B
51
5F
65
10
78
6A
74
15
1D
03
7A
0C
7C
1E
26
73
6F
07
70
5E
7D
23
1D
20
0F
0E
7F
7E
77
68
76
0D
02
07
06
03
12
04
07
06
0E
0D
15
71
7C
7D
77
6C
04
7E
1A
21
78
10
67
78
5D
6D
57
7A
78
6A
0A
0F
20
03
03
13
71
7E
7E
7E
09
0D
69
71
09
79
13
18
08
01
09
6F
5E
5C
56
1F
0C
12
7A
07
15
06
78
70
01
79
08
79
76
6E
06
0A
0C
7C
15
1A
7D
6D
6F
58
57
78
72
73
05
1E
7A
06
17
11
74
7B
7C
6F
0B
77
6F
7F
5C
61
02
04
21
18
03
70
5C
7E
5D
65
01
11
11
7E
76
78
0F
71
08
73
7F
6C
75
05
00
75
6F
71
78
77
24
7C
5D
72
66
01
03
02
76
76
06
68
65
65
79
07
7C
7B
7E
73
76
07
7E
74
07
76
73
19
15
0E
03
72
4B
6E
68
71
72
79
70
00
66
7E
5E
62
7F
79
6D
69
7E
0E
6B
6F
0C
11
0E
0C
18
70
73
02
68
5B
01
6E
12
08
7E
04
76
1A
7D
6C
6B
77
63
07
0A
7C
7F
6F
1D
20
0F
78
01
7B
01
09
6B
06
73
69
01
7A
6E
7C
09
06
26
1D
0A
72
08
76
12
00
02
7E
0A
17
08
70
7A
04
04
7A
06
65
02
09
6F
77
77
7F
07
28
0E
0B
07
10
78
08
10
13
0B
0E
7C
11
1D
03
21
79
09
1E
12
05
6A
02
75
77
0B
6E
00
67
07
0F
0C
23
1F
04
75
78
2C
13
1F
09
21
2E
3F
2C
2A
10
71
6E
09
04
0D
7A
73
01
7C
00
7E
11
03
7E
04
1B
0A
17
03
12
01
07
2D
08
2B
11
17
17
2A
0C
01
7C
09

