04
FD
31
DA
D7
1B
C6
EC
06
D3
00
48
C8
DB
04
18
11
20
D9
F6
F6
BC
E9
FC
E2
1F
16
EF
F4
FF
13
F9
EC
ED
D9
FA
38
05
2B
F9
E1
21
14
20
23
1D
20
1E
04
EB
82
21
1A
2D
2A
1A
FA
F9
C0
DF
E8
1B
C0
D5
05
C9
EF
1D
E5
01
EE
19
2B
08
0A
12
1E
36
0C
D6
14
EC
14
E6
06
FB
31
2A
EA
49
19
E3
18
13
F3
F6
47
E7
19
F1
34
F9
FF
26
EA
FB
18
E6
F8
ED
DB
E7
0A
05
BF
12
DE
01
00
3E
15
FC
1E
ED
19
22
23
FA

