3A
F2
10
FE
00
D6
E6
FC
0F
E8
D4
BD
D2
EF
26
F4
DA
BC
F1
1A
0C
F1
F7
E8
F6
35
F0
25
01
E6
C8
E2
0C
28
28
22
F6
2B
22
15
D9
0E
3F
F2
0E
17
FD
07
27
28
B9
22
05
0F
EE
DE
38
06
ED
F8
28
0E
E9
F2
04
E9
11
1E
2B
DF
10
0C
28
20
CB
FF
1A
0C
16
11
09
E8
EC
16
CC
20
12
15
05
2A
E3
11
F5
26
22
2A
00
F0
F3
E7
0E
FF
F6
11
0E
0F
23
E7
01
14
49
09
EF
F4
05
F5
F6
EA
09
EC
0F
FB
21
DC
24
F4
E5
37

