74
7E
7D
00
71
77
7D
01
72
0D
7E
78
00
0E
16
02
76
0F
6E
0D
0F
7C
78
7D
76
01
71
70
7D
7A
12
6E
7E
7A
0C
78
16
73
13
00
61
79
1F
13
27
20
76
20
09
10
76
0C
00
6F
06
00
75
7A
6F
05
6C
0C
12
0E
1A
19
0E
1F
26
30
1B
19
22
20
34
1D
11
1A
78
0A
1A
11
0C
11
04
7D
6F
06
77
79
19
16
05
29
03
0E
0F
1D
7D
02
12
0A
14
33
08
73
09
0F
0D
7F
05
02
78
7F
05
62
6B
71
08
22
2E
39
2D
09
09
77
7E
12
0C
15
05
23
06
79
61
7A
60
60
7F
6D
12
08
29
04
0C
05
7B
7B
7D
7C
6D
06
08
01
7A
74
16
0E
1B
02
22
11
12
7F
1F
09
1A
6B
75
04
62
74
7F
6D
06
74
77
70
02
01
0A
7E
04
00
7C
0B
78
79
07
00
13
1E
0B
25
0E
05
73
23
5E
03
1F
7E
7B
14
78
0A
6F
77
17
7F
7E
00
1B
68
15
6E
6F
7F
0B
0A
00
7D
76
1A
6D
7F
7C
7D
08
7D
07
0E
72
74
75
72
08
75
7F
12
78
07
08
12
0B
73
77
19
67
68
22
10
78
72
0C
0D
7A
73
06
7E
74
63
77
6A
7F
68
00
02
22
16
64
79
69
70
7E
0D
7B
02
7A
65
79
00
6C
62
72
71
0A
06
00
71
75
73
73
60
05
0E
11
7B
7F
0A
67
0F
7C
0E
66
59
04
71
77
7D
5C
5D
07
6E
6F
7F
06
69
79
71
09
0B
09
06
15
04
05
7C
12
05
7F
04
0A
0F
24
79
6B
75
5F
76
6D
7D
78
12
6D
17
7C
6D
14
1E
19
6C
0A
75
06
06
75
7C
73
7A
1A
05
64
63
0B
70
6A
0E
66
0A
7B
72
07
7E
7E
04
7E
0A
7A
7A
6D
0A
02
7F
07
76
74
63
7D
68
04
05
12
7B
6E
7B
5B
6E
01
09
7B
5E
75
76
76
17
02
05
07
5F
76
7F
74
01
02
66
7F
01
29
06
72
05
1B
02
75
75
05
72
6E
5E
66
78
14
0D
25
06
78
65
60
6D
6F
6B
72
69
7C
0A
00
19
66
6D
0F
73
74
71
7F
69
71
69
75
70
15
1B
18
74
0B
6C
7F
78
57
11
12
05
12
1F
09
0F
7A
0B
7E
77
6E
73
0C
08
7F
08
0B
13
0F
15
78
03
68
7E
77
11
03
76
03
07
15
36
0A
2C
6F
00
72
19
05
7E
77
76
01
0A
78
79
14
7A
09
04
76
15
7E
03
0B
76
6F
7F
13
17
07
02
13
5F
69
04
7F
06
77
0D
0B
16
09
0E
03
07
05
1C
23
22
21
0B
1B
19
16
08
02
22
10
7D
7B
7A
79
15
71
6D
07
19
15
14
21
0C
1B
14
19
27
1C
1A
0D
1E
17
28
03
28
09
19
7A
6E
0C
7D
0F
16
08
71
04
16
0B
1A
0F
0B
1D
23
17
1C
0E
00
0F
03
7B
0B
15
14
0C
16
19
0A
17
74
6E
0B
05
06
7C
0C
0E
16
20
04
12
03
7D
02
71
06
0C
1A
02
08
70
10
0D
7C
24
6C
08
76
20
10
12
6B
04
71
11
01
7B
1C
2B
0B
07
0B
1B
79
1B
0F
11
12
18
18
7B
06
24
70
07
76
74
07
69
57
6A
6A
7D
6B
75
0A
1F
08
1B
13
77
7B
18
15
78
78
5D
60
1B
06
11
7C
02
13
10
65
55
58
6C
7E
74
56
7A
58
7C
7F
70
7E
7B
11
01
01
7F
78
5B
75
0A
04
7F
76
09
73
04
07
76
5D
62
67
55
59
6E
7B
65
59
66
7D
0E
13
18
5E
5E
71
67
04
11
01
6E
70
0C
10
0D
6F
03
71
7A
66
66
56
62
5F
69
5C
64
7E
78
62
5A
74
7D
75
67
79
74
08
05
02

