FB
09
10
EF
FE
F1
F1
FB
09
0B
FC
0F
07
EE
FC
F5
0A
13
02
F4
01
EF
11
F6
04
0E
02
11
11
0D
EE
01
0A
0E
EA
F0
0E
12
1D
03
14
09
0C
08
E9
F1
03
01
07
07
10
09
F9
F5
00
F5
F6
00
F8
FF
05
F9
FE
0E
0B
31
41
30
F4
C4
E0
F7
E5
CE
EC
1B
11
FC
08
F6
0B
05
EF
F4
11
02
FF
FE
E9
08
F2
02
EE
04
EE
FA
ED
C1
BD
E9
07
22
09
20
F6
E8
EE
FC
FC
13
14
02
0F
EE
F8
EC
FC
28
07
13
1A
29
FE
EC
F3
DF
F4
11
29
29
13
29
07
02
00
D3
E5
DC
18
0D
12
0F
19
1D
0B
2B
14
0E
40
1E
0D
DA
CD
B7
DA
09
1A
2F
20
18
ED
F1
01
FF
D6
FB
19
0F
0A
F1
FD
ED
E5
FA
11
19
1A
F1
F9
EF
BE
AC
C0
11
09
15
27
0C
E9
F6
09
F3
E0
FE
0F
0C
06
08
EF
F6
E5
16
0C
05
07
0A
12
E8
D3
C0
E9
18
17
28
1B
EA
EB
03
0D
E3
E5
F8
0D
07
0B
19
D5
F6
11
0B
09
F9
10
06
0A
01
D7
DF
E5
16
29
38
01
F2
D9
FA
E7
E8
DD
F9
05
10
13
0F
FB
02
0C
E8
EC
0B
FB
0A
11
ED
D0
CB
FE
14
2E
25
EC
E6
D6
CB
ED
F8
E7
FC
E6
F8
06
23
0C
02
0E
EA
E3
F1
FB
17
10
EF
EE
C7
F3
2B
2D
0B
EC
DB
E1
C8
E9
E0
05
DC
FC
12
0D
FC
18
0D
1C
F2
17
F2
F8
0B
06
EA
C4
E8
F7
19
23
ED
D4
E6
05
FB
06
09
F0
F4
12
FD
EE
0F
FD
12
05
F9
18
15
0D
0B
17
FB
D6
F5
12
05
0E
F6
EE
F3
13
0D
1D
08
1C
F0
F2
EA
16
12
03
0D
F4
FF
19
F2
FA
EB
FD
FD
E1
FB
F1
1A
17
FF
05
21
23
1B
0D
06
FB
09
DD
EA
10
FC
F7
F2
DD
25
02
03
FC
01
F0
00
07
02
02
0B
15
F7
0D
0E
0A
1B
01
FD
1B
28
F3
EA
0C
F3
1E
DD
F3
F5
FD
0A
EF
F7
06
10
0A
FC
15
05
03
10
0A
0A
F5
12
08
13
14
22
1D
F0
FD
F4
FE
C9
F9
01
E9
08
F7
F7
F9
10
12
F4
04
01
0F
06
EC
FA
0C
1B
F8
0E
18
13
EF
E4
0C
F3
16
F9
06
11
FA
F6
E5
1A
0D
11
EF
F7
06
05
EB
FD
ED
EF
07
1C
10
22
18
10
F3
DE
10
F6
EF
E0
E8
13
ED
D0
F3
30
28
FD
00
08
17
FC
FB
F0
F2
DF
F4
05
FE
E2
1A
F8
09
FF
FE
E2
EF
D3
DD
F5
F7
F5
F9
0A
FF
F7
F1
FA
04
FC
00
0C
ED
F3
FF
0A
F5
E9
16
1C
18
F3
FA
F3
FC
DF
EC
DB
F4
0A
08
05
14
F6
F0
F2
0D
FA
F7
16
0D
FC
0D
10
0F
10
07
FE
FE
09
16
14
D7
DF
E7
EB
FA
07
14
00
01
F4
FC
F3
F5
E8
0F
1A
01
F8
E7
FB
FA
F8
20
F8
F3
FF
13
01
EE
FB
DA
03
02
F8
07
11
F8
FB
0A
04
0E
FE
05
FD
F4
FF
E8
04
13
10
08
E9
24
F5
F7
09
F1
FC
F5
FA
F0
06
F4
28
F2
09
15
1D
FB
00
E0
F4
FB
0A
EF
FF
EE
0E
E6
01
1D
F4
F6
04
F6
EC
02
EF
E2
FF
F5
FA
ED
FB
07
F9
07
DD
00
1A
15
0D
FD
18
05
EE
FD
F7
05
FB
00
F4
0F
08
03
02
F4
DF
F1
02
DB
03
17
0A
FC
F4
EA
EE
F1
F8
F6
F0
DD
0C
22
0C
16
03
F9
F9
0D
0D
F2
E5
03
EE
FA
EB
DD
F2
C2
D8
DF
F4
D6
C2
E3
C3
C7
EC
DD
E6
F6
0A
FD
F9
FA
07
0F
F6
10
FD
FF
0B
0B
F0
32
0B
01
EF
EA
F6
E2
C8
D3
F4
EA
F5
F1
F5
09
FD
EE
FC

