FF
FD
0D
09
0A
EE
EF
0B
F2
07
0D
ED
0E
E9
EB
10
10
0C
0A
00
F9
F3
00
FD
06
F7
0E
FE
FB
05
01
0E
F1
0F
05
01
F5
FC
F5
04
FD
FB
E6
F4
F3
03
0B
15
E6
07
F7
FD
05
FF
F3
11
FA
FA
07
02
FB
E9
F1
F9
0A
DE
F1
FC
02
DB
F1
FC
14
00
EB
FD
08
EA
02
D4
EB
0E
F7
10
F6
03
F1
F6
DF
FD
00
F1
0A
E5
F8
F0
E9
E2
0A
21
0B
18
19
1A
19
0B
09
1E
00
E8
F4
02
FB
02
0E
0D
E3
F6
E2
F2
E5
DE
ED
EA
FE
FB
E8
0A
2D
08
0A
21
25
1A
28
FA
FB
FB
ED
08
FB
02
12
24
0D
F4
E9
FD
FF
FD
DE
F6
F5
F7
EE
EE
0B
FE
15
11
EE
03
12
F5
16
06
FF
01
0F
17
0E
26
0E
14
1C
03
0F
1C
0B
F0
F4
07
ED
FB
FB
EE
0E
11
00
33
09
FE
EF
FE
00
19
FB
3C
04
30
ED
F5
0E
04
11
22
05
0C
1C
02
EE
F3
E8
08
F8
20
1C
FF
FC
0D
0C
F5
EC
16
0B
FF
FB
0C
09
17
FF
05
0C
12
18
FE
0D
0A
E7
DE
E3
02
1B
1C
FD
FB
14
03
DA
01
E2
09
01
29
17
F6
FC
F4
F7
01
17
14
EB
14
F8
F1
E8
DE
02
1F
20
19
2F
20
05
08
BF
CE
EE
0B
F5
26
11
06
0C
04
E8
ED
11
07
E8
02
E4
F6
E9
D5
F9
12
28
22
24
16
0A
E1
A5
DD
D6
FF
F0
01
07
1C
FA
FD
F5
E3
E5
05
F0
EE
EF
F6
EF
F4
F5
0E
20
1D
24
0A
F8
E8
BC
CE
D3
0A
09
FE
00
0F
E8
ED
E2
F3
F2
D5
F0
11
0A
0B
E2
01
18
03
0B
02
04
00
FC
D6
EA
D0
04
F2
F0
08
14
FE
FF
0B
01
F2
04
EC
0C
1E
F5
F9
09
F5
04
05
25
03
ED
EC
F1
CF
E2
F0
E4
F4
F2
05
13
ED
FF
0F
F3
EA
10
FF
F8
00
0B
F8
F3
F1
F6
06
05
00
E9
FA
07
E7
DF
ED
EA
0B
0C
12
0D
E8
03
EE
EC
FC
01
F3
08
09
FE
F2
16
0A
E7
FF
02
FC
09
03
0D
FE
E2
E1
FF
0F
07
11
0D
09
1A
DF
FF
0E
EE
02
0A
E9
F3
15
13
0F
F1
F1
F3
09
F9
11
EF
E2
F6
CF
DA
F0
03
03
FE
05
1E
E9
F1
F9
05
ED
0B
1B
05
16
17
FA
00
F6
04
0C
EC
FF
EC
EA
FC
D9
00
FA
EB
13
0C
F0
01
F0
E9
EB
03
23
0E
0F
F8
F9
14
10
FE
F7
04
FD
EF
FD
07
E2
EC
E4
11
F2
F9
09
06
16
10
12
FB
FF
FE
13
0E
FD
EE
FA
04
FF
FE
FA
02
F1
02
08
FE
E3
DE
F6
ED
01
FD
09
24
19
18
F3
EA
F0
F1
F0
0C
09
0D
0B
0E
08
F2
F2
ED
F4
FE
08
F8
D4
F4
E4
F8
02
F1
02
FE
16
E8
F5
FC
04
07
EB
00
FB
FA
10
FB
11
ED
E3
01
14
F6
04
FE
E1
ED
F0
1F
05
0A
FD
07
FA
F3
F8
08
13
FC
03
EF
09
06
02
FC
16
F7
E5
04
EC
F0
F8
F9
E8
F8
09
18
05
FF
F4
0C
F5
F9
EF
06
1F
01
03
FC
0C
04
13
0B
00
F1
FC
FA
E2
E2
F7
E6
EF
E0
F1
F8
08
FA
F2
15
14
03
30
0D
0C
09
FB
F1
FD
F8
13
F7
F6
27
F1
ED
F3
E1
F4
FF
E8
E8
07
0A
EE
00
F5
DF
FA
1C
10
EE
F0
FD
09
1C
FE
15
05
ED
03
11
00
EA
E2
D6
DE
D9
F8
05
02
0A
0C
EE
0C
F4
F2
DA
D8
FA
E4
02
EB
04
03
E2
07
FF
F0
F7
F8
F2
EF
CD
DC
02
04
02
07
05
10
F1
FD
09
0B
0D
0D
FA
07
11
F9
EE
E9
E8
08
FE
02
08
08
0A
EB
EB
FD
F6
FF
FB
12
0E
0A

