59
FB
FB
1D
24
02
EA
05
07
07
CE
DD
C4
1B
29
00
E9
C3
06
F4
F7
D8
1A
EC
0F
F6
17
09
F6
A8
F8
04
E5
39
FA
20
21
21
FA
24
EA
FB
F7
FF
2C
16
FB
1D
EC
08
A3
0F
08
0A
1F
FF
FA
F2
FA
26
E5
EE
9D
DA
29
E7
C9
02
DB
F9
0B
1E
1E
FE
1B
EC
F8
FB
1D
DD
EC
E1
EA
09
DF
E3
F1
E1
FC
F4
13
0A
FB
1B
15
37
17
21
1A
E5
16
CE
23
19
F5
F4
00
E0
E9
18
38
2A
F6
E8
E2
1B
11
EB
17
24
20
F8
FC
09
27
EA
EF
05

