0F
FF
07
FE
FC
FC
02
F2
0E
0C
F2
04
F1
07
19
0D
04
03
0F
F2
01
FB
F1
F1
08
0A
FB
10
FB
F9
12
FA
FE
04
FC
01
01
F8
F4
0E
16
06
F8
0D
0B
08
FF
07
1F
0D
F7
F3
F8
0A
10
10
FF
F3
06
1D
0B
14
07
FC
1C
04
E6
E3
0D
12
16
FD
05
F2
F2
07
2A
25
1A
19
15
0A
FF
07
EF
03
EF
24
16
F6
12
F7
FE
F8
E5
F4
EE
19
4A
36
47
20
21
F2
12
F2
E8
1D
10
F1
FB
12
F8
0B
FD
FF
FA
F1
F1
F2
E8
E6
BC
FF
18
29
0F
F9
FA
F2
01
0A
E6
DF
D5
D6
C1
C6
DA
F5
F5
0B
E0
E1
FB
00
F2
09
0C
DF
00
FD
FC
05
ED
F1
F4
ED
11
06
D2
F0
E2
DF
D2
E0
06
FC
FC
EE
05
E3
EC
FA
0E
FB
DD
DA
E4
D2
E8
FF
F6
00
10
2C
35
13
F6
0D
F6
E6
BB
F6
F1
0F
06
05
08
E1
D9
EA
F4
FD
E7
DB
D9
E1
00
E9
F3
12
34
18
25
19
16
0E
EB
F7
F6
FB
E8
0A
FC
1C
F8
0D
F3
D0
E5
D3
FD
DC
FA
0B
0F
FF
0E
1A
1D
0C
1F
1C
20
05
00
0B
E4
EB
0B
0F
F4
12
04
12
DF
DA
F5
EF
E3
0A
FE
0A
FB
01
1E
1C
0C
F0
DA
14
0C
14
15
12
19
1B
0E
12
07
E8
16
00
C6
D3
E6
DD
EA
FB
F4
F4
03
19
24
E6
D9
B6
00
16
1B
11
22
10
08
DB
E5
00
10
03
0C
03
F1
D1
ED
0F
0A
05
00
1C
F2
0C
FE
CF
CE
EF
F7
1B
13
21
0F
09
FC
01
31
14
F2
EC
3B
14
FD
02
F0
EF
0A
16
08
F1
CC
B0
B1
E4
09
12
15
14
19
0E
1B
14
0B
F6
07
12
F0
FC
0A
0B
FD
E3
EB
F1
EC
05
11
F6
C2
D4
03
08
1A
0C
19
1A
10
0C
13
16
F6
2A
03
11
FA
F9
FC
EE
DE
EE
FD
06
F1
F6
F5
F8
F1
F3
1B
0F
FC
04
02
10
03
FE
E9
F3
E4
EA
10
F6
F1
FA
C5
DA
E9
FC
0B
E4
0C
EA
08
09
F2
05
11
20
06
06
F3
03
F3
EC
E9
E7
FC
D7
03
0C
0E
F4
DA
F1
02
0C
03
FD
F1
17
14
01
10
EB
F3
08
03
FF
EF
DB
D0
BA
D4
E9
02
F8
F4
02
10
06
08
E1
02
0B
E3
02
10
0E
16
18
1E
00
12
03
0A
F8
F0
FA
CE
BB
CA
E2
DE
EE
13
04
10
EC
18
FD
E8
DF
02
13
10
FD
16
17
FC
10
05
10
EF
13
0C
FA
CB
DB
EB
FA
F1
FE
F3
F4
0D
00
01
E8
0A
E7
F5
ED
10
16
04
ED
11
16
11
EB
F1
03
03
11
E2
F7
E1
F1
05
0F
F8
EE
0D
05
08
E9
08
EB
07
1B
04
F5
09
EB
0D
00
0D
02
EE
0A
F3
05
E0
E3
E9
FE
EF
FA
07
0D
00
02
EF
F2
F6
EA
FC
07
02
01
EB
F3
06
10
ED
FB
E6
02
0F
F1
D3
C9
E2
DC
EE
EA
CA
12
E9
FC
0B
E2
FA
FC
0B
09
FD
F2
FA
E6
01
01
00
F5
F0
F8
FF
EF
F1
DF
E7
DE
EC
F3
D2
11
0E
01
F6
D6
D9
FB
FC
00
F0
DF
E3
D8
E3
02
E3
F4
10
0F
FE
FB
DB
EC
FE
DE
F5
FE
F6
0E
0D
F2
EB
07
25
32
1A
23
22
FE
F1
05
EC
09
EE
05
06
0C
DE
F7
F5
F3
E3
D2
F1
EA
06
FE
08
0F
0F
0B
23
45
27
3C
25
1F
27
0A
1C
1A
11
13
09
0B
06
00
03
F9
F6
FC
14
FB
FA
FB
FC
11
EE
03
1B
2D
2B
35
34
2A
3E
08
FD
22
2B
FB
27
FE
0F
25
33
09
F5
EF
DE
FF
F5
0D
FC
06
FE
0D
0F
FF
F9
13
1D
21
12
30
1C
06
17
1E
F9
07
13
15
0D
13
0C
0F
FE
08
FA
0E

