96
CD
04
07
F1
2B
3C
F3
E5
1F
5D
4D
29
17
20
1F
FD
1C
10
13
D8
25
E9
1D
1E
D3
24
4B
15
35
20
46
F4
BF
BF
BA
D0
F2
EB
EE
0C
16
F9
F6
DE
13
CE
08
E0
F0
2F
F8
CF
FB
FB
BE
F1
11
2C
EF
EF
1D
14
FB
E1
32
35
09
5B
F8
07
1C
10
0E
E2
27
E7
FE
0D
44
18
EF
DE
DC
10
CE
F7
DA
E8
ED
F9
18
08
1D
E5
F6
EF
03
F4
1A
E9
3C
1C
E3
03
11
2B
18
FF
EF
18
E4
D2
E2
FC
EC
DE
FE
03
24
F0
00
49
41
EB
F5
E5
F0

