C9
10
1E
29
11
02
3A
24
1E
31
2C
B9
43
FD
01
D1
D7
FA
02
0D
FC
5D
1E
06
FE
03
DD
FF
33
33
EA
22
EA
E7
E4
E3
F5
FF
F3
05
03
00
FC
01
ED
E3
ED
0D
17
F0
4B
F6
F4
D0
DE
32
00
23
00
09
4C
1F
68
01
DA
17
F8
13
26
EA
25
FC
15
1B
E6
0B
09
28
F6
F8
DA
1B
08
E7
F2
0C
2F
11
EF
F3
1D
F7
E7
28
E8
EC
F9
EF
02
F8
1B
32
10
11
15
F1
F0
0C
29
F3
19
2A
FE
FA
E9
01
19
00
F0
E3
F2
23
F4
21
06
E9
F3
EB

