07
0A
01
FB
12
FC
FB
F3
00
03
F8
0B
15
F2
EB
FB
FB
FA
01
0E
0A
F6
0E
F5
FB
FB
EF
0D
F3
F0
01
F8
12
FF
F9
06
F1
04
03
04
04
06
09
03
F7
F2
FF
19
0F
23
1D
0D
07
00
F1
07
05
06
02
03
0B
04
EE
03
F5
1C
14
04
EA
CB
E8
EF
EC
E2
E7
17
22
15
2E
F8
04
03
03
09
0E
F5
0D
07
FF
07
13
09
0F
F8
22
F3
DE
E2
EB
E4
01
0F
10
07
16
0D
11
1A
17
F7
E8
0C
EF
07
29
14
0A
F5
E3
EB
0A
03
FD
DA
E5
10
EA
E4
F0
F7
04
08
1C
0F
13
FF
15
01
FE
FB
F6
10
14
0E
1E
06
F9
2B
08
FE
ED
F7
14
0F
10
05
0A
FF
00
FC
FF
15
13
F3
21
14
01
FB
0B
1D
19
F9
0D
08
15
0E
F7
01
EF
08
FF
27
0A
EB
FB
03
05
1B
23
0E
07
1F
20
21
04
0E
01
3F
F7
0A
E2
0D
08
02
10
14
FC
E4
EF
F6
F8
F4
FF
0C
1B
2C
2C
09
FB
11
0C
02
F6
16
09
23
12
03
FB
06
FA
09
08
09
EE
0B
0C
FC
E1
E4
FD
16
19
15
04
18
1A
10
E3
E9
F6
F1
01
11
07
08
F4
02
FC
0C
02
03
EC
01
E0
DB
EF
ED
0D
14
2E
0D
1A
10
0B
FA
EF
05
19
24
01
0C
E9
02
11
F4
ED
04
EE
F2
EE
DE
E3
F0
FA
16
1F
35
2D
14
0C
02
FC
F9
EE
F1
11
04
04
0E
E9
08
FF
F9
F1
F4
02
F8
D9
DC
DB
2A
30
12
1C
23
16
04
EB
04
F5
0B
11
F3
0E
0C
0A
F5
02
01
01
23
05
EC
F0
FE
DE
EF
19
25
1B
0C
07
FB
F2
FA
D3
E4
02
F4
F2
E9
EA
1C
0F
11
03
11
04
1E
19
E5
FB
EC
EC
F7
0F
2A
2C
04
04
EC
FC
DD
EB
E2
E9
E6
E5
05
E7
F1
F6
12
F6
FB
03
21
F6
F4
FB
F8
03
0F
0A
1F
13
0E
EB
F9
EC
04
F7
FF
CC
D9
E7
01
F6
E6
0A
1C
11
EB
08
EE
EC
09
F9
EA
EF
1C
09
06
08
FE
EA
03
07
05
04
F7
E4
ED
D9
FF
E9
E6
F7
08
06
E9
F7
EE
04
FC
F4
F6
07
23
16
1C
03
F9
FF
0D
27
1F
F9
06
E2
F9
E6
D8
F4
F4
F5
0F
14
E7
F0
EB
F5
03
0D
FA
F6
26
1D
16
08
D7
03
04
12
0C
0A
21
03
14
F3
F5
04
D9
E4
11
03
FA
E1
F1
F1
F2
0C
1A
17
0E
FE
00
DB
F2
FD
F7
FF
F3
11
18
F6
EE
DF
02
13
F4
00
01
00
FE
EE
08
0D
F9
F8
07
19
0B
02
0F
D9
E1
FA
F1
E2
03
17
0E
05
F2
E3
E0
EA
09
11
02
EF
1B
07
F4
FA
0C
04
ED
EB
FB
0A
F8
06
F8
E6
ED
FD
21
22
32
F8
D1
D0
E9
02
F4
07
08
0C
06
09
04
28
1A
FB
E0
F9
F5
FD
EF
0A
DC
E3
04
E4
00
1E
0D
16
BB
D6
DB
DF
0B
F6
08
F8
05
0E
12
17
11
F1
03
01
10
0D
F5
F7
FE
08
F7
EA
FF
E3
FC
F8
D3
E1
F1
04
F4
F0
FD
11
0E
0F
26
11
19
0E
FB
F0
14
F9
27
1E
12
F4
02
F9
EA
FA
EC
EB
DF
F2
F6
26
0E
0C
0B
09
0C
02
1D
31
22
FA
10
FC
09
20
14
1F
07
1B
07
FD
E7
01
04
E6
CE
ED
03
DE
12
F1
11
E3
FE
1B
04
F5
EE
EC
04
13
1E
26
13
F0
DF
F7
DC
FA
00
F3
C6
BC
DE
F4
F1
E2
F7
10
F5
0E
FE
D6
F7
EA
DD
06
07
16
24
ED
19
F7
CC
E0
08
D2
D6
D7
CE
E0
F5
10
13
07
07
00
F8
06
F3
0E
14
03
05
F7
E5
ED
D4
FF
F2
EF
00
F4
F8
DD
FD
F3
02
D9
05
F5
01
01
0E

