45
1D
DC
D8
01
FC
09
F9
F0
39
09
AE
0F
16
08
FD
1C
EB
FE
26
E2
A3
05
17
E6
CE
0D
E5
F7
FC
22
DE
0A
0F
F6
26
29
F8
F7
17
0B
20
40
08
F0
14
E5
12
F4
BA
E9
FF
E5
13
07
FF
DB
FB
3B
CC
1F
F0
CD
00
0C
D3
F8
D3
CC
0D
1C
EC
F0
10
C0
0F
1A
31
23
DB
10
16
07
17
C1
F7
0F
EB
29
05
2A
08
EE
2B
30
FF
0B
3E
23
DA
1F
F6
E6
2B
0D
02
E4
32
F8
24
C8
DD
C8
32
1D
0D
26
1A
EF
0F
3E
E9
E0
CA
2C
D8
F7
57

