F8
05
FA
08
F1
02
EF
FB
10
02
02
F8
0F
11
E2
F7
F8
EF
04
EE
FF
12
EF
FF
FC
0B
FD
F3
F8
01
02
0B
09
09
0D
FC
0D
FB
0A
2A
12
18
2C
20
0F
25
0B
1D
07
10
03
05
FC
02
10
10
05
04
07
01
EE
F2
0A
0B
01
16
12
08
FC
3D
0E
10
06
0C
F9
17
1D
FF
07
00
EF
E8
F7
06
12
F0
08
05
FA
07
02
FD
FB
EB
F3
04
DF
F6
2A
04
F9
16
06
2A
F2
FA
E6
0C
F0
DB
E4
F9
0A
F8
08
E1
D5
E1
05
07
FE
EF
FC
EC
FB
14
F9
F4
0C
0A
24
03
F8
F8
01
14
EC
DC
F6
26
0C
11
10
F1
02
EC
F7
F6
06
E7
F5
E5
FE
F4
0D
FE
F2
02
22
05
02
F5
07
FD
EF
E1
1F
21
10
E9
F5
FF
E5
F4
05
FA
E0
F3
F5
F8
05
21
09
16
F4
0C
F4
DA
D3
EE
E8
E2
FD
E3
FB
0A
10
F9
FD
F1
FF
ED
F0
D8
DA
F0
E1
FA
05
28
22
1C
04
0E
EB
F2
E5
0C
02
F9
0B
1B
09
F6
07
1B
EA
EA
FA
F5
FE
F3
E6
FB
F3
05
06
12
27
03
F7
13
07
E0
F0
FE
08
ED
18
0C
E7
FA
F6
0B
16
F7
FE
12
EC
0B
D8
F8
E6
EC
20
0A
0F
16
0B
13
0B
EF
F2
12
FA
02
F6
E9
DE
07
07
13
26
03
FF
19
FF
06
CF
FB
07
F5
05
FC
F3
F2
F3
03
05
FF
13
28
04
FB
F0
E3
F5
12
02
FF
E8
EE
E3
01
09
F4
DD
03
FE
00
05
F7
D7
E0
F3
F9
00
13
05
02
FE
EB
DF
E3
00
F4
01
FF
D0
03
F5
08
18
02
08
05
0F
0B
20
ED
F5
D9
D2
03
FA
0F
F6
EE
F9
EA
03
DE
DC
03
F8
0E
FC
0D
FF
05
07
06
F2
F8
FC
13
02
EE
EC
CF
F3
F9
FD
F4
F5
E0
D8
F8
F5
EF
F9
F6
17
F6
05
09
FB
1A
F1
0B
02
FA
F7
1D
15
FC
CF
DA
FC
F1
F8
E0
F5
F6
F1
02
26
01
17
06
19
0E
18
0A
ED
FE
E1
01
FA
F0
16
16
13
F4
C4
D8
E9
FF
E0
E5
FC
00
D9
EE
06
09
12
1C
F2
F4
FB
0E
EB
FC
FB
02
E9
F7
1A
1A
0E
ED
D9
F9
03
F9
FB
F9
FE
08
03
F8
2E
26
2D
24
F4
ED
EF
E8
E4
E7
F9
FE
FD
13
0E
27
04
09
E7
FD
16
0D
15
20
13
0B
1B
08
1D
40
1E
16
EA
0E
FD
F0
F1
EA
F3
F1
F3
16
07
06
13
05
E0
E9
F6
0A
25
28
15
14
0D
05
11
26
F3
F0
0B
1E
05
11
EA
EC
0C
13
F9
03
04
29
1F
0A
EF
13
0C
1C
16
18
1B
10
08
FD
F7
0E
16
07
FC
17
0A
FB
F3
EC
05
FB
05
03
0C
26
28
13
F6
0C
FA
10
01
20
0C
28
1E
1A
E0
02
27
0E
05
F3
F5
FF
FF
07
DF
03
02
0E
12
0E
09
12
FC
F4
00
F5
FD
F4
11
13
3D
22
F6
26
3E
08
04
FD
0E
18
02
FE
F7
E8
08
0F
14
FA
07
FB
06
F7
E9
F3
F2
03
FC
1C
16
03
ED
1E
26
FC
0A
F0
04
03
FE
00
0A
F1
06
0F
07
0E
19
02
F7
FF
F6
E4
E1
DE
F5
DE
C7
DC
F0
13
23
F4
FE
11
12
F2
0F
23
0B
08
F1
01
FB
FA
F8
E8
FF
F6
F1
02
05
D5
D8
E0
DD
DB
FB
09
1F
0A
11
11
F2
02
23
0D
ED
07
0F
15
0B
FB
CC
D3
A1
CD
FC
E5
F4
D8
C7
E1
D6
E4
F8
1D
18
13
12
FF
F5
F4
E9
F4
EE
14
30
10
29
1A
F8
C6
F0
46
3F
12
FC
FB
C5
D9
F6
F4
09
0C
0D
0F
F4
F1
04
07
FC
FE
FF
0E
05
0D
FF
08
13
11
10
24
E9
FD
E3
ED
05
08
03
10
FA
08
04
03

