F4
FB
FA
EF
0D
FB
F8
02
09
00
09
F7
09
16
0D
F7
06
00
0D
10
FC
FC
0B
0B
07
04
01
0E
0D
02
F5
FA
0E
0B
F5
10
FE
F5
F8
ED
F5
EF
F1
F4
01
1A
F2
03
EB
03
FA
F3
0D
F1
EE
F0
FD
FE
EE
01
FC
F5
F4
10
19
38
29
0C
0D
FF
10
F2
07
04
02
CF
DF
02
03
15
12
04
12
09
F9
0F
03
F9
FA
11
02
01
22
2D
1F
17
16
06
1D
1B
F4
FC
FA
00
F2
E7
03
F6
00
07
F2
F0
F5
0A
EB
FB
E1
02
12
05
03
04
1E
1A
0F
F6
EF
0E
04
F3
03
F9
0C
1B
0D
1F
EC
03
02
EC
F8
FA
FB
05
F8
03
07
EA
0D
29
24
1A
06
02
05
0C
08
F9
01
E8
FE
F2
09
14
F6
F6
D6
F8
08
0F
FC
0E
0E
1E
17
00
27
24
31
26
24
05
16
08
17
EF
FF
F0
0A
0F
FD
FD
0E
02
03
00
F6
19
07
26
09
07
16
0A
10
0E
27
09
15
23
15
FA
20
1A
1B
17
0A
05
FC
15
0D
EA
06
E9
F2
04
01
0C
0B
0B
FE
19
1C
16
2A
23
31
28
2A
17
03
06
0B
0B
0B
F0
0B
08
E6
F3
12
08
04
F4
08
E9
FC
18
0F
02
08
20
21
F9
11
06
F8
FD
F7
F5
FA
F5
F2
DF
10
0B
D0
E4
F7
11
11
EC
04
E7
F7
F9
07
12
10
F3
EE
C9
E0
C3
BB
D0
08
FF
ED
EA
E5
EA
0F
D2
E7
05
14
FA
0E
F5
07
EA
F8
F1
FD
F1
E2
D7
CE
C6
AA
A5
C3
FB
0E
0E
FB
D5
E5
F3
F4
EC
EF
F5
04
ED
0B
14
EF
07
DF
E2
D9
DA
C4
C6
C9
C0
D8
E7
D0
E9
06
15
08
DD
E3
1B
FF
E7
E6
03
13
FF
00
1A
17
05
E8
D8
BD
B9
CA
C5
D1
D7
F1
18
0A
F3
0B
FC
FB
F3
07
F8
E6
EA
EA
F9
04
FA
14
FD
0C
EB
E2
C1
E1
E1
DC
06
F3
03
1A
FC
FE
F0
FD
F3
FC
FA
01
04
FD
D8
E6
F8
1D
F9
17
F6
DC
02
D5
F2
E1
EE
FC
F7
03
14
1A
03
EF
F0
F4
F2
FD
F8
EC
05
DC
E2
F8
F8
FA
15
11
EF
ED
EC
DE
EA
09
FF
07
02
07
EF
0A
0F
0D
0D
F8
EA
F3
E6
EE
F7
F1
F8
F4
0A
EC
10
0C
11
11
01
F9
FC
05
09
07
FF
F1
01
F2
FF
11
15
00
FE
E0
0B
F3
02
EB
F1
F3
08
1A
F8
F2
00
0C
1B
15
19
F4
1B
03
FE
06
05
FB
F2
F8
0F
03
F7
FB
03
09
F5
D9
E6
10
24
2D
FF
F2
F4
12
1C
31
04
00
00
FA
FF
10
04
0B
06
F8
10
F8
F7
E5
0B
0F
05
E9
DD
15
1A
0C
0F
11
F6
1D
12
0A
0C
10
05
EF
0D
16
16
0F
17
FC
0A
0A
14
0D
F4
03
16
FE
FC
16
FE
17
F8
FA
12
10
05
17
F8
F5
DE
00
F2
25
07
02
05
FB
09
1B
0A
11
F0
09
18
03
31
18
1A
16
F0
F7
0E
08
FA
1C
08
0C
F8
05
F8
0B
03
FF
03
FF
20
0B
0F
E2
09
18
03
10
3A
1C
14
0D
0D
08
13
0D
E8
EE
0E
19
19
16
15
FD
0F
0F
0A
1C
1E
05
EE
EA
EA
FF
13
15
2B
0A
25
03
12
F4
ED
00
FD
11
0A
FF
1E
1A
13
DB
FE
1F
1D
1A
21
03
F2
F3
F8
F7
F0
15
12
23
1D
0D
FB
08
F4
F3
14
12
1B
04
0F
0E
19
0B
FF
09
EC
01
1F
18
05
05
E7
FB
EA
FB
F8
14
F2
FA
F3
FA
11
07
00
09
E4
0A
30
1E
ED
EE
04
0F
0C
0F
12
20
F3
12
21
F3
ED
E5
EC
02
FC
04
02
00
FB
F8
11
0D
01
0B
09
19
0F
23
1D
26
24
1C
1D
20
1F
0F
F4
07
F7
F6
01
F4
0D
FB
0D

