01
0C
0D
FE
0B
F4
FD
09
FC
0E
04
07
08
EA
F6
07
05
F9
FD
FF
FC
F3
FB
01
02
FF
FA
F6
0A
F5
FB
F3
FE
FE
1D
0A
05
FE
00
25
03
F8
11
18
FE
05
10
1D
03
FB
0D
F7
0C
F2
07
FC
0A
03
0B
FC
FE
F3
15
20
24
1F
1B
04
F5
DC
F0
FA
EF
F8
EF
F7
F7
13
FB
17
FB
11
11
0A
06
00
F3
FE
02
00
1E
3A
18
F3
F3
ED
DF
DF
F7
FA
EF
0A
30
0E
E8
09
FA
FD
EF
11
F4
08
10
09
F4
FB
20
1D
1B
06
F7
E7
E0
FD
F3
F4
EE
E9
06
05
F8
F8
0C
11
06
F8
EF
03
E1
F5
F0
09
12
13
FA
26
FD
28
35
03
F5
F6
FE
E6
F8
FB
24
0C
00
F3
D7
F3
E9
05
D1
0E
D3
F4
FD
06
0B
17
08
1B
06
0D
0F
00
DC
DE
D5
F7
F9
08
22
FE
07
FE
09
EC
E7
F0
EB
F9
E1
F4
04
03
FC
06
04
1F
09
1E
04
1B
F7
F7
FE
EF
0F
1E
05
17
03
E7
0A
D8
FD
FF
FD
E0
03
F6
F6
02
16
0E
2F
19
14
11
1C
FC
06
F4
05
FD
16
2D
0A
F9
DE
E7
D8
E5
FB
13
02
FB
F2
01
10
27
0D
15
39
02
05
13
03
FF
0D
DA
E6
0F
1B
1B
02
03
DB
EF
E2
FD
0B
12
0C
F2
F4
FE
F8
34
2F
13
0E
FB
F6
F4
FE
0B
F3
FC
07
F3
12
FB
05
06
FC
EB
EC
04
FD
07
EC
F9
EF
F7
11
15
33
05
17
0A
F3
07
05
0E
16
F4
02
09
FB
0C
F0
EB
ED
F3
EB
F4
FF
0D
DC
F3
FC
FE
FF
28
1F
08
0A
19
00
F6
FA
13
F7
F7
FB
FB
F5
0D
FD
F5
FC
FC
F4
F2
F8
F8
0F
F3
1A
0A
0C
14
31
01
0C
06
05
02
FD
05
10
F0
D8
D7
FE
FF
F7
F7
0B
FE
FD
FB
F9
FD
FB
EB
F6
0F
F0
1D
25
10
FA
2F
F9
F0
FD
03
05
FB
E3
D2
F0
F7
0E
22
FA
16
04
F4
01
13
F1
F9
F0
FC
F3
0E
44
2D
E9
17
16
13
ED
08
0C
03
E4
F5
D9
F0
12
26
1B
1A
FA
F9
0F
04
FB
FD
1E
0C
12
FD
28
30
F7
1D
22
28
03
FE
F4
FA
E2
CF
F3
17
1C
0D
03
09
09
02
14
02
0D
D8
FA
ED
0A
07
09
0F
2F
15
12
05
E9
0E
FD
F8
C7
CB
F5
20
1A
23
1D
FB
0B
0B
10
01
19
D3
03
F6
FC
04
26
F8
1B
F9
06
FE
08
FA
EC
DE
BD
CE
F7
09
1A
31
16
F8
19
18
25
FE
FC
BD
F8
06
F4
15
1C
EE
1D
FA
05
11
05
FB
F4
E4
B5
CE
02
10
15
1E
18
FD
ED
ED
EF
E4
F3
D0
F7
FB
03
FD
FE
F1
0C
15
EF
14
00
FA
ED
EC
C6
E9
03
27
2E
14
0B
DB
E6
E5
DA
C6
ED
D0
00
03
05
14
09
FE
F8
0B
14
E8
04
FB
EE
E5
E4
DE
17
1F
0D
03
F1
00
F5
F1
E6
D0
E8
02
09
12
03
F0
0C
EB
EE
F8
F5
E6
E0
F7
D8
D6
E9
FF
FE
31
0D
0B
F9
10
E0
FD
DC
CA
03
03
0B
EF
F3
12
16
01
1B
05
F1
E1
DF
D8
C7
BC
05
F7
00
0A
0C
07
0D
F7
F5
F3
D5
D2
06
13
0B
0F
02
13
F1
08
0D
0A
DF
DD
DA
CA
B8
E9
DD
00
12
08
29
21
18
0D
FC
F2
E8
EA
0C
0E
0B
FA
F6
ED
DE
F5
F8
19
F8
F0
F2
D4
CA
00
EA
F2
03
1D
10
06
17
F2
FE
FB
FF
E1
DC
02
F3
05
EF
F8
F2
0B
F2
0E
FB
16
01
DA
D6
07
0F
F2
07
F7
00
EA
12
FF
DD
E5
D9
DF
FF
EF
0F
FC
FC
0E
FB
10
03
12
06
FB
01
1D
2D
0B
20
09
FD
02
1B
21
0D
08
19
F3
02
04
F7
F1
0D
01

