EF
FD
FD
03
EF
EE
0E
FA
F7
F5
07
09
E2
09
0C
13
FA
EF
08
08
F0
03
07
F7
12
F5
05
F0
03
F0
F1
FE
EE
F3
FE
03
DE
01
FF
E8
ED
DF
C8
DE
15
FA
E2
E1
F6
F9
E0
F7
F2
11
F7
02
00
08
0C
F4
05
FC
F9
EE
E9
0B
FD
04
06
0C
01
1E
1E
32
0D
09
0B
F4
F4
EA
EE
EC
F1
0A
F1
EF
0A
F7
00
EA
D2
F0
F1
F8
DF
09
01
0C
1F
09
2A
26
08
17
1C
22
07
15
12
2B
11
EF
FB
FE
E7
FB
EE
FD
F4
EA
E1
FA
F8
F8
0F
09
17
0B
17
09
F8
06
EC
15
14
35
2C
12
0E
F1
FC
FC
F5
E6
F6
16
0A
EE
EC
D8
E2
EC
FE
00
0B
1B
21
13
0D
F8
F5
19
07
1E
0C
16
0A
FF
F4
12
FA
F1
EB
07
09
EB
E6
F8
D3
CA
D8
EB
16
12
03
EB
FB
E4
E2
E2
03
0E
E1
00
FE
F6
0F
20
05
14
13
EF
09
04
EA
EA
EA
FA
DB
EE
07
0D
FA
03
00
DE
E7
F7
EA
E2
07
3B
1F
F5
10
0D
F1
0B
17
E7
EC
0B
F0
E1
F5
EE
C8
F3
ED
0F
FF
E5
E9
F7
07
EC
DE
04
1F
F0
FF
F4
0C
17
F1
22
F5
E7
EA
EB
E8
E9
E8
DD
D8
D0
EB
E9
F4
DF
EE
F1
07
02
21
0C
11
F8
04
E5
09
01
01
12
02
EF
F8
FE
14
E6
FC
D1
DF
D0
ED
F0
EB
E6
12
0B
0A
06
24
07
EB
F0
19
EB
EE
08
FB
FB
F4
14
0D
1A
0A
0D
F0
F7
E2
E9
18
0D
09
E2
F8
0E
FF
00
11
09
EB
2A
1A
13
0C
02
F5
1A
D8
01
06
0F
0C
FC
28
23
2D
0E
00
04
FD
EF
07
12
FB
FF
1D
F0
1D
28
0B
1F
E7
F0
17
08
DD
FD
0B
FC
0A
1A
2F
34
2F
27
08
11
FC
FC
FA
0A
0D
18
0B
FD
0E
2E
1F
2A
FF
FD
1E
1A
03
11
FC
14
1F
15
1D
1A
34
0E
0C
F6
17
0B
09
02
F3
FD
0B
18
07
16
2C
16
15
F5
15
2E
EF
05
12
0A
1C
25
0D
03
20
10
17
29
01
21
06
10
03
02
08
16
17
02
19
0F
03
F2
F3
06
0C
FF
0E
2A
2F
28
08
05
EB
1A
1E
32
25
10
10
19
10
20
03
FA
05
0E
31
22
F6
08
FF
F5
2C
13
34
0C
2E
19
EF
E3
07
FD
15
15
12
1D
12
0F
21
2C
01
FE
04
0E
08
FC
FF
FA
F5
03
1F
2C
18
13
0E
02
DD
EC
FA
FE
09
0D
0D
FB
FD
FE
19
0B
0D
FC
06
EB
FE
16
01
DD
05
F9
15
42
1B
19
1A
DF
C8
D9
D1
CF
E9
F5
EC
09
0B
FA
EF
11
1C
1F
F1
E2
F7
FB
FC
DE
FC
EA
0F
1C
FA
06
05
DE
CD
E6
DC
DE
C3
F9
00
07
06
DD
F4
04
16
F2
F2
D3
FE
0B
ED
EF
F9
EA
12
1A
0F
1B
19
0C
06
E3
DD
D1
DD
F1
F5
F9
EF
E3
01
FA
FE
01
EE
C9
1E
03
FC
07
EC
F2
F6
12
F9
0F
1B
14
0B
05
13
FC
E1
FB
E6
F4
F4
1A
FD
03
DF
DF
00
E3
01
0B
0F
0F
F8
0D
FC
FB
03
0D
FC
FF
00
0A
ED
F1
03
F0
EB
F2
F9
EE
E8
05
DD
D8
DD
DB
01
07
01
FC
F6
D4
C5
DB
FA
E9
0E
F3
E8
DF
FA
EB
EA
F9
FB
F8
EA
F7
EA
EB
D9
BD
F4
F7
F1
00
0E
F8
F6
F2
E4
C9
E4
DE
D0
D6
DB
F1
D4
F2
F1
01
DF
DE
00
DA
D7
D1
DF
E5
FA
EF
FC
EE
11
06
FA
0A
CF
D3
B2
B6
BE
E9
D1
D7
D0
F7
E1
F6
DC
DF
DB
D5
C0
ED
12
E2
FD
F0
12
0A
F1
09
EE
12
FD
F5
F2
EC
00
E9
D1
D2
DD
DD
E0
E0
0F
F5
E9
FA
0A
19
35
11
F8
03
F9
03

