00
F2
07
10
00
EE
05
0B
01
0C
F0
04
F9
F7
EC
F7
00
08
08
FB
0A
00
0E
0B
0F
09
F9
F4
07
10
0B
04
11
EE
EB
EA
09
0F
23
07
0D
14
03
EA
09
16
22
FE
F6
0F
F9
E6
EF
08
F2
F6
04
0E
05
07
14
F7
08
F5
E5
DB
EA
FF
E5
F6
03
0F
06
0D
10
10
FF
E0
EC
F2
FB
FA
04
0E
13
F9
FC
04
E6
0F
11
FA
F4
D4
F6
DA
E9
07
01
FC
01
00
FF
15
21
0D
FA
0F
1E
07
0B
FE
0A
F0
19
18
ED
F2
38
2A
0C
0B
04
07
FF
16
1C
19
FC
F6
04
0F
17
F5
E7
FE
0E
F5
DD
F4
FE
FA
08
FB
EA
0B
17
F9
00
27
08
13
F0
19
1A
15
07
FB
E5
EC
FE
F6
F9
EF
21
05
0D
08
FA
0A
F3
04
0D
FE
F8
0D
1A
04
EB
10
0F
08
11
18
0E
FF
09
05
F3
E3
ED
D5
11
08
DD
E6
FA
E2
EF
13
07
FE
05
02
0B
08
07
FD
19
17
0A
19
20
1E
15
01
0F
0B
ED
EB
09
17
E7
FA
FE
0E
CF
F7
DF
05
FC
1A
07
08
0F
EB
03
0A
08
01
09
05
15
02
04
0D
F5
E5
28
FF
CD
FB
05
F0
ED
DD
EA
F7
FB
08
1F
25
0D
F7
F2
F7
F9
08
00
F3
01
08
24
04
FD
E7
0B
01
F9
F0
0E
E7
01
E4
15
06
F4
06
10
17
0F
EB
D5
D4
E2
F7
0D
1B
01
0F
05
1C
0E
FE
0F
F3
00
04
15
11
13
F2
E6
FF
F9
0B
0D
1F
13
DB
B0
CB
CC
F1
EC
00
F7
F4
0A
0D
E8
E8
F6
02
0C
F3
01
00
13
E8
E7
F3
03
03
1C
2B
00
E2
CB
CC
C7
FB
0A
02
FE
01
EA
05
DC
E5
F5
F3
FE
03
F9
06
0E
EB
03
F9
11
FF
27
22
33
F8
DD
D0
C0
F2
F0
F9
FA
FD
00
F3
F5
ED
DE
DB
EC
EB
FD
04
11
06
14
16
03
EB
1E
27
2D
15
DF
CE
CC
EC
E6
EF
17
05
F0
E6
E3
EA
1E
F3
F8
FF
02
FA
02
FF
F0
1B
FF
0C
0E
24
24
0F
F6
EE
D4
02
DF
DD
01
02
04
08
F2
F8
FA
EB
F8
F4
0E
F4
ED
EE
EE
FD
F6
0C
19
07
15
F4
D2
D2
03
00
E6
D3
E6
FA
FF
0E
FD
F3
CF
0C
13
F8
F1
F9
E8
DE
16
F9
07
EF
11
19
0E
ED
DC
DB
10
06
07
DA
F7
F0
FF
0B
06
FE
08
DA
EC
D5
0E
F0
CD
ED
F1
FC
E2
F2
19
1B
FA
DD
E0
E1
10
FB
FC
ED
0C
ED
13
17
05
0C
05
DB
DF
E1
EF
10
0A
11
02
F5
00
FB
17
26
08
F2
EF
F5
19
0A
04
1C
16
07
00
28
0E
05
FF
FC
E0
EA
0F
F2
0D
04
11
F8
F3
17
21
0B
17
F1
11
08
04
1C
FE
08
F2
0E
19
16
11
FA
E2
02
E9
08
12
09
09
28
22
2D
FF
17
FF
02
06
05
00
09
18
08
F2
06
F6
F7
19
04
06
FB
FA
FF
1F
08
03
0D
F5
2C
16
06
FE
00
FE
F7
FF
03
02
0A
EA
EE
05
FF
08
FC
0B
1A
14
FF
D9
FA
3D
FF
00
0A
EA
0E
2C
0F
FF
16
19
15
0A
F2
F2
EB
FE
F6
FA
E4
E8
EB
06
F5
01
08
E0
05
EB
F1
0E
0B
1B
ED
EE
06
09
F4
02
03
FB
03
F3
10
FA
FE
E6
F1
ED
F3
00
DF
DF
F3
F2
EA
0F
07
08
F2
CD
1D
01
E2
FE
0F
32
1B
FA
FB
02
09
2D
21
13
E5
ED
F3
C3
E6
FD
14
16
0E
00
10
F3
08
10
00
2D
FF
F7
1A
32
12
FB
19
0C
F9
15
15
F9
0F
3A
38
08
14
12
F5
0E
FF
FE
F4
F1
10
0E
FE
F6
20
42
36
4F
3D
55
27
22
4A
19
40
21
32
00
09
1C
38
13
25
FE
10
0B
F3

