F0
0F
F5
F2
08
03
01
09
0F
09
12
12
0D
0E
0B
F3
FC
FB
0C
F5
FF
0A
0F
FB
08
0C
EE
FD
F3
F5
0A
05
01
EE
0B
F5
F8
FB
D3
FB
18
FC
ED
06
02
1A
10
15
FC
06
F4
05
08
0F
0D
F2
0C
05
F9
1E
16
0C
07
F5
04
FD
D8
DE
0A
F7
D9
FF
FD
FD
0B
FF
EA
EA
01
1E
06
F6
05
09
09
07
FA
12
FE
05
EA
EF
E7
E9
FC
FC
0E
F9
25
09
1D
21
FC
FA
1C
18
F9
F1
F2
0E
FE
01
F6
10
09
01
F0
FE
DD
F4
E1
D7
DA
04
10
1C
0D
20
06
08
0A
F3
EF
FE
FB
F5
EE
FC
12
F2
02
EE
FC
07
03
ED
FE
EB
D6
D4
DC
08
05
1A
F5
07
FB
04
FE
00
0B
04
0A
F7
F3
EC
EB
E7
0A
08
00
03
0E
FC
F7
E1
D9
EC
09
E9
F5
0A
07
DF
F5
06
EC
0D
0D
F9
1F
F1
09
E9
FA
DD
07
0C
FF
0E
EC
E8
EE
E5
E6
E7
F3
F4
FE
09
F9
F3
0F
02
02
F7
FE
05
09
2F
12
F8
18
E9
01
19
02
F1
E4
FC
F6
FB
D0
01
FF
F9
12
0F
11
25
1A
22
1E
03
0E
10
13
10
25
0A
08
0A
07
13
0D
1A
EF
EA
E7
F2
F6
06
F4
F3
01
01
0C
02
18
28
FE
F9
16
09
25
38
16
23
00
09
14
12
1E
FD
00
D5
FD
F4
ED
13
F5
F9
08
12
15
1F
23
12
16
EF
FF
17
23
1D
22
2D
33
E6
0D
FB
17
02
F6
E2
F7
F8
F1
F1
F8
F2
0F
13
10
1A
14
08
F8
FB
FA
16
13
1D
23
08
3A
EC
14
F4
F7
FE
F8
F0
EF
0D
F3
19
0F
07
0A
04
0B
11
F3
FA
16
F7
04
EB
F1
13
00
04
03
DE
F5
17
0B
12
F0
1A
15
E7
02
F6
01
FC
05
F7
EC
F2
02
01
0B
F6
00
E6
FA
00
F2
02
02
FC
F8
08
0F
1D
03
18
21
03
FE
F1
06
00
F3
EA
E1
D9
E2
08
0B
07
FE
05
EE
05
25
E4
F4
EB
F8
0C
0A
06
21
1E
19
1C
FF
07
E6
DE
F7
D7
D9
E8
FB
0E
0D
0B
00
ED
07
13
1C
E5
08
06
E4
08
F9
FA
39
17
04
0B
10
E8
F0
E6
D5
E5
EB
05
02
0A
0A
FC
F5
E5
F3
CC
D4
DE
E5
17
06
0E
EE
19
29
24
FC
04
F0
FC
F1
ED
E1
E5
ED
ED
F9
1A
0C
0A
FD
E0
D5
E8
DC
D7
E7
0C
06
09
FB
09
0A
19
04
11
F8
0B
E8
00
EB
E3
05
04
16
1C
FA
E1
C5
C3
DE
E0
CD
DF
03
D6
EF
0B
27
08
0A
10
16
00
18
FF
FC
FD
0B
08
15
F8
08
12
EC
D4
BD
C3
DC
D5
EF
F7
F2
F3
06
12
0D
FF
ED
0B
11
FE
06
0A
16
00
0B
13
FF
0E
F4
F9
E3
AC
B0
D7
E0
EB
F2
F3
02
12
FD
00
07
EB
EA
13
2B
2D
24
00
1E
0B
F9
F2
00
EE
DA
CE
C8
B3
B5
CF
DB
F0
E7
06
39
06
04
0A
FD
00
E3
FC
13
0D
01
07
1D
00
FC
E9
FA
03
EF
D8
B2
C3
E1
C8
D8
E4
DF
0E
15
0A
05
0E
17
03
F7
EC
E7
F1
0E
03
12
14
0A
02
FD
FD
E8
D6
D6
E7
D9
E6
E0
FE
F7
FF
DB
FD
F5
06
F5
20
F6
1F
0A
DD
F8
EE
FB
F3
05
0C
F7
F2
F8
DE
EC
D8
E3
EC
E6
D7
EB
FC
ED
EF
FE
04
F5
0F
15
21
F9
07
0A
08
1E
05
13
FF
F4
ED
FC
FA
FA
06
FD
00
F1
E3
E6
06
F8
F1
04
0F
05
F7
D8
EF
0B
F5
17
0E
1F
14
FB
0F
ED
FE
F3
F1
05
07
08
FE
0E
F9
F5
FF
0A
FE
FF
F9
F7
F4
F3
F1
F4
04
F7
FE
11
13
0A
10
14
FB
F0
01
F4
14
04
FF
F2
11
0E
02
04
FC

