7F
7D
72
78
70
79
7A
71
74
74
0F
73
07
13
14
03
7E
0A
10
12
7C
02
7B
0A
04
71
0B
0A
0B
75
75
04
12
0A
01
75
1D
0C
1D
05
0D
17
03
30
19
19
0E
11
13
15
10
12
04
0A
74
0A
6E
01
03
21
1D
04
11
7D
07
7C
06
0C
2C
7C
00
1B
1F
0B
00
6B
02
26
0B
2B
10
00
7C
09
71
76
78
1D
14
7E
12
06
22
06
0F
29
2A
1F
78
75
1D
0A
23
7A
61
74
0B
05
1E
18
08
01
02
6E
28
17
20
72
7B
7F
7E
0E
7F
1A
36
02
15
0A
17
08
0D
7E
66
68
64
62
5E
70
78
14
76
02
0B
11
78
78
70
73
79
0E
73
19
7A
75
61
75
7B
76
7D
7E
79
61
65
55
51
70
04
77
7E
02
0D
7E
7B
4F
66
72
7B
79
03
07
6D
68
09
7F
13
22
25
06
7F
66
78
5D
5A
7C
5C
7B
08
02
08
7D
6E
4F
5A
60
6E
72
02
70
08
08
11
12
7D
24
0E
0E
7C
7A
7F
75
66
46
4A
06
0C
0D
69
67
6A
62
75
71
73
7D
77
02
13
14
19
05
0F
06
03
14
77
12
1A
7A
6A
5A
7A
18
12
11
69
72
7C
65
0C
79
00
15
14
18
1C
09
10
14
08
1A
7D
7A
16
7D
77
06
6E
6D
67
10
70
60
69
1C
02
7E
07
7A
13
03
16
7A
6D
1E
37
27
11
05
1B
7B
12
04
06
28
05
01
06
14
6B
03
13
02
7D
6F
08
18
17
0F
01
7F
09
16
18
0F
7A
7B
13
7C
04
7E
18
24
2D
79
23
24
7B
78
06
17
17
72
00
7E
7F
7D
0C
08
7F
14
01
0A
0E
13
0E
7B
09
78
74
31
20
01
11
1E
7B
7D
0A
0A
00
7D
7D
05
75
01
02
79
75
7E
11
13
75
72
01
75
0D
0F
04
1B
09
02
71
70
78
08
7B
1A
70
6F
18
00
79
02
72
73
6C
13
03
01
01
76
00
0F
0D
1D
22
02
7F
59
06
7D
01
78
66
74
03
1C
7B
01
05
00
0A
7D
6D
05
7A
00
64
70
7C
0B
7F
1F
7C
73
16
67
6E
00
6D
7A
76
7F
79
24
7A
7A
0E
10
12
73
03
05
59
5A
6F
64
6A
71
03
03
74
6C
78
64
64
1C
73
08
74
0D
71
7E
6B
10
0C
14
04
04
79
03
56
7E
77
79
6E
08
01
78
02
69
74
02
04
07
1E
70
09
6F
6D
67
7E
79
0C
75
15
7D
73
6A
64
67
01
01
01
07
78
05
7E
08
57
06
7C
06
6E
17
7D
70
7A
6F
03
6C
06
03
07
09
06
7C
07
79
73
07
70
10
14
7E
0C
76
68
7B
08
11
00
02
03
6E
6B
02
77
7A
61
75
6C
05
7E
01
06
76
7C
7A
0D
12
0F
12
05
7F
0D
18
7A
01
7A
79
7C
7E
5C
7D
11
1B
78
03
07
04
17
08
73
7B
07
03
08
69
07
66
6C
70
0B
6E
1B
11
06
79
72
16
78
04
09
7F
0F
0E
09
0E
11
73
7E
0F
7B
7A
7C
4F
01
68
0C
11
79
10
08
05
01
6D
1D
0B
00
7D
7F
02
03
0F
7A
79
74
08
6C
6F
73
03
66
63
6E
7E
1D
1C
01
78
6A
0F
71
02
05
26
12
33
7A
12
10
04
09
06
08
74
08
0D
74
7B
54
78
72
05
01
25
7D
7B
66
05
02
00
0A
02
13
38
12
31
16
22
0B
13
7D
19
15
06
12
0C
77
13
1C
17
19
00
7C
03
6B
0B
11
73
77
7C
09
3D
26
13
20
18
1D
22
34
30
3B
11
3B
2A
05
12
3C
17
18
07
65
71
7A
00
0A
78
75
12
03
0A
06
1C
0B
01
1D
14
19
0A
28
11
21
04
18
7A
68
02
1E
12
73
03
7A
09

