F3
FD
03
F9
FF
F3
FB
F9
04
07
0A
FA
00
03
FF
03
F1
0A
10
08
11
F1
F0
FC
F8
00
0D
F7
0D
0A
F7
FF
FF
0F
F1
05
F4
03
01
06
FE
EE
F8
E7
DA
DB
F5
F9
E3
05
08
F9
08
12
F5
01
FD
FB
0C
ED
F3
0B
E7
ED
EB
ED
EE
F7
EA
D7
E8
DA
F6
10
1C
EA
FB
EB
02
E9
0B
00
0E
0E
0B
FC
FD
E6
F2
04
CE
CF
F0
C6
C6
DC
D8
E5
DA
D8
E3
05
F9
FC
E9
E3
0A
0E
FD
EE
FF
F4
10
10
F3
FC
EA
06
D9
ED
E8
DB
DB
ED
F0
E3
D0
D7
E5
E8
E4
E4
E6
FF
EE
F6
0F
08
03
F3
F5
0F
EF
F0
F1
F2
E1
07
FE
FB
EF
ED
E4
FD
FA
F8
E9
E5
EA
F4
D5
E8
E6
EC
FF
E7
EE
EE
0A
ED
00
FB
F7
F7
09
15
06
0A
FB
05
F3
FF
F1
EB
0E
04
04
FB
FC
19
01
01
D8
EB
12
F4
05
DB
11
1E
EC
F0
F1
06
0B
13
FF
05
ED
02
F5
0A
11
09
05
FC
0E
06
11
FC
F6
FD
02
D8
F6
EF
0F
0D
F8
FE
23
03
03
F2
02
07
F1
E2
03
FB
F4
FE
09
FC
F8
05
FF
10
16
F9
13
FC
0B
0D
FB
FF
1F
F8
19
FB
15
0C
09
13
0B
F6
FD
1F
02
00
08
0C
08
F8
FA
F8
F2
EE
00
18
FA
1F
F7
DE
02
04
0C
03
05
00
01
1C
11
14
0E
1B
1A
0C
E9
F6
03
0B
24
ED
E6
FC
DF
FC
16
0F
31
16
10
00
0C
22
17
F6
10
12
0B
0E
1B
1F
06
F4
06
FE
08
24
06
EE
F9
D2
E3
0D
F7
00
20
0D
17
0E
11
0E
12
04
FE
13
0D
06
0E
16
03
FF
06
F4
1C
08
00
FB
ED
FA
F6
1B
07
0B
18
F6
2F
03
11
1D
15
EE
05
00
EF
16
14
0D
0C
F5
01
FC
21
1A
0B
F0
FF
EF
DC
FE
F1
04
1B
1B
12
F5
F7
04
FC
FF
08
0E
10
0C
0C
0B
01
02
07
0A
08
0B
11
08
E0
07
F1
02
04
F7
F9
1D
10
F4
0A
10
1A
04
03
06
F0
ED
05
1F
13
1B
21
1E
11
1A
24
F7
EA
E7
FA
E4
FF
F4
05
FB
1D
04
0A
01
21
F8
02
FE
FC
0F
02
24
02
25
07
10
0E
10
0F
13
FB
C7
DC
D9
08
15
F0
00
F7
23
0C
0D
13
0F
0A
F9
E1
FE
13
1B
04
F6
12
09
EC
0E
16
0B
0A
DC
CD
E6
04
FD
1E
EC
03
05
F6
01
EB
E4
CE
E4
DA
FE
FA
FE
F9
02
E9
DF
ED
10
EF
09
D7
06
20
15
FA
0F
17
E8
E8
D7
E3
FE
CD
C7
C3
C0
E5
04
F5
FD
EB
ED
D2
E0
F4
DA
E3
DC
D4
13
FE
15
06
FD
11
DD
E0
E2
D2
DE
C2
CA
D0
E3
FB
FB
0E
EE
08
FE
DC
E6
ED
F7
EE
F6
0F
1C
06
09
07
F8
01
C7
E6
F8
DC
D8
D8
F9
01
01
F8
0F
05
FF
09
D5
F7
DE
E1
EE
FD
FC
F9
0A
F3
F7
F0
F4
E9
DD
D8
D9
DF
D9
EE
0C
14
15
FD
03
0A
F7
02
EA
F5
E7
00
F0
E4
E1
E9
16
ED
EF
F8
00
F2
CB
CD
D8
DE
DD
07
01
03
FD
14
03
FD
FB
F9
09
F0
0F
13
0A
FC
F1
01
E6
F9
05
11
FA
17
09
FB
FA
EC
FF
03
F5
0D
0E
F8
F5
E1
EC
E4
EC
ED
09
1E
FD
02
0E
D8
08
0D
F4
F3
0B
F7
09
F0
06
01
14
1C
FB
00
20
FD
04
08
07
FA
05
F7
EF
17
01
19
DE
D5
F0
09
0D
FE
FF
07
00
2F
17
16
10
22
29
22
0D
02
0A
40
0E
02
F9
F8
1B
23
13
06
FC
E5
04
10
F8
F8
F9
12
F2
F4
06
1A
0B
1A
27
2B
21
20
10
25
1B
30
24
19
1B
33
12
24
12
F5
00
F8
01

