F3
03
08
10
F0
10
EE
10
F5
F0
F2
F1
FB
FA
FF
10
0C
FD
F9
EF
07
00
04
FA
F2
0F
FB
FA
00
FE
F4
EF
09
06
07
04
15
FE
FC
11
FF
FC
DD
EA
0B
1D
FC
E0
F7
F9
0F
F3
0D
0B
00
0A
05
06
EE
F4
F5
F5
FD
FA
24
00
FE
F4
1A
FC
DC
C4
EF
11
D5
CE
E4
D1
EA
07
00
FE
FB
0A
0D
ED
F1
EF
FA
E6
EF
F5
E9
F9
FA
1C
11
EB
D6
C6
D1
F8
C9
DB
D3
D1
FB
FF
F9
2B
28
FA
0D
F5
F7
E7
F5
02
EA
02
ED
ED
F1
12
1D
F7
00
04
E3
F0
EC
D7
E1
F1
04
FC
09
F2
E0
07
F4
02
DE
F3
EE
EA
EE
EC
20
F9
09
18
F4
03
05
07
D1
D7
0A
EB
C9
E3
DB
E4
D2
D5
EA
05
F7
EF
0F
01
FF
EE
EE
F3
1E
2D
0F
F9
02
07
F7
11
11
05
F4
DD
F1
08
14
E0
B9
CA
F3
15
00
DB
1C
0F
00
DE
E8
F9
0D
0E
EC
F5
04
FF
03
FF
08
00
06
EA
0A
05
08
F6
07
04
F8
F7
06
F3
F9
F2
F4
F7
F9
00
13
F2
05
00
02
00
0C
0B
0C
FF
0D
DA
E6
ED
F2
F8
02
13
F2
E3
02
18
F6
ED
F8
EB
FD
04
F7
FE
17
1D
13
0B
FB
FE
F6
F4
FA
F1
D7
DC
F5
FB
F8
F0
E9
01
04
F8
0C
CF
EE
0D
FA
F3
0D
0C
F9
F5
06
FE
1C
2D
18
09
FB
F5
D8
F0
D7
E5
05
DD
E4
20
16
14
0B
EC
E4
EF
12
07
15
18
0B
18
21
15
FE
08
22
2B
1A
03
DF
EE
E2
CC
F0
D7
D5
24
13
F8
09
F7
DB
EE
0B
06
03
18
F9
0E
0A
10
EE
06
24
14
2D
19
D5
D6
DB
D4
0A
07
00
1D
02
23
0D
DE
F8
E7
DF
F4
EB
F3
15
0E
0D
F9
EE
06
27
1B
25
10
B3
C1
ED
09
08
02
F9
0B
EA
FC
1C
D5
E7
E2
D6
0B
D8
FA
0B
F3
09
FD
DC
07
0A
2B
26
EB
B6
C6
F6
09
0E
1C
1A
02
09
11
E4
DB
0A
E7
F9
00
DA
E4
13
F0
F7
EC
FC
21
1F
27
F5
D4
C6
D3
FC
15
11
14
22
F0
0C
0B
DF
DA
08
E5
D6
04
E8
04
FA
FA
E7
E8
0A
18
20
15
F9
BF
E3
F2
08
0D
05
F2
28
1E
00
F5
0F
CA
E4
F1
F6
F6
01
06
10
F6
04
F8
FF
25
22
07
EE
E7
F2
02
23
1A
22
1A
17
37
1D
FC
04
DE
E6
FA
08
FE
F9
FC
07
FA
E9
F7
12
19
08
E0
EF
FB
FE
25
2A
1A
27
0A
27
31
05
17
EE
D5
FE
E8
DE
F2
0A
09
F5
0F
15
F6
0D
F8
E5
F9
EB
17
1A
20
0D
01
01
FF
23
24
F7
29
FA
C2
FF
F7
04
EF
EA
F0
06
03
1C
04
FA
F2
E7
EC
CF
FE
EC
E3
E1
EB
F5
02
23
08
00
FA
E9
DB
F9
F6
E6
E5
F2
1C
19
FF
07
FC
FA
F3
F3
DC
D3
E0
ED
DD
CD
DE
DB
EE
FE
EE
FD
F3
10
F7
CA
CD
E3
07
FF
0D
F5
04
FF
FF
E5
FC
F7
F1
E6
D7
ED
EA
E1
E4
ED
F1
06
F9
03
F2
FA
DF
B2
C8
01
0C
FF
06
F4
FF
14
FC
FF
E6
F1
04
F2
F7
D1
02
FA
FF
F7
E2
F1
EE
03
F6
FA
E3
DD
F5
F1
EC
01
DA
00
F9
FB
F1
F0
F2
08
F8
11
05
06
00
F9
09
0C
0C
15
0E
0D
03
FF
F0
F9
0C
10
29
F9
F4
FC
1C
FF
F6
0F
F0
15
04
0A
E2
E8
F1
FA
FC
EB
01
02
F1
0E
FB
0A
0B
18
26
24
33
30
3F
2D
30
2D
0D
2A
18
11
07
F7
E7
EE
E5
DD
08
F0
14
EF
F9
F7
F8
F7
04
0F
F8
11
FE
06
11
3B
27
27
1A
31
31
10
1E
27
07
FD
12
01
F4
FB
02
01
03

