F6
F2
F7
F5
F9
0D
F2
11
FE
11
0E
0E
0E
00
15
06
F8
05
F9
09
0A
0F
EE
12
05
EE
10
F7
00
13
03
04
04
10
0B
15
0B
01
0A
0C
03
F9
0C
F0
08
E7
F0
25
20
F1
F4
00
0E
0B
FA
0E
04
02
04
F5
EC
06
0E
09
22
1A
0D
33
10
1B
3F
24
27
FD
F3
F3
FE
0A
FF
0F
08
04
01
0E
F8
03
0B
0A
ED
EB
F2
E6
F5
09
FD
F0
F4
0B
05
01
15
F0
E4
0C
07
24
17
1E
E6
F6
F4
06
04
F0
1F
E9
02
EE
00
E3
0C
04
07
E7
08
02
08
F3
04
19
06
0E
1D
1D
0D
EC
D7
CB
F8
06
F7
11
0F
01
17
FB
F1
05
F9
E5
E8
F1
12
08
08
F0
10
24
01
0D
23
2C
FA
08
02
06
14
F3
F4
0B
EE
06
0D
F8
FD
E8
E9
E6
E4
FF
FF
0D
00
13
12
0B
09
F9
F4
19
0B
04
FC
11
FB
1A
0B
EC
0B
EC
E4
EA
F3
F9
F1
F1
ED
04
F7
13
00
08
F7
F8
FA
F7
F6
11
18
F7
05
0A
00
0F
10
F6
03
F3
E8
F7
07
13
13
F2
0A
09
06
1B
25
E8
DB
EF
FE
F5
F0
F7
F3
FA
01
ED
16
0D
08
05
06
07
F1
F2
EC
EE
EF
1E
2A
05
07
1C
1E
EB
E9
DD
F2
F7
13
0D
04
F2
F7
FF
F7
D7
F6
08
F3
FF
F1
08
12
06
FD
19
0C
24
0C
FE
F9
FF
DF
EC
03
03
1B
EF
EC
FE
E4
C8
DC
EA
F3
09
FA
ED
00
F8
FD
FA
F9
0D
FB
F9
15
FB
1C
0F
0F
FA
F6
10
09
03
F8
F3
F6
F3
0F
07
F1
04
08
F7
03
05
00
01
FC
0A
06
02
06
F0
09
F5
11
1F
08
08
FE
FB
EE
01
FE
FD
E0
F5
F5
0A
02
F4
DE
F7
0A
F6
E4
FB
DC
E4
00
05
00
10
03
09
D7
F2
FB
F7
04
EE
F8
14
0B
10
F1
03
EC
FD
E0
E9
08
F9
F3
C3
D0
E8
F5
0B
13
02
F3
E3
D6
DB
F0
E0
DD
EE
F8
28
24
FD
E6
F2
04
06
E8
FB
0A
FB
F0
F2
F6
03
FE
1F
2F
07
11
E3
E9
E7
EC
F3
FB
DA
EA
2D
12
0C
11
02
F8
0B
E2
E9
F7
0B
1B
12
18
18
03
00
21
12
F5
FE
0C
0C
F7
F5
F4
F6
FA
55
2B
1E
FF
FE
F1
EC
F6
D8
FD
F3
12
03
05
1F
00
FA
15
06
EC
FB
F6
FF
F4
11
15
13
09
38
30
1A
F9
07
ED
FF
ED
E9
0F
18
FD
FC
F9
00
E5
F3
0D
02
01
1B
11
EB
09
18
1C
FA
0D
1A
26
21
0E
FE
ED
16
E6
DF
F9
FA
FF
06
17
EE
F7
F0
FD
1B
05
FC
F4
F4
F7
F0
FB
0F
17
06
34
15
12
FF
E7
F4
FA
DC
E9
0E
FB
F4
11
EF
EF
EA
04
0F
05
05
04
0A
0B
09
EE
04
03
2B
1A
F1
F2
EE
E0
FA
04
E7
FE
15
0F
00
E9
00
01
17
FD
01
0A
FF
EE
EF
04
F6
FA
01
05
F0
FF
EF
F5
F2
FC
09
21
07
14
1D
15
F9
F3
EC
04
EF
F9
15
16
FA
FB
FB
04
1E
18
04
04
F7
E6
0F
F6
F9
00
E0
08
0C
20
04
F5
F3
E5
CD
F9
E3
E2
FB
0A
0F
13
25
08
1F
17
FD
00
F9
F2
F3
F4
0E
FE
D9
E6
09
17
F2
E2
EB
D1
C3
C3
CA
EB
06
01
FD
EB
06
FE
F4
EB
06
07
13
0E
04
F5
F4
01
F7
03
F8
F5
EB
DA
CC
E6
D9
B6
DE
0B
14
EE
05
FF
F7
0B
02
F0
F9
E8
2A
1F
0E
F4
01
11
E5
F7
21
FB
0B
04
12
EB
F8
05
F6
FA
17
09
F7
04
E8
01
20
10
19
06
0B
FF
0F
F6
FF
FB
03
16
FB
12
FC
05
03
05
03
0F
0F
10
16
1E
07
13
0C
08
1B
1B
EC
0A
02
10
05

