FA
09
C7
07
50
2E
FA
E7
07
F5
0E
08
B2
16
FA
03
30
32
9C
34
03
D1
25
03
A8
29
EE
E8
E6
F5
30
1F
F9
FC
36
27
2C
13
2E
D9
0C
2A
3A
1B
1A
F8
0E
BF
1F
60
23
3A
03
1A
DA
DD
1C
1D
AC
09
ED
F3
C9
EE
FC
F3
F7
31
F4
1E
08
FF
F2
EE
2A
0D
03
F6
E3
EE
31
F2
01
18
FC
3F
F9
CD
1C
BA
F6
F9
22
F3
F4
21
17
F6
01
1A
03
EC
02
F6
2F
FE
02
FE
E4
11
0A
F7
21
FC
E6
21
0A
0B
15
25
E2
D0
D3
EE
F6
E8
F1
B4

