03
00
F6
10
0F
08
F8
F4
09
0B
0D
00
1E
FC
FA
F2
0D
FB
FC
0B
11
03
11
11
EE
FC
F1
FB
00
00
EF
F4
04
F9
FD
17
00
13
25
0B
0A
1F
12
1D
1C
1B
1E
0C
19
00
09
0F
EE
08
0F
0C
03
08
0F
F8
E9
10
24
20
31
17
30
27
27
0F
2F
1C
EA
EC
F5
E6
EE
17
0B
23
EE
F0
08
08
EF
13
F5
FB
0D
08
08
19
05
07
02
1F
1C
1D
27
0E
ED
F9
09
0B
E6
EC
EC
F3
E8
F2
F4
F5
0D
0B
01
EF
0F
F9
15
19
0B
1C
15
03
0F
22
05
10
FD
F8
1B
1B
F3
FA
F7
F4
D4
DC
F5
FF
F7
EE
0C
FF
F9
00
11
0A
F7
0F
1D
FE
F3
0C
FF
03
0B
11
11
ED
FB
F0
F1
EE
00
DB
01
1A
01
F7
16
14
0E
12
E6
F4
06
E6
0B
11
0A
07
02
0D
01
E3
DD
EB
F6
F6
04
DE
05
E9
E1
F5
F7
04
FA
13
0C
10
FE
F3
ED
0C
13
2C
0C
23
09
F7
F2
FE
F4
FB
F5
04
06
0A
1A
F6
F3
DA
FE
F7
0C
07
25
0D
EA
E3
1B
FF
10
0C
0C
17
FA
10
EF
F8
05
05
F7
04
0F
10
14
FF
E9
F9
F2
0B
2B
F5
26
08
F4
17
01
0D
18
12
17
EB
E9
DE
F0
F9
02
03
16
0C
18
19
FB
ED
F1
19
06
F1
2D
0F
F6
04
08
06
1B
12
1F
06
F2
EA
E8
0E
22
10
FD
FA
13
0F
14
05
FF
06
DE
04
F9
FB
FF
FB
FE
09
F3
F2
11
25
07
FD
D0
CF
C9
F1
FC
09
07
04
FF
07
0A
FF
FC
FC
CF
02
F5
FD
E3
F4
EA
F7
03
0C
2C
25
06
EE
BD
C8
DE
E9
E7
F7
F0
EA
FE
0F
06
08
0B
00
DB
FD
01
FA
0F
F9
19
F5
13
19
26
23
04
C2
C1
F5
EB
EC
EB
DB
E0
E4
EC
13
12
1D
25
1E
ED
F0
09
EA
FF
09
1E
1F
13
13
1C
28
EE
DD
DE
FD
E2
E6
FA
E8
EB
F0
F4
FB
09
1B
21
07
02
11
0F
F9
07
15
FD
FE
0A
1B
1B
0A
00
EB
DE
0A
07
F4
EC
DF
FB
F6
0E
FE
01
F5
F6
00
FC
FB
01
EE
F4
20
F9
15
0F
2B
2C
10
F1
E2
E1
FC
F7
F8
DE
EC
E9
F1
0F
1C
07
17
01
21
F1
FE
0E
FD
0A
FF
03
26
03
14
22
0F
17
15
08
05
0C
EF
EF
05
13
FF
F6
1C
13
01
F9
39
EE
E1
06
0A
05
F9
10
09
FD
20
10
0C
0F
0C
15
0C
FC
E0
F8
03
F9
02
F5
03
02
05
F1
2D
FB
DF
EF
FA
16
06
18
07
18
28
1D
20
17
2E
16
FE
F4
0B
FE
1A
FD
E6
FE
13
0B
F6
DC
05
18
FE
F9
ED
19
14
11
F0
06
09
0C
18
08
14
0A
F2
08
FF
1C
11
07
04
FE
04
19
06
EB
0F
12
0A
FC
0B
01
0D
16
19
EC
03
05
1A
0A
0B
00
FD
07
18
11
0B
FE
0D
0F
13
1C
F5
04
23
3E
06
F3
F3
0F
0B
01
11
14
F6
20
1C
04
14
18
17
FF
00
01
15
01
12
20
1A
FB
FF
E0
0A
41
F5
03
10
0C
06
F1
1F
2C
0E
14
17
21
02
FF
F0
15
12
F5
F8
F3
11
08
ED
E7
E7
EA
FB
04
00
0F
04
EF
F5
F8
00
09
04
FA
0A
FB
10
02
E3
D5
F7
F0
04
F1
F2
F3
DB
EB
02
06
0B
0C
07
04
F4
1D
2E
44
11
E3
0D
12
FF
03
EF
F5
EF
E0
E8
F7
EC
04
D6
E0
CA
E1
D1
04
19
10
F8
08
04
EF
ED
29
F2
E9
F9
EF
CE
E8
EE
EB
D6
F5
0D
05
0F
06
F6
D1
D1
D7
FC
03
F9
FF
EE
F5
EF
0F
F3
16
12
34
16
09
00
25
21
0E
F3
05
F1
E0
F9
EF
03
0C
EF
F4
F1
F6
02
01
04

