F7
F8
0B
03
02
FE
0F
13
0D
05
0E
F2
18
14
0B
11
0E
0D
07
09
EE
0D
EF
EE
ED
FA
FB
FD
03
0E
F1
02
F4
00
09
1B
08
11
17
05
18
1A
14
12
04
02
05
0D
10
0F
09
0F
F3
FC
10
03
03
F1
0B
FA
DC
FB
FF
1E
22
06
0C
0A
F1
DF
E5
06
F3
F8
FB
FD
FA
0A
F8
12
FC
00
FE
03
FB
F3
FC
DC
F7
10
16
1B
F8
04
F4
E2
EF
EE
0D
DD
DB
EC
FD
06
29
00
1A
EA
1A
F1
1B
02
F2
01
F7
04
0A
08
23
00
DA
01
EF
E5
F5
F5
F5
ED
F0
EA
0F
FD
0B
DC
0A
17
0E
02
DC
FC
FD
FD
16
F7
13
20
00
EC
0A
F6
D2
E3
F6
F0
11
08
0C
F3
05
FB
F7
F2
FF
00
18
0C
01
02
F5
EB
E2
E7
16
22
0D
F2
25
D3
D4
E9
DA
F5
FF
08
09
FA
F8
D5
D3
00
06
13
0E
F1
25
15
0D
E5
F2
07
0C
22
14
02
E0
DE
DA
ED
D4
F0
10
F7
13
01
EA
C5
E6
EE
28
FE
08
0D
11
18
05
FE
07
F4
E1
1A
18
05
03
EA
E8
E6
F4
11
15
02
02
05
E6
D0
F4
FD
02
EA
FA
FE
13
F3
0C
FF
00
D3
DD
F9
0C
02
F5
03
DB
DB
E2
09
1F
19
01
F4
E9
F3
F7
E3
CD
EB
E7
F6
27
1A
06
F5
F7
EC
E5
0C
F8
00
FE
C9
DA
CF
EE
1F
14
25
03
FB
FC
08
06
FD
05
EA
07
34
2E
14
0C
17
EF
D9
DE
E0
12
08
FD
F0
EB
E3
FA
1E
1A
14
13
F6
F1
E2
F8
02
F0
E6
F7
0F
EF
02
F2
FC
07
E4
D4
DA
E8
F3
11
F2
F3
FB
21
10
1C
FA
0B
EF
E3
F2
EF
EF
03
D6
E8
E6
F0
E2
18
EC
DE
0D
CA
F8
F1
0C
0B
EF
0B
20
2D
02
F2
EE
11
18
07
EF
02
E1
0C
10
FB
EC
F5
13
06
04
FE
1A
E5
F9
10
02
0B
06
1C
0A
0A
02
F6
F2
27
03
0D
EB
D8
EE
02
20
16
F6
F6
F7
05
EF
1B
24
FC
EB
FB
12
EF
14
11
02
21
F9
F3
00
0D
0D
04
EE
F1
04
FB
0C
F3
23
E8
F5
F8
F6
29
06
09
EB
EB
1E
FB
08
F7
0C
23
03
FF
11
21
27
11
07
13
01
FE
0C
10
2A
F7
00
06
00
0A
F0
11
13
14
0F
FC
18
18
07
1B
1A
1F
1E
12
F2
0D
15
11
0F
1D
F7
FF
00
07
09
EA
08
08
FF
FE
18
F2
F6
0C
00
06
10
1C
28
1E
26
12
09
01
1A
0E
27
E8
FC
1B
EE
E0
25
FB
F2
01
08
20
F8
00
09
05
0E
FA
07
11
FE
13
13
07
E5
F8
FC
03
F9
01
17
28
00
02
09
F9
E5
EB
03
09
07
0B
0A
09
0B
EC
F5
19
06
04
08
02
E4
10
03
DE
DF
D3
E8
F2
E7
02
F2
0E
FE
D6
E9
FB
1F
0E
03
DB
00
F9
EA
F0
FE
FE
F2
F6
DF
15
02
DF
E7
E3
E8
0F
18
43
EE
F3
11
F3
FA
F5
02
F8
E6
D2
D6
F0
E3
EC
EC
E5
F5
02
F4
F7
F7
FE
F6
F8
0C
25
19
46
F2
F6
F9
07
FD
FA
E4
F0
F0
EE
03
F5
ED
F9
EF
05
0A
F3
ED
12
1D
F9
13
1F
1C
23
26
1C
F0
0B
F3
0B
0D
DE
D8
EA
F1
00
F5
E6
FB
DA
E9
F7
0E
F1
FA
FE
0C
14
44
48
1D
32
11
22
EE
F1
F2
0B
1A
E1
EB
E5
E1
D1
DC
ED
EB
C9
C8
DA
E6
C4
B0
DF
C2
F8
1E
13
1A
26
FE
0F
00
FF
FB
07
FD
F9
01
00
D0
13
F9
F9
F0
AB
AA
CD
F5
DE
D5
EC
E7
D7
FE
FA
FA
F8
02
F3
EF
0C
F7
03
F5
0D
0A
F9
DE
E9
F6
E6
DD
F9
DC
DC
FD
FF
E6
E1
E1
F9
01
EE
F3
FD
01
FA
03

