F4
07
00
05
F6
06
0B
FC
08
00
06
08
14
17
06
0E
02
FD
F1
12
F1
0A
04
13
FA
F6
0B
F4
0D
FC
00
0A
03
09
07
0D
00
06
15
02
0A
FF
EE
F3
03
E7
08
29
15
F5
0D
14
0B
FF
FD
F5
00
03
F1
E7
FC
20
1B
0C
1D
0E
0D
1D
1B
02
27
09
15
0D
FA
EF
F0
0E
0F
07
1A
F1
05
01
13
ED
F8
F3
01
25
2C
12
15
08
FA
FA
11
0E
1C
0C
12
13
FE
0C
12
F7
1E
03
EE
07
02
12
F7
F6
24
0E
0E
2F
21
10
0E
F8
FA
10
14
10
0B
EB
FD
E6
F6
10
08
0B
FD
0A
21
24
0D
15
03
FA
F2
09
21
01
15
09
FA
0E
02
15
16
11
0A
06
0D
0E
E9
03
F3
EE
04
08
12
1A
19
05
F6
16
FB
14
20
F1
0C
00
06
14
05
0E
F1
FE
02
1B
19
0E
F6
F0
FD
F1
F5
E5
E2
10
0B
05
03
18
1E
09
02
FD
13
F4
FA
04
0B
E9
06
06
10
03
0F
11
06
FF
FF
F2
E7
07
FB
F0
01
10
F7
04
00
09
0C
01
EF
0B
F2
E7
07
0B
FD
F0
F6
F9
05
EF
04
FA
08
F5
11
D9
F5
FE
13
F5
FC
0F
0C
17
FA
FE
19
F8
0D
F5
E7
09
08
E2
E7
F8
F7
14
FF
13
17
0D
0B
E5
E7
EC
03
E3
0B
04
D5
22
0E
10
0C
04
F3
F6
E6
EE
01
E4
04
D4
F2
EF
08
07
1E
01
0D
0D
FE
F3
DB
F6
00
F8
FB
1B
0A
F9
0B
0E
0B
FA
F6
04
F6
14
12
06
16
02
1A
0D
0B
00
FD
0F
0A
03
08
01
FD
EC
F2
E3
1C
2A
F4
0E
0A
F6
F8
14
04
0D
01
0C
02
02
F7
0D
FD
FC
01
25
06
03
F4
FE
F3
FB
E7
EC
0F
08
03
11
0C
EE
0C
05
19
1E
29
07
08
0A
FD
04
E7
02
0E
16
04
08
F4
02
0D
F3
FE
02
02
04
FF
10
04
12
FD
0C
1B
10
FE
14
1C
1C
02
15
F2
0D
EF
01
00
FE
E4
F7
03
F5
FD
FA
09
17
08
1B
17
F4
13
1F
13
01
13
1E
0C
0E
22
0C
FF
11
FA
04
0A
15
F1
01
16
09
1A
02
FD
FA
20
05
FE
05
10
1E
0C
0B
00
FB
1F
1B
22
05
EC
0A
0D
00
FD
00
CF
DE
EE
FC
0C
11
F2
F1
FA
F8
F4
F0
09
0E
F3
FA
F1
12
20
06
01
01
03
F9
01
03
08
DC
00
DC
0C
04
11
26
FA
F1
FA
01
E1
E0
DF
EB
00
03
EE
15
1F
1F
0D
F5
F0
FB
F1
0F
F7
E6
16
F0
0E
03
FC
07
2B
08
FD
F6
FF
DD
F5
D7
F7
EB
05
06
02
06
13
17
FD
01
FE
03
03
DE
01
F9
0D
07
02
26
1C
07
F0
ED
F9
E9
FA
EA
E1
F1
17
F8
00
18
15
03
E6
F9
EE
E9
02
02
F4
F3
EB
0B
14
00
06
01
FA
10
E7
00
EF
F0
FA
11
12
0E
F9
02
02
EC
F8
FE
EA
D7
EE
E0
DF
0A
09
04
F9
0E
F5
F0
F0
EF
F0
F4
F7
0D
0E
F5
00
0C
F3
FD
01
FE
04
EE
FF
F7
F0
00
E4
F7
10
05
09
21
11
F6
07
FD
F4
E6
F2
04
05
FF
E8
F5
00
F4
07
0A
10
F0
FB
F5
FA
FB
D1
FA
01
07
F5
18
24
0A
08
FE
19
0B
18
1D
FE
00
F0
F7
11
F7
FB
FB
0A
01
F3
04
DC
E5
00
01
0E
02
05
F9
14
25
0C
1A
1E
0E
17
0C
20
FE
FA
01
1A
21
F5
0A
1A
F4
DF
F2
EE
F9
09
FE
09
0B
0B
FB
0F
27
07
1E
18
3F
30
15
32
3D
35
25
28
45
16
02
0F
06
11
07
F7
ED
06
FA
F3
FC
F5
0D
01
EA
02
FF
06
0D
28
22
17
02
28
22
20
0D
1B
0C
FD
F7
07
EA
06
08
F6
FA

