FC
F8
0D
F0
FE
EE
08
03
ED
F9
05
EF
0C
FE
0C
FB
F9
F5
08
00
09
F3
01
0A
F5
06
00
F9
0C
10
F9
04
10
EE
0E
10
0C
02
F2
EF
03
EC
F1
E8
13
FE
05
F0
EB
E5
03
FD
F6
11
F7
F8
F6
F4
FA
FA
F4
FC
11
11
0D
0F
0A
14
12
DF
F3
00
E7
D3
E1
E7
07
E7
F1
EB
F5
13
04
0E
FF
0C
01
EB
F1
00
0C
0C
12
F9
F3
EB
F8
E1
E1
E2
DF
EB
D7
02
0D
D6
EE
F5
F6
F9
04
F3
FB
F5
06
F0
FF
FD
14
06
25
05
19
13
13
1B
DE
FA
D3
D6
D6
E4
0D
E7
CE
EC
F0
FA
07
EE
0B
02
12
09
0A
F1
E6
FC
EE
FB
FE
F5
03
12
0A
FF
FB
D9
E3
12
E8
FE
0B
14
12
0A
0E
00
F9
04
06
02
FA
F7
E7
F5
EA
07
FD
E5
02
01
11
0E
0F
09
E8
FE
ED
FB
FF
05
CD
13
FB
15
0F
20
F1
E8
FC
F8
FE
F7
EA
FB
F0
EE
00
01
25
0E
FD
00
E9
FB
F8
F8
FA
E3
C8
FD
04
0E
FA
08
01
F6
F7
F3
EB
E4
FD
FD
FE
FF
0F
26
25
EC
EA
EB
F5
F8
F6
02
00
F2
B3
CA
0C
10
FF
02
09
F6
14
2A
17
15
18
FD
1F
FE
04
07
F9
FB
02
F4
F1
07
02
F8
17
06
C4
F8
1A
03
13
FE
F3
0F
07
24
1E
1E
08
1C
0E
16
FB
00
E2
F5
03
F5
F6
0A
0C
02
17
FA
F0
0A
EE
17
FE
FB
F2
11
20
35
2C
10
08
16
FD
F8
F3
DE
D1
F1
03
05
09
14
09
F5
03
07
F3
E2
DD
FE
FA
F5
10
11
0B
21
16
02
EA
F3
ED
CF
C9
D8
F6
F3
02
10
FF
18
15
0F
FA
0C
09
E0
02
07
06
FA
14
17
EE
F2
EF
EC
E9
F1
EF
D1
C7
FC
F9
F7
0F
13
22
08
08
F9
FE
FF
FC
DE
08
0F
FB
F8
0D
01
D7
BF
F5
FE
CF
D7
D1
DD
F5
05
19
1A
21
25
10
F3
08
F2
F1
FE
05
E6
13
FA
06
F4
02
FF
FB
EE
DF
DF
D3
C4
D4
FB
08
1B
0E
0F
1D
FD
04
F3
F9
FE
FA
F8
11
FD
0E
F3
0D
FE
2D
03
0F
F1
EB
E2
CB
CE
D5
09
1A
1D
19
F4
01
0E
11
FE
F2
F7
12
FF
13
02
0D
09
00
03
28
2D
24
F8
ED
E8
E7
E9
08
0C
21
22
27
03
EB
F6
FE
01
F9
F9
F4
FE
EF
29
22
13
17
F6
07
34
0D
0D
FE
F2
F8
FE
06
0D
26
16
0A
00
09
02
FF
FA
E4
D9
EF
F6
FF
11
10
05
03
0E
0A
04
1A
18
ED
00
FB
FF
27
0C
05
27
19
FD
EC
FB
F1
ED
03
E4
F7
0D
1E
1B
0D
0F
F2
0C
14
11
1E
10
00
09
10
F9
19
0A
F9
EF
06
06
E5
FD
FB
FE
16
F7
13
1C
17
20
18
09
03
0C
0B
12
07
E8
0C
0B
0D
02
03
FD
06
ED
0A
05
F3
EB
0D
1D
09
17
FB
12
16
F4
DF
F0
FA
15
05
FA
F8
16
07
03
06
0F
F8
E2
F0
FF
FF
09
F5
08
FB
FB
FF
12
24
1D
18
F1
E4
08
04
FD
FD
DB
E3
F6
02
FB
0B
05
0D
01
FF
FB
F4
0C
15
0F
15
0B
11
19
1E
15
1B
F3
1B
09
F4
0A
F0
15
1F
04
04
01
F5
F9
E1
EB
E1
F5
E8
05
F3
0B
04
11
FE
01
1E
18
0A
FA
F9
F8
EE
F5
FF
EE
0E
03
10
F7
06
06
E3
ED
EC
F9
FF
06
16
0E
23
0A
0C
20
07
F7
ED
F6
10
FE
FE
FF
04
F7
F4
FE
F6
30
0C
FD
06
EB
E6
EC
F6
E1
F9
13
31
1D
13
14
25
18
E7
09
F4
05
F7
F8
09
FC
F9
07
0F
FF
FB
18
20
0A
03
0B
1B
04
03
0E
21
17
06
17
11
1B
07
01
F8
F4

