F6
F2
10
02
FC
FC
04
F2
01
05
FB
00
F4
F6
F0
FB
F7
F9
04
04
F4
F8
09
F7
F5
0F
0A
0B
02
05
F7
F2
FA
F3
06
EF
FA
11
07
EE
F2
F1
F0
EA
F8
F8
0A
0C
10
07
FF
0C
F4
EE
00
FE
08
F5
ED
0C
F4
EF
FF
F6
FD
E9
ED
FB
CA
E8
F2
F9
EB
F3
14
FE
0F
FB
EE
04
06
02
01
F8
F6
10
F9
0D
F7
23
14
09
EB
F9
EC
EF
D8
D9
E4
F5
E3
F7
FA
BF
D7
EE
F4
F3
08
E3
F1
FB
F7
FF
0A
0F
23
01
07
FF
E3
EC
F6
F9
F3
01
0A
1A
0A
0D
0A
0D
04
1A
1A
F5
EA
09
1E
0E
0F
EF
F8
06
10
15
0D
06
FE
0B
04
0C
F9
02
E9
02
FA
1F
06
F3
F0
02
0B
F1
FE
04
FB
EF
FE
FF
06
FE
17
F3
0A
FE
0F
0F
10
FC
02
12
FE
FD
04
15
EC
02
F5
16
FD
F5
06
13
11
F6
F8
E0
FB
05
01
05
FB
EF
FB
0A
0E
FD
F4
09
15
1A
00
04
FA
F7
F8
FA
E6
FE
FD
1E
14
0E
08
EC
EC
20
E8
10
FB
00
0E
FA
F8
FA
0F
02
12
F8
17
0E
FB
F6
F6
09
10
EB
01
2D
03
19
00
FF
09
13
0A
F1
09
0D
F7
0D
F5
03
0D
FF
F9
E5
05
F6
EC
09
0E
11
0E
F1
04
33
0B
16
0A
F7
F3
2C
05
11
01
EF
00
00
FB
12
0F
F1
FE
F3
E9
FC
E5
05
03
13
14
26
09
52
29
02
EB
F4
FF
12
FA
11
F0
03
11
EC
F7
F5
E7
EE
F0
ED
05
02
12
0A
18
0B
0D
11
11
15
13
24
EC
02
02
EA
10
FD
06
12
0B
F3
E6
E0
06
1A
0F
0E
0A
0B
11
E9
22
FF
01
16
EE
02
E9
07
01
F7
F4
D2
1D
08
07
FD
FE
F1
05
10
FC
22
08
11
09
F8
04
05
FC
07
E9
FF
F8
F1
E6
04
FB
04
FD
EC
0B
08
ED
F5
1C
13
22
0F
1F
2D
1D
0B
21
FA
03
08
14
04
12
F1
F5
D8
DB
02
EB
FF
F7
07
F9
DC
EA
0D
00
27
21
37
3D
2E
29
24
07
F9
1A
F9
09
F3
13
05
F7
EE
FB
F1
FF
F7
F4
FA
EC
C7
E0
D3
E9
F3
15
04
23
15
0F
0D
08
F2
08
05
01
F6
F8
F7
ED
D8
CD
F2
10
18
F1
FE
DB
D3
C1
D7
C9
AA
C3
F4
F0
01
FB
14
EA
FF
EB
08
11
13
FC
F4
E4
14
08
F2
0D
02
F3
F4
FA
E0
ED
DA
AB
AC
AB
CA
BB
F4
DF
FC
F1
E4
EE
F5
01
15
F4
E0
D3
FF
22
F9
F6
F7
03
1A
1B
16
EC
E5
EF
CD
CF
D0
EE
E6
F8
EC
F3
F6
0D
0A
00
F3
DC
DA
D9
0B
EF
10
F0
F5
0B
13
2A
30
24
1F
02
FD
F7
04
E7
05
1C
F3
04
F7
F7
08
EF
01
F8
DF
FC
05
01
F8
13
F9
FB
20
19
2F
2D
20
27
0B
25
0D
00
F6
06
FC
F8
F6
EA
0A
FD
EE
C9
E2
E3
FC
FA
08
FB
FF
EC
FD
0E
23
0D
24
12
0C
06
27
08
0E
FE
06
EF
E9
F6
FC
F8
DF
E3
D6
FE
FF
FA
10
EF
06
F8
02
22
FA
13
07
05
F7
0B
23
F6
0C
0E
EE
E0
E9
DC
DF
FE
FE
F4
FD
07
F8
F9
12
FF
FA
F2
0F
0C
02
03
04
09
04
F5
F9
FB
F9
12
F0
BC
E0
EB
02
1A
18
14
0B
DF
EB
EC
EF
00
07
FB
E8
01
1A
EE
02
FF
F5
ED
F8
E2
FE
04
F9
F4
F7
E6
EC
21
04
10
0B
F7
F5
F7
04
11
03
FA
19
0D
1B
13
0D
FE
F6
00
00
F2
03
37
04
21
0C
16
02
23
0E
0D
F8
11
F4
08
0F
0E
01
F2
F8
00
0D
08
FD
E8
F4
08
07
FF
04
20
11
09
14
19
06
04
FD
F8
0D
FA
F4
02
FA

