FB
FB
F8
F1
EF
03
0D
0B
09
F1
06
10
0D
04
11
09
F5
F0
FA
F5
F8
11
0A
FA
FC
05
08
FD
F5
EF
08
01
FD
FE
F6
F6
FE
0C
02
20
12
21
F5
10
0A
06
F1
16
03
0B
0A
19
FA
EE
F6
08
06
02
13
09
07
0A
0A
1D
08
05
0D
03
02
0A
FB
07
1B
05
F8
F8
02
1C
23
1A
0E
0E
0C
09
05
02
F6
12
23
ED
F9
FB
E6
FC
F0
F1
06
10
0C
E8
E6
FA
F7
F6
E5
16
FE
2A
0C
E8
F9
EE
0A
04
FA
02
E5
F3
E5
D6
DA
EA
F1
F6
0C
08
02
F5
F7
07
FF
14
15
08
18
21
EA
F5
04
0E
FA
EF
F2
E7
ED
E4
EA
CD
06
F5
0D
15
10
00
0B
0F
EC
FF
FF
07
20
1A
0D
16
0F
03
17
1E
FB
09
02
EE
E6
F5
C8
F9
FE
F4
09
21
10
02
1A
FE
05
F7
06
00
06
F3
21
0E
13
10
0A
19
03
F6
00
E8
F3
F2
E1
E5
E3
FA
03
18
13
F4
06
FB
05
11
16
0A
02
0F
10
1D
F8
03
F1
18
0E
F8
FD
03
01
EC
F7
F9
F4
0D
13
1A
17
0D
EE
F9
10
FD
FE
FF
08
0D
FD
1B
10
F5
05
13
FA
E6
EF
EE
FF
CB
DF
EE
DF
0A
13
18
0E
FD
02
F0
EA
E4
E0
F1
03
F8
FF
00
11
16
FB
EC
FA
05
12
F6
F5
F0
01
0E
02
0B
13
05
1C
FB
0D
F6
E4
E1
FA
F8
F2
0B
1E
2C
18
F9
F0
E8
12
09
FD
ED
DD
E3
F0
00
F2
06
02
02
12
08
12
06
03
F7
F8
FB
01
17
03
25
42
49
29
FC
10
F6
FA
0F
DA
E3
F7
10
0F
F4
FE
02
F7
1E
F7
01
E7
0D
F1
05
00
10
1B
25
3E
17
09
D3
FA
09
09
13
DD
D7
FB
F2
ED
F2
FF
10
F8
F8
08
F6
02
E3
F5
EE
08
13
0A
0B
0E
17
12
21
1A
FD
0C
E8
FA
F3
FE
F0
EF
F9
F7
0C
02
F9
F8
FE
E8
F6
E6
FD
05
18
FD
F9
24
0A
1B
02
08
F3
FA
04
E5
FE
EF
0C
02
19
0E
21
04
0B
FB
F0
06
F4
01
FC
ED
12
E4
FA
12
0A
0C
17
F8
F0
DA
0F
EA
08
0E
12
19
FD
2D
17
26
FA
F6
E0
EB
FB
F0
E5
EF
0A
FD
F0
FB
37
01
0E
EF
F5
F8
03
F2
FA
0E
18
F9
11
34
32
1E
EE
E5
E1
F1
EC
DF
F9
07
0A
04
FF
EA
02
E9
FD
F0
09
EB
DC
17
13
FC
00
19
1F
2C
0B
05
D3
D7
EE
EB
F4
E6
ED
FF
EF
07
F6
0C
EC
EA
0E
F4
07
F4
F1
09
FB
0D
19
0D
28
30
00
F8
DD
EC
0A
EF
F4
E2
F3
F9
F6
03
EC
F9
03
07
02
0E
12
14
0F
11
0F
05
0A
16
1A
1E
19
09
E0
0C
FA
F5
01
E1
0B
09
03
0B
F9
F4
F2
06
0F
12
F8
00
15
FB
F7
1E
14
1C
2E
01
F9
06
FC
F7
07
F6
F6
F5
F2
03
F6
EE
F7
0E
07
0A
0B
EE
ED
1A
23
09
19
10
27
09
12
1A
14
F4
08
FB
F0
03
0C
05
0D
EC
DC
EC
FB
F9
EA
FA
03
FA
08
EE
01
17
12
1A
00
27
1D
0B
03
06
05
17
04
13
04
0B
FC
E6
E7
E9
10
DF
05
E7
11
11
F6
0D
FA
F3
DB
EB
10
F6
09
11
19
15
0C
FA
F6
F4
03
FF
E0
F3
D0
EC
FA
F6
FE
17
04
F3
F2
03
F3
D7
D7
08
02
FC
06
0E
0E
01
1C
0A
18
F0
E5
DA
E3
13
E3
E7
EF
F8
0A
FF
F9
0D
06
0D
F6
14
F4
E0
D7
ED
F2
EE
15
24
0B
EB
E6
EE
EF
EA
01
EB
FE
F5
0E
F6
0E
06
04
F2
0C
EF
07
F5
08
01
F0
EB
04
F9
F0
02
00
ED
E5
F8
EB
F2
FA
02
E6
DF
02
F7
10
00
F0

