F8
FD
EF
07
0F
FC
FB
F6
FE
FC
F5
F1
10
12
F8
F9
03
F4
0B
F7
F7
0C
06
09
F9
F2
08
0F
F9
08
08
04
EF
0B
F4
09
F7
09
09
02
01
FB
01
FE
E9
F5
FF
FE
FC
F4
EC
EC
03
F7
10
FD
F1
FE
06
10
06
F7
F3
FE
01
EA
E6
D5
D2
BF
D6
D7
E4
25
12
23
08
FD
0C
FE
06
0F
F6
02
12
FF
01
F9
FF
FB
12
FF
F1
E7
EF
D1
FA
F6
DF
F6
04
05
06
07
F4
F1
F1
E0
14
EC
0A
F4
FA
F8
EC
10
1E
09
F2
E9
03
0E
0D
12
04
FA
12
1A
F9
EA
07
F2
F7
03
0D
10
0F
34
19
06
FD
0B
02
0A
FA
12
29
0A
0C
FC
02
F6
FE
05
05
0E
0D
03
F3
F7
0B
EF
FE
FC
F9
FD
11
EE
10
FC
0D
00
FE
F8
07
15
FE
09
13
19
FF
FF
F0
01
10
0B
FE
08
F8
F8
DD
EC
F9
1B
0D
27
12
10
D7
F9
05
1D
13
0A
0A
03
25
F9
02
07
13
0D
FC
FA
00
FD
0D
08
DC
F5
EF
26
11
18
FD
08
C2
F4
08
04
02
09
11
0E
0A
15
10
FA
1E
EF
0A
EE
F3
0A
08
FE
EE
02
02
28
2A
FC
FA
FE
0E
04
FA
02
0C
19
1C
15
0D
12
0D
05
FA
E5
EF
E4
E3
EE
FC
EA
FC
F1
FE
0A
EE
FE
F2
F8
1E
0B
11
0A
15
01
14
ED
05
F6
0E
17
15
EE
E5
EA
EB
F7
D7
DB
DD
EB
E5
02
01
FA
F6
0A
01
E0
00
16
00
FE
E5
F5
E1
E3
FD
FE
FB
EB
E9
FE
0D
FA
DF
E0
BC
C3
E9
EE
1F
0D
FD
F8
F8
D9
17
12
0C
04
E6
E5
FA
04
0F
10
F3
E7
EC
07
F8
EF
FF
02
E9
FF
F1
10
11
FE
0E
04
0D
D4
14
FE
0A
FB
0D
F5
FF
02
ED
06
F2
E1
F6
E9
F4
FB
EF
0C
11
09
1D
FE
1B
F1
08
15
0C
D2
01
E9
F5
F9
FA
04
F4
02
03
F8
F8
E7
F1
03
FA
E4
01
EB
08
FC
19
FA
07
F8
03
00
02
E1
C1
E8
E8
EA
11
0C
0D
0B
FD
13
FD
EA
0A
FF
E6
E7
E4
01
F9
04
19
03
18
0A
EB
02
0A
EF
AA
BC
C6
C9
EB
02
08
03
0D
16
0E
12
F0
E8
02
E9
EB
05
11
1E
40
1F
22
F3
F4
0F
15
23
C2
C5
BA
CE
EB
CC
E3
EE
F4
0C
07
0F
F1
E9
FE
E9
F1
FE
02
0C
04
F0
FF
09
FB
F4
12
21
EF
B8
BD
D4
D8
A6
BE
C4
D8
E2
05
07
FD
F2
00
FB
0E
F5
0E
00
04
EA
03
F1
F9
EE
ED
24
14
EA
CD
CC
C1
9F
BE
B3
BD
C4
E6
11
0D
14
FF
06
17
FE
F9
F7
FA
0E
05
ED
07
F0
04
11
0D
06
E8
EC
03
E2
D6
F2
E1
F5
11
1D
15
21
05
0C
1B
15
00
25
13
0E
EE
F5
F7
07
08
39
35
19
18
32
1C
05
04
23
13
11
06
0F
02
19
0C
03
09
05
FF
21
02
FB
E2
FD
03
FE
E4
27
36
23
28
3C
24
33
2F
40
33
1C
01
FD
04
0F
0C
03
27
FE
1C
19
F2
FD
ED
0D
EF
F3
10
19
59
33
3D
44
3C
20
33
2A
00
13
FE
F0
07
08
0A
10
20
FB
F3
01
F0
07
15
FD
FA
EE
F5
1C
2F
12
4D
3D
35
2F
0B
11
03
03
01
FC
00
07
0D
12
12
EB
F5
FB
05
F9
04
0D
00
04
19
05
03
26
38
29
11
06
19
05
12
22
F0
FE
07
E8
0C
1E
E2
01
08
14
01
0A
06
F6
F8
EF
06
00
F1
06
13
F8
09
E2
1C
06
0F
FC
EC
07
01
F1
EB
0A
FE
10
23
0B
F1
F1
03
FB
0E
07
F3
0D
F5
FB
E6
DE
ED
E5
C9
BB
B8
C7
DF
04
E1
D1
CF
D1
F5
03
EF
0C
00
FF
08
08

