12
FE
12
EF
08
10
F4
05
06
EE
03
10
1D
0D
EE
03
0B
F1
F1
F6
F8
F8
07
FF
F7
02
F2
0C
F4
0F
0E
FC
0D
F8
10
F6
11
1B
FB
03
13
29
04
17
1A
10
22
26
29
FE
03
06
F9
FF
08
EF
06
FB
EF
03
2B
11
FE
18
F8
FB
08
0C
F2
F7
1A
1E
22
25
2C
26
13
20
28
2B
F7
F3
F5
F6
0F
01
F8
04
0A
04
F5
F7
F9
F2
FE
02
D2
14
04
EF
06
F8
05
28
1E
05
FA
19
1A
06
05
EF
06
01
E9
05
07
EE
E7
E2
06
08
09
EC
F1
EE
E5
F9
F0
09
FA
00
02
1A
17
14
0B
26
10
04
0E
0F
E7
E7
EE
E4
D2
DD
08
1A
17
F0
F6
F0
F8
09
10
0F
12
0F
1D
09
13
20
F1
F9
07
F6
FC
02
02
F8
FF
FA
DD
F4
09
E7
FC
EA
03
F0
1B
09
16
28
2C
1C
2B
FA
16
04
37
11
18
0A
F3
EF
06
16
E9
F5
D4
EB
F8
FF
F9
F0
04
F2
09
35
2A
32
2D
1B
1F
25
03
14
17
F5
01
FE
F0
F8
F1
03
DB
E4
FA
EF
EA
13
04
F8
07
15
17
11
0B
F4
06
03
10
F2
E8
DB
FB
DB
FD
F1
F1
0C
00
ED
DE
E6
F2
FC
01
F9
0A
08
1D
FF
0A
D8
D6
CC
AC
C2
AD
B7
B7
CA
D8
DB
E2
FC
0D
00
FA
DA
01
EA
F9
01
F9
0A
04
03
1E
F1
D9
E3
BB
A3
B5
B0
C1
AE
AF
C1
B6
DB
12
10
0A
FC
FF
E0
E3
DE
05
EB
FB
F1
FC
16
FA
0F
E0
FF
F5
E6
F8
DA
D2
BE
C0
D1
D3
DC
EC
FB
FB
ED
EE
15
F4
F3
FA
F3
05
0E
15
00
FF
09
E7
04
01
09
1D
EE
D9
DD
F3
00
F9
D2
00
F6
F2
09
F7
16
F0
EA
DE
0F
DE
ED
05
F7
19
EB
04
F1
F1
0F
10
11
06
EB
F5
FF
EF
ED
E2
EB
09
F7
E4
EE
E9
D9
F2
EE
FC
F7
15
13
12
F6
FA
0D
0B
F0
1A
0F
2A
F0
E9
FE
03
FA
D0
EB
03
10
F0
E3
F0
FF
FE
0D
09
FF
FE
09
F8
EE
FF
EA
FE
FC
FD
22
11
0E
FA
02
15
FD
C7
03
FA
F9
DD
16
15
06
EE
01
05
FB
17
10
19
07
08
DD
F5
F2
FA
10
13
F5
F5
04
06
1B
DC
F2
F7
0A
EC
10
04
13
F6
11
FA
E8
12
00
10
FF
F4
E6
F8
F2
FF
11
1A
10
FE
EF
1A
10
F2
DE
0F
FC
E9
1B
07
18
FD
1B
F3
0A
FE
F6
F9
01
EE
E8
FA
0E
08
17
07
19
F2
FA
F8
0B
F7
E1
02
0B
09
00
15
14
07
F3
F2
F1
12
15
06
FD
F3
F4
03
03
04
F4
FB
20
03
05
19
FE
DA
F1
FF
11
FE
F0
19
26
E6
F6
02
03
FD
14
F9
09
0D
07
06
FB
F2
02
18
0E
09
01
14
21
FD
F9
09
FC
FB
0B
12
10
EB
0F
0D
EC
15
02
FF
18
F7
22
14
13
1A
10
1A
15
0F
F5
00
06
EB
01
0F
F1
F8
14
17
05
F0
FB
0C
EE
EC
16
10
F7
FD
01
02
F5
EE
05
F4
F0
D4
F5
F0
FE
09
0D
F3
FD
FE
2F
1E
17
FA
EA
0A
F7
16
01
05
F2
03
01
0C
FF
FD
04
09
EE
F3
12
13
1C
08
00
EE
FA
F7
16
28
23
02
14
EA
FC
1C
02
19
12
0F
FE
00
F9
FF
E9
2A
08
11
04
EA
FB
06
F3
01
FD
11
0A
EE
0A
F5
EA
EE
03
F4
10
29
3B
FF
13
F1
02
ED
16
1B
11
2F
FF
00
F1
F2
03
01
F8
F2
01
F5
05
04
01
DF
DC
0D
2B
0C
37
22
20
12
04
E5
11
1A
01
20
02
01
FD
05
0C
F5
05
11
09
04
0C
11
10
FE
0B
08
F3
FD
EA
0E
FA
FD
F0
FA
F3
E2
EF
DD
EE
0F
09
F9
EF

