0E
27
48
17
0A
FC
2D
2F
CC
FB
39
5B
13
F0
21
FB
04
0A
C9
17
2A
02
EF
E2
D2
1E
05
39
E6
F9
07
3B
1A
EC
E4
03
E9
21
04
28
FE
E8
04
E2
DD
DF
15
35
DF
19
02
E5
2D
3D
12
F2
DE
E4
F3
E8
E4
11
0C
EB
FA
02
E3
26
B8
2F
FE
E8
D7
DE
E6
19
01
38
D7
DF
00
EB
EA
19
29
2F
F0
EB
0A
F5
F8
E9
14
E0
F4
0E
27
F3
29
E9
18
2B
07
CF
37
E6
44
04
18
24
C2
0D
ED
05
05
09
24
E0
DA
37
32
E6
F8
09
FC
1B
0B
02

