E0
26
1E
EF
FD
1A
0C
0B
FB
17
EB
F5
FC
F4
FC
04
1F
03
07
F5
1D
FB
DB
D2
1C
10
26
5A
DF
FA
E6
14
1D
D3
DF
D0
BB
42
F7
23
07
E6
BE
2C
15
20
12
20
E5
D9
E2
D9
28
EA
1C
14
23
E3
06
ED
2D
06
25
D6
FD
11
FA
E5
1F
04
D4
F9
29
2D
BF
21
1E
0A
05
01
28
23
E2
18
05
D6
19
27
18
13
F4
29
FF
16
22
C8
E3
2A
3E
D4
D3
4C
2C
FC
D1
E2
0D
11
38
F2
FA
0E
E2
27
14
20
19
F8
2A
D6
FD
2C
1C
14
1C
EF
16
0C

