70
08
79
09
0D
0A
72
09
0E
0F
72
78
09
74
07
79
7D
79
10
02
77
02
09
6F
76
10
07
76
04
00
79
79
11
7E
65
03
76
00
07
6C
05
07
04
6D
10
75
01
60
7A
6F
7A
6A
7A
71
0B
03
78
04
0C
12
72
74
04
65
08
79
68
77
73
6C
6E
5B
5C
0D
00
04
79
69
6D
76
00
15
0C
76
02
78
74
05
0A
07
74
62
4A
61
5E
59
4B
4A
55
59
56
71
7A
7F
64
78
15
7C
7B
7E
05
09
00
71
7E
0D
73
6D
75
67
05
72
06
79
69
73
79
6F
6F
04
68
66
7B
01
12
73
09
71
00
76
7B
00
72
7C
75
73
74
6F
26
7D
06
07
0F
01
7E
06
68
04
03
71
00
0A
6F
7A
78
0D
78
78
10
0A
7D
0E
0F
6E
7F
78
15
06
0D
07
7E
04
09
02
05
7D
71
0C
6A
07
08
02
6D
08
75
7D
02
7E
24
13
10
7E
7E
00
06
0F
05
05
7C
76
65
0A
7C
7E
07
05
73
0E
7C
12
0C
0E
6E
7B
07
7C
04
11
79
7F
19
0E
16
1C
08
7B
02
0A
05
7A
0B
01
79
6D
69
7C
67
75
77
0A
22
0A
14
0F
0C
12
1D
12
12
0C
05
78
7E
04
0B
7E
11
00
12
07
0A
7C
01
04
60
11
79
0B
07
6E
7E
15
11
7E
1C
1E
06
09
0E
0A
0B
06
00
05
07
62
0C
16
07
05
73
7B
63
6C
71
5C
57
79
7E
03
0B
14
18
0C
24
0C
19
14
13
01
18
74
60
6F
0D
01
07
05
04
13
05
7A
0D
68
07
06
70
1D
18
31
7E
04
00
06
08
15
0B
10
6C
62
71
06
0E
19
73
7B
0D
76
75
0C
2B
04
10
23
7B
14
15
21
65
6F
7C
12
7F
7E
79
71
7A
5D
61
12
06
0F
04
0D
07
0E
09
0E
0F
1E
0F
02
6C
11
10
02
61
6F
15
14
05
7C
73
74
61
76
04
7F
10
0B
0C
1B
7C
11
06
18
1A
2E
08
09
0B
75
03
7C
51
77
02
7C
10
7A
65
60
03
0C
28
0C
06
0D
73
10
74
02
7B
76
08
36
7A
02
08
06
69
75
5F
77
03
7B
73
04
00
75
0A
16
21
1F
12
79
73
78
78
6F
72
10
7E
0C
1A
6D
0F
6A
0B
5E
68
00
06
66
02
71
6D
11
12
17
2A
79
10
78
01
03
77
73
75
78
1F
16
15
6F
79
6D
7B
7D
00
6B
63
60
7D
04
02
7E
0B
25
79
00
76
0A
75
7F
73
6F
77
6B
25
06
1A
76
6E
00
78
6F
74
6E
5A
7A
7D
0A
1C
11
0A
13
01
68
03
70
6E
7D
6F
01
02
78
0E
04
13
07
75
7C
7C
69
55
58
67
68
04
05
7E
0E
08
68
00
05
6B
6C
5F
79
7A
66
75
6E
6B
69
09
7F
76
06
60
6E
63
69
6E
6E
03
7E
7E
6F
6C
6B
7F
72
00
0C
6E
6C
79
77
0B
07
04
67
0D
06
0B
71
76
70
6B
67
70
06
7D
7C
0C
03
15
12
10
7A
7E
6F
66
63
6D
71
02
70
75
07
01
6E
7B
11
6C
62
62
6F
00
06
02
10
74
7D
0B
0D
19
7F
6E
07
77
70
6A
10
71
03
75
7C
77
74
03
77
01
60
02
09
05
01
7C
71
6D
7D
02
7C
03
7F
72
58
6B
0B
02
09
65
73
6E
06
08
12
11
03
67
7E
1C
7A
78
66
78
60
77
76
66
6A
1E
08
78
7A
6B
6D
6D
68
79
73
69
74
75
71
12
6E
12
66
7E
76
0E
6F
7E
6F
02
05
0F
73
12
7B
72
7B
04
17
6B
04
10
7A
7E
7B
00
0D
12
08
7C
01
0C
1F
14
70
0C
1A
12
00
70
78
0B
64
70
0E
10
10
1E
0A
10
1D
06
7A
10
11

