F3
FE
03
F2
00
F2
F4
F0
F7
10
F3
0A
0A
FF
F2
F4
13
01
0A
07
0D
0D
FC
07
00
0B
03
10
FD
0A
F2
06
FF
0F
F8
F9
F6
13
FE
08
F2
04
DE
EE
EB
08
14
F7
16
FA
FC
FA
F0
0D
F9
05
07
04
0D
E1
E7
11
14
18
0A
24
10
07
2C
FA
1E
0B
EC
F3
FB
FF
FA
16
01
FA
14
F6
F4
01
02
0C
01
E9
EE
FE
F4
07
06
0A
07
0D
FF
06
09
07
14
0C
FE
1D
0D
10
FE
EC
0B
DA
E5
EE
03
01
FF
01
1B
0F
05
FB
06
ED
FF
DF
E5
E4
05
16
00
FE
0C
04
0F
05
18
F3
D6
D6
DD
EE
F5
0B
02
03
14
FB
ED
F3
E1
FB
00
D6
D5
D7
EB
FC
0A
07
14
1A
0A
F8
EF
EC
ED
ED
D6
00
06
13
F8
1D
02
0C
FD
F9
0D
14
08
E3
F1
E7
F6
FA
0B
11
F7
F4
FF
F2
07
F4
F5
F2
D5
F6
FD
23
0D
E8
01
17
0E
0D
FE
0C
01
EE
F2
E0
F6
0B
FB
F6
0E
01
FA
03
FA
E4
05
F6
E0
F3
F4
FC
FB
E0
0B
18
F7
FF
05
EE
F8
01
EC
FC
F2
F5
03
F9
07
05
00
FB
F9
F0
E9
03
07
E6
02
F4
07
EA
E2
16
02
F7
03
F2
EE
EF
F1
F7
04
06
E8
FD
03
14
0B
F7
E6
F4
02
FB
F8
00
FE
0F
E8
10
CE
ED
FA
00
F7
00
F9
F0
F7
0F
EF
D9
E6
08
FC
FB
0B
EC
E8
E5
F6
04
ED
0B
0A
FD
01
E0
DC
E3
FC
E9
0A
F1
F2
F6
18
05
F6
DF
E0
03
1D
0F
FF
FE
DE
E4
D9
E4
DB
09
08
F6
FF
E9
EA
0D
F2
DA
EE
F4
0B
09
FC
0E
F9
D5
FF
00
05
07
FC
05
FB
FC
FB
FF
F6
04
ED
08
E7
F7
EA
03
EF
F8
F4
1A
F7
0A
F5
F1
DE
E6
F2
F5
F9
02
F4
F2
FA
13
22
00
FA
15
06
FD
EB
FC
0F
0E
0B
00
F9
19
08
08
FB
ED
F5
F6
F9
02
19
21
0C
16
14
F6
10
25
1C
FC
FA
15
17
FE
1C
05
07
0C
14
10
19
0B
1C
0A
FF
06
FE
17
26
2D
07
1D
0E
F0
10
32
00
25
1A
02
1D
EF
FE
17
06
1D
14
09
0B
0A
0A
07
F1
EA
FE
23
22
3A
0D
17
26
F8
25
40
1B
00
0C
07
20
FC
12
F7
EA
09
26
25
0E
29
0C
FE
0C
09
06
2B
34
0E
EE
2C
15
0A
F9
16
FD
0A
EC
08
0E
2E
1D
F6
07
00
08
FD
00
F8
02
02
FD
1F
25
22
14
1D
F6
16
1A
EF
0B
04
F5
34
0C
F7
F3
38
16
0C
04
EF
F0
0F
10
19
01
03
1B
2E
23
13
11
FF
02
0D
15
0C
E8
FB
32
26
F3
00
F7
2F
0E
0B
F2
FA
E8
FD
FC
0A
19
FD
17
F2
0A
F3
15
06
03
01
F7
09
EC
FA
F9
05
12
04
1C
13
EA
02
00
FB
F8
E3
01
F1
16
07
F3
EE
03
FA
14
0C
F5
03
00
05
F0
E5
EA
12
0B
08
17
FE
05
E8
FA
F7
EF
E4
DE
02
07
FF
E7
11
0C
F5
08
0E
06
12
06
E7
DF
EC
EC
FB
04
00
21
17
E1
F5
07
02
ED
DD
ED
00
0C
F0
FE
09
FA
F5
F7
E8
FB
00
02
F5
FE
00
20
EE
10
FD
04
1C
0C
F8
0B
F3
08
F9
01
09
FA
EC
04
08
13
16
DC
D2
F3
FE
ED
FC
FD
05
14
F6
EE
0F
15
01
FA
F6
06
FA
08
10
EF
17
0A
FF
F3
03
12
11
FF
F3
FF
FC
F6
D2
EE
F8
0B
FF
F1
FD
11
F3
FA
FB
0A
23
21
EA
DF
EC
11
08
15
FD
E8
F7
DD
D7
EF
EF
ED
F6
19
02
FF
12
EE
FF
F3
FC
FA
FD
08
FB
02
1B
1E
08
04
F7
FC
0D
FF
00
17
01
03
08
03
E7
FB
02
F4
FE

