19
F3
0C
22
02
2A
FD
FC
EA
20
E3
B9
07
43
21
C4
F1
CE
F9
1F
E2
F0
23
F5
E5
E7
26
AB
DB
F2
CD
D4
DD
07
0B
EF
39
22
E8
1A
E3
F5
15
DC
1C
DD
24
29
E8
1A
FE
F3
09
F5
28
E4
EC
16
E7
B1
DC
01
CC
05
13
F5
FA
10
D7
03
EE
22
3B
FE
EB
E9
1A
F3
BE
FF
21
E3
F8
27
10
16
ED
12
F4
F2
DC
14
EE
1B
FC
00
D7
F4
D6
F5
DD
D2
F0
2A
14
FD
05
FC
EB
D3
21
E8
1D
C4
F7
E8
22
42
DF
FD
BC
14
0B
DA
0B
E8
30
17

