7F
6F
11
09
78
12
75
07
03
0E
6E
77
05
73
7D
74
00
06
00
72
00
09
0D
11
6E
71
77
10
7D
74
7D
11
0A
0D
7E
73
61
77
61
01
01
6B
6F
74
10
01
6C
63
74
08
7D
6E
02
6E
77
71
6F
02
6D
1F
0F
72
7E
72
6D
01
71
70
0F
05
7F
0A
64
64
63
6A
5A
7D
73
70
07
01
72
00
74
6E
76
19
7E
65
65
78
0C
24
7E
7B
7B
13
03
0C
05
78
75
4D
5D
5D
6D
6A
7D
1C
0A
11
0E
0A
0D
07
6C
7D
18
0F
0E
2E
01
0E
7A
01
6E
03
07
0F
0A
02
53
6E
6A
74
73
12
00
6E
77
72
6C
7E
03
0F
19
7A
0A
07
14
6C
6B
0C
79
79
03
70
02
05
03
01
08
6F
57
06
5D
68
04
19
6E
18
10
07
10
0F
7C
23
05
15
0B
04
00
7D
18
7B
14
7D
03
03
08
77
49
5C
03
03
73
29
0C
20
1B
1C
18
74
03
13
7D
1D
0D
13
7E
75
00
11
17
01
00
79
7A
67
69
6A
5C
6E
12
16
7F
0A
13
00
03
0C
1B
09
1E
17
07
1E
1C
19
1E
0D
03
0A
15
0C
7C
0D
56
5C
61
6D
7F
07
09
6F
0C
0A
79
08
0F
77
08
09
16
0D
15
01
16
14
79
06
19
03
0A
10
52
5F
6A
72
0A
02
1B
01
69
74
6F
7F
10
6C
78
72
7D
01
7B
79
0E
25
0B
7F
0D
7C
1F
73
71
6B
76
09
72
16
77
6E
6B
7C
02
7B
05
6F
6D
10
7A
7C
7C
61
66
1A
02
0A
01
02
0D
7D
7B
06
50
04
7A
7F
04
78
59
5D
7D
6A
6A
7A
6D
65
7D
70
53
57
76
02
00
13
7B
6C
02
74
64
0E
6E
07
7B
04
0C
70
60
5E
71
7B
6F
6A
7F
79
77
72
62
5A
6C
09
0B
6C
7C
12
0D
74
07
0D
72
1B
71
04
08
74
7D
0A
7D
78
7F
7A
00
6F
01
6F
65
6F
6D
6A
78
09
0B
0A
00
07
24
05
1F
01
0E
7E
72
6F
6D
16
7C
70
6A
76
07
69
6A
7F
6A
6B
6F
5C
74
06
0C
12
1A
0A
2B
07
01
06
17
04
10
7F
7C
67
7C
77
5A
6A
7B
07
05
66
65
65
67
7E
03
05
13
17
11
18
1D
12
01
1A
0B
7F
7A
68
04
7D
07
04
71
18
12
7D
0C
74
6E
61
6B
7F
60
0B
77
12
10
7B
16
23
1B
1B
75
0F
04
72
0F
72
7E
73
0B
03
20
16
73
76
74
05
00
77
00
74
6B
70
13
05
02
11
29
2A
03
1A
04
7A
0C
76
71
74
04
00
1B
13
0A
1C
1D
15
05
77
75
0D
74
76
7C
7E
64
7C
21
15
06
0C
08
06
00
6F
7E
13
07
10
7D
1E
20
18
05
75
04
7B
67
07
08
02
60
0A
78
70
7E
74
78
18
1F
13
09
04
75
0F
00
78
10
09
1C
7E
78
72
79
79
7B
03
78
77
0F
0C
6F
10
2D
72
6B
6F
22
0A
65
77
1B
0D
10
25
1A
7A
1B
17
05
7E
00
05
0F
75
76
7F
06
1A
0A
01
2A
78
75
75
02
66
69
79
05
11
05
21
09
15
17
1E
12
00
01
19
76
67
58
73
25
09
7C
76
6E
05
05
10
05
74
0D
0C
27
7F
74
7E
67
0E
08
0D
79
1B
12
02
75
6F
73
7E
67
03
11
15
73
0C
10
7E
61
6E
21
02
0D
16
73
00
02
05
79
6D
01
04
03
7D
66
7A
79
67
6C
68
76
71
7F
10
01
06
7B
04
75
6F
71
11
21
7B
19
05
7D
00
6F
0A
77
73
74
12
71
75
03
73
07
7C
09
78
0D
73
76
02
7D
70
76
0F
0F
17
00
65
7B
09
0B
0D
14
13
0A
11
7C
07
75
08
7D
0B
77
7A

