05
00
FF
04
FF
F3
FC
09
13
0D
08
F5
F7
15
15
0D
F9
08
05
F2
0A
EF
F2
F4
F3
08
F4
03
F2
FB
0A
FC
05
F1
12
05
FF
FB
FB
D6
F1
FB
21
0F
E9
F9
02
00
00
09
F3
FA
02
FF
EE
F1
10
0E
F0
13
0F
0B
F9
04
02
0D
05
11
FE
21
EC
06
21
1B
08
37
14
FC
F5
1A
0E
F0
07
F4
03
F4
04
07
1C
16
F2
03
05
0D
03
03
17
17
1B
28
20
21
11
2E
0B
0B
F2
F7
1B
01
17
F9
00
F5
F1
ED
ED
F4
06
05
09
12
07
0C
15
24
09
16
0B
FA
F9
00
FB
09
E2
EF
F3
FB
0D
FE
EF
F2
0C
07
F7
F5
E8
17
15
23
F2
FA
01
F8
FD
1E
0E
03
ED
08
EA
19
FA
0A
E2
FD
1B
19
12
00
F3
EF
CB
F5
EB
ED
02
15
F7
F2
00
F1
E1
E3
FE
FB
EF
F9
F2
0B
01
0C
14
F3
25
06
F1
35
E9
FE
DA
FB
F2
EA
F5
FA
FD
DE
FC
E8
F9
FE
E9
15
FD
FE
F2
00
13
0F
F9
F9
0E
23
0F
1C
F1
0B
00
14
FC
01
EB
E8
E4
E8
0F
F5
02
05
F2
1C
FA
04
17
1A
20
1B
16
20
05
19
FF
1A
E6
17
FA
FC
16
F7
0D
08
12
0D
0E
13
25
31
2A
21
22
EE
FC
FD
1E
12
14
25
F3
FF
FE
1D
F5
1C
FA
F1
0C
FD
0E
25
1C
29
18
29
26
1A
06
09
01
1A
08
0A
03
F3
FD
13
14
FB
05
16
24
2D
26
10
07
FF
17
16
17
23
0D
F7
08
ED
F7
06
19
02
09
F6
ED
E8
D7
0B
16
F8
FF
04
06
FC
FC
F3
EB
20
20
16
0A
F4
D4
D8
EC
EF
F9
E9
FC
F5
F6
E4
DF
DF
B0
F8
0C
EE
0E
FE
18
EA
DD
FB
04
E3
F5
E4
E4
C8
CF
C9
E9
F9
FC
F0
01
EC
FD
FD
D9
C9
CD
07
E5
F2
F6
FC
16
04
FD
E4
E4
F0
C9
CB
F2
D2
E1
DB
F9
01
0A
F8
F3
16
02
FB
F3
EA
C7
F2
E5
E5
F2
01
0E
E5
07
D8
F0
E5
C1
C9
C8
E8
EB
E9
F3
0E
F8
04
09
FA
03
07
F5
0F
D5
DC
F9
F5
F5
18
18
00
05
ED
FD
E1
F6
D9
CA
E1
EC
F8
01
0A
0D
04
10
20
02
05
EC
F3
CE
CD
01
10
10
17
0C
1C
20
01
1E
0D
15
EE
02
EA
E7
E3
EC
13
FB
F7
FE
0A
07
F7
E7
EC
0D
04
F0
F2
F9
11
17
18
1F
34
1C
29
18
26
0C
F6
FF
0F
18
21
07
18
08
0F
DF
F4
E7
EE
13
E9
0B
22
08
16
03
14
23
16
37
31
36
1F
F9
F5
FD
18
16
F8
0F
FE
F4
06
F8
E5
E9
02
1E
01
0C
0E
0C
03
E9
C6
0C
03
0F
0E
22
22
08
0D
F5
04
18
0F
00
ED
FE
08
F2
FF
EF
04
16
E4
EE
FC
07
F2
EB
CB
EB
DE
E0
10
0C
06
07
FF
FF
FB
F7
FF
04
00
FC
FA
FD
FC
EF
FC
06
F8
DB
05
0F
00
E7
C4
C9
DB
E9
F1
EF
F5
04
02
14
0F
15
14
06
FD
FB
F0
D1
DB
C0
EB
08
F1
DF
12
F4
F4
10
CC
D4
E9
E3
DE
E2
E9
E8
0B
00
FA
FC
FC
F8
F5
FE
DA
D7
F0
DE
F2
17
F2
F3
07
F5
0B
F0
02
13
2D
0B
07
FE
F9
04
14
21
02
15
17
12
0D
E5
EF
F0
0F
E7
EF
EA
00
04
04
FC
05
DA
F7
0D
2E
19
05
FD
08
EF
F4
23
16
FE
07
F1
FA
EB
00
03
08
F9
03
02
FA
0D
F0
12
0F
EF
FD
EC
09
20
25
15
EF
00
04
14
19
F2
17
00
F4
EE
07
F1
FC
0A
12
02
17
0A
F4
03
08
11
0D
15
15
F3
09
14
11
05
FF
F1
01
06
DF
02
0D
09
0F
0D
10
FE
14
F1
0A
06
09

