02
7B
0A
04
6E
77
03
06
7E
7A
70
07
0D
0A
23
0D
72
0B
74
75
0D
11
0D
6E
7B
04
05
0D
0B
7E
0A
13
70
7C
04
07
6D
7D
0B
09
75
09
7D
14
26
1A
00
7D
13
09
0B
79
07
0F
11
05
10
70
0B
08
1C
7E
6B
78
63
7C
75
78
78
70
79
73
01
13
17
19
07
0C
08
71
76
7B
01
01
0A
0C
74
0B
7F
79
5A
65
13
26
02
10
17
7F
59
6B
67
06
78
17
71
6E
70
6C
07
14
01
00
0D
73
67
61
64
7A
79
08
0C
10
16
0E
07
71
6F
7B
04
04
19
7D
78
07
6F
00
02
0A
0B
60
79
0D
00
01
75
7B
78
05
6E
08
6F
14
7C
18
75
7D
76
76
5F
79
7D
0E
14
0C
70
69
79
7D
6F
18
68
73
7C
14
02
16
72
7E
6B
76
7F
79
77
71
66
7C
62
01
0C
71
74
17
07
77
0B
64
0B
29
73
79
70
62
7F
19
13
73
05
08
04
6A
05
71
60
5B
6E
7A
02
04
0F
78
01
6F
20
00
01
03
72
74
68
7C
06
07
76
74
17
0E
0E
75
72
08
7E
03
7C
02
07
0D
01
0A
77
03
0B
7A
7E
5C
77
74
62
7B
19
1C
14
70
14
07
17
12
15
7D
0A
08
18
7B
02
14
07
05
15
7A
70
69
11
10
76
07
18
0E
1C
11
7F
16
7E
0C
04
27
1D
1D
1B
18
0D
0E
01
78
0B
09
16
18
18
7D
72
77
70
78
16
0E
17
17
11
75
74
7A
6B
69
7F
73
6A
78
01
6F
68
72
65
69
6F
2A
0A
7B
6D
0D
6F
18
0C
0F
01
77
74
71
5E
6A
72
63
72
63
5E
6E
70
71
78
0C
63
5D
0D
0D
25
77
08
27
0A
1A
70
70
0F
08
73
72
63
07
0E
06
01
5F
71
7F
08
7F
1B
70
79
07
02
6E
14
1E
07
78
0C
07
7A
79
67
02
6B
77
07
04
7F
7D
0D
74
74
79
06
05
6B
71
76
6E
0D
70
2A
0A
77
07
1B
6F
0D
08
75
79
67
0A
7F
05
78
14
16
7E
71
6E
03
75
70
66
7F
0E
1E
20
20
77
75
7E
0A
16
7E
7C
0A
7B
6D
7F
7B
6A
0F
78
10
7D
0F
12
76
7F
0A
01
13
17
13
31
31
27
78
7A
6D
0B
19
10
7F
6D
06
01
04
6E
06
70
03
13
01
77
1E
7E
79
7D
02
78
6E
21
1C
19
7B
72
66
0F
7F
1F
12
08
7C
05
7D
01
7D
16
21
1D
10
01
7B
00
0B
67
06
7F
15
17
68
0E
72
09
69
73
7C
1C
15
79
7F
02
12
0D
20
1C
0A
02
7E
02
1B
76
79
11
71
0A
0D
20
10
08
6F
77
7A
64
06
0F
0C
03
09
0D
1F
15
02
0D
0B
04
08
7C
7C
77
76
11
0D
1E
75
0E
0B
76
0E
75
11
10
77
7B
01
7E
09
11
16
1C
03
10
1A
0C
10
00
06
6F
06
04
03
24
18
27
17
7A
0C
7E
76
7B
12
0F
7F
78
02
12
13
1D
1D
13
0F
06
77
06
04
7C
76
7E
67
0A
1A
03
2E
70
0F
12
19
21
18
6C
6B
65
11
1D
7A
7E
0E
6B
0B
0D
79
7C
7D
13
07
74
7F
20
7B
0F
22
75
7C
7C
00
13
73
72
57
54
5C
0C
6A
72
64
62
6A
65
60
72
02
1D
75
09
09
7A
1F
75
01
71
0C
6F
11
66
63
56
54
4E
62
63
5B
4A
59
6D
45
48
60
64
11
0D
73
0E
7C
15
13
0F
0B
7C
79
7C
7C
6E
7F
54
5F
5C
6B
64
7D
5F
68
54
54
67
65
6C
7A
76
6F
68
72
6A
0B
7A
0D
78
12
75
7B
10
77
06
6E
76
00
7E
4C
67
61
5C
61
75
5C
6E
6B
6D
63
74
71
77
7F
01
7F
01

