7A
6E
03
0D
08
72
0D
74
0B
06
7C
0E
6A
73
02
03
78
0D
74
07
0F
0B
7E
07
0D
70
12
71
0E
78
04
78
7B
0B
75
75
5E
72
7D
5F
05
73
6A
7C
7C
73
64
78
5F
7C
7B
64
7F
10
0F
0A
7E
04
74
20
0B
68
64
60
57
57
4C
4E
65
6C
58
00
71
6F
70
67
65
79
71
73
6D
0F
6E
11
05
7E
78
16
6C
03
65
62
7B
66
69
76
04
76
06
0E
13
07
6F
7A
12
01
7C
67
66
20
73
6E
08
08
0F
7C
7B
5B
5B
75
58
76
76
14
7F
15
13
0F
05
0E
07
76
6E
0D
13
04
02
07
74
56
0A
11
0C
7C
61
64
67
6D
70
0A
0F
18
06
01
0E
01
72
0E
72
5A
73
09
1A
71
06
04
78
64
6F
0B
06
0D
7B
1A
19
04
0B
09
0B
78
0D
02
76
70
74
7B
75
7E
5F
05
19
19
19
02
02
6D
01
11
0F
21
72
0E
16
0D
03
12
14
13
7B
08
6D
57
61
7F
09
08
76
72
14
23
0B
14
7F
01
10
72
23
08
04
76
7A
66
7A
79
02
6B
00
0E
7F
74
7B
06
7F
0B
08
71
02
13
17
28
77
14
75
73
09
6D
69
74
7F
76
71
65
66
72
08
00
1C
15
30
18
07
10
77
74
17
0A
13
13
1B
12
10
00
0E
6F
7B
79
78
73
00
00
71
00
15
16
0C
2E
2D
10
14
1A
00
14
1D
15
06
38
15
71
12
15
1B
06
6D
61
06
5C
0F
75
16
0B
7B
76
6F
01
78
04
79
06
10
03
06
06
7E
10
35
77
0E
11
1F
15
0B
71
7B
6E
17
02
17
0F
0E
76
51
61
62
66
0F
07
0F
7C
04
6D
7C
22
1A
74
77
16
7B
1D
0C
7B
0E
05
23
1E
1E
15
06
78
64
5D
5F
72
08
1D
17
7C
7F
6A
71
2C
07
6F
73
0C
75
07
15
30
10
13
1F
13
0E
16
01
7D
59
0C
76
0D
12
14
17
7C
76
02
16
16
02
7C
11
04
2E
2F
35
19
20
0B
19
14
04
7D
14
64
7E
73
67
07
00
03
6E
0E
76
14
0D
78
05
6F
76
05
0C
34
27
1B
05
0E
0A
6A
6D
75
02
0B
6A
7C
7A
73
0D
02
14
01
02
72
75
72
10
15
7D
73
13
10
37
1E
0D
02
0F
7B
08
77
12
7A
12
11
74
03
7F
09
75
03
78
06
02
5E
02
19
66
77
1A
11
1D
28
0C
78
6D
7D
13
0D
13
7C
04
76
78
07
0C
7D
01
78
03
01
08
6E
74
71
0A
15
21
14
0A
33
00
71
5F
60
7B
6D
7E
11
07
6C
09
00
08
03
15
04
6A
77
12
03
07
02
73
24
16
0A
13
1F
1F
7C
65
6B
6C
6D
7B
76
74
78
6F
0E
18
08
77
07
6A
09
78
79
6F
01
01
71
0B
04
76
0B
18
0C
05
01
59
6D
63
64
01
0E
11
79
78
74
7E
00
15
10
14
0A
0D
01
70
72
7E
0B
5D
67
0C
75
73
02
75
67
6D
74
0A
03
08
0D
7F
01
7B
28
17
27
1C
00
18
07
77
04
7E
10
64
53
66
02
7C
01
09
23
14
26
09
14
05
0E
02
0D
14
0A
09
19
29
04
7D
0A
6F
77
09
12
66
62
4A
59
7F
00
75
7C
0B
1F
22
0B
13
0D
1C
19
7F
7A
15
1C
2A
74
5E
77
05
0E
12
04
73
5F
01
7E
74
5F
66
5E
57
17
05
04
7E
03
18
02
6D
72
1C
11
10
72
02
78
04
70
03
07
74
72
67
5E
7F
55
4B
5F
03
7A
61
78
76
66
69
65
69
64
77
7E
06
6F
11
0F
76
78
77
0A
7C
75
69
76
65
06
6E
6C
0E
01
69
44
60
65
5B
6B
6D
6F
53
63
6F
6D
03
6E

