03
F6
09
0F
07
F5
F7
F2
01
04
0F
F7
03
F9
EB
F8
0F
0F
00
F8
0B
0F
F0
00
FB
FF
0E
FF
00
FD
01
F1
EF
10
0A
11
0E
03
05
10
07
08
FB
DE
21
06
20
07
21
1A
0D
1C
F3
EE
10
FF
0A
0E
0E
F6
13
23
28
26
25
25
17
27
FE
01
25
F7
E4
FD
F4
FE
EE
0C
14
27
EE
EE
F8
09
FC
F6
0B
EC
16
0D
37
13
01
0C
FB
0F
E9
0F
05
F1
F5
FD
E7
0A
1B
19
1A
0A
FC
FA
1C
F6
FE
07
EA
E9
06
16
21
21
11
15
03
15
EE
FC
F7
01
ED
04
F9
FF
1A
FB
08
1B
0C
05
F1
F4
F4
07
10
08
01
F8
F6
20
38
18
24
FA
FD
FC
F0
EC
05
E9
F2
F7
FB
05
F4
FD
03
16
FD
F5
F0
0E
03
DC
04
15
FC
19
34
15
10
FB
FC
E7
EA
01
F0
FF
F4
F8
EA
EA
FA
E6
F2
05
F5
F2
10
EB
FD
FB
FF
1B
1C
0E
27
11
03
E8
DF
E9
FF
01
0A
09
DF
EC
DA
F2
E4
C3
08
1F
00
0E
F9
FE
F0
EE
21
20
19
18
15
10
FC
DF
DF
E7
F2
EF
FE
F2
EE
EE
EC
F5
E0
DA
EC
EA
F7
F6
01
09
08
1A
02
11
0A
1D
2A
0B
E0
E0
CA
ED
FD
0F
0A
FA
08
E5
03
F4
F2
E5
1C
E0
E4
EA
10
F1
09
FF
F0
23
06
0F
21
08
FC
C1
C5
DB
04
FF
F5
F8
FE
0A
F0
FF
E9
F1
19
F7
F5
F3
F4
F2
FC
F3
F5
05
0B
18
08
16
F1
CB
E3
E6
FD
0D
F1
F4
E5
08
F0
01
F9
13
FF
03
FA
F7
FD
0A
00
1D
ED
F4
F5
0F
25
05
0B
F4
EF
FF
EC
F7
FF
FC
E4
02
FD
06
02
FC
1F
0E
FA
D0
F8
FF
07
09
FC
FC
0B
13
1A
03
FD
EF
09
16
0D
08
FE
09
F9
19
F7
16
21
0B
03
11
F9
26
04
02
F3
14
0B
09
19
19
10
FC
F5
15
17
FD
FC
F3
F8
FF
1F
18
03
15
14
00
01
31
0E
18
12
F1
F9
19
FA
01
28
0B
05
F8
13
22
07
1B
0B
02
14
1D
1A
0F
10
FC
18
0C
00
13
02
0C
11
F9
01
F7
08
00
1D
20
FA
00
09
1E
1D
17
FA
05
19
0A
0F
13
F7
F7
F4
09
01
3F
10
0B
04
08
0D
05
F7
07
0C
07
09
DC
07
FC
0F
00
FB
04
12
14
FE
FF
12
10
05
FD
F5
42
20
0D
08
01
08
14
FB
0B
04
FC
F2
F8
FD
01
1F
19
07
17
10
22
1C
F1
03
FF
EF
08
04
38
FF
FD
F3
F8
F6
FA
F0
0B
FB
01
F8
F5
03
07
10
FF
13
31
27
10
0F
F7
0C
FD
FD
10
F8
FC
20
04
04
F9
FF
F3
EE
FD
02
1F
FB
01
FA
F2
F5
0D
06
26
0C
F9
0C
F2
14
1B
09
14
11
FF
17
F7
10
03
F7
F9
F8
10
FF
00
05
FF
0E
EF
FF
21
08
15
21
02
00
F4
FC
05
21
16
0B
01
22
0C
EF
09
11
12
00
09
04
F5
F2
01
0A
FC
07
FA
F4
F4
0B
07
F4
09
F6
1C
16
FF
DC
05
1E
F5
03
FE
08
FA
1B
11
CF
E6
FA
E8
D8
D9
EB
E4
EB
EF
F3
F4
08
1A
1D
3A
FF
0F
E1
FE
19
F0
FB
F5
1D
E6
F2
EF
CD
C1
C4
EB
E2
E7
CB
C9
E6
F5
FE
0F
FF
0E
FC
F4
F7
F9
00
0C
F6
FC
0A
F8
0B
12
F1
05
08
F4
E9
CD
C9
C8
CA
CC
CA
F6
F3
0C
07
E9
FD
12
10
01
04
0E
0F
F2
FE
F8
11
06
EF
EF
FC
05
02
FF
F1
F7
E8
EE
F4
FD
ED
0A
E7
D1
E4
EA
04
02
05
01
FE
0B
0D
FD
F0
F6
F9
F8
0B
03
0D
F8
06
0F
0F
F1
EE
E5
EE
E6
09
F7
0D
D5
E8
E7
01
F2
F1
EE

