0D
7B
00
7B
09
00
09
71
0C
72
71
74
77
11
10
12
7C
0E
6F
7B
0D
11
02
01
05
7B
7A
0D
12
75
11
10
7A
0B
74
0C
07
0E
7F
74
79
75
07
6D
14
72
70
0A
6D
0D
05
0C
08
11
74
0C
09
0C
71
06
11
12
0E
78
79
12
1A
08
05
10
07
02
02
13
22
0B
12
0D
0C
73
70
6E
06
05
75
06
72
7B
05
6E
6F
7D
0B
10
21
0B
2F
1C
28
28
27
10
1D
16
01
6D
63
6E
6D
0A
0D
0A
6E
09
5D
73
63
69
78
7F
7C
09
0C
1E
1D
67
12
01
08
0F
14
77
7D
73
67
5B
06
76
0C
77
07
73
78
6C
6D
73
02
62
75
0A
1A
01
75
0C
75
79
0F
12
7E
72
7B
0E
0F
0C
78
19
75
7B
12
7A
0D
5D
59
65
64
6F
06
7D
0D
12
05
7D
10
05
78
03
19
15
00
14
1E
1B
2B
35
13
14
0C
0C
02
6A
73
7F
73
65
10
7D
01
7A
03
7C
0F
14
28
1B
1E
2A
24
11
7E
17
28
20
36
12
7D
01
6B
03
12
01
63
71
6E
08
6A
04
01
6B
79
01
1F
01
24
0A
16
18
23
14
18
1B
2D
7E
03
7C
01
0A
79
77
6F
7C
79
79
7D
01
7A
66
78
76
7C
7B
7D
06
05
05
22
1D
10
12
0D
75
04
74
77
73
02
77
00
00
06
71
74
64
69
01
6B
77
5C
4A
68
5E
61
6F
19
79
0C
12
11
7C
6B
09
76
75
0C
6E
04
78
6F
77
7D
6C
07
71
66
5E
5E
57
6D
67
6A
6B
05
15
58
51
18
01
76
01
7B
01
05
5C
72
62
6B
07
73
0B
79
71
7E
7E
65
6E
5E
7D
0F
6A
67
7D
71
51
02
75
7C
6B
06
11
74
61
70
75
0B
74
03
7A
0D
0B
14
78
54
70
7E
11
07
0A
7A
7F
06
6D
06
0E
14
07
7C
09
74
0E
09
0B
7B
0E
74
79
71
7C
0C
0D
66
57
72
6D
16
6C
00
07
16
6E
1A
07
7C
6D
6D
78
0D
76
0B
07
63
73
11
6B
6D
79
0B
78
74
6A
67
7A
0D
73
6B
7A
05
6A
19
7B
0D
0A
78
28
1E
7A
6B
7F
7D
05
09
02
78
7A
7F
76
63
64
07
0C
03
08
73
6F
7A
64
08
06
6E
75
76
13
06
71
06
64
01
7F
6F
76
71
6F
68
60
58
01
79
0A
03
79
7E
74
7D
2F
0F
12
7F
03
68
21
07
08
0C
06
69
70
67
63
5B
59
5F
53
6E
07
11
05
0C
7A
73
08
72
22
19
02
73
07
79
6A
09
04
0C
6C
74
7A
77
07
7B
66
7C
03
09
01
14
01
02
06
74
6A
6D
15
09
14
09
03
75
00
02
0C
08
7F
78
09
7F
1F
0E
1E
23
23
0E
11
00
07
7F
12
07
7E
79
7A
04
73
0E
7D
04
1E
0B
13
0D
7D
1A
77
03
0B
12
0B
0C
2D
18
17
7A
09
0A
77
7E
13
2C
7E
11
0E
7D
72
08
22
26
16
78
10
01
7F
00
01
10
7E
02
07
15
1F
1C
07
7F
7A
07
2E
04
08
0C
78
0E
01
02
20
1E
13
14
06
12
16
0F
16
0D
7F
04
71
05
01
6C
73
78
09
76
23
13
7E
76
0A
7F
7A
7E
07
07
7B
0B
25
08
0A
0F
14
1A
18
07
78
12
1B
17
7B
7F
79
15
0E
76
05
79
03
7D
71
73
0A
61
66
14
04
19
0D
0A
01
1D
1E
7D
07
66
7E
06
06
77
1E
1E
18
07
6F
03
74
03
11
08
7E
69
72
78
5C
53
6D
73
7F
74
5D
68
67
09
74
01
19
1C
21
1D
12
72
74
7C
01
75
71
74
7A
02
76
10
10
03
00
68
02
0F
75
03
7B
64
6A
6B
74
7E
72
0E
09
08
12
7C
02

