01
F0
03
FC
0F
F5
05
FC
F8
08
FE
FB
15
05
04
03
F8
FE
0E
FF
F6
0E
00
0E
F7
EE
04
0B
F1
13
FC
02
01
0A
1B
0A
05
07
0E
0A
09
09
0E
0C
1C
09
F2
14
0E
FD
F5
05
FE
FD
FA
11
07
06
F2
13
FA
FC
15
12
20
33
40
26
25
18
1D
FE
11
0B
F1
08
07
FD
F7
15
1E
16
F3
FC
F1
F6
14
F6
F9
08
16
FE
FB
11
09
0C
FB
1B
1B
07
08
17
02
0C
12
08
F2
12
1D
E5
FE
EE
0E
F8
FA
E9
09
19
16
F8
07
F8
FA
F6
05
00
05
04
07
00
06
FA
03
E4
E7
F0
EE
E1
ED
22
01
F4
F8
16
03
0F
FB
04
1A
FA
09
F3
EC
F9
DA
02
FB
0A
F9
08
EA
F0
F7
05
F6
F9
13
1E
00
1A
06
0B
EF
0F
01
04
07
0B
00
EF
FF
DE
C6
E3
FD
FB
0A
FB
0E
15
FB
E1
D1
E4
FC
0B
F8
0C
0D
0C
28
FD
F6
FE
11
12
17
0E
07
F6
D3
E5
F5
15
0F
1F
FF
19
1B
05
DD
E0
00
1F
F5
04
EE
04
1E
01
FA
17
21
19
21
13
0B
E1
EF
F3
04
07
08
14
FE
F7
FE
0F
D8
DD
EA
F9
FE
0D
07
FC
01
12
E1
18
24
01
16
0E
16
01
E3
01
1B
16
15
FC
FF
E5
16
FC
C8
E9
F2
0D
05
12
19
E2
F2
01
E8
0B
05
0B
0C
03
F2
EC
E6
13
15
0A
10
01
DC
ED
01
FA
DC
E5
E9
08
FF
0F
00
E2
E5
E7
E8
FF
03
04
E8
E1
E4
D6
06
FB
14
19
0F
ED
DC
F5
FA
02
E3
F3
D8
EC
0B
05
FA
D4
D8
E7
D4
EF
E9
E7
D8
E8
F9
EB
05
07
08
12
F9
D4
F8
0B
04
E8
1C
17
E9
FA
07
F9
02
E9
CC
D7
C9
CC
FA
E3
F1
DA
FB
08
FD
DB
01
01
FB
F0
FE
06
F8
FD
21
0D
0B
15
F3
EF
EF
08
EE
E1
CC
F4
F9
F6
00
FB
0B
01
FB
E9
E7
06
F8
01
EB
0E
01
03
24
1C
19
FF
FE
F1
00
02
0E
05
EF
08
FE
0C
F6
24
0C
22
E8
E7
02
11
05
16
F0
19
0C
2B
0D
10
1F
FF
EE
EE
02
F9
06
F0
00
1A
01
02
1D
19
1C
1F
F0
E7
03
FE
FE
0E
EF
21
10
09
2D
24
14
0C
FF
06
F9
FD
F0
F9
F9
03
0D
0F
14
0F
1E
09
04
E2
F9
F9
16
0D
09
18
1F
07
0C
0A
F9
17
09
03
FB
EB
15
E0
F8
1E
FD
1B
0B
1C
FD
07
00
FF
0D
1C
19
F5
EC
0A
19
12
01
13
F7
01
01
EA
F9
FE
01
03
E7
07
05
06
02
0D
05
00
FE
16
0C
0E
F2
F8
00
F2
0E
03
FF
15
19
FF
F1
FC
07
13
10
F5
EB
10
0A
FC
04
F8
06
0E
0B
1B
FF
14
ED
EE
0C
FD
0B
00
E7
FC
12
F9
EE
0F
04
1C
0A
F2
08
0C
FC
E6
08
11
16
1B
07
0F
FE
FA
F7
F0
0E
0E
14
FB
F1
13
24
F9
F4
F4
13
F6
FC
1E
17
07
F1
10
F6
0B
FE
FC
FA
EC
08
EC
DD
EC
E7
F7
0B
01
E6
FC
34
0B
07
F7
09
F3
FE
F7
05
1B
EE
0E
04
FD
0A
FB
01
F9
FE
06
F5
F4
ED
F0
0A
E9
E9
FB
23
FC
FD
F8
01
E5
19
00
FC
EC
E1
03
EE
F0
F3
19
F9
02
11
0D
05
F6
DD
E5
DE
E8
15
13
00
EF
11
04
E6
F9
2C
FA
DF
F8
FB
E9
E3
F7
08
0D
FE
17
06
FE
01
01
E2
E0
F3
04
07
F8
FA
F6
0D
10
F5
07
E8
E0
DA
12
19
F2
02
F4
01
F5
FE
04
00
F5
E6
F1
D8
CF
E3
15
18
FC
F4
EF
07
03
F8
F5
F5
12
F8
F5
14
16
11
11
FF
0A
F3
EB
04
FB
E2
F1
E8
FB
F9
0B
F6
FE
FC
FE

