F4
06
12
0B
EF
F7
10
F3
03
0F
08
04
05
E1
F1
09
FC
09
0E
0B
FE
04
12
F2
F8
F0
01
12
0E
08
10
F8
FE
12
EE
E7
E6
07
FA
F2
00
E7
FE
0B
16
09
06
01
0D
F4
FC
F5
0B
12
0F
FB
07
FF
10
F8
F0
F6
04
E6
08
16
04
10
EB
D1
DE
E9
F4
FC
0D
FA
F4
FC
FB
1B
1C
1A
F7
F4
12
0F
13
0F
10
02
05
FB
19
F9
FC
E6
F3
D6
C0
BD
DD
E6
09
F7
ED
ED
F9
0D
02
07
FD
F7
0D
EF
F9
0A
21
15
1D
FE
23
08
02
0E
10
E8
DF
C6
D4
D7
F5
CE
DF
F8
E9
FE
FC
05
13
0B
02
F4
09
05
12
25
27
12
F2
F3
05
06
F3
FF
ED
F2
F9
EB
E3
EC
ED
EA
F2
FE
00
08
FE
ED
F8
10
05
20
1E
0A
18
0D
FF
12
02
14
1F
06
24
04
07
FE
DD
C7
DF
E9
DF
E5
E6
03
08
EF
00
14
1D
FF
08
F6
14
F1
FF
12
15
17
17
29
19
18
F2
E9
D8
D2
D4
D5
D8
DD
F6
F8
0C
05
08
02
15
01
1F
FA
FD
F9
00
1E
01
11
25
2C
0A
10
EB
02
EF
DB
D1
DE
EC
CF
DA
F6
F9
02
EF
13
03
14
04
FC
07
11
12
09
22
16
19
20
1F
F2
F8
0B
09
03
E4
E1
FE
F4
DF
FE
10
13
F8
0D
F1
33
FB
11
30
11
27
30
11
20
03
0A
09
FF
10
FE
F9
F2
F1
E9
E7
11
E2
04
0E
28
E9
07
06
0A
20
23
29
F9
FD
FB
0C
01
F3
F6
F0
08
12
06
F8
EB
01
FA
FB
11
F3
F0
FC
09
FC
13
E9
F1
13
12
1A
05
F8
F3
D1
D4
F3
05
00
09
05
13
13
FA
0C
F2
E4
E5
DF
00
10
FD
04
F4
02
E6
F2
EF
F4
E1
F7
E5
D9
FC
FB
15
0D
14
07
1E
F3
EA
F8
E3
F5
F7
13
0D
0A
F9
F3
0F
FD
F8
F4
D0
DC
DF
F2
F1
FA
03
09
09
02
16
F9
08
04
06
EA
EC
F7
FA
05
00
1C
0E
F4
13
1B
18
E4
C9
DC
EC
ED
F2
E5
F3
03
FF
0B
15
0A
0B
05
0F
1D
18
0C
EA
0E
E6
FF
F3
FD
07
13
FB
F1
C2
EC
07
F7
F5
FF
19
07
12
04
0C
EA
00
F0
ED
0D
0B
20
FD
02
F3
01
F4
F1
F8
10
12
00
FE
F0
F6
07
02
FA
00
0F
2F
F3
05
F0
0A
F7
EF
F9
12
03
08
F9
E1
F7
FB
06
F2
14
01
F6
F8
F8
05
F9
F2
E4
01
F9
EB
E1
DE
FA
04
0A
10
02
11
04
FF
0A
ED
18
0B
FC
F9
FC
FB
F3
FC
DF
F0
08
04
F0
E3
EE
E9
F3
DB
0C
FA
19
06
FC
0D
1D
FA
EA
F7
04
04
F8
0C
04
F9
06
F4
F9
02
18
F0
02
E9
E8
E9
E6
F3
0A
FB
EE
0C
1F
FE
1D
06
D4
E8
02
03
0C
EE
0C
16
13
EC
DF
06
F8
EE
E4
F2
ED
FC
0A
FD
11
F7
EA
01
05
07
0E
DF
D1
CD
F8
13
F6
04
F6
24
11
F0
10
0A
03
E5
FD
EE
F0
04
FF
1C
0B
E9
F6
EB
02
F0
03
EE
F2
FB
FC
12
F6
10
05
26
1B
03
FC
ED
04
F6
FA
14
E8
07
F1
F2
E2
FE
06
F3
0B
03
0C
E1
01
FB
EB
05
08
0C
08
25
15
05
F8
11
F2
01
11
15
F6
17
03
07
00
0B
0A
FB
FC
08
EA
F8
E7
F0
DB
FF
EE
FC
F6
EE
04
32
2E
2A
18
01
2F
FD
21
16
0B
FA
2F
10
12
1A
21
FE
F2
F8
D9
02
E5
EF
08
07
FD
FD
EE
09
1D
0E
1B
15
1C
22
0F
2E
19
FD
23
2A
12
14
0F
0D
18
2D
FB
FB
FC
12
07
05
F9
FD
E0
FA
0C
FC
06
EF
E4
E2
F4
FB
3D
17
2C
26
1A
08
F1
1A
2B
28
0F
F4
F5
F2

