12
10
FF
0C
F7
10
09
EE
04
13
06
11
08
09
00
06
05
03
F9
F5
F0
F2
08
F5
03
10
FF
01
10
0F
02
0E
10
FA
F5
E4
EA
FC
EC
EF
E4
DA
FB
F5
DB
D4
FE
FB
F1
F2
FA
EE
FF
00
10
F5
03
03
0F
0D
FF
FA
F1
E4
E9
EB
E4
09
EC
11
01
10
0D
09
DE
F8
07
E0
D4
F0
F9
16
F9
09
FC
F6
EE
EA
E7
0B
F1
05
FA
EB
EF
E7
F2
FD
13
24
18
17
1B
02
01
E7
EB
E5
ED
00
E9
03
10
07
13
FF
07
FA
02
FD
FA
0D
03
EB
02
F7
05
16
1A
19
17
09
EE
F4
E8
CB
F8
F7
E1
EE
EE
10
15
0C
08
03
F1
00
E9
EB
E7
EA
F3
FB
F9
04
01
F1
03
14
F9
0F
1B
14
1F
0B
EC
DA
FC
F8
05
09
11
EB
1A
FA
01
07
F7
F5
E8
FF
E9
F2
F5
16
26
0C
F6
06
FE
0D
02
0A
02
00
0D
27
E2
00
2D
20
21
19
04
04
FB
F6
FA
EB
FF
F5
FF
09
00
33
16
03
08
FA
F1
D4
FE
EC
FE
EE
F9
18
0D
20
F3
F8
04
0C
F3
08
FF
F8
DA
F1
10
19
11
0D
0F
FA
01
EB
BE
E6
09
0C
07
F6
FF
00
F7
16
10
03
0C
E4
E0
E8
EF
F3
E9
03
25
16
17
04
F7
E5
F0
DA
B2
FC
FF
FF
EA
EF
07
1B
1B
F9
EA
EB
08
F3
E4
ED
04
E4
F2
F8
1D
2A
1C
1D
E5
CC
CF
BD
E6
EC
1E
F8
F5
F8
FD
19
F7
FA
02
F7
EB
EA
0C
01
EF
DC
01
1A
1B
28
21
F6
CF
B5
C4
C5
D3
EE
1D
FA
F8
F2
F6
0A
04
01
01
E6
CB
F7
06
EF
F8
F3
09
23
09
0C
17
FD
DC
DA
CD
ED
01
21
08
F9
FD
04
DA
0C
E3
FA
05
E5
EA
01
FB
F3
15
1E
03
11
0E
19
FC
DB
E6
05
EB
0B
0A
16
18
08
F1
FA
F0
21
F1
FE
F1
FF
07
01
0D
03
08
FC
04
01
FD
10
FA
EA
FC
10
24
EF
0B
1B
F7
F5
EA
FB
1C
1B
1A
0B
02
F0
03
F3
01
0E
F2
13
03
F3
F6
0A
03
FD
16
0C
0D
01
15
24
1F
0B
F0
0C
21
1A
17
14
23
FD
11
EB
F5
F4
EB
EE
F4
ED
EC
07
14
2F
F9
2B
1F
23
20
0A
23
FA
F2
08
1A
15
06
10
0B
16
02
F3
E2
EC
F9
06
FC
F2
F9
09
04
26
18
0B
05
07
11
03
F2
EA
E8
F9
18
22
16
25
19
16
05
0F
0C
F3
F1
0C
E4
F6
FD
09
04
19
09
11
0F
04
09
02
E3
1B
0E
ED
13
21
04
19
23
18
17
FF
F6
07
F5
10
EC
F2
08
FD
FC
0A
1A
10
03
18
24
1F
18
10
12
EF
07
2C
17
0D
0D
15
07
16
08
FC
04
FB
F3
06
05
08
11
0C
1C
16
1C
0D
0C
0C
1A
EF
14
0E
F9
21
13
FA
09
FD
0F
FD
0F
07
EF
E9
07
FA
EA
08
25
14
01
22
1E
17
0D
F9
E0
FF
F4
F6
0F
0C
FD
FC
03
F6
EF
F2
F6
EC
EC
F6
EB
E9
ED
F3
07
1F
09
1A
FD
0B
21
EB
F6
11
F3
F8
07
2C
F5
0B
E7
0D
FB
FC
ED
05
EE
FB
F7
01
FB
08
0C
1B
12
0B
19
06
0C
EB
08
0F
05
07
F1
1E
08
12
17
0C
03
F7
F8
F9
F0
14
1E
EC
F6
EA
FA
F1
0A
0C
F7
26
0D
00
17
0F
0F
08
14
EE
FE
0F
0C
FA
1A
1A
FB
F1
0F
2C
F8
D1
FD
E7
F2
0D
DB
DC
DA
01
E2
15
FF
05
07
03
11
F0
0C
EB
F2
09
F5
F3
F7
FB
F3
02
EF
ED
E9
D4
D3
F6
D5
E9
DC
01
FA
FC
FF
F6
0C
02
06
0E
0D
0B
03
F3
EB
07
E7
E3
EF
EB
EC
EE
E8
F7
E5
DF
14
EF
E2
E5
05
F9
F5
01

