F9
FC
12
F7
F8
F8
FD
0B
F3
F4
F4
02
F5
13
0B
F8
13
F5
00
09
F8
FB
03
0E
02
F3
EF
09
11
0B
03
FE
11
0F
13
02
14
0B
FE
FF
15
1A
0D
22
05
21
07
09
19
18
12
0C
F3
F0
12
FD
FD
FA
F7
02
20
FF
0E
10
17
11
33
40
1C
10
1A
12
1E
1A
FD
21
35
2C
24
1D
1D
04
09
01
13
F8
FC
01
16
05
06
03
27
13
F2
06
F7
FE
FC
E5
02
03
F9
2B
12
F7
02
17
1D
04
FC
0F
F1
FF
09
04
23
0F
13
DD
10
F8
EB
FD
E0
07
F9
F9
F9
FA
FA
FE
10
05
10
FB
F6
06
F6
FC
F9
EE
25
0B
12
06
D7
F9
F9
02
03
FC
00
F8
F5
10
06
FD
E6
FB
FB
15
13
15
08
EF
EB
E9
09
07
FB
05
12
08
E4
05
E7
FA
1C
FE
FA
06
FF
0B
F4
FD
F8
EB
E7
FD
07
F9
FE
F1
E0
04
03
34
FF
F2
04
01
E9
F6
F0
08
0E
FB
13
17
0E
03
F7
FF
E8
F6
03
F3
ED
E9
F3
EB
01
F6
12
FE
ED
E1
FD
0C
E1
EB
0C
F9
F3
F8
07
00
21
0A
FA
1E
04
FA
04
F4
FE
03
E2
C6
E2
FB
02
0D
D6
20
0D
18
00
06
FA
00
0E
03
0A
F3
01
02
0B
07
E8
F4
F9
EF
1B
FB
D9
EF
13
15
08
21
DC
ED
F0
0B
0B
10
13
16
FF
EC
E6
D9
E6
FE
FC
F7
EF
F4
F3
E6
11
00
0C
23
27
2E
F6
FB
EE
DC
D6
EC
EE
F6
13
0C
F8
E5
C2
B9
F8
F9
FC
E3
DF
E2
FE
FD
07
23
14
14
D2
23
F6
F8
E9
EB
D8
D3
D4
E8
E3
DC
D3
C0
B2
D2
FC
07
FD
F9
0F
09
00
09
FC
16
15
19
FA
2A
FF
E8
10
FA
D0
D6
CE
CA
DE
B9
C4
C8
F1
F9
1E
11
03
0A
0F
0D
03
02
EA
08
20
1A
05
05
FB
07
0D
FF
CC
C3
E7
C8
DA
DD
F5
04
1F
17
1A
1D
25
14
00
06
EE
01
0B
FD
13
ED
0E
FD
FA
F5
0C
06
FD
DE
E2
E4
E6
E7
20
31
1E
3A
1E
0C
FE
F9
1E
10
E6
05
EF
0B
17
00
F8
0D
F8
FE
11
06
19
F4
11
EE
06
F5
15
0A
2C
1C
17
FA
00
FB
18
12
ED
01
F4
10
23
F9
F1
F9
F1
F5
17
1B
15
F8
0C
1C
05
F5
1C
20
1A
0E
0A
E2
FB
02
02
02
E8
E8
FD
05
27
05
13
0A
04
F1
09
02
0E
11
06
0C
FB
FB
FD
1B
23
1E
EC
03
0D
16
1F
0C
EF
DD
F9
05
10
37
1B
23
0D
F2
00
F8
03
19
1A
0F
FD
01
14
02
1C
01
1A
02
08
02
1A
14
0B
FF
04
05
03
14
0D
20
EE
E0
F3
16
21
12
01
1E
18
0E
03
01
FE
F7
08
06
FB
F9
F8
06
0D
0B
FB
05
F6
09
1E
FB
FE
06
21
24
12
F9
02
FA
0F
FE
18
FA
F9
10
1A
01
0C
F1
F6
03
F3
06
04
F9
F8
1F
32
FE
0B
0B
FA
FB
23
20
01
F4
0B
04
F4
FF
F4
09
F0
FC
FD
FB
ED
03
F5
FC
F3
FF
FA
FE
19
FE
F4
F0
12
D0
14
F5
EF
EB
EB
FE
EB
02
05
FD
EC
F7
FA
E4
F5
F2
F0
FF
EA
EE
F4
15
12
FF
04
0F
EB
EA
F1
F9
F7
F5
E4
E7
F8
EF
E7
D2
EA
FA
E8
F3
E7
D2
D8
D8
E4
FB
08
1A
19
0B
FE
F6
0D
2F
0B
0E
F0
08
ED
FD
F6
FF
F1
EF
EE
08
F6
E8
D7
CE
F0
D8
D7
E8
02
FE
15
FC
05
FE
F2
FC
E1
FF
FF
41
22
F9
1E
FD
F2
18
F9
0C
F0
D3
E7
F3
F5
E3
E7
F5
10
00
FF
EE
FA
EE
FA
F7
0E
15
F4
1A
11
1E
28
24
18
26
FF
28
21
11
0A
EE
F0
F8
EB
0B
08
05
07
00

