F5
FB
F9
04
FE
07
F7
EF
01
11
FC
ED
00
04
FE
F7
EF
0F
0D
F5
F2
F3
02
FF
01
F1
F7
0A
F4
EE
04
F5
F7
11
06
0C
FF
EF
FD
04
ED
F5
0A
13
01
16
FD
25
16
25
21
FF
0B
03
EF
F2
F8
08
F1
05
23
03
F0
F1
F2
F7
FC
FF
EC
DB
ED
07
FA
E9
EA
07
03
14
0F
0E
EC
F7
F0
06
F3
F0
FB
10
16
F9
FC
F3
DC
CF
F2
0B
FE
D4
E2
F0
EC
DF
EC
E8
0F
EE
FD
05
F0
1F
00
FB
05
07
EA
0B
0B
05
FB
FD
CE
CA
CC
F1
DF
FF
F1
E7
F0
D4
00
DD
01
E5
03
1F
04
08
EE
D1
F1
F1
07
04
15
17
FE
DA
C7
E6
E5
E9
E4
0D
09
F3
E4
E4
DD
DC
EE
CB
F3
0C
FD
F3
BE
F2
08
F0
09
09
F9
0D
14
F1
E4
D6
E1
EC
FD
12
06
F2
FD
F5
01
F5
F6
03
FB
FA
10
ED
FB
E8
F2
F1
01
09
ED
F5
0F
08
E3
08
EA
E6
09
0D
26
0A
02
0D
01
14
1A
08
18
18
FB
E0
02
E8
FE
02
07
0D
E3
F8
F7
11
FC
F6
DE
E7
06
00
12
10
0B
1D
34
14
0E
09
1E
18
11
0B
0F
10
03
2D
E7
FD
E6
FA
07
F9
09
F0
D9
DB
07
0E
20
0E
06
1D
26
15
0F
18
15
F2
1E
19
15
20
FC
15
F4
E6
E8
F1
0B
0D
08
E4
EE
09
12
38
1A
10
FD
FE
0F
23
10
1A
03
15
45
36
21
10
FD
F7
ED
09
04
F9
EE
F6
F1
E7
E8
F3
1C
39
1C
1F
EE
F8
05
EC
FD
1A
0E
10
0D
1A
31
1C
F5
10
12
10
E8
F5
F0
F3
ED
EF
F0
08
0C
27
10
1E
00
E5
F8
EB
F6
F0
F2
E4
CF
FC
1B
24
F4
12
20
19
09
02
F4
E8
F0
E9
16
33
18
07
14
04
06
04
EE
F1
F5
0C
E8
DD
E3
14
F7
F4
11
13
FD
19
EB
04
FB
ED
04
FB
14
19
17
13
0F
11
00
EC
03
F7
FE
F7
D7
D8
D6
F2
E4
EA
F3
FA
F3
F5
01
0D
0D
26
07
FC
0D
0E
10
EC
0B
1F
F0
16
01
F4
F5
E9
DF
DE
D0
E7
DF
FB
10
FE
D5
F4
06
08
F2
FE
F8
F8
F3
00
13
04
0E
FC
12
FD
E6
E0
EE
DE
CF
DD
CA
DC
DF
0E
FE
EE
D1
F8
05
00
FC
F2
06
F5
ED
F4
06
17
09
13
06
FD
E4
F4
FC
C4
EA
06
F1
F7
0F
13
1E
11
F1
E8
06
F2
00
0C
FD
FC
ED
F1
14
29
2F
14
FC
E2
DF
E6
E1
CC
DC
EB
F0
1B
27
20
F4
0E
13
E3
EA
FE
F7
23
FD
DD
04
12
19
1C
0A
E5
EA
DD
D8
CB
DC
F4
E1
F1
FE
0B
F4
0A
FF
1E
EA
C5
E2
FF
02
FF
FB
FE
F5
16
26
16
11
F4
D0
EE
EF
E0
D0
E0
06
ED
12
16
FD
F7
0A
E5
E3
DB
CE
EE
0C
0D
F8
02
10
11
19
03
F6
E0
E0
E2
F3
CD
E2
FE
FE
EC
FA
07
E2
F4
0D
FC
E8
F9
F2
ED
0E
15
01
FE
13
19
06
F7
00
E4
E0
01
CD
F7
DB
00
17
11
20
F0
F4
FD
11
04
F9
F0
16
10
1B
1A
0C
1B
21
0B
04
E8
E5
D8
D1
CD
C3
D9
F6
F9
10
14
06
03
20
0C
F8
08
F7
F7
F6
0C
FB
16
18
29
13
F4
04
F2
FD
EC
C1
DF
D5
CC
E9
EE
14
12
0E
F2
FD
F8
0F
F4
FD
17
1B
19
F4
00
02
14
04
14
03
08
F0
DE
E1
CF
E2
DD
F5
0A
30
10
29
08
FB
F5
ED
F7
EE
19
28
18
1B
13
03
0E
0F
F5
2A
1B
F4
F0
10
0A
14
13
03
17
06
FD
EA
0F
F9
01
FF
02
00
07
09
F7
0D
12
15
17
2C
01
ED
02
13
10
F6
0C
FF
03
F2
F6
10
0B
F6
11
EE
06

