EF
E5
D5
08
00
DA
DF
36
23
0E
09
EE
15
FC
EC
CA
EC
04
F6
F8
25
14
DB
0F
05
15
CD
D7
3B
10
F6
18
22
10
F4
25
0B
10
DD
E6
16
0C
5B
1C
ED
DC
D7
09
22
3F
4B
04
08
06
E2
24
03
25
2E
10
1E
F9
DD
41
11
03
19
F8
28
02
11
04
F8
07
2E
01
DB
F6
DF
35
06
1F
E0
32
11
34
D5
2D
0B
03
03
EA
05
F3
FF
1B
F8
E0
D5
27
31
E8
F2
E8
1C
14
FE
02
C9
1A
1B
19
19
12
50
21
0F
19
EB
EC
CC
BD
E7
FD
FA
F1
FF
E9

