44
28
2A
CD
EC
D7
CE
09
04
D1
2D
FC
DB
E8
ED
05
FA
1C
D8
1B
E5
F4
EF
D2
21
10
2C
3C
CA
1A
EC
EF
01
1D
1B
2B
34
59
1A
16
06
E7
01
11
E4
17
EA
2F
18
B4
C6
11
EE
22
1C
F3
FD
D7
20
1E
2F
09
DA
D5
16
F5
05
F0
33
D8
C0
E7
21
30
B2
21
13
14
01
A7
E8
F9
26
07
BF
08
33
06
0A
4E
11
CB
E1
18
04
0F
32
EE
02
00
0A
34
FC
20
16
23
38
C6
08
20
DD
F8
D1
00
F8
1C
E3
F5
20
F1
62
F3
E3
A6
F4
09
03
47

