FB
F0
09
07
0B
EE
08
EF
10
ED
11
07
0C
F7
0B
F1
0A
06
F3
0F
10
09
EE
10
FC
10
EF
F3
F7
0C
F1
F9
12
0C
FE
06
EF
EC
0E
03
F7
F2
1D
0E
0F
F1
E9
E6
F5
E8
EC
EE
07
F0
EF
04
F4
09
F0
03
EC
09
EC
EE
DB
DB
EA
F9
F3
18
F1
FD
03
0A
10
F5
F8
FA
EF
0C
02
08
0C
EE
F8
EE
EE
05
EE
FE
06
F7
F9
EC
DB
D9
10
0F
01
EA
05
0C
E4
D7
E0
F3
FF
FD
04
FD
FE
F3
04
F8
02
FB
11
1A
FF
FD
F1
EB
F5
15
08
14
11
14
08
EE
EF
EB
FF
EC
D8
C4
F3
09
14
EC
F6
10
FB
00
08
0D
0E
21
E9
FE
EB
0B
02
0F
F1
1A
FB
0F
0F
FD
F9
F1
D9
E4
FC
EB
F8
F0
F3
F6
08
11
0B
F0
11
06
0F
13
00
FD
F3
03
0C
05
03
06
FB
EB
F5
E9
E1
E0
F8
F0
F0
FD
F8
0D
E9
FF
0B
E5
F3
10
07
F6
04
06
0D
0A
15
04
F9
FD
03
ED
FA
E7
FA
FF
EB
F6
FD
0F
F2
13
04
0A
1D
FA
01
F6
FF
00
11
04
FF
E8
02
FF
06
10
10
07
05
0F
24
04
CD
F3
F1
F5
F1
0A
0E
0B
02
ED
13
10
F7
01
0F
01
EC
13
1C
09
23
17
12
1C
0B
F9
11
26
EE
0E
0E
F4
11
1C
F3
07
F1
ED
04
07
FB
00
E1
FB
FA
33
28
27
21
0C
0C
F0
0C
0F
23
17
D2
E2
EA
00
11
01
E6
02
1E
05
FC
01
EA
E8
E2
F3
01
0D
18
1B
16
FC
FB
02
18
0E
0A
FD
E1
09
0E
04
0C
FE
0D
FA
04
13
F5
13
ED
EE
DF
11
04
0D
27
13
07
FC
E7
04
FD
05
F2
EF
B8
F4
E1
0B
15
0C
15
EC
01
F5
15
FE
FB
FC
E4
0A
FF
15
17
08
03
0B
ED
E2
E4
DA
DF
DB
D3
F2
F4
02
FC
05
01
E8
EE
DF
04
E8
F3
F2
EC
02
07
EE
08
15
14
F8
E7
D9
DF
EC
FA
00
DF
F5
ED
F1
EB
F5
1F
00
F7
E7
04
06
13
06
F5
07
17
0B
18
FD
16
0F
03
EA
01
0C
05
E8
F0
04
EB
13
01
0A
06
E8
FD
E8
15
10
0D
05
16
F5
07
06
14
EE
F7
E7
06
FD
FC
07
0F
05
10
02
FE
F4
02
01
03
00
FB
EC
EB
F3
04
EA
DC
E3
EE
11
17
FD
FA
EF
F5
00
0B
0E
16
04
23
01
03
F9
1A
17
0A
E3
EA
0F
09
F5
D6
D6
C3
CA
E6
F7
F9
E9
F1
F4
DA
00
FE
05
0A
05
FB
15
00
FA
0A
FF
08
F5
FE
F1
FB
02
E7
EC
EE
C9
C6
FC
F6
F7
F5
FC
F0
F3
07
04
FC
FF
0C
1A
E8
03
0F
FB
06
F4
F4
FB
07
0E
FF
E6
F8
FB
D9
E0
E3
FE
F3
FB
11
01
FE
02
14
0C
00
08
0E
EE
F6
FD
1B
1B
20
03
16
0C
08
FA
03
FC
EC
00
FD
04
14
F4
0E
0E
15
F6
FB
F5
EB
04
F5
F9
F9
09
ED
F6
0B
29
2D
1A
06
12
10
04
F5
EC
FE
0C
F6
09
F9
04
18
E1
0B
FC
F4
FF
08
0C
11
F6
0D
04
12
17
11
10
1E
08
1C
F3
EE
EE
E9
12
FD
0D
0A
07
14
E5
04
FF
F5
01
15
FE
07
F2
FF
25
24
17
0D
1A
0A
14
29
0F
FA
07
FF
F6
01
07
FB
02
ED
FA
FB
13
FE
F3
FA
09
FC
F8
10
EF
EA
05
FE
22
23
28
17
FE
19
1A
19
1F
16
18
08
38
14
08
FE
E9
E3
FD
11
F9
0F
07
00
19
08
05
14
24
FB
19
27
1B
14
20
1F
08
22
20
20
2A
1F
0E
09
06
F1
F0
01
F0
0D
FA
0E
06
0E
00
F8
01
28
FE
04
0F
EB
F6
18
0D
0A
16
28
01
EC
12
18
0B
0E
FB
06
FD

