02
0B
FA
0F
08
01
FA
F0
02
F2
06
F0
FE
0A
10
12
F3
0F
F0
F2
0C
11
FA
01
01
F1
EE
F8
F8
F2
FB
F8
01
FD
F7
F6
FC
EA
F9
F2
F4
EF
FB
D9
E8
D2
F3
F9
F4
03
EB
06
F6
FF
F0
0D
10
07
00
DD
DC
FA
FD
01
F7
FB
E6
D1
D9
D5
D4
D9
F2
DE
E0
CF
EA
EA
03
D5
EF
EA
FE
F6
0B
0A
FE
EC
E5
EB
E3
EA
DA
DF
DE
F4
F4
C4
DA
D2
E1
ED
F8
F5
0B
FC
07
F2
F7
10
0A
01
04
EE
04
EA
E6
F0
E1
E8
CD
F7
DD
EF
FE
EE
E8
EB
DB
F4
F3
E1
E6
01
F7
06
0D
1C
1B
F4
11
12
F5
EB
F6
F8
DA
E3
02
F9
F0
ED
FE
F3
E5
FA
F3
D9
E3
D8
FD
F7
FF
EB
F5
16
0C
1C
10
F0
00
02
E9
13
E9
FE
FA
0A
F7
F8
FC
E5
03
F3
E3
F2
E5
F0
08
01
11
0D
09
13
34
12
11
F3
FC
09
EC
D9
E4
F5
E6
F5
06
ED
FD
06
0B
F1
0D
FE
01
11
15
19
0C
00
0C
1D
32
24
0D
12
F7
00
F5
EA
13
F3
F6
0A
06
FE
10
0A
06
1C
F9
18
22
1D
FF
0C
EF
1C
31
41
FE
0B
F9
16
09
04
13
F8
02
01
0D
FD
07
1A
FD
0C
20
1C
08
F5
0C
ED
E6
0E
00
F9
2E
45
0A
FD
0A
1E
1B
F7
0E
19
0D
14
F0
04
13
17
06
01
F4
19
13
01
EA
0C
F8
FA
13
F6
3F
3B
1D
13
14
03
26
F3
18
10
0C
18
03
0E
FF
1C
23
0F
EE
01
12
0D
FC
F5
06
09
07
FB
1B
22
17
12
F3
FB
33
FE
20
07
06
FC
1E
00
17
09
FC
08
FB
0E
0D
01
F4
F7
FD
F1
F9
02
E7
06
06
0F
01
07
22
10
15
15
02
0B
08
01
1B
15
FA
FD
F5
FE
F3
16
F1
DB
FC
E7
10
FF
10
1A
16
05
0A
10
21
08
0E
FB
FD
10
12
21
1E
17
F5
E5
F6
09
11
12
06
FF
04
F0
0A
1E
17
05
E8
FA
FB
FE
F9
0C
0F
F1
17
14
04
17
17
07
05
EC
E3
FE
0D
26
01
08
00
1C
01
0F
11
EC
F6
04
10
01
12
02
F8
0C
0C
0A
26
00
0A
1F
05
E0
E5
F3
01
0E
FE
FC
06
19
02
04
E0
E0
F9
E6
F5
12
FD
FA
F6
0F
0B
E9
1D
14
13
24
F5
E6
0A
08
11
0F
FB
F5
08
FF
01
EA
E8
DF
E5
F5
0A
F0
FB
F2
05
0D
F7
FC
09
E5
F1
EB
CE
DC
02
FD
08
F1
E1
F0
F7
D6
E3
02
F2
D8
EA
FC
0F
14
07
07
F6
03
F1
EE
FD
D8
DF
DD
E7
E7
F4
06
FD
F5
F9
07
ED
E9
DB
F3
FB
FE
EF
09
F9
20
F9
F5
D4
F8
F9
F4
DD
F1
D7
DF
E2
F8
01
F1
FC
EC
FB
FA
EF
D4
E8
F0
FD
2A
F9
F0
F3
02
ED
CF
EB
F8
F0
F6
FB
13
F0
DA
E8
04
06
FF
EF
0B
05
F6
EF
EE
F6
FC
13
21
EF
F1
F2
08
05
FA
FC
E9
DA
F6
04
F2
FA
FB
ED
E8
12
01
F9
07
FD
FD
EA
E3
DE
08
FE
1F
D9
05
04
10
E2
F9
04
F2
E8
D4
02
FC
02
FE
04
F8
01
1C
06
FA
FD
11
06
0B
F9
22
0E
03
F3
F6
FB
F9
00
E6
DF
EB
E5
E9
F0
00
DD
F7
EF
F9
0E
0E
FD
F1
ED
27
2D
26
15
09
FF
04
0F
F9
F9
0C
06
10
E1
F3
DC
DE
F6
E4
EE
F9
F7
04
0A
09
F5
09
1B
0E
2C
24
27
11
0E
16
F3
08
FC
02
06
FA
11
03
F4
0F
19
19
FD
F2
FF
13
14
28
1C
18
0F
0A
2D
3E
1C
0F
07
12
06
0F
05
F4
12
10
0A
2A
27
13
1B
2F
26
16
22
25
13
14
26
2F
35
25
29
17
2B
17
0C
F4
10
F6

