44
DB
31
29
EB
FB
B9
C8
04
37
DF
0D
10
04
EF
0E
26
E5
0D
1F
FE
C9
EF
F9
13
FB
42
04
0C
22
E9
F0
E5
13
07
11
DC
2D
12
15
23
20
07
ED
2F
EA
00
04
34
E4
AA
0F
0B
14
1F
25
03
04
23
20
16
01
88
CB
F7
DA
D4
18
CD
24
F3
15
2C
42
09
21
F3
11
F7
0F
26
03
E4
1B
EC
FB
0D
EF
0C
0F
39
C3
DF
2D
25
FC
39
16
D5
28
E7
C4
E9
DB
01
FB
ED
2D
F5
2A
2C
1B
DE
EB
2E
F7
E4
EF
03
15
60
0D
12
F4
19
EA
01
E3

