7E
7A
76
12
03
72
0A
7B
0E
10
05
04
7C
72
6E
0B
73
75
76
0B
70
0E
09
75
11
7E
71
04
08
06
00
0A
7B
7E
0E
0A
16
10
19
05
7F
07
76
05
10
79
18
77
77
05
76
71
77
0A
02
03
05
0D
7B
7C
77
7B
7B
13
78
7F
0A
69
73
61
7E
05
71
0D
78
75
74
6F
06
7B
01
7A
76
6F
6F
0A
12
7C
6F
04
74
0E
7B
03
07
78
61
14
01
6E
6D
76
75
6B
07
14
10
07
7C
7A
79
77
6E
7A
78
15
57
7D
12
15
13
0F
6C
6C
6F
0D
7C
73
0A
7D
0A
15
1A
08
27
32
05
13
72
06
0E
70
70
00
12
29
1A
27
2B
04
7C
7F
5C
0F
75
73
7A
60
0C
14
12
02
75
7F
10
77
12
7E
03
03
7F
0F
1E
31
23
2C
7E
6D
6C
70
6F
5E
63
77
08
6A
06
76
00
23
18
14
06
7B
7F
7D
0F
12
15
75
02
36
3B
2F
72
74
01
08
6F
7B
7A
0E
0D
10
10
10
13
08
7F
08
26
01
61
73
70
21
07
6A
03
25
31
27
25
06
68
7E
02
10
04
03
16
77
00
74
0D
04
73
7D
09
15
7E
7A
73
0D
3F
78
6E
7E
0C
11
79
7D
0C
73
7C
14
73
77
0B
64
02
75
76
75
14
11
15
11
59
0B
0E
19
25
62
6F
13
13
1B
12
1F
77
77
08
69
74
79
7A
00
72
73
6C
7A
20
23
16
04
03
7C
0C
0E
19
05
0D
7D
22
1A
17
22
6E
7A
5B
6F
6F
79
03
0D
7C
55
68
7D
02
11
2E
77
77
6D
75
05
05
09
14
11
27
22
28
1F
72
62
44
4E
78
72
14
06
74
5C
5F
0E
75
0F
31
09
12
75
7A
0B
03
10
28
1E
23
2C
28
75
5E
4F
4D
44
5B
70
7E
65
73
63
5E
70
0F
27
08
0D
18
00
7D
0C
16
06
1E
2C
35
37
12
00
65
5F
52
55
6A
69
5F
68
76
58
04
7C
0A
15
34
0A
6F
74
70
78
2C
04
00
21
0E
33
29
79
79
64
66
72
68
62
72
4A
67
5E
7D
0B
19
1F
21
74
77
73
0E
0A
0E
0A
0A
1E
11
25
1B
6D
7B
6C
7A
04
0D
7E
6A
5F
6F
6E
07
03
21
05
05
1C
00
6F
6E
0E
10
7A
79
20
06
06
17
7D
6F
7E
66
79
03
7A
62
56
77
04
08
2D
28
22
03
10
03
79
0C
7E
07
01
08
16
15
1D
07
06
76
05
65
05
77
6C
69
6A
7B
1A
24
10
33
25
20
14
7B
68
7C
77
72
23
7E
0E
7C
14
75
69
05
6A
0A
7C
03
78
6E
0A
7B
03
1B
20
2A
06
22
00
7F
78
0F
76
68
7D
0F
1F
69
7F
0F
0B
07
02
05
06
68
71
75
15
7D
78
76
01
13
7D
03
0D
72
73
13
06
69
0E
26
23
04
78
06
17
0F
70
6C
76
62
0D
77
78
6B
02
71
0E
1E
05
6A
0C
75
02
0E
01
7A
09
08
0C
03
02
02
78
01
77
6F
70
73
10
1A
11
7A
02
15
28
18
0A
5B
77
7A
00
10
10
7F
68
02
33
27
7D
79
67
7D
69
04
12
05
14
15
2C
0C
06
21
1E
77
64
54
08
03
73
07
06
74
03
7D
1B
25
11
71
7D
7B
6F
5C
04
75
0B
07
30
7A
7B
0E
27
7C
58
6A
76
09
7B
06
0A
01
7D
11
09
0D
31
05
2C
0E
7A
78
07
14
1F
23
12
20
72
79
0F
13
67
1C
73
00
00
0A
79
6E
74
7E
1E
14
18
10
04
14
1D
00
66
12
75
7C
03
01
1B
5F
5C
73
4A
71
10
73
03
09
7C
11
0F
0A
7B
06
14
05
71
02
18
17
7F
2D
2C
08
74
17
15
0A
6B
7D
71
6E
72
03
0C

