0E
03
FF
01
12
FF
03
03
F5
F1
07
EE
15
09
EC
0A
F2
03
F9
FC
FD
08
FC
F3
FC
FE
03
F3
00
F6
04
FF
FA
FA
F0
F1
03
18
16
FE
03
0B
0C
03
08
F6
19
F3
FA
F4
EA
F2
0C
10
F3
F8
13
F9
F5
10
0B
EF
FF
F6
10
E0
05
03
F3
D2
DC
F4
E3
EE
FC
FA
00
0C
F4
0C
07
F5
0F
FC
FB
08
F3
0B
F4
F4
E2
06
13
0B
FF
23
0F
EB
E5
E8
E3
F5
FE
FD
F8
E9
03
FD
F0
06
EE
13
04
F8
F4
11
1B
CC
EE
0F
E3
DA
F1
0B
F6
EE
09
FE
FB
EC
DC
DE
E3
F0
F1
06
09
F8
F9
01
01
0B
FD
10
F1
F2
FC
E1
E8
FE
20
0D
1A
17
1B
07
06
FE
FE
D8
CD
E9
FC
FD
FE
FA
04
0E
03
11
00
14
EC
CC
E5
11
18
1E
23
30
3F
3C
1B
EE
E6
DB
D3
C7
E0
C9
CB
D3
FF
F9
F6
08
0F
FA
0A
FC
CD
E7
02
F0
0D
FE
21
2C
26
1F
06
09
D0
D6
D3
B7
B7
DE
D0
CE
EB
E6
F9
01
10
03
08
FD
FE
EB
09
F3
18
1A
13
1B
0C
F3
0B
02
FF
F5
F9
D3
B3
C4
F0
BA
F3
07
08
EF
EF
E8
C7
ED
04
F7
07
FE
18
07
09
05
D7
DB
1C
17
05
1C
0A
F8
D5
C5
D4
D2
E7
D9
05
02
F3
F8
D1
EE
F3
0B
14
17
11
02
F8
DB
C4
DF
04
0F
0F
24
15
FF
E0
DF
DB
BB
E8
F0
F9
F6
EA
03
FB
FD
DA
F5
0E
0D
10
F8
CD
B3
E1
1F
08
09
22
2B
19
0F
1A
DA
D7
DC
F5
E1
EF
08
EF
FD
DD
03
F0
F8
02
01
09
0B
D9
E9
FB
FA
FD
04
02
0F
F2
0D
EF
E6
DD
E7
F9
EB
FE
E7
08
06
E6
F3
F7
ED
01
FB
FD
10
F8
EE
F4
F6
F2
00
07
0F
0C
03
0A
CA
BF
EF
FC
F0
EA
F5
04
05
D5
08
F8
E6
0B
15
FA
FE
FF
FA
EC
F5
DB
F0
0F
06
14
FE
04
E8
E0
D4
E5
FB
E6
03
09
F4
E9
F6
FD
0C
F4
15
0E
0F
F8
01
03
EC
F2
FB
F8
15
F4
F7
FE
03
E7
C6
E3
04
14
F4
E9
01
F9
FB
F9
F2
EC
FE
1B
F7
1C
25
1E
F8
F9
EB
13
11
0F
0D
01
E3
F8
FF
CB
F9
18
1F
FE
FE
07
FC
0A
05
FD
F2
FB
03
08
1B
1C
02
EC
FB
F6
07
F5
F0
F2
DA
F2
F3
CE
F8
FC
10
F0
0C
05
EC
FD
E8
E7
0D
13
19
17
35
14
EC
E6
00
F9
16
F2
08
F5
E6
F5
E6
D0
F2
E7
F1
EE
15
F5
F0
1E
05
E1
14
1E
FF
1C
1D
1D
EA
E1
ED
02
E9
13
08
04
F0
FA
0E
E4
F0
0C
F2
F0
11
EA
FB
1E
FE
E5
0B
F1
F1
EB
06
EC
D4
FC
E0
FA
F4
11
F6
0F
EE
10
0E
07
2A
0B
FF
FD
FF
DA
01
13
0D
07
1B
17
F8
E3
FE
E1
F7
F1
05
0F
08
0F
FF
0A
E6
F8
03
07
1C
E4
0C
12
11
FD
ED
13
F6
12
FC
F3
E6
F2
FB
F7
0E
03
FF
07
FE
12
F5
ED
F2
0E
04
15
12
00
06
12
03
0C
14
0E
16
EA
E8
E4
E2
E7
F2
F1
04
09
14
0D
10
06
09
F5
14
14
11
04
17
EA
09
0B
F2
ED
10
FE
14
F6
0D
DB
D8
EF
F8
F9
F3
16
10
14
0C
11
00
09
10
0F
0F
04
06
FA
11
FF
F1
22
F9
0D
0A
06
FB
F7
D8
F6
02
E7
02
F1
F4
00
F6
13
FE
1C
0F
06
FE
DF
06
05
EE
00
01
00
EF
05
0C
EF
08
F6
0A
FC
DE
0D
07
F7
17
00
10
20
E7
2B
27
12
0E
F3
F9
0B
04
F0
10
05
04
FA
0B
11
F2
EC
E5
E5
F6
D2
D8
0B
20
06
F3
FC
13
F5
F0
1E
02
00
03
F9
10

