EE
00
FE
0C
09
08
0B
0B
F8
F3
F9
11
02
14
F8
06
10
0B
07
FF
ED
0F
01
10
FC
02
FC
08
F8
EE
03
F6
0D
11
03
13
0B
0C
09
1B
3B
2B
06
0E
1D
3A
10
23
19
02
0A
0F
FC
04
05
F6
EF
0B
00
09
1D
1C
25
21
0C
F4
F9
09
F9
09
FA
16
36
1C
19
22
16
EE
01
1F
E7
FF
03
0A
06
F4
0F
F9
0F
E7
28
1B
07
09
01
E3
E5
1D
18
0C
FC
05
2F
3C
1B
07
10
01
3A
07
0A
02
FE
F1
E4
EA
ED
DB
FC
EE
D9
E8
F8
F4
E6
F6
2D
17
13
07
18
31
18
2A
1E
16
12
1C
2D
0F
FF
FF
D9
D2
F2
EE
03
DC
EA
11
04
22
0C
1C
18
20
23
31
29
04
12
1E
34
24
13
0F
1C
03
05
F3
11
E0
E1
E9
ED
FF
29
19
13
15
25
27
37
3A
34
11
0C
0B
1D
F3
04
F8
00
15
00
0F
0C
CC
F7
F0
DB
E4
F4
09
0C
18
1A
0D
27
1F
20
0F
06
ED
FA
F4
DD
E7
CF
C5
B1
F3
EA
18
FE
F6
EC
F9
C8
E3
06
FD
19
14
13
0A
08
F5
E8
C6
CA
B0
B7
BA
AA
B5
B7
BB
D7
D2
F9
F8
02
FE
DB
0D
0F
E5
F8
0D
11
0D
00
1A
11
D3
BF
A6
AC
AB
BF
A5
BD
9D
A4
D9
F3
E7
24
DF
01
EE
ED
FA
12
22
02
0D
02
14
FB
14
05
DD
D9
DB
DA
DB
F8
EF
E5
F0
C2
E4
05
E1
03
02
F7
FA
09
0C
12
0F
03
07
F9
ED
11
F1
EF
08
05
2B
25
24
2A
11
2D
0B
05
15
10
EF
1E
17
F3
F8
24
1D
20
1E
12
0B
0E
F2
FF
01
04
FF
05
1B
1A
1E
2A
17
12
07
F3
1D
EA
D4
05
F5
02
03
29
33
14
0F
EE
0C
E4
F2
12
FF
FB
E2
02
05
16
02
02
0C
29
0D
10
12
0D
F5
1A
0C
FB
F9
FB
1D
15
FD
FF
F0
06
01
19
01
F0
F9
E6
01
08
14
16
0D
05
F7
19
27
02
F2
ED
03
FE
0D
DF
F2
0A
04
FD
F7
F5
0D
08
0A
06
FA
E2
09
0F
1C
14
05
0F
26
FA
0D
15
18
E5
F3
FD
F3
F6
26
0C
F5
FE
EB
00
E2
E1
02
E7
F4
0E
0F
18
0D
F9
0B
1B
07
1F
0D
FB
05
06
DF
00
F2
D7
1C
E5
18
0E
E3
01
E8
D9
FA
07
F1
FB
19
E1
F2
FB
F7
07
0C
06
14
0B
FB
F2
EB
11
E6
ED
02
0A
0F
08
F8
FF
F2
08
FD
F5
F7
0F
06
EB
E5
F9
05
02
20
01
FA
E2
EB
F4
E9
04
F9
20
13
17
15
F9
E3
13
F6
05
06
1A
FE
FA
FB
EC
E8
E5
11
17
1B
0A
FC
04
00
F8
DD
05
F4
00
0D
2A
0A
0E
EE
1C
0B
01
00
F6
F8
F1
FE
FE
EE
F6
14
05
18
18
08
1D
FB
EB
11
0B
04
DA
0E
1F
1E
FF
E6
F0
18
08
F9
10
F8
F2
16
FF
07
01
F3
0D
F7
FB
F6
11
06
CF
ED
11
F2
ED
10
23
FE
F4
E1
F6
F8
05
F7
18
0F
F9
0D
11
0E
08
EC
FB
F9
FA
09
F1
06
E8
09
FA
0C
0A
1D
19
1A
08
F7
F7
09
08
F5
F4
0F
11
FD
02
09
FE
FF
0A
EA
12
06
1B
FE
F0
FE
F4
FC
EB
15
F3
14
F9
1A
08
03
08
02
03
08
FA
0F
01
F2
0C
07
1C
0C
15
19
F3
F9
EB
02
FB
02
14
03
0D
F3
01
07
1D
07
EA
ED
1A
10
2D
2E
05
0C
0C
2A
0D
08
10
12
17
0A
09
FB
EF
FE
06
12
F6
01
12
09
11
24
F4
FE
F0
14
40
30
0D
0B
FE
29
25
34
24
1D
03
0D
05
11
0F
12
FF
FC
08
FC
0B
05
F7
F8
07
FA
F8
FE
D5
E1
F8
08
01
FA
FA
04
F9
F2
FC
0E
10
01

