F2
0F
03
10
FB
FA
0D
02
F3
0B
10
F4
0C
F7
DC
04
13
F0
F6
F7
F0
05
0E
00
FF
F1
04
FF
F1
FD
05
FC
EF
F4
FF
F4
FC
E4
DD
DB
E7
F8
EC
E4
DE
FE
FE
FE
02
14
0F
EB
09
0C
F6
10
FD
0E
FE
F7
F0
00
DF
F3
F1
D7
D6
D6
00
32
FC
FF
C4
DF
C2
DB
EC
00
09
E0
F3
EB
FA
0A
F8
07
0D
F8
ED
F5
D5
00
D7
DB
E5
FC
04
1D
17
07
0C
DE
EE
DE
F3
F7
05
DD
E1
F0
F4
01
11
FD
EE
22
F1
DE
E2
E5
D5
C7
07
FA
2B
10
FE
F8
E2
C8
B8
D9
E6
22
3A
24
13
FE
FD
FA
0E
F7
02
16
E5
EF
02
06
FC
E3
1C
29
14
17
F8
0E
F5
D4
B6
CD
0D
1D
1D
17
00
E5
E4
DE
0D
FE
21
0B
FD
09
13
EE
F7
FA
2B
19
29
12
E5
E2
F6
EF
FD
03
1E
EB
E0
DB
EF
EE
19
04
01
F2
2B
14
0D
FA
ED
0F
DF
F0
03
22
1C
FB
F9
C7
D6
E2
EE
02
01
E1
EC
1D
1D
F2
FC
FF
0D
FF
16
2A
0B
06
F6
0F
06
F7
F4
28
2F
0E
DC
E5
DE
E9
0C
F4
F2
04
08
1D
08
FD
EE
06
0A
06
1A
EF
EF
10
F9
FE
09
E8
F7
0F
1E
01
F2
EE
F3
20
F9
03
06
10
04
0F
0B
DB
0E
17
11
0F
23
18
F2
EE
C9
E8
DC
EC
EE
17
0D
EF
CE
E9
F5
0A
FA
14
0A
F5
17
14
3C
18
15
27
05
18
1D
15
C5
DB
D0
D3
DB
DD
0E
0F
05
E1
DD
06
08
0D
06
20
04
0D
0F
27
36
E1
DB
FC
FB
0F
1F
F5
D6
D5
B5
BD
D2
F3
0B
FE
07
F3
F4
0D
09
FB
0C
FB
F5
D0
F9
1C
DA
D2
F3
E9
F5
ED
EE
F4
DB
CD
9D
D0
F1
FB
17
FC
02
1C
12
EB
FA
11
E2
E6
E5
CD
FC
0F
E1
F9
E6
F3
F3
06
01
F7
CB
E6
BB
C1
FC
25
20
09
04
0E
00
0C
00
20
DC
E2
EB
EA
D6
F8
00
F6
E3
F7
FA
FE
FB
05
ED
D2
D4
F1
EC
0B
16
13
FB
0E
F6
05
0B
21
F9
EF
F6
D9
DA
D6
C0
E0
B3
FB
FE
EF
F2
F8
EC
01
E5
E4
F4
F4
1F
0D
0D
0D
F5
01
13
F6
17
23
02
D0
B7
C4
C3
CB
BB
DE
F3
EE
04
DE
E5
04
E7
F7
FF
1C
38
19
1F
11
FE
08
09
EB
11
0A
0C
05
14
10
FF
8E
C7
C8
04
0F
E8
C7
FA
F0
D1
F1
11
27
39
2E
27
22
1D
04
F5
04
14
20
19
18
F7
0E
F0
A7
C7
DF
F3
04
F1
B6
EB
F9
02
0C
17
20
17
1B
0B
16
06
00
0E
EE
F8
F9
FC
14
03
FE
E5
93
BE
0A
0C
0E
F6
A1
09
EE
0C
F3
FF
0D
F6
DB
D5
FE
FA
00
26
14
FF
08
FE
ED
00
F8
E4
96
D3
02
FE
F0
09
D4
C1
00
FB
08
F4
F0
D9
CC
D7
C0
F0
02
18
FB
01
E6
ED
15
0F
D4
C5
BC
E1
0B
08
F8
11
D7
C2
F0
0C
04
FC
F2
BC
D1
FB
D1
D7
F6
0E
16
FA
00
F1
F2
F3
C8
DB
E5
12
F5
F7
02
07
D1
E2
07
2B
23
0D
02
F4
E1
F5
FD
05
F9
14
22
FA
E8
D8
E2
D8
C5
E4
F4
FF
10
04
F3
06
E2
F0
FC
1A
13
14
FC
01
FF
DE
F4
08
F9
1D
25
0B
F3
F5
E3
DC
F5
E6
FB
EE
0A
EE
10
F6
F2
FF
EB
F7
FA
D9
E0
E8
00
1C
17
00
13
15
10
0D
2B
0A
F9
F0
2C
1A
E2
DF
0A
EF
07
F4
F1
18
FD
E9
FB
E5
E7
E2
FB
F9
05
EE
FC
1C
00
F3
09
EA
0F
0B
11
17
F0
0D
F5
F1
02
FF
FD
09
FB
EF
00
0A
F9
EB
07
EA
CE
E2
09
00
11
12
FE
F3
F7
08
09
11
ED
07
11

