01
07
08
FA
EE
FC
FF
09
07
F4
EF
0C
03
10
09
F2
FC
FB
0B
10
FF
12
F5
08
F5
F5
04
02
0E
F4
0F
0C
ED
EF
EC
F9
F5
F0
E2
F6
EA
FD
06
EF
03
EF
EF
E6
F2
E8
F7
EC
09
0D
FD
00
FB
13
FB
0F
01
FA
E8
E9
01
08
05
08
17
F3
FB
F0
0E
00
F0
E9
EF
D9
E0
06
15
0A
02
EE
00
FA
01
EF
F0
F8
0A
00
18
11
20
14
12
06
F9
17
05
F1
FE
07
14
E7
EB
04
15
F7
F5
FF
EE
F7
02
04
FC
0B
00
13
0A
EC
FD
F6
F3
DF
E2
F4
F7
F7
14
27
16
0A
F8
E5
F3
08
0B
FF
05
EE
0F
03
F8
F5
ED
EC
D6
EF
E4
D7
E5
05
E7
01
06
F2
0D
10
26
27
1B
0A
00
22
F9
DB
F1
FB
E6
01
F7
ED
EA
04
E3
01
14
EA
F7
FD
11
18
24
07
0B
0B
07
15
FF
02
FA
06
EC
00
F2
34
F6
FB
0E
F3
FF
EF
0D
FC
0F
10
09
0E
1F
27
06
05
05
EF
FB
06
F8
E8
E5
D9
E0
FC
F9
0F
F9
EE
0C
FA
FA
F2
18
08
1B
16
19
04
08
0D
FF
0F
F7
15
ED
EE
FF
FC
C6
E8
10
F5
F9
F7
13
FD
F6
11
12
F8
20
10
0A
08
25
07
F0
03
F6
07
06
F6
00
06
14
02
CF
07
15
20
FD
F5
E8
0F
04
0D
2B
FA
17
1E
03
04
F1
F3
F4
EE
02
1B
1F
02
F0
10
04
FD
E7
FE
FC
FE
ED
EA
F1
10
1F
1C
1E
01
10
02
ED
04
CD
C0
D5
08
03
13
27
16
FD
02
20
DE
D5
E5
D4
03
00
00
11
0E
FF
04
01
FF
E4
EB
E1
D2
D5
C2
F0
05
20
12
0D
18
08
F0
E2
CF
E9
F4
FB
F0
FF
0E
04
19
E3
E7
E0
E7
E9
DE
D6
F3
F1
FF
0B
FC
1A
1B
19
03
EF
F7
EF
E6
D1
DD
14
0F
E8
03
DD
06
D0
BD
EA
04
E8
D3
D7
EF
E9
FA
00
10
0A
0A
05
FF
EA
F4
EC
DE
ED
02
16
12
06
F2
E1
01
F0
CF
E3
E4
F8
F9
DB
F8
FD
11
04
0E
09
FE
04
E3
E8
E8
02
E9
07
00
F9
FC
0D
F2
FF
14
0B
E6
E7
ED
FC
FF
F7
FC
0C
04
10
0C
ED
FB
F3
E6
FD
03
07
EC
EC
ED
08
0D
0A
04
05
0A
13
FE
12
17
1E
F9
F5
08
12
29
18
F2
F1
02
E7
FC
E6
E6
FE
ED
FD
17
1A
0E
0E
FB
09
34
15
1A
02
13
FF
FA
27
1A
28
00
FF
18
FE
09
F4
F7
09
F7
F2
0D
00
16
24
18
F5
0B
EB
00
0F
22
24
15
0B
0B
12
15
F1
10
04
13
05
0B
10
F9
0C
08
F8
0C
F0
1F
16
F9
FC
0E
EF
EA
0B
04
04
2D
0A
F6
05
FF
EA
EE
F7
FA
12
02
0F
F4
FA
F4
FC
15
FA
10
1B
0E
FC
09
07
02
10
FD
0B
15
04
FC
F8
F9
F6
0A
0E
F4
06
EB
04
13
10
17
FD
1B
05
04
EA
F0
EC
12
11
FB
01
0B
02
0F
02
16
10
F2
FC
F8
FC
F2
EE
08
1A
13
11
0A
04
0F
0D
F7
D4
0D
11
06
08
F7
EF
00
06
F8
ED
05
F8
0F
FB
06
F7
14
F7
FC
03
14
FB
1C
14
05
0E
F8
1D
F0
F4
F5
14
02
FE
F9
FD
04
F5
DC
DC
F5
0A
ED
07
09
0D
F7
FE
FC
0B
0E
12
16
20
0A
0B
12
F3
F0
F7
E5
EC
FB
FD
FF
FE
E1
00
FF
28
F8
11
12
F7
13
0E
1F
28
13
13
F9
F1
08
04
FD
FF
05
0F
DF
F6
ED
16
19
F8
F8
05
F2
07
09
FC
10
FF
0B
2D
23
27
17
07
E8
E0
03
F0
06
FF
03
05
F9
F9
F8
F1
F0
F1
ED
04
F0
F2
EC
1C
0D
F8
D8
E9
FE
07
0F
08
07
F1
01
0E
04

