07
FF
FC
0E
11
FB
06
0F
0D
0F
11
13
FD
F1
12
EE
01
F1
FF
F4
FF
FB
F3
06
07
01
03
FE
00
FA
06
0F
F9
0E
08
F5
E2
E6
EA
F7
FA
FA
E7
F3
0C
E5
FF
08
F3
FC
11
0B
0E
FD
FF
0F
FF
02
FF
F0
FF
FE
05
F2
DD
E3
E7
DF
CC
C1
CA
F2
F4
FA
19
02
F5
FC
F1
07
F8
FB
0B
08
06
FC
EF
FC
FC
12
E2
F5
EA
DD
F4
CC
BA
C0
D6
EC
F9
04
29
28
FD
0C
F7
01
1B
FB
0B
08
F0
FD
FA
06
1A
EF
02
F5
EF
F2
05
21
0E
01
F6
0E
00
15
16
0B
F1
0C
1C
0C
25
03
FE
F3
EF
07
F2
1B
11
1D
10
0A
1A
08
17
EA
F3
FE
EB
09
FD
04
F9
FE
FE
02
07
17
06
05
13
FF
10
0E
04
11
1F
21
1C
00
18
0F
15
0A
FD
FF
1D
F6
0C
F5
06
FE
02
F1
EF
F2
03
0A
06
2B
0A
04
1D
05
0B
10
19
0D
07
FC
13
13
FD
0A
FA
F9
0C
FC
F7
F5
08
F1
FA
DC
FD
0B
12
20
08
0C
02
FE
09
00
F6
0A
F3
0C
07
08
05
02
F4
15
03
0F
19
05
02
FB
09
08
03
1F
0B
16
12
1A
12
F3
FA
FF
F8
10
09
03
0E
1D
06
F3
03
06
06
11
08
0C
FB
F3
07
0C
1F
16
ED
07
14
21
EB
0C
F1
F0
F7
0D
15
22
10
1F
20
15
F0
FC
EC
FC
F9
E7
07
FD
F6
00
08
F7
11
08
00
07
04
DD
FC
F2
E3
DC
06
06
13
05
FC
E0
D9
EF
F3
EA
F0
CE
F3
FB
12
20
29
01
12
0F
13
FD
EC
DC
F6
E6
F4
F5
F7
F5
F9
FF
EE
EC
F0
F2
EE
E2
E6
D7
0E
EF
10
1B
02
15
D0
F7
EE
FD
FC
D2
EB
EE
F6
05
05
FF
01
F5
F3
11
0F
00
F2
11
F7
FD
07
05
10
16
2D
04
D3
F4
19
F9
21
DD
EF
F2
01
1A
14
18
FC
FE
02
09
07
FE
06
05
F3
FF
FD
F3
01
1A
40
D7
03
F2
11
0D
00
D7
0B
15
19
1E
29
11
28
12
00
F3
FB
16
F2
FF
11
F4
F3
09
F7
38
1D
B7
FF
F3
FA
F5
FF
CF
E2
13
FD
11
27
39
38
1E
35
1C
10
05
DD
FA
FD
0A
E6
0F
12
0A
12
B3
C8
F7
F5
0D
0C
DA
B8
11
06
18
02
02
1F
12
1A
0F
FC
F1
E2
09
08
09
09
10
02
2C
04
CE
DC
F3
13
02
F9
B8
DC
DF
F5
F4
C9
E6
E0
F3
F0
D4
DE
EF
14
15
01
FD
15
F9
12
25
F0
F4
F8
F6
06
04
15
EC
D6
C6
D3
BC
BA
C3
B9
B2
98
9E
C5
E3
13
12
FA
0A
11
05
F0
05
07
0A
E0
F1
EF
16
13
17
D0
CF
DE
D9
B7
BB
98
9A
8D
A0
D2
17
0E
18
19
11
14
EF
0C
FA
12
03
EC
F8
10
1E
1E
2D
1B
EB
E1
DA
D4
C3
DA
D4
00
F8
FA
13
16
06
0E
00
F2
FF
FF
09
1B
0F
D9
09
F1
03
10
23
13
0B
F6
F6
E4
D1
EA
06
17
19
0C
18
FB
F8
01
FA
08
F9
FD
11
0B
01
FD
11
ED
02
09
23
24
0D
23
19
F8
00
00
2D
0B
0C
12
08
E9
F3
FA
F3
F5
F1
F1
0D
26
11
F9
10
01
FA
1A
26
2B
11
2C
1C
0E
28
36
12
08
11
12
13
0E
21
F4
FB
FD
0D
0C
21
11
03
DB
0F
F2
FF
EE
15
19
30
36
30
33
1C
28
23
3F
33
08
0A
18
1D
08
13
17
04
2B
35
2D
E9
E8
F4
F6
12
F3
F0
F7
16
FE
09
0E
E2
29
14
11
02
E9
32
2A
F7
05
22
2F
1F
1A
0C
0F
EE
11
F7
F4
12
F8
FB
F6
11
E4
FF
0B
F9
1A
0D
F3
EF
F6
09
F4
01
FD
01
18
F0
FF
22
ED
F0
10
03

