08
FC
09
00
0D
07
FF
07
FD
FF
FA
00
FB
0B
06
F0
FE
F0
F2
FF
FC
F1
00
0E
F2
F2
03
04
08
F5
05
05
FE
03
01
F4
07
F0
0A
2B
1E
F8
FF
F0
2B
14
09
F6
E8
FE
ED
FD
F2
FA
05
02
01
FB
09
E9
F0
F3
FE
F2
14
22
0C
1F
2C
00
19
FB
F6
F4
E2
CF
D7
FE
02
01
0C
0D
FC
F3
FE
FE
F1
08
01
0B
02
EB
24
14
02
29
14
0C
10
F4
17
F4
E2
E9
FF
EE
EE
09
2E
1E
12
FF
06
F4
1D
0A
07
18
0F
03
12
0A
0D
07
00
06
05
FE
0D
FA
05
E9
EA
E0
DC
07
0B
06
22
17
06
F9
06
F5
F2
E8
0D
EF
FE
FB
0F
09
FB
18
07
08
F6
EE
09
EB
E5
D2
E0
F9
ED
0E
0A
21
12
F8
12
0E
12
FC
DC
F7
FF
FD
11
09
F9
11
16
20
1E
0A
19
02
D3
DC
DF
D8
DC
EC
0A
1B
EF
2D
21
FF
F0
F2
EF
F1
00
05
FA
1F
18
17
0B
16
2B
2B
0A
1A
FE
DF
F5
C6
E5
05
0B
0E
00
07
1A
E0
F4
F4
F9
DE
11
06
07
0C
FA
DF
EF
06
0B
1A
22
14
02
DE
F6
C3
C7
C7
EC
E3
F3
F6
E2
03
0C
F7
0F
13
1B
F7
06
E9
DF
DA
CD
F4
0C
21
21
29
07
F1
D4
C0
E1
DC
E5
EE
F8
F2
E6
05
DF
0E
13
FA
07
EE
E5
D2
E0
C5
EE
05
1E
1B
24
08
0A
FA
E3
BF
E5
F9
E7
FE
08
FA
DF
00
E1
FA
FD
EE
F9
E3
05
E2
D6
D7
F4
F4
02
1C
09
26
2B
06
EC
E4
DB
EF
EA
02
0F
05
01
FE
09
E8
DF
FA
F5
E7
ED
EC
FB
F7
12
F1
0D
FB
17
12
04
06
EF
EA
DB
E5
EF
0E
0F
FE
07
08
EF
F1
FF
EF
13
0A
0A
01
FF
FB
F0
ED
FA
FD
02
1D
FF
03
03
F2
0F
F5
FC
08
04
06
EE
FD
FA
E8
ED
19
05
14
1E
01
09
0C
E8
0A
F1
0F
10
00
FD
10
FD
E7
F8
F1
2F
09
FB
FD
D8
EC
E6
F2
F8
0A
09
01
19
F5
FA
F9
E0
0B
08
13
10
16
F3
09
0D
F9
FD
0D
10
F3
09
0F
08
FC
06
EE
E8
F6
FF
04
23
FB
18
FA
FE
06
0C
0F
EB
EB
FA
0E
14
E7
F7
02
FE
14
FF
F8
21
F7
E3
DA
EB
EE
08
07
15
12
0B
0D
03
11
FC
0F
04
F2
FF
00
F7
D4
E3
0E
19
27
15
0D
FE
F1
E9
DA
06
12
F4
FD
13
06
0E
F8
F6
03
0D
18
F7
15
03
00
F2
DA
F1
17
20
32
E9
06
F7
F3
09
E8
E7
FA
02
F2
0A
FA
1C
0D
0B
FF
10
FE
03
0D
FE
0A
DC
FC
F0
07
12
04
F8
25
03
0D
E3
FB
EF
F9
F4
F8
FF
FA
14
FA
07
F6
F6
F7
08
FD
E9
07
DC
05
DE
F6
F8
FD
00
09
0C
FC
03
EB
E9
FF
FC
02
14
12
1D
FA
02
E7
02
06
04
FB
00
0C
07
0E
06
F6
37
0A
F5
00
24
00
F2
17
07
17
1B
F5
FE
FE
F7
F4
15
09
F8
FE
13
16
1C
05
0B
00
0F
EB
1B
F1
F5
0D
1D
FD
DA
F9
ED
16
02
F0
06
0D
E7
E3
06
FD
FF
F8
13
13
17
1B
08
16
16
FC
21
02
F6
FF
08
0D
0A
04
ED
0C
F8
09
EE
EF
EA
F8
EC
EE
EC
EF
FC
F5
04
2A
28
24
21
15
F7
FC
F3
F8
03
F8
12
26
1A
21
0C
04
15
25
FC
F8
0F
F2
D0
F7
F2
13
0E
16
08
F9
DD
07
05
FF
0E
0B
0C
08
1B
23
14
20
16
0D
27
10
15
02
15
EB
EC
F6
21
19
2D
0B
07
F5
0E
0D
F4
0A
06
0B
0F
00
F2
FA
FD
06
07
10
2A
23
01
01
F6
03
DD
F6
2B
11
FD
FC
FD
E8
0B
09
11
F9
FE
F9
03
0B
03
F4
05
F2
04
FB
03
08
F2
EE
01
03
FB
F0
0F
F8
FE
F2
0B
FD
FA
FB
04
F5
F4
FE
09
F4
FC
F1
F5
F0
01
0A
DC
F0
27
1D
E0
20
07
09
02
14
0A
1B
F8
0D
F6
0F
F6
12
10
0D
13
0F
FE
16
F0
01
F5
FE
F8
ED
E4
E2
DF
EA
02
10
42
1E
16
22
01
14
F5
F8
F1
F2
06
FA
F7
FB
FD
FF
0C
F8
F3
ED
C6
F2
F5
F5
F8
0A
E9
FA
22
FF
08
25
04
04
0E
01
19
12
F5
01
EC
F7
FD
03
FB
D8
BF
E5
CE
EC
EA
EC
06
04
00
06
0E
08
FE
09
0A
0D
2B
0F
1F
09
F3
F8
FB
F3
00
FF
D6
D5
C5
F3
DF
08
E7
05
0F
F7
F5
0F
0E
0A
22
11
0A
E9
01
0E
21
0B
04
00
FD
E6
F5
EE
D4
DA
EC
D9
DB
FA
FF
15
01
12
0A
20
F0
04
0B
06
F5
0B
0A
2D
0A
06
08
CC
F7
02
E3
E1
D7
DE
EB
EE
F7
0E
09
14
0C
1F
25
F9
11
05
F3
05
F1
04
09
24
08
12
0A
E8
E0
F3
F9
E7
0E
D8
D0
E1
0F
15
2B
0E
0B
05
1E
F8
02
04
FC
0F
04
22
37
34
0B
13
09
F2
05
EF
D3
F2
FA
EB
D9
0E
12
1C
0D
22
FE
EB
F4
07
06
FD
F5
FB
15
09
4D
32
F0
F4
10
ED
1F
F9
D2
DC
D1
D1
DC
E8
03
0B
1C
16
EF
F8
F6
EE
F9
E2
FE
E7
FE
0A
20
03
0D
E5
F3
01
19
FD
E8
F0
EC
DA
E1
F7
F6
0D
14
1F
00
FC
13
F8
07
E1
E6
D7
E9
05
0F
24
3F
EC
07
0C
0B
0A
04
D7
C0
CE
E9
0F
02
11
00
16
0D
FE
F5
13
ED
01
E5
E1
EB
F5
0B
06
22
E7
06
FD
E5
F1
F6
C2
C0
DE
E8
EF
F3
06
22
14
1D
0D
FA
05
F3
EF
FE
D0
E0
FE
F2
F1
F3
09
02
FD
E3
09
ED
EF
DC
D5
DF
F1
FA
0A
1C
17
00
15
01
0D
E5
DB
DF
D4
E1
E5
E3
F6
E4
F7
F8
0B
E3
FB
F7
06
00
F1
EB
D8
02
F4
07
14
FD
03
14
FA
15
F4
EA
CE
C3
CF
DB
FB
DA
F2
E2
E8
E5
FF
1C
FD
07
DE
FE
CE
E5
E6
06
FD
09
08
15
FE
08
F1
CD
A2
D0
DF
F1
E8
D3
09
FB
F5
DA
02
02
F9
16
F3
FA
EE
E3
EF
FD
DA
FD
24
1C
26
00
E8
D1
C0
C3
C7
DA
D5
FF
17
09
EF
E7
D8
FA
1A
03
1A
0B
F4
F7
FE
FC
EB
04
01
24
27
12
FE
D2
B8
BD
CF
D4
E0
FF
D9
0C
06
0D
C4
08
03
FA
0A
18
FF
EE
FC
00
02
03
02
18
29
0F
F6
E4
D2
CD
E8
FE
F4
E7
E1
F5
0E
02
CE
FE
0E
10
FC
06
07
10
03
EB
04
F3
FD
0F
0C
F9
F5
CE
C0
E1
D0
FC
0B
FA
FE
09
F3
DE
EE
EF
F7
FF
0B
F5
02
EA
16
F3
00
05
08
FA
FF
EF
DD
EC
D2
BE
DC
E8
0C
FD
04
0D
F3
F9
03
E0
EE
FD
FE
06
11
16
1F
22
22
07
0F
F9
EA
DF
E9
BE
BC
C7
F9
F8
01
EE
00
00
F5
EC
22
0C
FB
E0
02
0F
F0
12
00
0A
03
1E
0B
10
E1
E7
D3
D5
E1
CC
E8
E8
08
E5
08
F3
08
F4
10
EF
DF
F0
F8
EC
F1
FE
F4
35
0D
09
14
21
F0
E2
DD
ED
D2
F2
E6
01
E1
E6
F5
FF
08
15
E9
E6
D2
0D
F2
F8
03
02
0B
18
E9
F5
FB
22
13
E6
E2
FA
E1
F3
02
FE
02
F3
0F
0E
00
11
0E
04
F7
E9
F1
D0
DB
F2
08
F8
F9
F3
EC
1C
0A
E7
F6
FC
FD
FF
0C
FE
0C
0D
FF
F8
FE
F2
12
07
02
01
E5
E4
C7
FA
FA
06
FE
1A
17
12
F1
04
12
03
EF
07
FD
F5
02
F9
FB

