45
1D
DC
D8
01
FC
09
F9
F0
39
09
AE
0F
16
08
FD
1C
EB
FE
26
E2
A3
05
17
E6
CE
0D
E5
F7
FC
22
DE
0A
0F
F6
26
29
F8
F7
17
0B
20
40
08
F0
14
E5
12
F4
BA
E9
FF
E5
13
07
FF
DB
FB
3B
CC
1F
F0
CD
00
0C
D3
F8
D3
CC
0D
1C
EC
F0
10
C0
0F
1A
31
23
DB
10
16
07
17
C1
F7
0F
EB
29
05
2A
08
EE
2B
30
FF
0B
3E
23
DA
1F
F6
E6
2B
0D
02
E4
32
F8
24
C8
DD
C8
32
1D
0D
26
1A
EF
0F
3E
E9
E0
CA
2C
D8
F7
57
03
E7
26
21
1B
00
21
DF
EE
FD
08
1D
0F
0F
FB
CA
1A
39
D7
1A
26
44
23
09
11
15
F1
F7
EE
1A
37
29
13
FE
07
D8
EB
D0
E6
D2
0E
03
01
09
F4
1D
EE
E8
EB
32
29
0B
1C
09
D4
15
F3
D3
F0
1E
0E
2C
44
25
DC
F8
36
D5
51
BD
DB
EC
F8
0C
1D
1C
0E
18
22
08
15
33
EF
FF
21
F4
15
ED
D0
FF
00
0F
0D
F4
E2
B9
D3
DC
D7
11
E9
0A
F4
E8
F8
28
DB
F6
C6
1A
F4
22
F0
FA
C3
1D
29
0E
EF
E8
F0
27
11
F9
EC
FB
F4
A6

