FC
D4
12
21
E5
FC
29
EE
37
3D
1C
F4
F6
E9
19
01
28
F9
05
FB
26
CE
E5
E6
2A
08
E5
06
16
EB
F3
25
D0
EF
03
00
FE
DE
03
FD
0B
03
FC
2D
24
EC
1A
40
E9
FB
05
F3
0D
23
D8
36
F8
18
24
13
F2
CD
FB
33
47
DE
08
31
D5
21
EE
D1
08
E2
26
EA
11
F9
F1
18
29
FE
0E
1D
EB
F1
CF
CB
F7
0F
23
F0
1F
DF
03
D9
FD
FD
FA
1C
0D
1D
E2
AE
08
24
01
2D
23
21
C2
E3
13
E3
48
17
0B
F2
DB
EA
F5
DF
C2
2E
D7
EA
E7
FF
F6
FE
17
18
20
12
C5
E8
1E
46
DA
17
F0
2B
FC
3A
16
F5
51
16
23
D1
07
F9
51
D1
F6
D4
2E
0A
CF
06
E7
16
17
08
07
17
2E
22
EB
E7
EC
06
13
06
0F
22
FC
CA
E2
00
13
D4
0B
38
CE
27
4E
F7
D3
E3
F7
16
1C
D6
D9
EB
B5
2C
0A
24
11
F1
39
08
02
C9
18
16
CE
00
19
F6
37
EE
DA
05
12
29
F4
0B
23
05
11
09
08
E0
2B
21
FF
CF
FA
E6
DF
22
0A
FC
05
2A
12
1E
17
FC
27
09
21
E3
F2
25
1B
3E
19
07
EF
01
F7
38

