F2
08
09
FC
0F
10
01
0D
FF
0B
0F
03
10
16
01
08
0E
F8
EE
00
EF
02
00
FD
F1
F9
08
F0
00
FB
F8
0A
FE
F1
F4
F6
F2
FB
F8
F4
03
0D
28
25
EC
E9
18
16
0A
FF
07
F4
FD
06
FB
F0
FF
0C
09
0A
0D
FD
00
FA
F5
04
08
29
1D
2A
20
2A
FC
EA
01
1F
0C
18
2F
29
F3
FD
07
07
F5
FD
10
F5
05
F0
04
FF
19
1D
05
FA
1B
F2
F9
EA
D1
D7
DB
0A
03
FD
04
2C
25
E3
EB
FE
F0
06
F3
FD
F0
FD
E9
E6
DA
FD
04
F6
0E
05
E0
EE
DD
F1
EF
FF
FF
F0
F4
1E
EA
CF
EA
0C
F4
F0
1D
0C
0C
F1
E1
DE
E0
E5
C8
C5
DC
DE
E3
E6
E7
EA
04
13
16
2B
10
17
1F
E8
0F
F9
FA
F1
E2
0D
FA
D4
E5
EA
ED
F9
CE
D2
D4
D5
E9
FF
F9
0C
28
1A
29
0E
03
F3
F6
02
E9
19
FE
F0
F1
F4
DF
ED
E4
E8
EC
DA
C4
C8
F1
08
22
17
0B
FE
0F
11
1E
32
24
EC
F2
0A
10
21
06
EC
D5
D7
F6
EF
E8
D8
D2
CC
D8
D7
E1
08
0C
1D
24
12
06
21
21
3A
19
2D
06
EA
02
F6
07
DF
F2
F3
F3
E4
C8
D1
D6
DC
D2
E7
06
16
15
0D
0C
0A
F1
FE
05
16
1B
02
20
00
FE
E8
F6
F3
E2
E9
FD
E0
C5
EB
D8
D0
FA
16
19
FA
09
27
06
FB
E5
EA
DE
05
07
11
03
12
05
EC
03
ED
02
D3
FE
DD
E7
F6
D5
DB
F6
01
E5
FB
13
12
05
E2
FD
E9
E5
F7
D4
ED
F2
15
F6
E9
F9
F5
FD
F3
08
F8
0B
0B
F4
29
12
FE
F4
F2
04
08
02
F8
11
F9
DC
D3
D9
C5
D8
FC
03
05
23
FD
F8
EA
03
F5
0A
FE
FC
0D
EF
0B
0E
00
1D
05
10
05
FA
CE
CC
BA
BE
B6
EF
E6
FF
10
FD
03
FA
02
13
ED
12
14
0E
FB
F3
03
08
17
01
03
20
FC
FC
D6
C1
D3
D0
D5
D9
0E
2E
0C
F5
ED
FC
DB
E4
0C
0C
1B
05
20
0F
13
F8
00
02
E8
0E
FA
F0
ED
DD
C3
B8
D4
F9
16
0C
0C
0F
F9
0F
1F
0F
29
F7
06
12
1C
1D
26
0A
F8
F0
E8
05
E8
D5
CB
DC
D9
F9
D6
E7
1B
22
08
FD
F5
CC
1D
0E
21
0F
FE
0D
01
13
02
07
0D
07
E2
E0
C9
CB
EB
00
F8
F3
F1
E9
20
11
FE
13
05
DB
01
15
0C
11
FF
FE
14
17
01
0F
00
FF
EB
E1
DD
F4
00
FF
F4
D3
EF
F8
23
17
0C
FC
E9
D6
03
00
07
F3
00
EA
1A
1B
0B
0F
FF
F2
EB
DA
FC
E4
0B
1B
06
FA
20
1A
32
2A
20
11
ED
E3
0A
0B
E8
F5
09
0A
FF
08
FE
0D
E7
01
EC
FB
00
EB
07
19
18
28
19
1D
00
08
03
08
F4
F0
02
0D
00
D9
E9
EF
FC
04
1A
FE
FE
11
09
FD
18
24
25
27
0A
1D
37
15
08
0E
0B
02
0A
E7
13
22
0A
F5
F6
FA
06
07
09
07
0A
18
30
32
21
09
20
22
14
09
1F
02
FC
07
05
F3
09
07
0B
0B
0D
10
FC
16
11
FF
F2
12
05
05
1D
19
04
18
0A
2D
06
19
07
04
FD
09
F4
10
F3
ED
EC
06
D1
15
F2
05
F0
02
04
0C
0E
FA
08
F6
17
07
09
03
1F
01
01
F2
1B
18
F6
FC
0B
F6
06
DB
D8
E7
FB
17
FC
F2
FB
01
27
0E
08
DF
00
FE
FB
F7
18
0D
07
05
1C
0A
EE
0A
06
F6
12
34
F9
0A
24
02
ED
ED
FD
FE
00
1E
1C
2A
20
FE
15
33
23
05
FC
0C
F0
F7
FD
12
06
F8
F3
FE
EC
0A
1A
0C
11
36
24
0B
24
41
11
0E
12
27
FF
07
10
F1
01
02
F8
02
F6

