0D
0D
71
72
0E
0F
08
11
11
03
0F
07
0A
78
77
0D
75
09
0F
0C
08
09
6F
03
78
73
0A
7D
7D
01
7A
10
0F
7E
7E
0F
09
11
2D
12
13
14
75
7B
6D
6C
7E
19
07
01
07
19
03
78
0F
05
76
77
0E
72
64
02
05
1E
75
6E
77
1B
1E
1B
20
03
69
78
56
03
72
09
12
75
04
10
79
76
0C
04
72
73
5D
00
07
7C
79
7E
03
06
70
78
7C
5D
7A
7A
78
7A
7A
10
1E
04
7B
79
14
7F
79
79
7F
75
70
14
01
19
13
0F
72
6D
70
19
7D
5C
71
01
75
78
27
23
36
3E
19
10
73
1A
0D
0F
70
04
0E
15
11
12
1C
15
1C
7A
0C
0B
68
73
69
6D
0F
10
0C
7D
7E
29
22
11
06
00
06
0A
09
08
10
0A
0B
05
02
6D
6E
79
7B
7D
63
66
6D
71
00
1F
29
13
09
7A
07
74
01
03
7F
6D
79
0D
72
74
15
00
78
7C
7A
7B
17
7E
5F
4D
5A
0C
0E
16
29
28
7B
7F
02
53
7A
06
06
00
06
01
68
0F
14
6D
75
19
07
71
12
06
5B
68
6D
23
1B
09
0C
06
7F
5B
68
5D
70
7E
72
14
7F
66
00
0C
74
72
0C
03
7B
77
1E
70
59
52
00
1B
23
11
1D
0C
65
79
7A
6D
53
02
78
09
70
68
0C
7F
4B
61
71
7B
79
0D
09
6B
40
4B
7D
2B
04
02
0A
6D
08
75
6B
6D
64
02
05
04
03
79
67
6E
79
7B
01
0A
0E
03
14
5C
4A
54
20
2A
74
5E
6E
70
00
06
75
6E
70
08
6F
14
12
7A
64
05
7A
00
19
20
1E
10
01
5C
50
5F
1B
12
15
4E
70
16
79
03
18
6F
0A
07
72
7A
78
7A
09
7C
00
01
05
1A
04
02
62
5C
56
00
04
1E
7D
5B
72
13
78
01
74
62
08
76
79
06
0F
00
13
11
05
05
1C
04
13
73
64
6A
5F
7C
14
7C
73
10
79
01
09
7F
00
61
7B
76
76
19
2C
7E
0D
76
1D
0F
0D
14
77
7A
59
5C
7F
02
7B
24
74
08
10
12
16
73
50
03
7B
7E
7E
17
72
64
58
75
13
37
2A
0E
76
60
01
0E
0B
14
04
15
15
0D
7F
71
00
60
64
7E
6C
00
71
7E
6C
68
5B
06
19
1C
1C
0D
7C
6E
67
00
7D
17
08
7B
18
7E
0A
7F
7C
05
02
0B
72
5B
6C
0F
03
76
7B
69
7C
26
7D
02
6F
7A
7A
04
77
0A
0E
0C
78
7B
7D
7F
05
02
77
7B
5A
6F
07
04
04
08
03
78
01
18
7A
7E
76
7B
01
67
6C
10
03
78
09
16
14
11
12
0B
08
6A
05
02
02
0F
02
0F
6D
78
68
0C
73
79
0B
7F
05
0C
04
70
67
6F
77
02
7A
05
75
09
0C
78
03
6F
70
7F
64
74
75
6D
10
01
7B
0B
1D
16
16
7C
79
06
60
04
0F
7E
1A
0D
18
0E
73
7C
08
0C
05
05
7D
6A
6F
73
7C
79
6D
0D
17
06
1B
01
7D
7B
77
02
0F
7F
0C
0F
0E
7D
69
02
0D
04
00
7C
60
59
45
5E
76
11
62
75
76
0E
70
0D
63
07
0B
67
7F
02
7D
7E
7E
0E
01
68
6C
74
08
09
00
6E
7E
0F
09
14
0E
72
02
00
13
1B
71
6A
1C
72
59
62
61
08
7B
00
6E
7F
7A
05
0C
7C
5C
73
10
73
66
04
07
08
00
0E
1A
13
67
6E
23
79
06
49
53
7E
6F
6B
79
78
79
72
7D
0B
76
79
76
78
7B
00
6E
70
4B
65
06
33
7C
78
03
19
05
7E
53
14
7D
70
7E
7C
12
7D
7D
72
05
73
15
34
14
7A
70
6A
07
78
01
06
60
73
7E
7D
7A
04
19
20
0E
04
6F
08
10
7E

