7A
0A
01
11
7A
10
71
7D
05
0C
07
0D
7F
7C
70
73
06
7C
75
03
70
11
7D
7A
70
79
72
00
0C
07
02
72
72
0F
65
74
6B
70
02
01
1A
19
5F
61
01
15
01
7E
60
06
77
69
70
0C
7C
07
10
74
0B
74
68
6E
7D
79
63
03
75
6C
03
02
04
78
62
68
68
72
10
1C
00
7A
79
73
0B
72
7B
70
09
76
7F
23
78
04
5E
7F
73
78
6C
6A
12
16
06
16
72
61
14
23
7B
0B
7B
7C
09
76
78
7E
25
04
23
12
15
73
74
5F
69
76
01
0E
06
06
6C
00
76
6C
12
0A
0C
0F
16
08
1A
17
72
79
08
6D
06
04
01
7A
7F
6C
6F
7D
24
1D
17
03
7C
0D
7C
0A
7E
72
7A
74
24
28
18
05
06
77
6A
76
12
14
78
7C
03
7E
07
03
7B
01
7A
00
0C
0C
09
07
78
7D
1B
7B
70
7A
08
0E
79
6E
00
00
13
1D
70
6C
6A
05
0A
12
7F
05
60
78
71
11
7D
14
05
12
1A
0E
20
13
7A
16
10
5E
09
76
76
7B
5D
69
01
17
11
0D
76
03
6D
6F
7C
72
0B
7E
7D
26
15
0D
08
11
04
78
7C
70
6E
6A
5C
76
78
79
05
01
7F
63
64
7A
75
77
6F
02
63
76
23
1D
13
0D
25
6D
7F
66
0D
7B
7C
79
74
76
6B
78
78
05
66
60
73
65
7E
79
78
79
7E
04
13
1A
1B
2D
09
73
72
5E
06
76
78
7D
6C
53
6E
72
17
07
71
01
07
6B
73
6C
66
7E
6D
7B
10
10
14
18
23
27
19
6F
12
6E
79
62
68
79
6D
7D
0B
18
2C
2A
14
79
6D
70
07
69
00
7B
07
18
23
31
37
11
7B
6F
0B
78
63
6D
68
05
7F
00
7A
15
23
2F
0F
04
00
08
77
68
20
18
09
05
1B
12
02
18
73
09
6D
03
72
55
04
24
19
05
7B
05
24
25
23
24
0D
08
6E
11
20
04
76
22
08
0B
76
06
5D
7F
0F
0F
0A
6B
04
01
14
6E
7A
6C
7A
07
7B
77
07
06
79
1B
29
24
12
04
0C
02
7B
06
0D
6F
06
09
18
6F
6C
78
01
0B
70
60
05
11
0A
05
09
7C
18
15
18
11
10
0B
77
6C
74
03
6E
00
05
02
7B
78
0D
7D
0A
15
02
7C
65
76
6E
67
7E
6F
10
2A
1E
10
70
75
0B
10
76
67
77
73
7E
07
7F
69
7A
04
0B
02
0F
5F
52
5C
00
7C
76
14
0B
1D
0F
72
74
76
07
7F
16
64
76
6E
6E
1E
0A
14
17
16
1E
24
16
01
69
6E
67
6C
7B
0B
6F
7B
00
6E
7D
06
0C
14
6D
5F
66
76
01
21
05
16
00
2B
21
21
08
18
7B
6B
7F
01
7E
00
73
04
74
5D
73
6E
7E
67
67
5C
70
0F
02
01
0A
00
18
1C
15
08
15
1B
76
00
05
07
02
7D
60
78
59
7A
57
5D
0D
76
5B
70
29
73
6C
0E
17
1D
67
63
13
15
07
0C
23
11
0C
13
7D
75
0A
6B
6E
6A
5F
74
10
0E
6D
6E
13
0F
7F
08
0D
27
76
78
76
12
0E
03
26
0D
0A
13
10
02
75
06
79
00
51
01
06
78
7C
6B
62
0B
7B
08
03
1C
08
05
06
05
07
0B
06
12
0D
15
1A
24
14
7F
03
64
06
6C
7D
0F
7F
6E
70
7D
11
0D
0D
6B
66
72
7C
7C
77
6E
19
01
57
03
79
11
07
08
0A
02
06
04
0C
04
6B
73
74
00
74
0E
73
00
14
09
7E
7E
06
05
05
7B
77
4F
70
71
02
7E
1B
57
77
72
66
03
05
6E
0A
6F
07
7F
0E
01
72
56
74
7D
67
64
4F
71
73
06
5B
76
65
77
69
7B
70
7F
7B
05
07
0F
12
10

