4D
F3
35
DF
09
D1
2B
17
12
11
2C
D4
16
13
0B
05
22
18
22
1C
15
07
0F
D4
2A
2E
0F
3F
21
29
E7
F7
09
FD
F8
27
2A
2B
F8
2D
FF
30
0F
E0
02
14
2F
3F
EA
C6
E5
10
EC
05
D7
24
C2
EA
5B
12
14
F4
12
1E
57
15
10
1E
03
E7
FA
D8
FA
DC
E4
FB
0F
FF
2B
F9
2A
08
02
1C
DD
08
F5
D9
FE
27
27
05
EE
DF
FE
F9
19
DF
18
E9
26
2D
C8
CA
FB
22
17
28
F6
E2
DC
02
F3
1A
0A
14
FC
CF
13
23
3A
09
C3
C2
F0
DB
D3
51

