73
76
7B
09
11
74
0C
7A
74
76
10
03
17
1C
7E
72
7D
76
6E
73
12
7E
06
74
7F
79
07
0E
0B
10
6E
0D
79
01
77
07
0B
79
08
04
17
21
77
21
1E
21
15
04
15
02
7A
03
0A
06
7E
76
75
04
13
0B
1A
04
7B
03
67
59
66
68
7F
68
7A
76
0F
7E
78
6C
7D
04
08
22
7C
74
70
01
06
7D
78
23
1A
03
7C
6D
06
16
13
0A
03
22
7D
76
65
5C
71
67
0A
22
07
10
72
6D
71
12
75
00
7F
1C
08
64
64
05
7C
01
10
0A
05
1F
0F
6B
60
06
0A
05
12
0D
73
07
7B
7E
1B
0F
05
0A
6D
74
73
71
76
78
02
79
06
15
09
13
02
70
6F
71
0F
11
72
6D
09
04
7C
6D
1E
1F
7E
7D
7E
6E
79
07
05
75
12
76
07
10
1A
03
0D
08
04
11
03
7E
03
15
16
01
16
78
00
6F
09
5F
0B
60
69
77
5D
09
0E
10
76
18
14
1D
06
04
1D
79
18
00
76
77
05
17
16
00
05
60
0A
75
03
04
5A
5A
63
6B
0C
7D
0B
0C
0B
17
07
06
18
0B
1B
79
01
07
07
6F
1E
08
7A
06
0C
12
6C
71
7A
5F
05
7E
0A
0B
1C
0B
73
08
12
73
70
02
00
02
10
6E
7D
15
04
15
71
02
0A
69
0B
78
05
79
77
14
00
12
08
18
06
22
1F
03
0D
03
12
14
0B
00
10
18
7C
11
7D
6D
70
65
00
79
7E
63
67
02
71
7F
13
02
0A
04
15
79
71
03
7B
76
72
7B
75
0D
16
13
20
6F
70
7B
09
08
6F
5D
7C
7C
6D
07
0E
02
0D
7A
0F
04
70
7F
70
09
6D
6D
76
04
7C
5F
0B
65
76
0B
7F
0B
7F
69
04
0B
12
12
01
7D
06
0D
7B
10
70
74
0E
12
7A
03
7A
6C
73
03
71
7C
77
06
17
70
7D
13
0F
14
0F
0C
13
08
7A
0C
00
70
5F
67
13
71
15
0D
78
7A
11
62
6F
79
01
07
5E
66
00
20
14
10
7E
00
03
79
0D
68
72
78
01
0A
05
76
7E
08
6D
14
18
6A
68
5F
7A
10
6F
08
79
1F
18
15
0E
79
7D
05
0D
7E
00
62
5E
67
02
6C
03
70
09
04
02
5F
50
72
78
10
7C
15
09
11
16
11
6F
06
13
76
0F
75
71
6F
6E
10
69
7E
0B
62
04
14
0B
63
77
0B
15
7E
0F
65
71
77
73
15
7B
01
13
15
7A
6C
01
01
10
04
03
03
1C
7F
09
78
6F
58
6C
74
0B
05
07
0C
77
70
0B
72
04
75
11
00
1E
7A
77
7D
01
03
7F
0C
0F
76
6B
77
70
7D
01
77
79
05
73
78
76
77
6C
7F
7B
77
7C
01
21
21
7C
6B
79
0A
6F
7F
04
7D
7A
67
6C
7E
66
01
0D
02
7F
76
6A
7B
77
69
6E
05
04
02
17
7F
00
02
6B
7B
79
6E
7E
7A
78
59
5B
78
14
6F
6C
77
62
00
6F
69
74
02
63
6B
69
75
21
13
18
0D
0E
04
73
72
71
7F
7C
76
77
7C
0B
7D
00
70
0E
26
7D
01
71
6E
0B
01
06
7E
7E
13
18
16
0C
23
06
69
78
5E
09
16
7C
78
72
0F
7B
0D
78
2C
15
07
01
6F
0F
7F
00
6F
14
03
06
06
17
09
73
07
05
7A
7D
7A
6E
77
06
6D
7C
79
25
19
77
06
77
08
7B
01
18
10
6B
0C
63
71
74
7C
0E
14
04
04
1C
15
23
0B
76
03
77
79
01
7F
31
28
13
5E
67
14
1B
36
23
73
02
78
10
20
0E
1B
0B
06
19
13
75
0F
0A
0A
12
74
00
0F
10
7E
7D
7B
10
7D
71
75
02
10
01
1A
6E
60
26
16
71
77
7E
69
0F
07
09
0E

