0E
0A
F4
F8
07
F0
01
01
01
FA
0E
06
06
EC
EB
06
EE
04
02
06
F5
03
F1
00
0B
13
0D
F2
03
FD
12
01
EF
04
02
EE
F2
E8
ED
EA
DD
E5
02
D2
D8
D7
E8
01
F3
05
F3
EA
09
02
F5
0D
12
11
0B
EA
E5
06
FE
E2
F4
D8
E1
E0
CE
C7
EF
E2
F7
EC
D0
F8
E5
DA
E5
D7
F6
FA
F0
04
08
FA
06
F1
DD
E2
D0
E1
FA
D9
DB
E3
C9
B9
F1
DB
E3
01
FA
11
21
FB
FE
EC
FC
E5
DD
FF
FD
0F
0D
01
E5
F3
C6
DC
D9
D2
C9
DF
F8
DA
C5
D1
ED
D3
FA
FC
09
20
28
0D
F2
F2
FF
FE
00
11
F1
07
EA
FD
E7
FF
F3
FA
D9
E9
D6
D8
D8
F5
DE
03
FD
F0
12
00
0E
F8
09
FD
DC
F2
F0
03
04
14
09
0B
0B
F1
E2
09
08
F3
F0
EA
E6
06
07
1B
21
07
07
13
05
04
F9
DC
07
F1
02
FB
0B
26
05
F0
17
0D
03
06
FC
EF
04
0F
EF
EC
08
25
01
11
0D
F2
FF
F4
12
02
0F
10
01
17
FC
00
0E
07
03
FD
01
FB
0E
0B
F9
F9
F8
FA
F2
FD
17
0F
07
EE
02
05
F5
F5
F5
09
12
27
05
F7
02
FC
FE
FE
22
15
22
06
1E
05
E5
FA
04
12
27
02
FE
F1
F1
D9
F7
D3
FB
1C
FE
0C
F5
08
EE
12
05
21
16
26
10
12
05
E6
E1
0A
04
0B
12
0B
FA
F1
04
E5
ED
0E
07
F9
F6
08
41
FC
F0
08
FB
0E
FE
F8
16
FA
ED
EA
EC
16
1F
13
0D
13
F6
15
03
D6
E2
E7
DF
FE
0D
14
1D
F0
14
F8
09
0F
12
F6
FA
E8
DF
E4
08
35
23
17
2B
14
0B
F7
ED
E3
D2
10
19
1C
FE
13
19
0A
1A
0B
04
09
01
00
E7
E8
F7
0F
28
09
1C
17
03
0E
16
13
D7
D4
DA
FA
F7
E0
12
FC
09
0F
12
E2
EB
FF
17
07
F3
DA
D9
E9
05
08
04
1B
17
1F
1D
07
FC
F0
D5
02
E0
D8
F7
0E
EA
18
12
04
18
18
19
15
FF
F2
F7
F9
09
04
FB
08
03
02
25
29
00
EA
F0
ED
10
F8
06
F6
EB
F3
0F
F8
19
1D
22
27
00
E6
FB
FC
F9
0F
06
FC
F4
1B
19
13
FB
F0
F1
D3
05
E3
EE
F7
F7
04
FC
EC
1F
22
17
2F
25
0F
F4
0C
15
0F
F6
F9
10
FC
03
FB
F6
07
D9
DD
F2
DA
1C
F6
17
04
F0
FA
E1
06
F9
FF
16
20
08
11
FA
07
05
13
F2
16
FD
FF
F9
06
D9
E0
E2
02
0C
F8
1C
01
FE
F8
FB
0F
EE
E6
0D
03
FC
F7
F0
F4
03
F5
E4
FC
01
F2
E8
D4
D9
04
F1
09
FB
E7
07
F0
EF
E8
ED
E6
CF
F0
F0
01
04
01
EA
EA
06
EF
05
FB
05
0D
F3
F3
FB
2B
F6
F7
0A
06
06
05
D2
EA
D8
CA
C8
E9
EE
F6
F7
FD
DD
D5
DC
F5
ED
03
0F
10
EF
FA
02
20
C4
00
F0
0D
0A
07
F5
D3
DA
D6
E2
D4
EB
DC
E5
ED
F1
F1
FC
EA
F6
F6
04
00
0C
FE
FB
15
DD
0C
01
FF
EF
14
04
F4
FC
03
EA
FB
F8
E9
E2
F5
E7
E9
F2
F6
F9
01
FC
0E
EF
F6
07
20
01
F0
FC
02
FE
1C
20
10
1D
10
02
12
F7
11
E2
FC
04
F2
13
08
F7
FB
00
04
0D
17
00
E9
F0
F4
F6
F3
0F
10
1E
2A
07
00
0D
18
02
14
1F
F8
F6
FE
16
09
10
0C
F8
F9
10
09
F6
F3
E8
06
FB
06
09
07
FF
FF
0E
30
23
06
0F
15
0D
0E
1C
17
26
13
01
18
18
2D
1A
21
0C
F5
F6
09
0A
FF
F7
F6
F1
FE
F9
15
05
19
31
13
11
10
24
14
2C
20
16
02
26
19
1F
09
01
08
0C
F4

