0C
01
05
0C
F4
0A
0D
FB
0B
0B
07
FB
08
0D
02
02
03
05
0C
0F
F8
03
0E
F8
01
05
07
FA
FA
0B
0F
F3
06
12
F4
0F
F2
F3
FC
FD
E5
F8
0B
0D
00
E5
FF
FD
EA
08
0F
11
EE
F9
F0
FB
06
01
FA
EF
F3
F8
09
ED
E1
F0
F1
DB
ED
31
08
1F
1D
38
2B
1B
10
F7
07
06
02
F8
FD
09
0F
FB
FA
F5
03
00
F4
15
0A
00
10
E2
08
F4
09
1E
1A
0C
0D
FE
FF
08
11
1B
2F
03
FC
FE
11
02
E3
04
11
F9
F6
EB
0C
0F
0E
2D
15
F7
F2
1A
FB
00
00
12
FB
14
0E
01
22
0A
21
00
0D
0C
F0
09
03
2E
19
0A
0B
FB
09
15
10
14
0A
15
FD
14
05
04
0C
F3
03
0D
14
04
19
F1
F9
10
F2
FA
07
19
1E
0B
17
FB
08
06
F8
07
0A
F9
0F
05
0A
01
05
E4
E0
FA
08
30
1F
01
0A
19
E6
FC
E4
00
FD
F2
FA
09
0F
14
18
EF
09
11
0C
07
F4
00
0B
F8
E0
F6
EA
15
25
F4
EE
FD
D0
D2
D8
F9
FE
05
0E
FD
0D
04
07
F4
06
FF
E4
F1
F9
E8
F5
FC
ED
FF
11
2B
FC
F7
0A
00
C1
D8
FD
F9
FF
13
0C
FE
FE
08
06
08
09
09
FB
DD
E4
E1
DA
E9
02
DC
EB
05
06
00
F1
ED
D3
EF
01
08
FF
03
0E
03
F7
19
0F
04
0C
F5
F8
DA
F0
E2
DD
F2
C5
C3
CB
DD
11
EE
FC
0B
DE
02
0E
F3
F9
FB
F2
F3
08
0A
22
17
0A
16
18
0F
01
F5
E4
DD
D0
AD
C1
CF
0D
16
F4
06
DD
F7
04
14
0B
ED
0F
12
20
25
1E
24
0E
0A
0B
07
03
F9
FB
EA
ED
DE
B1
EC
1E
0E
06
F0
E9
E4
05
FC
F3
0A
FD
11
05
16
10
FA
24
18
15
0C
F3
06
12
F0
F3
02
F6
F4
19
F2
0A
0D
E5
00
DF
B6
ED
FA
F4
0A
FE
00
01
F8
01
01
FB
04
04
F8
F4
EE
07
FD
F9
F1
02
FD
08
F4
07
F0
00
BB
BC
AE
B4
D8
DB
E4
F9
E8
EF
03
F8
FF
0E
00
14
12
0C
1D
FD
FB
1D
FE
EC
F5
18
01
E7
C0
B5
AA
97
A4
AF
B9
C0
E0
F2
F3
FC
02
02
0A
01
1E
19
16
11
E4
02
F3
01
12
00
24
E8
EC
E4
D3
C1
98
9E
96
85
9D
F5
11
FA
0A
09
0E
F5
26
0B
07
1A
0B
11
0E
10
FC
08
44
1D
FD
08
08
04
E3
C2
B2
81
A9
F1
01
14
13
06
FB
16
2A
18
FF
11
F3
CC
ED
06
E8
05
40
0F
1F
17
1A
FD
17
F4
F5
DE
E2
16
15
2A
16
0C
0A
19
23
15
0D
2F
F8
ED
E6
F8
EF
F9
27
28
FA
04
1B
14
1A
24
2F
1B
09
0D
1F
19
09
24
14
FE
19
2A
17
36
ED
FB
0B
F2
F3
06
16
12
05
00
25
2B
2F
1F
0F
0D
22
0D
0B
F6
10
08
11
25
1B
0E
0D
F9
F9
EE
FC
09
F8
02
0E
26
25
0E
03
10
12
18
12
FF
06
14
FF
0C
04
06
0A
22
07
F3
0F
E2
FD
00
F3
07
12
05
20
12
07
EE
0D
F9
09
03
08
12
F0
12
0E
0D
F6
03
FE
FE
FF
D5
E8
E8
05
04
0E
FF
F0
F7
10
14
17
00
33
09
F1
FA
0E
F2
F2
F9
0C
F8
0E
E3
DB
C8
E0
D7
CF
EB
F9
0C
01
0C
12
0A
02
F8
35
2D
38
01
05
2A
07
08
07
FA
05
E4
DE
AF
C2
DC
EA
ED
DA
F8
F4
FF
0D
FB
02
F2
FC
02
1A
1E
1A
0E
12
35
36
EE
E0
F5
06
12
FE
E1
DC
05
22
0C
06
11
F8
0D
F2
02
0C
F7
10
F5
0A
F3
F3
DA
DF
E0
E3
D7
ED
10
13
F9
D4
D1
D5
ED
FF
FF
03
F8
FB
F0
0D

