C6
32
B8
2E
FF
21
E7
27
28
1C
2D
D5
0E
19
06
DE
1C
FC
0C
0E
30
26
2D
01
F3
E3
03
BB
49
0B
51
18
1A
0B
EA
21
F5
BC
21
D0
2A
29
DF
01
2C
2B
08
C2
23
19
61
F9
11
07
E7
EF
FD
20
35
0A
09
29
46
3C
DB
EC
33
E5
4F
CD
F8
1C
14
D1
30
03
08
01
13
25
EE
26
F6
EA
46
F4
20
F0
0B
B6
E3
0F
17
0E
DE
D6
09
02
E2
F1
34
1C
FB
22
15
32
E4
02
CD
0E
E7
03
F2
DD
F2
D9
18
2F
0F
02
D5
20
16
E3
1E
F6
0F
FC

