D0
37
05
0B
EA
1D
BE
F3
31
44
EC
C8
0B
F5
16
20
05
E7
07
17
05
39
22
10
1B
BA
FD
FC
29
F0
E7
F5
1A
01
2B
E9
19
EA
2C
0F
17
23
CD
F6
0C
E7
20
E9
F4
DC
44
0F
2D
1A
2D
EE
F2
14
57
D9
F2
0D
09
30
FC
2E
20
00
2B
C4
1E
1A
F9
10
07
1E
E4
DA
03
16
9A
14
DF
ED
38
C9
DC
34
2D
13
01
32
20
27
06
0B
D9
E9
14
31
01
EF
11
0D
19
F8
EE
2D
DD
00
ED
22
30
0A
13
EF
39
18
08
03
F8
27
F3
26
24
ED
1D
43

