FE
05
F8
0D
17
DB
29
02
03
2D
FC
D6
C0
F3
22
17
E3
B9
1F
20
E4
EE
E4
D0
F5
2B
D1
3A
04
EC
05
C7
04
2D
24
12
EB
1E
17
13
07
0F
0A
24
15
EB
CE
F3
E2
E8
F1
34
24
00
E2
10
41
16
15
15
3E
22
E3
DE
EE
00
BF
F2
AF
02
F7
DA
0E
FF
0D
FF
FC
01
FC
05
E5
DC
EB
F2
CA
08
07
03
DB
13
FF
ED
0A
04
3A
1D
1A
34
24
E8
19
E5
21
17
DA
11
C9
DD
07
1D
1F
FE
E2
22
0B
32
E4
11
34
DA
1E
E5
FE
07
13
F5
DD
30

