01
0B
F1
0F
ED
06
04
F4
EE
FB
0A
F6
04
11
F1
F0
EF
FB
02
02
F5
04
F4
FA
FE
03
06
00
0A
07
F9
06
FF
0C
00
03
FF
FC
02
09
1A
F3
EE
F4
DF
ED
FC
E3
E3
03
0C
F3
ED
0A
03
03
F8
F7
F7
E9
D5
E9
E4
00
F7
E9
00
F6
EF
ED
F0
D4
EC
F3
E7
F7
EA
EA
FE
F7
F1
EF
F5
03
0A
06
F1
EE
DC
FB
E8
D5
D2
CC
C3
E5
F9
CC
FD
E7
F8
0B
E2
EE
EA
E7
FE
F8
FE
E7
E8
F5
06
0F
0F
E8
F5
0E
EE
F5
ED
EC
01
FE
FA
FA
07
E8
EB
0A
E9
F6
FC
14
2F
0F
FB
F2
F8
FB
05
01
FF
19
FA
F8
0B
08
1A
1B
05
0B
01
F1
F8
F5
EA
E3
E5
F3
F0
FF
0E
1D
09
FD
F0
FC
F5
E8
10
0E
F6
F5
F7
F9
04
F4
06
EF
10
EF
EF
EC
F8
EC
ED
F5
F6
11
1B
0A
0B
FE
F5
13
EF
D9
0E
00
FC
0B
00
E7
EC
19
F0
08
09
FF
F2
08
F4
E6
FC
E9
EB
FF
14
0A
12
F9
FD
07
0B
F7
01
25
22
FD
F6
0C
12
06
FA
03
02
14
0D
F4
E9
E0
F8
D6
00
FB
0A
EE
FC
07
15
07
04
0A
19
F0
16
0E
EC
0B
F5
06
FD
11
18
10
FC
10
07
EB
04
E9
08
FC
09
F1
FA
DE
10
03
EF
EC
07
01
07
11
F9
0E
0C
03
FB
08
04
0A
0E
11
FA
08
0C
08
0C
EF
F5
EF
FE
F6
E8
0C
F2
EE
E9
06
07
FA
04
19
F9
04
08
12
14
07
0B
FF
00
13
0E
00
FB
02
01
E9
D3
B3
DF
02
02
01
FB
0D
FF
F3
F8
F9
F6
09
F5
04
1B
1E
F2
0E
29
07
17
FF
03
1F
06
04
F4
FA
FB
EE
FA
00
E4
17
EF
F5
10
0D
0E
00
08
FF
07
03
10
1F
0A
26
18
F8
0D
FC
10
E5
FC
FA
E8
EA
08
04
F2
0E
F8
FA
FE
E9
04
0D
FA
1F
20
08
03
0F
F6
17
18
1A
03
10
0B
F2
F6
0F
F0
F5
EB
04
0A
15
F2
FA
EC
EE
03
06
FF
1A
04
13
17
12
08
02
EE
FB
16
F6
09
0D
04
F1
02
01
0B
FA
F6
07
FB
02
F0
07
27
18
14
19
22
12
28
18
0F
F7
F1
10
1F
F4
F4
03
14
FD
FD
E5
0A
02
F7
05
F9
FB
03
F9
16
0A
1E
0B
17
16
00
05
11
F2
FA
04
F4
FE
F3
02
06
EF
FB
DE
F8
FC
00
0D
F6
E8
0C
F2
0F
08
F0
00
02
FF
FF
E2
F2
E3
EC
F9
EA
00
ED
F2
09
F6
09
FC
0C
2D
FF
02
FD
E1
F2
EE
0B
05
ED
F7
11
06
E5
D9
FB
DC
FC
FA
FC
FF
E4
D8
FB
F7
F4
F4
F5
29
F2
DB
F9
E2
E4
DE
DF
F6
E4
0B
FC
F3
F2
F5
01
04
FB
FB
FF
F4
F3
FA
ED
FD
FC
0A
F1
03
DF
E8
D8
05
E1
E4
02
FC
EB
FF
FB
FF
E4
EF
08
FB
03
F7
F4
F5
FE
0C
EE
EB
14
FC
F5
FF
FC
EE
DC
FB
FA
EA
FC
F4
04
01
0D
FF
00
F4
0C
F3
EF
20
FC
21
0A
0D
F3
04
30
FF
F2
00
F2
E0
E0
D5
E9
0A
04
F1
00
06
13
0B
0A
EF
06
E9
01
22
F8
11
05
00
F8
02
02
0B
EE
F1
F5
F9
FC
FC
FB
F1
EC
01
F5
FB
F9
15
EF
07
09
FF
F1
F9
01
06
02
EA
DB
0C
FB
0A
12
F5
EC
01
14
0B
F5
EC
02
FD
17
0A
DE
04
FD
FF
DF
F0
EF
EF
E7
F6
E8
DB
F0
FD
FF
F4
FD
05
EF
07
F7
14
FF
DD
DD
EE
EA
D0
CA
C2
EE
DF
D6
F5
F6
C4
D0
E4
FA
06
FB
F8
F7
0D
04
09
FD
09
FF
0C
FD
ED
E3
03
EA
E4
06
F9
D7
E2
DB
FD
01
0E
04
12
F2
03
F2
12
02
F5

