BA
10
1E
E8
EA
E7
FD
01
0F
06
1B
14
1E
0E
17
01
0C
21
E5
F4
1F
EC
26
07
3A
24
EB
DB
1F
DD
41
0C
D0
E4
F9
2B
20
D4
08
F1
DF
EB
DF
F7
EA
0C
07
B5
E3
08
FE
F8
FE
07
CF
1F
1E
F3
03
23
03
F4
31
04
13
10
01
FE
08
F8
E9
D6
18
27
04
FC
1E
E7
24
26
41
30
04
C0
2B
DF
24
E6
DB
DA
08
2A
F6
05
ED
E6
E6
15
2B
16
12
36
FE
1C
E5
1B
D9
EF
E8
FE
CB
09
25
12
D2
36
13
DF
F1
F9
F0
1C
EF
17
F4
EC
1B
DA

