EF
FF
F7
09
2C
EC
03
CC
34
2E
FF
E7
13
14
24
DE
03
EA
17
FD
05
0A
FC
36
23
D7
28
EB
E6
BE
F7
D5
F9
0F
30
F6
3D
EA
1A
2A
26
17
22
12
0D
2E
24
B8
E5
06
07
16
F9
DC
17
3C
DE
09
53
C7
16
FE
07
13
11
F7
F3
F5
D1
EB
36
17
0E
D8
0D
DD
0D
D7
F8
CC
EF
E4
03
D5
1D
0D
00
23
1D
0F
13
0B
FB
F1
C9
0B
08
05
12
16
E3
F8
00
10
D6
21
EF
34
0A
E9
C4
1D
19
2B
D7
13
F2
14
FD
D3
09
07
E0
01
E6
E5
F6
25

