F0
F3
0D
0E
07
F6
FD
FC
F8
08
EE
FE
05
F0
FE
11
F2
11
F9
0E
0E
0F
F8
13
FB
11
EE
0D
00
06
F3
06
FD
F7
F2
0A
F0
FE
07
0D
FC
FF
01
E6
F8
E7
0E
0A
10
0B
01
0E
FC
F4
F3
EF
0C
05
FD
EC
F5
03
EB
F5
04
F5
F0
F9
F6
E4
CE
DC
E8
EA
F9
F8
FF
05
09
F4
F8
F1
0F
0B
0C
09
06
E5
E3
00
FC
EB
D6
CF
FD
0D
E1
E7
FB
EE
D6
FA
F7
F5
F0
20
10
08
D7
EF
FB
FF
EF
F6
F4
EE
0D
F0
ED
DF
D8
E6
D8
DC
FD
FD
E4
EC
08
0A
10
07
0C
1E
0E
1C
33
02
03
0E
0C
09
00
F6
EC
E4
D5
EA
E8
08
FC
FD
00
F6
0F
09
EC
08
FD
01
09
03
F1
14
3D
02
27
13
F3
FF
FF
E8
FB
06
FB
ED
EF
ED
ED
F6
05
1A
FE
0D
09
10
EE
FF
0F
F5
0B
F5
0D
09
00
FD
0B
F2
F9
0B
F7
F4
DF
F2
EB
EE
FB
02
F0
1A
04
0F
01
F1
FB
01
FB
F8
F7
07
FD
12
0E
03
F0
EF
02
14
08
0E
F0
05
EB
05
EA
F6
FB
12
FA
0C
01
F8
F7
F0
E5
19
00
FE
1A
4D
0D
F7
07
F8
11
E1
E2
E7
F5
F0
FF
F0
F4
0D
F2
03
FE
01
DF
F8
FB
18
FD
F6
0B
09
3A
26
F9
CE
04
DF
00
F3
E6
E3
F4
02
FF
03
F2
0F
03
0F
04
ED
EF
E2
16
0D
0C
12
08
12
1D
01
E4
D6
09
03
07
D9
F9
00
01
E0
E8
0C
FE
FF
11
0F
ED
EE
F8
08
FE
00
01
FB
14
11
25
19
1A
EB
03
09
EF
F0
DD
F5
DF
F1
F6
F3
0B
23
18
04
02
EC
01
F9
06
0F
0A
15
FD
2D
20
DB
E8
E7
F3
F5
E1
FB
F9
E3
E6
02
0D
0C
14
0F
16
12
F1
01
F6
FF
FE
03
14
E7
FC
F6
F8
09
EF
07
FF
FF
E3
00
EE
DB
E2
E7
16
0D
1A
08
13
00
0D
08
0B
01
E6
02
0D
E5
EF
E5
E7
FD
F4
07
FE
0F
ED
01
F5
EE
0E
F7
0E
EE
02
F4
0D
FE
F2
F9
05
0C
F6
01
E4
F3
FE
04
E1
E8
DE
EC
E7
F1
FA
09
EC
15
F5
EB
F3
F7
F5
F4
0F
0F
F3
11
13
10
04
E9
F2
D7
E8
FC
00
E2
F2
FB
F6
F3
F8
F3
F0
F8
0A
15
06
1B
FF
0C
FD
15
03
F4
09
13
F1
FD
EC
D3
E6
F8
DD
DB
EC
02
FB
ED
05
F8
F6
F0
EB
ED
0E
0D
0E
0C
15
0B
1A
0B
10
14
FE
EF
E9
EE
E1
02
F1
D6
E9
DF
F0
0E
FA
03
CD
F6
E7
FA
FD
04
17
0D
15
02
FD
FF
01
1A
F7
FF
EE
DE
DA
F2
F2
01
04
E1
F2
0B
16
E4
EB
DD
DD
E8
E9
EC
F9
F0
01
FB
08
04
FF
0A
0A
00
F9
E4
E2
F2
EB
FB
05
F0
FC
FC
1A
EB
D3
D4
00
E5
F8
EA
E2
EF
E9
01
09
F0
03
FC
06
E8
F9
F1
E6
E3
F1
FA
CC
FE
08
F7
F4
E9
CF
EB
EC
FE
E5
FE
0A
01
0A
1A
17
02
F7
F7
EB
07
E9
F4
DE
E7
F3
F6
D6
FE
EE
00
F2
EE
E8
E1
E6
15
FF
02
06
05
04
0C
16
06
00
FB
EC
F7
E6
FD
0F
0F
F4
04
E8
05
05
0F
F2
0D
FA
FB
F1
20
21
10
FA
FE
FA
02
F8
0C
23
01
10
F0
F1
F2
07
06
07
E1
03
EF
F7
F8
24
09
F9
EA
FD
F3
F2
F2
16
04
01
FB
F8
03
F7
00
F6
FE
08
FF
FE
23
F6
F0
04
F4
EE
08
11
FF
22
23
F5
08
FE
0B
13
10
15
FB
04
03
14
17
04
EB
F4
FF
0E
03
0F
E5
F3
F8
0B
06
FB
FC
F6
FA
F4
F9
02
EA
E6
0C
FF
F8
FA
15
EB
E8
1A
11
F0
FA
FB
EB
04
0A
F5
EE

