12
F4
10
0F
10
FB
00
FC
F6
10
F3
02
1E
14
11
04
F6
FA
10
F2
FA
F0
F5
03
F1
11
FF
F2
0F
F9
02
0A
0F
11
FE
FC
F5
F5
03
05
04
1D
0B
01
E0
E7
13
0C
12
10
0C
09
ED
FC
FF
0E
12
F5
FB
0D
FD
05
EA
F7
F9
EB
08
08
ED
D3
CA
E6
CA
C2
E4
12
1A
35
1B
11
0C
E9
0E
FF
03
FB
10
06
09
0E
1F
0E
00
FB
DA
EE
F3
E5
CE
CE
E4
F6
F2
14
0F
EB
01
08
0A
FF
0C
F2
02
F0
FC
17
14
05
0F
01
E3
FB
F4
DB
E7
FA
EE
FD
00
FD
10
32
27
F7
EE
F1
F3
D1
F4
F3
F6
EE
17
F7
19
21
0E
04
EF
F4
0A
E9
E6
E3
FE
00
07
0F
10
FE
16
F1
F9
06
10
F2
E4
F5
0A
14
0A
15
18
03
11
0A
18
FD
F6
FC
EF
F5
F7
07
FB
19
07
FA
0B
02
16
F3
08
E0
0D
0B
0C
13
14
19
20
05
F7
10
0E
F5
FD
ED
ED
DA
FC
EE
12
1B
20
19
10
0F
04
E2
F0
FE
1B
F8
FB
EA
06
10
2F
20
04
07
E9
FB
11
DF
CC
EA
FD
18
15
1C
0A
FA
FA
07
EB
BA
D8
F7
12
01
01
05
1D
11
13
00
F0
11
06
FD
F0
E2
C3
DF
08
20
26
0F
11
00
05
03
EB
ED
E6
BF
D0
E5
03
FA
FA
0B
39
0E
E4
00
FE
E5
D2
E8
D5
E2
27
29
24
1B
17
01
FA
01
10
EC
D6
DF
03
30
F5
06
0F
01
0C
03
FB
FD
E9
EA
F0
D6
FB
17
2C
1D
1C
1C
07
FD
FC
14
01
EB
CF
D3
0B
15
EE
02
00
F8
15
F7
ED
FE
D8
F2
09
0B
1A
2F
07
13
04
07
11
E4
F2
0A
09
0C
EF
FD
E1
1A
1C
EF
EA
ED
E4
F6
FD
FE
EB
E8
00
0C
26
14
FA
EF
FC
1C
FF
F0
02
0B
E6
D3
E1
FE
E5
FC
FA
F1
0C
05
ED
DE
00
E4
FD
29
12
16
0C
E9
0A
06
09
1E
F3
EB
FF
0F
FB
E8
D8
F6
E0
F7
EE
01
0D
00
FD
EE
D7
D5
E5
11
03
28
1F
0A
F6
FB
03
04
FE
F2
01
20
E7
E8
E8
E9
00
F4
03
0B
06
F3
00
F8
C6
CC
EB
FB
FD
FE
12
05
F6
14
14
09
EF
FE
10
18
ED
ED
05
EF
D1
F0
EF
F5
FD
F9
E9
F0
BE
D7
D0
E0
E9
09
16
21
12
FC
0E
0B
F7
F3
F6
08
01
12
20
06
0B
E7
EF
FA
00
03
D5
CE
DF
DA
E8
F8
F0
09
FE
04
14
F2
F3
FF
FC
E6
EB
01
01
07
FD
15
20
1B
FD
2A
F9
22
F2
F5
F8
02
D9
CD
CC
E6
0E
08
01
F3
F0
FB
04
EE
EE
08
E7
DF
F0
29
16
FE
F2
06
09
3E
14
F3
09
08
EB
D8
DE
DD
E5
E6
FF
FE
0A
F2
0C
E9
E4
0D
07
E7
FC
09
00
11
F5
01
21
27
0A
15
16
1E
02
01
05
EC
FB
F8
FA
ED
12
FF
09
D6
0B
0C
1A
E1
15
FE
EE
12
14
0B
17
06
21
35
17
1C
22
15
13
04
E6
F9
FE
F4
E6
04
FE
F8
FD
15
0A
08
F2
E6
10
F8
0B
FF
06
EE
08
00
12
2C
0C
19
19
0C
00
10
10
F5
F1
FC
03
EC
F7
DA
CC
F2
06
18
1C
FE
02
F8
15
05
29
25
17
1E
13
1A
0F
F0
F1
DF
EC
E3
EC
0C
05
05
FE
FB
F1
F9
F9
0C
0C
FD
F7
12
12
10
24
27
E4
18
16
18
E2
C8
E6
F5
F3
E3
D0
E2
10
0C
02
F3
04
07
04
14
F5
0D
04
F6
11
23
0C
FF
EF
0D
E2
EE
04
F3
C8
E2
0E
14
FB
EF
0A
12
F2
01
05
EA
FA
FA
F7
F7
FE
07
FE
01
ED
EC
E5
F7
E9
04
F3
E0
F6
FA
FE
0B
FE
02
1B
02
ED
FD
0B
ED
F4
F9
02
F9

