F9
EE
EE
EE
FC
39
10
41
B5
FD
1B
16
1F
1D
DA
DC
1D
F5
D9
DF
E5
1F
D8
1C
05
2A
9C
F0
1A
EC
2D
01
2A
E6
A9
CE
1A
0F
18
10
1E
26
C4
1D
D2
F6
E1
05
C7
2F
DB
12
1E
E9
DF
A7
2A
17
FD
1C
2B
3D
46
E8
1A
2A
34
0F
41
0B
10
15
03
E4
C7
F0
0E
3C
E2
27
F3
D0
FC
36
E9
FD
EA
04
F2
18
CD
23
17
0B
F6
ED
04
1B
01
29
28
1A
EE
05
20
03
E6
20
F7
FC
D6
16
05
2D
EF
32
15
CE
EE
1C
F8
D9
28
FD
24
F0
EB
DB

