07
F3
09
F1
0A
03
00
11
F8
04
F2
00
F9
F3
F5
EE
F2
0E
FC
01
F0
08
F1
11
0D
09
EE
EE
12
0F
0D
11
0A
FC
0A
F5
05
F7
F0
0A
17
16
1D
2E
0D
F9
EF
EF
FC
FC
04
FF
F1
0B
F6
F5
0C
F8
0F
0F
07
E9
13
03
DD
EE
E5
FB
00
02
E2
FA
10
D4
CE
F9
F3
E5
FE
F3
E4
F8
F3
12
F9
FA
04
1D
FF
08
FE
0C
E5
F5
F5
02
09
09
FC
FC
F2
D4
D0
DD
E1
D7
C9
C3
E3
01
F4
10
0D
FA
E3
E7
07
EF
F2
E7
D0
E9
D2
DE
0A
23
21
E6
E6
E6
F8
F0
F9
DB
07
F3
CF
DB
E1
EC
0B
0F
0A
FF
FE
FA
D4
B7
C0
E3
D5
F8
1D
11
02
06
EC
E1
F9
E5
FB
EC
02
FB
F6
D8
D6
D5
02
02
FF
F3
07
05
C3
B5
AC
B9
F2
05
2D
2B
17
E3
D7
D1
ED
E7
E4
06
03
F8
07
D1
E1
E3
0D
DE
E7
06
02
FB
CE
BC
BD
D6
02
13
2A
16
05
E7
EB
E5
F5
F7
F8
FC
1A
1E
06
E7
0A
D8
05
EF
E9
E0
03
E2
FE
DE
C5
BA
F3
02
1D
17
0E
E4
D9
FB
08
F9
E4
F1
FF
00
11
15
F0
FA
F3
EF
05
D9
E8
E2
F7
E1
CD
B8
E4
15
05
25
FD
01
EE
EB
F6
FC
02
03
01
12
0F
01
FA
F6
0A
00
F2
EC
DD
DF
DB
DB
E2
CA
FC
13
19
18
2C
27
F4
0B
01
0E
F7
0B
30
24
13
15
0B
F9
10
FF
D2
F2
EE
F1
E2
D8
DD
DF
01
FD
06
16
23
13
E4
E9
FD
F5
EA
17
2C
47
16
FA
04
02
F5
03
DD
17
E6
DB
E7
D5
D3
F0
E5
21
38
3A
30
09
FA
FC
F2
FB
14
33
3A
1F
20
06
E6
FD
1C
FA
DD
16
FC
D7
E5
13
12
F1
F9
15
1B
18
20
02
F2
1C
15
01
18
15
0E
14
09
1B
EE
01
FE
0E
F5
F0
EF
ED
F4
1A
0E
FC
01
06
0A
02
1B
0C
F9
09
FB
FD
F3
04
13
24
08
07
D3
FC
0F
FB
07
F3
EB
FD
11
0E
FC
05
F5
F1
14
0E
15
09
08
0D
1F
E2
FC
0C
11
FC
F9
F0
E7
06
07
FE
15
FD
F5
1F
FE
F8
F4
E1
EA
01
0F
20
1E
FC
E1
FA
0F
02
0F
F8
EE
F0
EF
E8
BF
F8
00
06
0B
01
0F
25
12
00
E8
0B
FA
03
05
07
18
F3
FB
E6
FE
03
04
0D
0F
F8
F7
F3
EA
0B
EF
F9
F2
E2
12
F5
01
F6
03
FC
F8
11
06
10
F6
F2
EC
F3
07
EB
1C
FE
06
01
19
0A
0B
FE
F9
1E
EA
ED
E5
07
1B
12
0A
FA
F5
18
0C
02
F7
F5
F2
F4
EE
F1
01
E7
E3
D1
1C
25
06
10
FB
29
F2
DF
EE
16
1B
09
FA
E7
F1
0C
01
F6
E9
E0
F7
EE
EF
05
09
DD
D3
E6
11
03
1B
F1
05
F8
FA
03
E8
09
F5
DD
F6
05
04
FD
F6
EB
EF
F2
0E
F5
F9
11
18
ED
EB
F1
21
08
2B
00
16
12
E5
10
01
05
08
0B
08
F7
00
F0
FB
F0
F4
F6
0E
F6
F7
0F
13
13
FB
1D
0D
F1
20
FB
07
06
EE
E5
05
07
26
F6
16
01
17
F0
13
04
F8
0B
0E
13
F9
FE
0B
0B
01
12
F9
13
0A
02
F0
0A
ED
EB
DC
F7
FC
04
0E
11
0D
09
0F
FA
11
05
F3
02
F7
0C
10
27
0E
0E
16
04
0A
0B
0B
FC
FF
20
F3
F0
D5
EC
DD
07
EE
19
EB
0C
FF
01
DC
B2
D7
DA
D6
13
08
11
17
19
21
0A
F5
F0
F9
12
03
07
E9
EC
F6
E9
F7
EA
DB
C6
C7
F0
D9
C0
CB
E6
F6
E3
F1
F1
F4
FA
11
FD
00
F5
0B
0D
0C
12
E9
F8
DF
D5
CA
E6
F5
E1
C3
00
F4
EA
DF
FF
02
07
05
05
05
06
12
0B

