77
0E
74
02
10
0A
79
11
70
08
00
0F
70
78
71
7A
78
03
0D
7B
0E
08
05
07
7C
05
0F
09
09
79
70
73
77
0E
64
68
6E
76
0A
69
7C
64
67
69
6F
76
76
70
05
78
73
7C
05
6F
6E
06
7C
72
77
0B
05
7A
6E
66
72
0B
0D
69
59
68
6E
5B
5F
69
04
09
66
7F
75
73
79
7C
03
07
02
00
73
6F
04
7A
7B
11
17
1D
2A
1D
03
14
64
14
77
7F
14
77
13
10
0B
0E
1F
01
77
77
10
05
07
7F
16
7E
7A
09
19
22
24
20
0F
77
14
19
24
1C
12
7E
05
10
0E
12
28
1F
09
0E
70
03
0C
7F
03
12
0E
15
12
0C
7F
15
08
19
08
7F
0B
14
1B
1F
1A
11
13
00
10
33
21
04
05
01
72
03
76
23
34
32
0F
1B
16
0A
76
0D
15
1A
1D
12
7F
09
11
75
78
68
6F
0B
2D
7D
00
7E
0B
07
1B
25
16
25
2F
05
07
07
7C
15
25
2D
21
0E
0E
72
7A
7A
51
62
78
68
11
21
0D
7D
07
1C
15
1D
10
21
1C
7E
06
0A
05
71
09
18
11
00
05
70
0E
67
6D
72
6F
06
35
13
10
75
13
7A
73
1A
0B
0D
02
74
0D
77
72
02
73
66
75
08
06
05
08
07
03
04
07
1F
34
06
0A
5F
7F
0D
79
7D
0D
0D
7B
05
7A
15
08
7A
70
5F
08
07
74
06
0F
0F
16
02
60
07
03
6C
71
00
03
63
00
78
69
13
14
7E
0F
07
77
13
71
77
74
17
1B
14
7F
71
7B
7C
76
72
12
6D
7C
7C
19
73
6D
08
69
78
00
05
14
05
7E
03
7F
73
77
11
18
1C
0C
6E
79
62
60
6D
73
70
7E
70
6A
7E
70
57
5C
73
62
73
7C
6D
78
74
78
67
76
7A
0E
0B
05
08
05
5E
7A
76
00
10
76
76
06
64
53
52
51
5C
4A
6A
63
67
70
6D
7B
10
0A
09
07
0C
78
0F
74
0A
6E
67
04
6C
68
06
6C
5E
58
55
56
5D
57
57
57
6F
74
7C
7B
7C
7E
07
06
79
74
04
07
18
22
76
08
0C
79
13
1E
04
04
53
6B
4F
4A
69
67
60
0C
05
02
78
07
7F
08
76
71
74
11
05
19
5E
0B
0E
0B
0C
20
20
77
76
69
57
60
70
6D
6D
77
09
69
6F
71
79
72
7C
70
72
71
76
15
73
6D
19
09
79
1C
16
63
0E
6E
56
02
61
79
0F
76
69
60
10
13
03
7E
01
06
75
79
04
0B
15
75
77
7B
74
19
0B
01
09
77
00
72
6F
15
00
06
6D
01
12
07
0D
0A
7A
0C
70
66
7A
10
03
68
7A
08
02
1F
2E
20
14
7F
77
08
11
09
71
78
0B
06
09
27
21
21
0E
7F
77
73
18
14
62
08
71
76
74
32
1F
10
06
14
14
16
16
14
10
04
08
23
0C
05
10
7C
0F
07
7B
6A
22
7D
6B
73
73
01
6E
0E
07
0E
71
12
23
1D
7D
73
0F
1C
7D
10
09
21
7F
13
71
78
6A
03
24
11
6B
6F
02
09
7E
14
39
71
64
02
7B
14
71
0E
0F
21
7F
0B
0A
16
1B
7F
67
77
7D
06
17
7D
73
61
70
7C
79
70
1B
00
65
0D
75
04
7E
08
00
29
23
18
2E
19
15
0D
72
66
75
6F
62
04
09
73
10
7B
73
72
71
52
62
1A
0A
06
6B
1D
07
06
29
1F
35
29
25
76
10
69
76
62
6A
05
0F
0D
6E
0D
01
00
0B
02
09
04
06
76
15
15
15
6D
71
7A
1D
0D
29
1E
07
08
0C
0A
71
05
04
70
08
0E
7E
02
01
7E
7F
61
69
03
6D
51
56
56
77
15
10
77
64
5F
6A
72
6C
7B
0C
78
76
7A
10

