D7
13
FA
25
15
F8
26
24
E3
02
0B
5F
F1
E1
F5
01
E3
38
13
25
DE
E5
F3
E0
E6
2C
10
0B
BB
FD
32
D7
D2
23
C0
23
0A
15
0C
15
EC
29
EA
09
2F
F4
ED
0B
D9
2D
E8
EB
EE
FB
FA
DC
EC
D6
B2
21
E8
EF
DA
D0
1A
E5
EA
FB
E0
CA
D0
30
0D
11
F8
25
10
22
D8
34
FA
F0
ED
0B
ED
EC
1F
04
FD
0E
EA
CC
27
DF
22
E7
1F
27
0D
05
29
0F
0B
14
E4
26
EA
EE
13
25
FD
01
26
EE
2E
17
0A
2F
20
04
02
D3
27
19
E7
00
2F
AE

