ED
16
EC
03
EA
E2
11
FA
E4
1C
0B
F4
F3
20
21
E5
DB
1A
EE
D0
F8
F9
24
06
EA
D7
DC
1D
CC
13
35
B1
DC
16
F3
F3
16
23
F6
E9
E2
F4
DC
ED
00
FA
14
DA
E4
D8
23
33
EE
E6
14
18
06
DE
F0
25
04
F4
16
CB
01
15
08
18
ED
F9
EE
19
D2
EA
F2
E9
08
0D
2A
E8
D6
F1
08
F6
C8
FA
DD
F6
FC
11
C5
0D
02
FA
FE
F5
F0
DE
E7
BE
24
07
F6
15
0F
F3
E5
EB
24
0B
DC
E0
F3
F0
EA
34
26
FC
12
0A
DB
E4
00
F9
1A
F3
F0
F5

