00
05
07
0D
08
FF
11
0B
F1
FF
00
05
F7
13
10
FC
12
0D
10
03
F6
FB
F6
04
10
F5
09
F3
F5
F4
FD
11
F3
0C
0A
05
05
07
F1
EA
01
0B
14
1B
12
F7
E7
F9
00
F5
EF
E5
FF
0C
04
F2
F4
EE
0B
EF
F6
06
F9
DD
F4
E7
FD
FE
F2
08
FD
01
EC
F2
F5
E4
01
EE
F8
DB
01
F7
03
12
F0
FF
F4
F0
F2
09
FB
EB
FB
FA
EE
DB
FA
F0
D0
E1
EA
DD
07
FF
E0
E3
06
FA
ED
00
E3
0C
F7
00
FF
EF
E7
E1
F5
E6
EE
E2
EF
E8
F8
CC
E6
D8
FF
FC
17
04
FB
E9
F0
F1
E6
FC
F6
FF
00
FF
03
08
07
F0
04
E8
E9
E5
C4
F2
E0
DD
DB
EC
02
04
08
09
11
03
03
E0
EC
EC
FE
F4
FB
EC
E7
FF
EA
D7
D2
D8
DD
CE
CF
E6
E7
F6
01
14
F7
F9
0A
FA
FF
F3
EF
E6
FF
19
F5
F7
EF
EB
EF
E6
F5
E8
D4
BD
EE
CE
F0
EA
0A
15
04
15
23
13
1A
01
F7
07
EE
01
F0
03
F7
06
0C
ED
F9
E8
EC
E0
D5
F9
EA
FC
F5
03
15
0B
0E
0A
0B
FE
11
0D
F6
F5
F5
08
FE
15
1F
16
FC
DE
F3
FB
ED
F0
06
F3
00
FF
FE
02
0D
FB
FA
FE
0F
0C
08
FC
F5
E6
10
1D
11
10
1D
F4
F4
FA
EB
FA
E8
E1
00
0A
22
14
17
FC
FC
EF
13
12
1F
F8
12
15
04
0A
FF
03
0E
06
08
FC
F5
03
F7
BE
C1
F9
10
2A
23
1F
03
FC
0B
1E
0B
0F
17
06
0A
0E
01
FB
0A
24
1C
15
26
03
F6
E5
F7
E8
F8
09
15
19
12
1F
07
FA
EE
FD
13
00
FE
F0
F5
06
1B
1A
0F
07
1B
02
10
E6
FA
F1
F3
F6
DE
F4
02
FC
16
1C
06
0B
16
02
FB
0F
01
09
F1
F9
EE
1D
1A
03
F1
EA
1C
23
F4
F6
09
FD
D7
E0
07
02
0C
F0
F7
F7
0A
17
16
18
0B
11
04
01
F1
15
00
ED
1A
F8
36
1A
11
04
ED
03
F1
0C
00
FA
F8
06
07
0A
FB
06
0D
F1
04
F7
F4
E6
EF
0B
0E
E8
F9
07
FB
26
F1
F7
F9
08
D5
04
03
F8
09
F4
04
FF
01
0B
0B
0C
03
F8
DB
CF
D8
04
18
0F
11
F8
14
28
F7
03
FA
F5
E8
07
1C
E4
05
F1
18
20
1F
1F
0A
00
EC
DA
D1
D5
EE
0B
02
03
18
26
18
2B
22
EF
08
01
F7
E9
09
03
0E
F9
13
12
0F
1F
F8
EB
F0
ED
F0
FB
DF
F8
F9
FB
27
28
F5
15
04
FB
D7
0F
DD
F0
E6
02
01
14
12
F7
02
1B
F5
F0
04
F4
02
FC
E7
EB
19
30
30
2B
16
F7
F8
05
E5
F4
CE
D4
EB
FF
07
09
13
FD
09
F7
EA
FD
E9
F7
FD
F2
FE
0A
04
27
19
33
0A
F4
0C
01
E8
D2
C6
D1
FC
ED
00
02
06
F0
DD
F3
E6
FB
EC
07
F3
F6
EB
F3
10
FF
09
04
EE
04
0F
03
F2
EF
E1
E1
FE
01
ED
0B
F0
F7
08
03
1A
03
19
F9
F0
E4
0B
05
EC
F9
E9
E7
DB
02
FC
05
01
EE
E5
F6
F5
04
FE
10
FC
0B
03
FB
15
03
2A
FE
03
0C
EB
D8
EB
F8
E4
EB
15
07
10
07
EA
E5
00
D6
EA
ED
0B
FC
07
01
03
0F
FE
00
F2
01
FF
04
CF
D7
E5
E8
EA
0E
1C
0B
02
05
0B
F9
D9
D7
FB
F9
01
EC
E3
01
FE
16
07
15
24
0F
0B
FA
21
1B
03
E2
FD
F9
00
10
02
01
07
1C
13
1A
0D
F1
EB
00
14
1F
FE
F7
04
09
1B
1F
12
EE
32
1E
F4
15
02
F8
0B
02
05
F2
FD
F9
F9
EC
E7
DD
EB
ED
15
0E
14
F1
12
0C
07
EE
18
03
19
FE
E7
04
11
EE
EE
0C

