F6
0A
0B
F5
11
FB
EF
FC
F2
0D
EF
F7
06
07
0E
FB
F1
09
06
0A
04
FF
FF
01
12
01
F3
0B
FA
0B
0F
FA
FB
03
02
20
1C
08
2D
33
24
38
27
39
52
40
1D
01
FE
13
01
FF
F4
EF
F7
0A
FC
F4
F7
F2
FF
F4
31
2A
29
02
12
15
D4
FD
1F
16
07
02
CB
FD
FA
1E
18
03
FF
12
12
10
FE
EF
09
0F
FB
14
16
1D
12
E0
E6
F0
04
07
FE
0B
00
F5
1A
0F
FE
ED
E4
F6
E7
1B
EA
0A
F6
FF
F7
0E
11
14
F6
13
FA
00
03
08
F5
F1
F4
10
EC
DF
08
F9
D7
D5
D5
E4
01
0E
0A
FA
F6
F9
05
D3
FC
EF
F8
EA
0C
02
17
08
0D
E4
0F
F9
F8
D5
DF
DB
F2
E1
0D
E3
DE
08
FF
FB
11
00
FC
CB
05
15
00
FF
19
04
15
FC
08
FE
E6
E8
E9
E7
ED
0E
FE
0B
24
20
22
34
01
02
11
EC
F6
FA
EB
06
F5
06
11
1C
12
04
04
0F
12
0C
19
FA
15
0D
17
2A
2C
16
04
0A
10
F1
10
00
06
2C
00
07
FB
0F
29
0B
F3
F3
F6
04
FD
27
1A
26
1B
10
20
21
F8
04
FE
E2
08
14
F0
F7
1F
24
F8
05
FE
02
1B
25
FA
F2
DC
E8
FF
FC
14
0A
FE
FF
F8
06
EA
D6
FB
EE
27
33
F0
F3
ED
1C
06
02
00
17
1C
37
06
E1
C5
C9
E1
E8
D4
F8
EF
F2
D2
EB
CE
DA
E2
EC
31
22
F3
06
D1
FE
14
0F
10
16
34
2B
02
F2
EF
E0
E9
E8
CE
E2
E4
EF
EE
E3
D0
D0
C4
F2
1B
FA
F7
DE
F2
01
F4
F9
F5
25
23
2C
25
24
FF
FD
F1
DD
E8
D7
DD
EB
08
0C
ED
DA
C9
E5
DD
F7
0B
D9
F0
1B
07
04
11
1D
14
2E
1A
18
1A
FE
ED
F3
F0
D8
00
FF
F5
0B
09
F4
D0
CB
DA
E8
0B
E0
BD
F3
ED
02
15
07
12
25
27
13
EA
F2
EC
FB
0A
00
FE
E4
07
F5
F8
01
11
F1
D5
E7
02
F7
F0
E5
CE
1A
06
15
00
31
18
1D
07
E5
F9
02
10
EA
00
FA
D8
02
E3
F9
16
F7
13
E3
12
F1
EE
E6
DE
ED
EC
CD
05
08
43
26
28
11
EF
F7
FA
F3
EA
E2
D3
F1
FF
16
EB
0A
F2
F7
02
F0
18
E8
C5
DA
EA
DF
F6
18
25
2C
11
0E
01
F8
06
F8
F3
EF
FE
E4
02
FE
02
F7
DE
DD
06
02
0E
05
E6
F5
E1
F1
ED
F5
14
09
07
0A
F8
EE
E8
E2
EE
01
11
ED
FD
13
08
05
CF
E7
F3
E9
D9
F5
11
F9
07
E6
F0
05
ED
F1
0A
18
FF
F7
F2
F3
0C
05
07
03
0F
15
09
16
B5
DB
F8
FF
EB
E7
03
1C
11
F5
FD
07
E8
EE
05
1F
FC
00
FF
F1
07
0B
0E
FC
11
10
06
09
C2
FF
FD
0B
FE
02
0B
FF
0C
05
07
0F
01
EA
D8
F3
00
11
F1
F3
01
10
1D
05
0B
17
11
01
C6
0B
09
F9
03
0D
2C
0C
14
F0
0A
25
0B
FB
FC
F7
F4
0B
0F
04
22
21
11
1E
FA
02
12
F4
F2
F5
05
F3
01
21
2E
22
16
F1
14
0F
28
01
DC
F1
F1
F4
24
1E
1D
0C
12
0C
FE
1B
FA
F7
18
0A
FD
10
0A
0C
E4
03
FE
27
21
1B
12
18
09
0A
06
F3
0E
0D
14
1F
2C
FF
18
FF
FE
E3
EF
11
F0
F2
20
0D
CE
E7
FD
F5
FE
F5
F1
F9
14
0B
06
09
29
36
1C
13
11
27
13
14
32
DB
D5
0C
09
FE
F6
01
22
05
D0
DE
DB
04
01
24
49
2D
06
2A
1B
2A
1F
FF
23
1C
FA
3A
0F
F7
FA
FA
FE
0E
12
FE
F9
12
19
FB
00
1A
15
20
F8
FB
F9
16
EC
E1
00
DF
E0
E3
E9
01
11
02
F9
0B

