09
03
06
07
13
76
71
06
7F
7D
70
73
00
13
0B
70
05
08
08
00
75
72
76
79
07
7E
7D
75
71
72
77
7C
01
10
1E
03
05
1C
04
2E
21
1B
18
17
10
32
17
16
13
6B
7B
73
0F
79
7A
00
0D
08
12
10
0D
10
15
10
0D
06
1C
07
0E
06
04
14
17
05
0D
79
65
7A
7D
0F
79
0E
0D
75
01
11
12
1B
14
72
74
73
7C
00
73
00
76
7E
71
77
2C
21
00
5F
74
78
12
25
03
72
79
7A
08
71
7F
6E
6F
76
7B
78
76
0E
0B
13
76
78
0F
0D
08
18
03
78
13
7F
7F
00
6D
74
6A
7C
09
08
7F
73
7D
6A
09
6C
7F
79
06
7C
78
71
78
08
01
6C
74
00
04
01
6E
5E
6C
7F
06
7C
12
06
08
0B
6D
54
5B
72
72
70
79
0E
0F
14
7F
72
04
69
03
7A
67
75
13
6A
67
7B
01
7C
7A
7F
20
78
66
55
5F
5F
7C
72
05
02
0D
6D
7F
07
78
13
77
6F
6A
04
0E
06
5C
6B
09
08
76
75
76
72
7D
7D
13
1B
7D
0C
0B
71
0B
04
17
08
14
76
76
77
77
08
70
74
5E
78
7D
07
09
62
75
6B
72
5F
11
02
15
01
79
79
6F
07
02
12
78
7D
0E
02
11
0A
59
70
7B
70
6A
5C
72
65
19
06
0B
13
0C
10
16
0C
13
7B
05
05
19
09
74
71
08
67
61
70
0B
7E
14
4F
63
79
08
03
02
07
07
07
04
0D
7D
0F
0A
74
65
7D
0A
10
02
7F
6C
74
04
16
08
1C
27
02
26
6B
7D
6E
07
10
07
03
17
0B
08
7D
72
73
68
65
6E
79
0A
02
6C
7D
07
10
2D
27
3E
74
72
5F
12
6C
7D
0D
04
17
06
05
02
0F
6D
04
71
67
71
19
0D
17
73
18
7B
28
3C
3F
29
14
02
7C
7A
7A
64
05
02
1B
14
04
79
19
0D
7F
19
01
0D
7E
0C
08
77
12
7E
28
27
2A
0A
26
7F
12
07
79
7A
18
7A
0D
07
78
0E
1F
0F
0B
26
0A
1D
0B
17
10
76
06
7D
10
17
03
03
2D
03
04
77
6C
7F
6F
01
16
04
7D
13
08
13
18
16
7F
07
7E
16
0F
0A
0A
7C
09
12
11
02
37
0E
00
70
02
73
04
6F
13
05
76
6E
12
02
2A
1A
17
08
0F
1F
6C
67
77
13
01
06
6D
1B
24
68
1B
02
7E
6B
7B
78
6F
08
06
7B
7B
00
76
19
7F
7A
0C
7D
02
70
77
7D
74
7D
6E
02
20
56
6F
7D
0A
73
03
6E
77
77
6A
78
15
7A
6C
7C
06
68
0E
77
18
13
0D
74
6C
7A
75
74
07
74
60
0A
16
7A
6A
13
7B
70
7E
14
0C
7E
19
0F
71
70
12
0D
18
14
69
7B
7E
10
07
67
11
09
10
10
76
5F
0C
74
7E
74
0F
03
18
0A
0A
7C
07
05
02
7F
6E
7B
05
0A
72
7B
77
04
7E
3B
0C
09
0B
7F
7C
08
15
02
7A
0B
11
7A
10
79
7D
6A
68
07
7E
7C
02
67
03
08
7C
65
03
21
7C
78
10
01
77
61
5E
73
73
73
07
70
74
0C
12
01
73
03
7B
74
77
6D
01
74
6B
45
7B
74
0D
7A
02
0A
5D
5C
7A
5C
67
7D
78
7C
17
1F
7A
71
79
78
5B
64
64
6D
69
79
72
6B
74
7E
70
10
0D
04
7B
56
6C
6F
04
5E
6C
6C
01
01
6E
06
56
56
52
5B
65
6D
6C
5D
70
77
02
13
0A
00
10
05
76
71
08
20
74
6E
62
5B
0A
7C
7D
51
4F
55
6C
6E
59
7D
58
65
72
07
0F
0E
6F
10
00
07
6F
70
6B
7A
0D
7D
02
6A
02
7E
6C
72
6A
62
6E
69
78
6B
79
73
5A
73
77
7C
04

