EB
FD
E0
24
FB
10
F3
34
05
3A
10
D6
33
16
0D
DB
14
D1
1E
04
E2
09
37
1C
15
DC
1B
F6
22
F1
0E
28
22
ED
EE
26
12
FE
14
02
1D
09
C3
F5
1C
01
D6
01
13
17
77
EE
F0
E4
01
0C
F2
14
7A
13
06
F5
11
1D
EA
E5
FF
0E
3D
E1
10
17
1A
FA
16
10
FB
CF
FE
29
E8
EE
10
13
2D
20
E9
06
21
CF
18
15
F2
05
03
21
E2
0B
1F
09
EB
E5
E2
2C
F5
29
DD
37
D3
F2
03
F7
00
EF
3F
DC
31
EE
E7
F7
A5
1A
14
EF
08
02
11
F7

