0C
FE
F6
F5
12
F2
12
FA
F9
FB
F5
FF
F9
1A
0D
08
0B
03
FD
0C
05
0A
F6
0B
04
12
09
F5
13
F2
FA
10
F8
0C
04
05
14
FA
04
0B
FA
05
E9
F0
06
01
FF
14
18
FC
19
09
00
05
07
12
0B
F6
05
E6
E7
04
17
27
1D
2E
1A
07
F2
EA
FF
EB
F7
1A
10
F9
0C
31
18
20
0A
F5
EE
0B
F5
F7
EF
DC
0C
19
33
0D
0C
18
FB
FA
E3
ED
FA
03
EE
01
E5
F7
09
4F
31
2A
10
00
21
0D
0D
12
E0
F5
FE
FC
10
F9
FB
03
F4
EE
C3
F4
F0
EF
E5
0C
0E
FF
FE
1F
20
44
14
FF
0B
20
10
0A
EE
01
08
E0
E4
DF
0E
F4
DD
F0
FA
00
F5
F6
08
07
18
ED
25
25
FD
25
31
24
19
05
F5
09
14
E6
19
FF
E8
EE
F7
FF
EF
F9
11
0B
0B
FE
F2
0B
0B
1D
13
0C
1E
0E
EF
01
FE
1D
FF
DD
05
D6
0A
21
F6
FE
E4
E5
0D
17
0F
13
F7
FA
03
ED
E5
ED
EA
FF
ED
F2
1D
23
16
0E
FF
03
02
EE
12
09
0C
FC
FC
05
F9
21
15
06
09
F3
F0
04
FA
FC
FB
FE
FF
15
20
14
09
FA
F8
ED
1E
12
00
16
F6
FB
EC
EC
F5
FC
11
FB
FF
00
03
EE
E3
E9
05
F9
0A
07
30
FB
04
E9
00
F0
0C
F9
EA
33
0E
FD
E5
ED
06
0C
F6
FA
E9
F9
DE
F7
D8
D1
D6
F2
EB
E7
2D
1F
05
EF
06
08
F2
E3
F9
2E
23
15
0E
09
0D
0B
09
F2
F1
EE
00
DA
BC
E9
E9
F5
F4
09
F7
2A
11
E9
F9
ED
D3
F2
FB
1A
12
16
07
FE
10
00
06
F6
DE
EB
0D
DE
D5
E5
F8
FD
13
00
04
21
06
EF
FF
0D
E9
EA
E1
11
FE
FA
F4
11
20
17
1C
06
F3
0E
20
F7
FB
0F
03
12
19
FD
FB
E5
0D
2E
00
09
F0
1B
16
0D
0A
F0
DE
DC
00
10
01
02
1D
1B
1E
00
F1
04
18
19
09
F9
FC
14
04
05
00
06
FD
31
0F
11
1E
E3
D1
EC
EE
F3
FF
0D
0F
35
11
05
F3
0D
11
09
E8
E2
F1
2A
13
29
F3
05
E3
16
0D
12
26
06
FB
DC
0D
F9
19
07
2D
25
29
29
1F
0A
14
0C
0A
F0
08
53
3C
12
02
F3
F0
05
F9
11
07
F0
EB
05
FB
0A
09
07
18
18
12
1D
0E
19
02
17
0B
02
EC
32
09
14
E2
09
E3
02
1D
F0
03
FD
FF
E6
F4
FE
07
20
2B
04
1B
02
12
1F
FD
15
EC
00
24
1E
10
1D
F6
09
FF
00
19
0C
10
03
09
F7
FC
13
0E
FE
08
FF
08
01
FD
F8
09
FF
FF
1E
05
06
15
ED
FE
0F
0B
23
1B
23
0D
17
16
0B
00
F5
FE
F1
F0
F7
DE
FB
04
02
04
FC
F5
0E
FB
F3
EF
08
FE
FA
14
07
39
0E
F4
14
12
1E
FC
FB
FE
04
F7
DD
EA
12
0E
08
E0
FA
F7
04
FA
00
E3
03
F6
01
05
2B
2E
06
E9
0A
10
05
05
15
13
1C
EC
DD
FE
09
FA
08
F0
E0
06
FF
0D
02
CD
F1
08
FB
FC
24
2C
19
09
E7
15
0E
0E
F2
08
E9
F8
E1
FC
EA
00
1B
EC
FD
08
10
F6
0C
FE
0B
00
FE
E6
F7
05
DB
0D
22
0B
00
01
11
F2
1D
EB
FB
FE
05
1A
FF
0D
03
F8
03
1B
14
0F
FA
FC
0B
0C
0A
11
E3
1B
25
F7
F9
3E
25
13
07
F3
23
F5
F5
11
D9
03
27
0A
21
F2
10
16
0E
F6
10
04
21
12
02
09
F3
FA
EF
FC
F9
18
07
F4
0A
2F
F1
E1
E9
EF
1E
FD
04
05
FF
FF
FD
F0
04
EE
02
0A
07
FA
EE
F8
F9
F9
12
0F
E0
E6
F2
03
0B
00
F0
22
17
FB
FF
EF
05
09
ED

