F6
F6
02
12
FA
11
F0
ED
10
08
FB
07
00
0E
06
0A
09
0A
0B
F5
F9
F1
FC
FF
F4
0B
FF
0E
0E
01
09
03
F0
0A
F8
F5
19
F5
0E
12
19
14
F8
1C
19
09
01
FE
08
0B
FB
FE
05
07
F8
EF
06
F9
0B
14
16
00
1A
1B
20
2B
2F
20
F6
18
1D
32
1E
16
1A
0B
0F
0C
03
08
16
09
12
0B
F4
F6
F6
FD
09
1D
16
0A
18
2F
07
03
1E
14
2D
0C
02
21
2C
13
EC
F1
FA
FB
09
02
F0
07
0B
EE
FA
FE
F9
1E
1B
00
13
0C
0F
FE
00
01
F6
12
07
1A
05
15
16
09
EB
CE
C4
D5
02
11
F6
02
15
09
0B
05
18
00
20
29
07
FB
F3
22
10
12
08
F8
FA
ED
F6
0B
FC
08
CB
E7
DF
09
0B
F8
1D
24
19
13
22
08
0D
08
21
19
1F
01
FA
01
0B
07
F7
ED
F3
0F
F0
C9
E1
E0
F5
0A
FE
16
07
29
F2
EA
F4
18
FF
15
0E
05
FE
12
1C
12
1C
20
19
0A
1B
1E
14
F2
D8
FC
01
09
00
02
ED
F1
F0
D8
00
05
0B
00
19
07
05
FD
0D
10
1F
23
0D
16
02
FE
18
04
EF
E6
0B
05
F6
15
E1
EF
FE
11
FE
0B
19
01
0B
02
FE
00
F4
1B
07
1C
00
00
17
10
06
06
DD
CC
ED
03
FF
1C
02
E1
00
F7
0C
FE
03
02
10
00
E8
ED
E1
F9
F5
11
12
07
F8
03
E5
E2
CF
D2
E8
0D
0E
12
0C
0F
D4
FC
0E
08
06
13
0A
F8
F7
CE
CB
D0
FC
F1
0C
FA
11
F5
E6
E4
D1
DD
00
FB
14
F9
E0
05
D2
E1
0F
03
F5
FA
F4
FC
D3
B1
C4
DD
ED
F0
15
0E
F5
01
DF
EA
D9
D9
FF
0F
08
13
09
FC
D4
F5
0E
00
FC
0C
00
EE
EB
CE
E6
FF
FB
F7
04
02
DD
F7
E1
EE
F3
E3
FC
F0
06
0E
20
01
E9
DE
FD
FE
E6
E5
04
FF
E7
EA
0C
F9
F3
0C
07
0E
FE
F5
D7
DF
E3
E9
11
F8
0E
EB
F7
ED
04
D4
D9
FA
DE
FB
EE
11
D9
01
F5
0D
00
FD
07
F2
F6
EF
E1
DF
FA
13
FA
01
0A
12
EF
F1
EF
E6
E4
06
01
EF
EB
F4
E5
F6
F6
E7
0C
15
0B
E2
EF
04
E8
E4
02
11
07
05
FF
ED
10
FE
D9
DF
E2
F7
17
EF
FE
FB
F9
EE
ED
F5
1D
19
FF
EF
D9
F3
FB
E4
04
3E
14
1C
FC
FC
0E
24
FC
E9
F2
FC
FA
14
0F
FC
EA
ED
FD
FF
08
19
F3
F5
DF
03
F3
16
11
22
23
27
F4
05
02
1A
01
EE
08
09
10
0A
0F
19
07
FF
09
16
12
0E
ED
E7
14
01
FB
00
1E
2E
01
0B
FC
FE
1B
29
06
F3
1A
07
13
15
24
13
0D
0F
0F
01
E9
E6
DA
EB
17
0A
07
04
07
05
10
F0
FE
17
04
11
1C
F5
03
0A
07
00
23
1C
1B
1E
17
F1
08
F4
04
12
04
FC
12
1B
20
FE
2E
02
F2
0A
16
F3
1A
0A
0A
22
12
05
22
1B
FC
F6
FE
FC
04
0E
0F
08
FA
F5
18
0C
04
15
13
05
FD
EF
EE
DB
FB
00
20
0E
0A
F7
02
F8
FB
0C
FD
EF
FA
FA
0E
01
FF
EA
F1
1A
01
12
EC
F9
06
FF
18
F3
02
15
22
0E
F4
FA
F2
F4
01
FF
0A
05
F2
F1
00
F9
EF
05
EC
EC
1B
1B
FF
11
0F
FA
D7
19
16
18
17
07
05
0B
02
FB
05
F6
EC
15
EC
FA
F9
F0
ED
17
02
F8
07
0F
06
FC
F8
08
FA
E2
E0
F9
0A
00
17
00
EF
DF
DB
14
17
02
1D
03
18
18
03
00
F2
F8
00
13
FD
01
0A
0D
F0
12
15
17
2E
0E
04
05
13
02
0F
06
20
26
2E
01
F6
0B
EE
0E
ED
07
0A
05
03
07

