CC
FC
FF
F2
1B
36
15
CF
ED
E2
D8
EF
12
E5
1C
2C
D8
E8
1A
DF
23
11
1A
2D
08
12
EC
F2
FF
32
D7
F6
28
20
08
FB
02
F1
23
D6
09
00
29
F3
FE
03
D6
F6
13
08
EB
DB
10
EC
2C
B8
EA
DF
BF
3C
16
10
D1
F5
C7
1F
0B
F6
FD
0E
2C
00
0D
F3
E9
F6
31
05
FD
3F
F9
14
0E
10
F4
FF
F7
09
F9
0B
11
EC
DC
29
10
07
A4
18
D3
23
EA
E9
FA
26
0D
05
1E
EF
14
F0
46
0B
1F
E9
DB
DF
0E
E9
0D
2C
FC
2F
4F
2B
F6
2A
2B
DF

