F2
EF
05
0A
DE
3F
E1
DF
EF
BB
DF
EA
E7
13
21
30
11
08
F6
0F
2B
39
2B
0B
D5
F0
E1
14
FF
23
38
25
15
0E
F7
1B
FD
CE
1B
CD
DD
02
C9
EB
0C
E8
1B
0B
0A
0A
DE
25
0F
F1
21
E2
2B
DF
C3
03
2D
24
2B
D0
11
F1
36
BA
33
0C
C9
23
1B
1D
FB
FD
14
41
FE
F6
F9
E7
F8
00
EE
D8
F3
11
D6
0A
FE
E9
F7
ED
FA
DB
FE
24
DF
C7
15
52
FD
0A
FD
1F
3C
FF
CD
19
17
FB
DE
D2
CC
C7
1A
EB
08
14
05
20
60
10
27
05
09
D9

