CE
F2
19
F4
ED
F3
43
EE
F9
3E
10
DE
15
0F
EF
0C
02
15
11
06
15
2A
F1
F6
1B
2D
09
28
C9
0E
C9
15
EC
E9
F0
E9
E4
26
E3
23
DD
0C
27
26
1A
F7
00
06
F8
E8
EF
B2
FE
16
F2
35
E5
D2
E7
04
18
F3
FD
CA
27
FA
E2
1F
49
0A
0D
0D
1C
0A
BE
F1
EE
F1
E0
28
E1
30
FF
09
21
CA
18
00
EE
24
08
DB
F1
17
FD
E4
1D
0E
F7
27
D9
2C
31
F0
E8
1D
FF
0B
0D
25
33
1A
0D
2E
FA
08
DF
DF
06
D9
24
F8
F2
3E
F9
E3
DB
0A

