05
06
08
09
00
08
7C
04
78
0E
75
04
03
01
71
7A
6D
0C
0A
7C
7C
72
70
12
0A
08
0F
10
12
73
01
7B
05
00
02
7E
01
17
06
13
36
26
1A
1C
09
12
08
14
0C
06
19
1D
0E
0A
02
0C
10
00
00
7D
1B
0A
00
11
1E
73
19
13
68
0C
0E
12
7D
73
0D
14
7D
7F
1E
1F
0A
0A
06
7F
04
06
06
21
09
7D
19
04
5C
76
67
71
55
05
0F
01
7F
72
1E
11
08
79
77
6C
76
7B
7A
72
7D
74
00
03
76
07
0B
0F
55
59
75
79
03
11
14
05
02
19
14
12
7D
7B
0E
04
4A
76
67
6E
7F
08
10
6A
05
1F
1D
00
66
76
01
6E
6F
09
14
1A
02
0F
1C
1B
70
7C
64
64
60
46
02
6B
0A
72
7F
05
77
2A
0C
72
70
79
6B
7D
06
10
06
16
17
76
6C
68
72
10
7E
68
4E
4E
74
77
0C
1A
02
11
77
09
03
74
64
07
6D
07
0F
1A
79
0B
06
77
7D
7C
78
07
01
77
5D
5D
64
61
0D
10
7E
6A
72
06
08
79
78
0A
0A
0F
0E
16
06
15
12
0A
74
6C
75
1E
10
70
6D
63
5A
71
73
2D
6B
7A
0C
0B
1F
14
04
03
1B
06
14
05
08
03
71
79
12
16
12
12
75
6B
6B
51
43
01
13
1F
23
0A
00
16
0B
0A
07
7E
13
0B
16
0E
70
04
07
7E
12
0A
10
0D
08
7B
71
7B
6C
73
0F
7D
1F
14
00
10
12
13
6C
0C
11
0C
7E
66
44
70
70
11
0B
14
0E
14
01
6C
5F
4E
61
0F
7D
02
1A
06
0B
1A
0E
00
1D
2A
17
10
06
47
64
5E
7C
01
74
68
0B
0E
18
07
67
46
6A
71
02
00
02
7E
23
79
0D
76
04
0D
05
7F
4C
59
59
7B
74
77
6B
05
0D
0E
73
6E
77
69
78
69
79
12
0E
77
29
0F
71
0A
72
76
7C
57
5F
52
50
77
6E
75
76
76
0E
79
05
19
7A
6B
5D
02
07
03
7C
03
06
18
13
09
60
5D
71
4B
5B
4F
6D
7D
7A
68
7F
08
23
10
1B
08
6E
72
64
00
05
6B
6C
0B
1D
1B
16
0B
7F
02
76
6A
61
62
72
6B
66
76
03
14
0A
13
16
6C
01
01
47
07
12
6F
68
6A
10
1D
1C
02
0C
07
7C
7E
5E
69
06
74
07
18
13
0A
0F
12
0C
62
66
1D
78
07
71
7A
12
4B
04
04
05
13
19
08
1A
12
72
69
07
7B
0E
22
2F
1D
08
7F
79
72
78
07
6D
72
79
03
23
60
0F
0D
77
77
16
01
1B
13
7E
7D
0D
7A
13
08
7F
13
7E
75
6E
67
67
0B
70
14
79
10
13
05
00
71
00
6A
71
0A
0E
21
16
03
0B
79
04
78
79
7E
05
61
7F
71
79
12
0E
03
76
7D
7B
6A
63
7D
6A
76
6B
7D
0B
0E
1B
09
0C
02
13
76
7E
00
0D
72
7A
73
7A
06
3B
71
78
78
76
74
68
7F
09
05
77
0C
0C
06
0E
0D
01
1A
0E
7E
07
70
7F
07
7D
04
74
17
18
74
12
7C
01
50
7C
0D
06
0C
75
15
00
7A
70
03
7A
13
6D
77
04
03
6B
7E
73
62
64
7E
65
0A
7A
10
14
01
20
34
09
0A
03
19
7C
00
66
5F
7F
01
0C
22
75
6F
00
75
0D
7E
7B
74
05
78
73
77
61
23
17
13
02
0C
16
1E
66
0C
09
7F
04
6D
7E
61
0B
20
1A
11
09
0F
7A
12
7F
13
6E
70
0E
0D
07
79
1B
77
00
06
67
69
5D
72
7D
03
1A
74
7A
2E
01
0E
25
7E
78
07
7A
09
6F
03
0D
7D
1D
28
1B
02
06
03
23
1D
0E
26
17
02
0A
3A
11
20
29
1D
13
28
08
10
0A
74

