10
70
74
0F
70
73
78
7A
6F
0F
7E
09
6F
7B
7F
0D
00
6E
78
07
7F
7E
77
11
6F
6F
0F
70
7A
00
0E
06
79
71
78
72
78
76
67
73
6D
7F
0A
0F
34
12
70
6C
73
79
60
77
79
04
6E
73
7E
72
7C
0E
74
07
13
04
19
0D
05
6A
73
70
0F
0D
07
03
0E
56
6A
5F
6D
0F
12
7C
0D
6F
6F
01
79
0B
10
6A
06
6A
54
77
73
73
74
17
76
0C
01
6D
6E
09
5F
0C
08
13
00
6D
79
72
79
11
18
66
02
7D
01
65
7D
05
05
0A
03
11
10
7F
12
10
07
17
10
0B
05
0C
18
18
7E
73
7B
04
03
6A
7B
5E
70
00
0A
07
70
11
0D
09
07
76
00
01
08
70
74
0C
74
02
0A
1E
0C
65
11
79
07
03
11
05
60
7B
03
0A
7E
7B
1A
03
0B
78
7B
08
73
72
0D
74
19
0E
7F
13
0E
05
72
16
7A
7E
1B
09
7D
02
05
1C
10
0B
17
0F
62
0A
77
0B
0C
73
71
7F
17
0E
7C
6B
7F
06
76
13
06
16
7F
08
11
26
02
18
0F
73
0C
75
74
7B
06
0A
07
0C
7C
64
10
03
7B
7C
7F
07
71
1A
1D
0C
06
75
1B
16
7E
14
7C
0A
04
02
00
04
1B
08
0E
7B
77
7B
77
16
0C
76
00
72
04
12
12
04
00
1A
18
78
1A
06
06
01
72
6E
07
00
7E
08
02
0A
71
0B
04
16
12
5F
08
70
74
06
75
20
0E
1A
11
24
1F
03
03
03
08
7E
7C
0E
09
68
7E
6F
6B
12
0A
7D
1D
00
12
12
71
7B
11
2B
79
0B
76
0D
71
6D
78
6B
7E
0F
71
19
7E
10
60
78
0D
04
0B
1A
23
15
00
24
76
79
7F
1F
6C
74
7C
6D
7B
70
6A
01
08
06
0D
08
7E
00
03
6E
01
25
27
12
06
17
0C
14
0D
7C
6F
73
68
7D
13
75
0A
73
08
7C
77
13
04
16
71
06
73
71
73
07
78
06
09
26
0B
0F
08
69
70
15
65
0D
7F
14
07
7E
03
03
18
28
2B
11
16
0A
73
75
64
19
74
7C
65
1D
18
0D
13
6D
75
07
5E
6D
0E
6F
14
77
13
15
1F
24
2D
1E
21
73
71
63
05
11
78
79
01
1D
00
79
03
72
6D
68
7F
75
0F
63
7F
0B
14
0D
17
1E
0D
14
14
7E
63
5F
02
06
08
07
7F
10
13
10
02
7F
0A
7B
04
6C
06
70
73
04
75
02
17
23
11
7C
6D
73
7A
76
08
15
0A
09
11
05
15
1B
05
6A
71
6E
04
79
61
01
03
0E
7D
73
74
6C
6E
6E
74
02
03
04
7E
79
02
76
79
7D
1F
18
77
72
01
78
0D
7E
7B
7D
7C
75
14
71
0C
78
71
6D
70
02
0C
0E
05
05
73
01
78
06
15
11
72
14
62
70
03
78
0E
11
01
0F
02
02
0B
08
7E
07
66
08
6A
7C
03
09
10
7C
60
6D
34
6E
79
00
0F
69
17
19
01
10
6B
16
08
21
07
0B
70
6E
70
7E
78
7E
74
07
01
63
66
01
33
07
77
06
79
6A
14
6C
64
68
6E
6A
71
6F
18
17
05
7B
74
6B
75
20
07
14
24
65
48
6C
64
10
74
71
0B
57
74
75
6B
52
62
72
7C
01
00
13
73
0C
6F
73
6A
77
10
7A
73
5B
5C
18
7E
73
07
01
58
03
14
7B
72
71
58
63
76
7F
69
79
09
0A
7E
6B
76
5E
6A
78
59
66
6D
13
1A
7B
04
78
6D
69
03
0E
7A
09
10
0E
6A
70
1C
21
6B
6A
70
69
77
6E
67
61
70
7F
7D
7C
7D
7D
7B
75
10
00
10
0B
7E
7A
79
0A
72
6A
79
0A
64
7D
7A
0B
7A
72
7A
0C
08
16
7D
0B
6E
71

