7F
09
74
6E
0C
77
7D
7E
0A
05
7D
04
02
16
01
77
11
7F
70
06
00
0E
07
0C
75
0C
78
7A
10
6F
0B
02
07
0C
01
78
02
04
18
11
14
1D
1F
13
7D
22
0D
21
19
05
17
0E
79
0E
75
74
7B
10
09
03
27
0F
20
14
77
6E
79
7D
62
0A
63
6C
19
77
13
11
7A
11
0A
28
7F
76
03
07
05
7E
75
1F
28
7C
00
77
03
79
18
7E
0A
03
78
0F
6F
03
26
0E
06
72
01
08
08
69
7C
6F
74
09
07
15
7F
6C
52
06
0D
7B
0B
0E
77
78
14
19
00
05
13
06
04
74
61
05
08
0E
04
7D
73
78
0A
70
01
7D
64
7B
08
7F
03
00
7C
11
06
0C
0D
00
7E
0C
10
7A
7A
74
72
0D
27
05
0F
7A
67
6F
76
73
79
09
10
7C
15
7A
08
00
18
0C
19
02
72
01
1A
02
6B
7E
0E
19
02
6D
7A
70
4F
79
0D
02
67
0D
0F
7C
18
73
09
74
0C
2A
7C
7E
7F
13
07
0F
7C
7B
01
7E
07
11
0C
73
07
06
04
02
01
73
74
17
77
78
7E
05
11
79
13
0A
13
1E
7A
12
78
05
1A
0C
03
09
78
7F
78
75
79
64
08
15
05
78
0C
71
78
7E
03
7B
76
07
77
04
07
72
68
13
01
17
1C
6B
75
7B
6B
78
07
5C
6B
07
04
0F
15
7D
7D
7E
79
72
7E
65
71
68
09
08
0C
24
12
00
78
5B
0E
06
61
6B
7F
64
75
05
75
02
72
77
70
21
29
0C
00
79
72
00
6D
77
7B
25
2A
23
32
67
71
72
6F
7E
1C
0F
0C
6E
03
00
05
78
01
22
22
22
05
7E
71
09
09
10
7F
18
21
73
05
69
7D
08
59
7B
1C
04
7D
73
06
0D
10
0D
17
0F
06
1A
12
77
73
7E
77
71
0D
7E
76
6C
68
7B
16
6D
73
70
7A
0A
11
0D
7A
0F
7A
1E
7B
17
09
17
7D
73
74
70
04
0D
63
76
65
05
58
69
78
01
6A
59
03
17
13
08
1A
77
10
02
0C
0B
10
08
7C
70
10
7D
07
6E
78
7F
02
06
60
72
6F
0D
0B
7D
03
25
02
6B
0A
0D
76
05
7E
09
71
7E
6D
03
7E
77
65
58
07
05
6C
7F
48
0C
78
04
76
19
61
20
06
22
18
12
08
71
0F
0C
00
70
0E
72
6A
04
08
71
68
7A
12
61
73
06
22
0C
6F
0C
6C
06
13
07
13
19
17
0C
01
7C
0E
71
7C
05
6A
73
11
72
76
0C
72
79
4A
6A
02
1A
0D
06
66
05
14
0D
0E
14
0B
0B
79
79
10
06
7E
78
10
02
02
12
70
1E
18
7D
7C
67
11
25
00
71
6A
71
10
04
7F
02
12
76
07
1A
0E
17
6A
06
04
1B
1E
1C
13
08
0B
1A
75
6E
07
69
7C
19
13
67
05
10
66
75
7A
7B
73
04
05
16
74
12
7F
0A
11
01
77
61
07
08
79
73
7C
0C
78
0F
7A
76
00
6E
69
66
78
78
7F
1A
12
01
1D
0F
02
16
05
16
00
62
63
0A
79
04
7C
10
16
0E
7D
01
7A
76
00
78
06
7F
09
1A
7B
1C
24
0F
23
0D
7C
08
1B
0C
70
77
5B
05
0D
74
06
1F
69
6C
01
02
1A
7F
21
05
1E
1D
71
17
22
05
1F
10
07
73
09
07
62
6B
75
75
7F
0A
0B
6C
4C
71
01
01
77
04
0F
0B
12
01
10
74
7C
18
15
24
1F
16
7D
31
0B
0A
7B
7C
07
6E
10
06
11
16
0A
76
02
0F
01
0A
10
78
11
75
7A
11
23
0B
34
7E
72
0A
0F
0B
08
7F
07
0D
03
77
6D
5A
0A
05
71
04
78
09
7E
0A
06
1C
6F
68
7F
6D
76
78
55
6E
6F
11
7C
7D

