4F
0E
2F
DF
09
C8
34
16
07
EA
1F
14
02
C6
1E
E1
21
2B
02
DA
E8
EF
20
CC
16
43
F6
2B
2C
16
14
00
2C
17
17
27
F1
F8
D7
EF
EF
F0
3F
0B
F4
1B
14
26
DD
D0
D3
1B
13
00
E3
28
19
F8
F1
14
38
12
07
DA
77
D3
2B
24
EC
04
EB
EF
21
1E
F6
1F
EF
42
16
E1
41
15
22
15
D5
17
1E
EF
FC
1F
26
CC
05
F8
14
0A
3A
DA
F9
20
0E
3A
BD
C1
39
17
16
17
2F
E5
FF
E3
01
FC
EF
19
EC
D4
0C
08
34
FD
AF
00
F3
03
E1
28

