EE
1D
06
03
00
36
FF
E7
F6
FA
ED
15
21
FE
14
3B
25
1C
33
1A
1A
12
04
E4
29
1B
EC
E9
E1
20
B4
05
15
32
F2
0D
BE
21
28
04
FC
DD
11
FD
25
DF
CC
1F
06
02
E7
DB
ED
D7
15
FB
1D
04
E2
35
DD
09
C8
FB
27
09
E6
E2
04
40
D1
25
F0
04
FE
1B
1E
F4
F3
58
B7
18
0A
EA
0A
CB
E0
0D
CD
19
ED
CB
FF
2B
30
EA
0D
12
E1
EE
15
0E
2D
E3
DC
14
1A
EB
07
F4
0F
14
0A
E1
26
E7
E9
00
04
13
0A
4B
1E
46
0A
2A
1D
EE

