F3
10
FD
04
F3
ED
02
FA
FA
0C
F5
EE
F5
EA
07
FA
FF
0E
F4
F1
F4
F0
04
F8
04
F9
F8
08
F0
09
12
FD
0D
06
E4
02
F4
06
06
0D
00
05
E0
E7
F6
FC
F7
EB
DD
E0
E9
F6
01
FB
09
03
09
00
01
FB
E5
05
F9
DD
DA
FE
E7
02
10
F3
F8
06
F7
DD
D5
ED
EA
04
D6
DF
02
03
0F
EE
0B
00
F1
F8
F4
F3
D9
EC
FA
FD
E4
E3
F1
09
1D
10
13
11
FE
D8
ED
F7
EF
F1
FA
FC
F3
08
FF
EE
04
FD
F0
E9
F3
07
EB
F4
E2
F8
EA
F9
F9
0C
0D
10
F6
F1
F8
EA
FE
E4
01
08
DD
11
F9
11
EA
F4
D8
02
FC
F7
E5
F0
F9
0B
16
22
1A
13
18
0C
0B
26
21
FB
F4
F4
DF
EC
E6
09
00
F0
EB
F5
F0
E1
E4
DC
E1
E2
04
03
09
FC
ED
F9
EF
1D
0D
2C
04
0C
03
EA
DA
E7
E7
04
0F
E3
0D
FB
EC
F2
F3
EB
E2
09
F0
00
06
F8
F3
03
04
14
18
14
F8
0E
F7
FF
F7
0B
DE
EA
F6
F1
FE
F8
F9
CE
E2
EC
EB
06
02
FF
EB
F1
FF
FA
FF
FE
1F
26
11
07
F4
1A
F7
FB
F7
FB
F7
06
FF
14
F4
EB
FB
FD
F0
01
07
E1
F6
0F
0A
FC
EB
F7
11
17
2A
1A
EC
0B
0C
EE
05
EC
FB
F2
1E
1F
F4
FF
F5
02
FB
FF
F5
FA
EB
07
16
F5
DB
FD
02
15
0F
20
10
08
ED
DD
FE
F0
06
EE
0A
2D
02
F8
02
07
06
FB
04
F5
FB
FA
08
13
EA
ED
F0
19
19
0A
08
03
1B
08
0E
F0
F6
FB
01
2B
22
17
14
0B
0B
E6
E5
FC
F3
0E
FA
D8
DC
E4
FB
00
14
15
F2
26
1D
16
26
14
12
FF
EE
2E
26
08
00
00
1E
08
F7
FB
09
F3
E7
EE
DC
E6
05
04
FA
0D
0B
00
F4
15
1E
1F
EC
07
E3
10
2E
1C
03
11
17
01
12
0C
D7
DB
F4
F9
03
FB
11
0D
1B
21
0C
FE
09
11
25
1C
F7
EB
DE
18
F7
14
0F
22
1D
30
26
FF
F9
E0
E0
E0
EB
E5
FD
27
0B
00
13
F5
F9
0B
3A
FF
F1
F9
F3
0B
04
06
1D
26
22
2E
11
0E
F5
F9
F6
FC
FA
05
25
05
08
18
F8
F4
F7
20
46
10
F5
F7
05
FD
0E
F2
10
2C
1F
27
FF
FB
08
FF
0D
0E
0A
0E
1A
17
05
09
FE
04
E9
01
09
1B
EF
03
0C
04
1D
F5
26
30
1B
13
E4
D7
EC
FC
EA
EE
EE
FC
FF
12
F9
07
11
11
03
FA
12
1F
FB
2C
05
F7
12
16
21
36
20
10
D8
F1
F2
F2
01
0A
05
11
13
08
0E
21
2E
10
0C
F2
1F
27
F7
1C
08
27
11
18
1A
29
10
F3
DA
F8
03
E9
F8
01
FF
F7
04
F7
0D
15
15
19
02
F1
22
F6
0D
06
05
13
23
21
2A
13
03
E6
E9
E6
D3
EF
EC
F7
F2
04
E8
0A
14
13
24
22
21
F3
D7
F4
F5
ED
FE
1E
15
29
35
24
0C
F0
03
F0
FF
F2
F1
E4
F1
F9
00
02
F5
05
0D
17
FC
06
E3
0B
F0
00
F8
FC
F0
E6
00
16
13
09
F9
F1
FE
F4
F5
DE
DE
EA
DE
F9
05
EA
D4
03
F6
FB
0E
EF
FA
03
F5
FC
ED
E8
02
17
10
0A
FD
17
05
EB
EB
FC
D8
E2
EF
E4
E6
E8
DB
09
E1
F7
15
FD
0E
0A
10
EF
0C
EE
0E
EC
06
13
EA
07
F1
E6
EE
07
00
E5
F9
F5
FC
D8
D9
E5
E3
FB
0D
0A
F7
01
F6
F3
21
2B
1D
FD
15
09
06
FD
00
02
1C
08
04
F8
DC
E6
04
FC
F4
F5
1D
E9
F7
03
02
F1
0D
13
0C
0F
F7
00
0A
EB
FE
07
1C
F3
0B
DE
F9
F2
0A
F9
01
F7
F6
DB
FC
FA
07
03

