EE
09
0E
EF
F9
04
FC
0A
0A
F6
EE
06
12
0E
F4
0E
01
01
FF
01
FD
0D
12
04
EE
0D
FC
F9
F1
05
EE
02
02
FE
02
08
06
F4
E5
FB
E7
FF
E3
D5
00
FE
05
FA
F1
00
0D
E8
EE
F5
ED
F5
F3
F9
0B
EC
0F
EE
07
F6
F0
06
E5
F7
EB
D7
EE
DE
F4
F3
18
E9
08
DB
E5
E9
0E
FC
11
F5
09
F0
05
04
0A
03
F5
0D
F2
F6
E7
FA
06
DC
E8
FC
D2
CC
F8
07
F2
FF
13
FE
0B
25
03
0E
00
0F
EE
10
FD
FB
EE
F9
E0
C8
C7
E8
E8
EE
D7
DB
D9
DD
ED
DC
EB
05
F4
16
18
09
F9
D8
08
F2
E7
F1
1C
14
24
04
04
00
F0
01
FF
07
0D
F6
F5
E8
03
E2
D0
F9
00
FA
0C
26
F7
D5
F3
11
19
0E
13
06
0F
01
00
10
1D
04
10
14
FF
18
06
06
11
03
08
13
20
1A
1A
1A
04
ED
F6
08
24
FD
FF
F6
08
00
12
1D
0D
17
15
1B
19
14
1E
21
32
2E
2E
35
1E
10
0E
0E
FC
F1
10
13
0E
F9
F1
F8
00
07
16
22
23
2A
0A
19
2F
24
0E
1C
28
26
21
28
15
16
F1
02
07
12
FD
FC
15
FC
E9
06
09
01
1B
1B
1E
15
2E
24
11
1F
F7
0D
1E
FC
05
06
22
EE
0E
35
1B
1D
FD
0F
1A
0F
09
07
1C
EB
24
1F
0E
0F
F1
10
FE
E9
EA
EC
EC
FF
EE
E6
07
EC
1F
28
25
13
08
02
0E
08
03
09
05
07
10
FE
E7
F4
D0
C2
CB
E8
E4
EF
F2
DF
F5
FF
04
02
0B
14
0B
02
FD
11
FD
FE
E7
FC
F5
F0
F0
FD
E0
E4
BB
BA
CA
F0
07
F2
00
E0
03
E1
F1
E7
F2
23
F9
FA
E9
F4
FE
E1
C7
D1
E8
EB
E4
DE
E5
E0
CA
D5
F5
0C
FC
0E
02
E9
EC
ED
CA
CB
E9
0B
F5
13
F5
12
12
E5
E3
CA
F2
DF
ED
EC
F9
F1
EA
F3
1C
16
1C
1B
11
12
F8
E1
D4
EE
EE
EB
0C
18
FE
13
04
00
F0
E1
EB
E2
E2
E4
F1
06
F8
F9
12
1E
FB
FA
0C
F1
0B
F5
04
EC
FC
DB
F5
F2
03
FB
07
F3
09
CC
D4
EF
F5
12
FF
00
06
11
F9
1D
20
1D
0F
F3
FC
09
04
E4
E3
E1
F9
F6
F9
02
00
08
08
F1
E0
DE
FE
18
FB
06
10
01
06
13
FE
FA
FF
FB
F5
0D
F8
FF
02
0B
04
00
06
02
0D
FB
FA
E0
EE
FD
12
FD
F4
03
12
17
13
23
08
FE
00
05
14
F4
F2
FA
0B
14
25
FE
F6
F5
FF
F2
24
E9
EF
0A
0B
09
15
F0
06
07
FE
0B
11
0C
EE
FF
05
FA
D3
0B
10
23
F5
E0
FD
14
E9
00
F4
F8
F9
1C
0C
09
F9
FA
F9
F3
F6
08
EB
03
E8
FE
07
DA
D8
06
FC
23
06
0F
FF
04
0E
FE
02
0C
10
F1
0B
EC
FB
F5
FB
F6
FD
E1
EE
00
F7
06
E6
EC
F3
F9
02
EB
C7
10
E9
EE
F5
E5
14
0D
F4
FB
08
EE
F9
06
04
EB
F9
E4
07
0C
EE
EC
FD
F7
F3
14
14
F1
C1
0A
FD
02
ED
E3
10
24
03
0F
F4
EF
FF
0C
03
F8
E2
F7
F1
FC
03
ED
1B
F8
06
0D
F3
EB
E8
10
EF
FD
1A
EB
23
1E
24
21
0C
02
0D
0A
01
04
FD
04
00
E9
F5
18
1C
10
02
0A
02
02
EE
FB
04
06
E5
19
22
16
F4
0C
1B
16
FC
1C
30
F9
FF
1C
17
FB
0A
1D
0C
0B
15
00
0C
F3
FF
EF
10
F5
F1
F9
E1
03
FB
26
24
20
17
F3
EE
13
33
23
12
04
1D
3C
31
0B
E8
08
E1
01
03
F3
F0
F0
0A
08
F9
0E
13
17
06
13
23
F7
F6
FF
05
0B
03
17
0F
07
F3
E6
E0
F7
02
0E
FA
F1

