12
2C
D1
DE
DA
F3
E2
D8
20
D2
0D
E4
C9
F7
2A
EC
F7
03
0D
2D
E7
F3
12
1E
E7
1A
E8
F1
0E
E1
54
E5
E7
FB
22
E9
3F
E6
08
FC
14
F0
EA
FE
F0
1A
2C
C7
2B
31
FE
49
0C
2D
11
00
43
1F
D1
24
EE
E5
D4
20
FF
CD
43
D7
F8
B9
1C
23
0D
11
20
24
22
22
1E
12
1F
1A
EE
11
D9
F0
19
DF
DE
D6
1B
FF
19
FC
16
2C
F8
F9
FE
DB
FA
03
03
11
E0
13
EC
D3
F6
F2
0C
0F
EE
E1
D5
12
E8
02
05
F9
FF
22
E9
E4
1F
31
E7
C0

