11
0C
09
F1
FD
12
09
F0
0D
F2
FF
FC
0D
F3
01
EF
0D
FC
05
07
F2
F8
FE
F8
0F
06
F8
0E
FC
0A
EF
05
F5
FD
00
FF
E6
E9
01
04
E2
FD
ED
F7
EF
F6
FD
F0
06
E9
FC
E4
05
11
F0
0D
07
F9
FE
F8
FF
03
FC
F7
F3
EC
D4
E8
E5
CB
E6
FE
DD
CE
E0
F1
02
E1
06
E2
F9
F6
11
F1
02
FB
03
FE
FD
ED
04
F6
C2
D3
01
FF
C8
CA
D8
F4
D3
DA
EC
24
06
F4
03
1A
FA
E6
E7
FD
F8
0B
F8
EA
F2
E0
EA
D3
E4
08
0F
09
0B
E4
EC
D8
FA
F7
07
38
28
0D
02
F9
E4
F2
F6
E5
EF
03
F9
04
E0
03
DF
F1
FE
1B
3E
35
07
0A
D0
D3
D4
0A
0E
0E
10
FF
FF
07
FC
09
DD
E8
EE
F6
18
0C
03
10
06
ED
17
0A
1D
0B
02
E8
D3
B8
E4
F6
FC
26
13
F7
09
05
03
EA
FA
E2
01
E8
08
12
0A
E3
EA
F4
08
1A
18
10
04
DA
D1
DF
FF
19
0C
27
20
0F
15
1E
07
FC
08
EB
EC
04
FB
01
07
12
FD
0D
09
09
17
16
F6
D4
D7
ED
06
1C
00
05
FE
0F
FC
10
24
29
1A
06
FC
06
F6
E5
02
F9
FB
F5
12
17
1A
18
F9
E6
E2
F7
0A
21
1D
03
0A
FA
01
EF
02
12
F0
05
0C
05
DC
F6
E9
E6
E6
FF
FB
13
15
2D
0A
DA
C9
E7
FE
01
14
F8
E3
DC
ED
F8
1C
14
F8
0F
09
02
F2
F9
E8
0A
EF
13
10
14
20
2E
07
E3
F8
F9
22
FD
FA
05
E9
FA
E7
13
00
F6
FD
12
F9
02
00
F5
F2
10
F9
0F
F6
11
1F
0B
0A
FC
03
1E
03
15
0A
ED
E8
10
0F
15
14
FC
F9
01
05
FB
FF
07
00
08
0D
1A
02
F5
21
19
F5
F3
F5
02
18
16
10
02
13
1C
04
F7
02
F8
D9
F1
FD
FD
E4
F3
28
2B
04
F1
FD
14
0D
FB
0C
05
FF
14
1D
1F
01
14
26
04
0F
13
F0
FC
D8
05
11
FA
FB
23
0A
00
01
F5
E6
FE
FF
FC
0B
FE
0C
0E
09
0E
19
F5
F4
FB
01
F7
CE
D0
F4
F1
1C
F1
E8
FE
0D
F3
08
FB
FE
ED
DF
E5
05
1E
02
04
0E
FF
ED
EF
07
E5
F6
F5
D8
F4
DC
FC
F4
09
E9
08
11
E8
0A
F4
EB
D9
FF
0A
09
EB
DF
F9
12
FF
F0
E5
F4
E8
F7
00
EE
0A
FA
F4
FF
09
02
F4
F1
EF
EE
F5
EE
D8
FB
07
04
D9
F7
DA
07
F1
FB
FC
E5
E9
D9
04
F7
F5
18
F0
0E
0B
EF
F8
ED
DB
D7
F7
E7
E7
09
0E
F0
DF
E8
E9
00
FE
FB
F8
DE
EE
D0
ED
E8
F2
0A
F3
06
F4
ED
FB
E3
DE
DE
DC
08
FD
16
02
E4
D5
F8
DF
F0
EA
15
0D
D5
EE
EF
ED
E7
EF
F4
0B
0A
EC
E5
DE
EA
07
04
E7
02
15
09
04
F6
DF
F7
F9
0C
0E
11
0F
DF
F8
05
0C
01
17
E5
F2
11
0D
D6
EE
F7
0B
07
0D
21
1B
24
F4
F3
F7
FA
F5
F3
06
05
FC
F8
F5
FD
F5
F2
EF
FC
F0
0C
06
ED
F1
F6
FB
F5
1E
20
11
09
03
ED
F0
01
10
0F
F3
09
1F
00
FC
F0
0E
F3
F8
04
05
FE
EE
12
F4
FD
F9
05
0F
11
1C
F5
DC
E5
F6
03
E4
FA
F7
10
04
07
11
01
FF
FB
0E
FB
F6
0A
07
10
14
0E
12
F4
16
1F
03
D4
D9
CC
E4
E0
F6
0C
EF
F9
03
0F
1B
0F
07
F9
F7
FB
F0
07
F8
08
00
32
22
08
29
0F
26
15
EE
FA
ED
F1
ED
F7
EF
FA
DF
E6
F1
00
EF
02
FB
0B
F8
0E
07
F3
F5
0C
08
0D
F3
FA
FC
EB
01
0C
E8
EE
04
10
F7
00
F4
02
F4
FA
11
F8
F2
0A
01

