03
18
06
2C
32
E5
CC
E2
FA
FC
DB
FD
02
00
DC
DD
E0
00
C6
0A
1C
03
35
CB
10
C2
17
EE
F1
F6
DA
07
F9
06
0C
EE
04
C5
07
0A
0D
18
D3
05
37
22
D3
DF
D5
1A
E9
F6
0E
FF
1B
EA
2B
D4
1D
31
C6
F8
CF
21
DD
20
D6
FA
FD
1A
0F
23
E2
DC
40
29
DE
F8
40
12
E0
F7
ED
14
F7
F3
02
F1
FF
0B
F5
08
F2
E3
07
40
38
DB
F4
09
F5
D6
2E
FC
DA
EC
30
E1
1A
32
04
26
19
F1
F9
ED
27
F4
0B
3F
D7
BF
D3
EA
D0
D2
EF
36

