0B
00
7D
76
7D
6F
77
71
02
7B
78
0E
1F
00
03
72
74
04
7B
76
0D
0E
72
02
06
72
06
09
7B
78
76
7B
05
7E
7A
0A
08
15
17
0A
1A
16
02
11
6D
79
7F
07
1A
03
7D
7B
78
0B
70
0F
08
7D
02
6D
71
7E
09
25
74
05
07
7F
09
72
7E
02
1C
0D
16
7A
7A
76
28
32
79
6D
11
0C
0F
0C
05
7D
0B
74
7D
0A
62
0B
78
00
74
69
70
05
7F
7A
73
0C
6C
06
2C
1B
0A
7A
09
0E
0E
0D
7E
72
05
7F
04
0C
7A
01
0F
7F
76
7B
7F
74
75
04
17
05
0B
7F
14
3E
32
12
0A
0B
74
70
6E
66
73
7E
6B
75
09
11
79
04
6F
06
01
74
7A
74
6B
7B
06
0A
14
24
2C
16
04
03
05
73
03
69
6C
7C
69
07
0B
73
73
07
12
07
0B
75
08
1A
7C
7E
08
07
7B
0E
7F
09
7D
10
79
07
05
63
6A
6A
77
79
12
05
0E
7B
11
0C
7E
73
0C
7F
03
03
7E
1A
7B
09
76
5A
04
00
08
66
72
78
04
70
02
78
14
11
1E
7B
7F
07
01
00
7B
6E
68
01
0E
75
64
5C
6F
70
0B
05
0A
7A
07
74
5E
6A
02
71
0A
10
05
0E
75
71
6A
7C
69
6C
59
67
6D
00
75
70
12
5E
04
5B
0C
79
7E
6E
00
61
07
11
04
05
0D
0C
12
6D
68
70
70
5D
69
5D
6B
6B
7A
7C
35
62
6F
68
74
06
65
7E
01
67
0F
23
7E
1C
12
68
7F
7C
6B
04
6F
67
54
54
73
76
12
17
2B
0D
2D
6B
0B
7B
01
0B
6C
73
07
02
7E
12
6E
7D
00
7B
6F
70
04
70
76
63
71
06
11
2E
23
75
0B
5E
7C
07
73
7F
72
06
75
0F
12
09
0E
73
67
5D
63
79
6F
08
12
08
19
29
19
13
17
0D
04
75
77
0A
76
68
6A
08
0F
09
7A
10
0E
74
02
7A
79
13
7D
12
1E
1A
1B
1B
11
0C
0C
12
65
6F
78
07
7A
03
69
09
7A
1C
17
7F
05
7F
7B
03
07
1F
14
0E
11
70
00
07
7E
79
59
0C
74
77
02
6B
06
72
64
06
16
79
7D
7C
6D
06
7B
10
14
15
30
0A
06
68
05
7F
79
78
57
26
06
66
10
7E
6F
73
56
0D
77
6C
69
03
74
1A
0E
1E
14
16
1D
04
70
7C
01
74
7F
05
0A
04
7B
7D
75
68
5F
00
68
7C
09
6B
7A
6A
6B
01
7B
1B
24
05
6A
6C
79
09
72
74
7E
60
09
7C
60
64
0B
6B
14
17
7D
71
00
03
0E
0D
7D
11
03
74
03
72
66
5B
05
73
09
73
04
09
09
74
63
7C
03
6C
17
7E
65
61
75
6B
03
0B
7B
1B
16
06
69
71
7D
05
10
7D
6A
66
76
7A
08
10
7B
7F
02
08
0A
79
04
77
72
76
6A
07
7D
16
10
0D
07
0C
6F
0C
19
0D
71
61
79
77
72
77
0E
00
08
02
04
14
6C
73
6A
68
62
07
79
0F
78
00
7E
19
02
20
0A
71
79
6E
79
70
52
6D
20
12
6E
00
73
7F
0A
6A
79
6D
02
03
03
68
07
09
0D
0D
08
7B
70
0D
75
71
79
6B
5F
7F
01
73
70
0C
72
5F
6A
73
6A
61
5A
73
77
0B
00
0A
13
0D
08
60
01
6E
10
6E
71
6A
75
73
6F
08
02
08
7F
74
6D
54
54
63
4D
53
0A
5C
5B
02
0F
02
79
0E
78
62
6A
77
71
71
7E
7D
03
7D
6F
6F
0F
7C
78
6B
5E
7E
6E
65
63
75
75
71
00
5A
77
18
11
74
71
7A
05
7B
15
73
09
73
04
03
09
07
09
77
7F
12
78
6E
63
70
07
03
70
65
02
7B
06
6B
7D
76
65
02
7F
0F
77
0B

