FF
04
F2
0F
02
F0
FA
FD
F3
11
06
F6
06
11
F9
FB
13
06
0C
F6
0B
F2
09
FF
FF
0D
F5
F1
FF
00
06
0E
11
05
07
1D
0C
FD
0A
24
2D
15
04
07
20
0E
19
27
0A
24
15
12
0E
05
FA
08
06
FD
FB
07
1C
F7
FD
01
05
25
18
0A
02
0A
E7
17
31
14
09
08
12
1A
46
37
1F
03
F9
FF
09
FD
F9
1D
29
00
33
31
FC
FA
EE
F8
CD
EB
EC
E8
EF
EB
1E
14
23
3E
19
25
08
05
FA
03
11
EE
F0
F8
FE
FB
2B
17
F0
DB
FC
C8
A9
BE
B6
C9
19
32
07
02
13
0C
04
18
FC
E5
FD
12
0B
10
07
E8
0E
00
29
09
02
EE
DA
BC
B1
AB
E1
00
0F
15
0D
0B
FC
17
EB
E1
03
01
28
26
FA
ED
07
13
17
08
13
17
F9
E7
C4
BB
B5
E7
F5
16
17
10
09
F7
1F
01
1B
EB
01
FB
07
1C
0F
DF
0A
FA
FB
0E
1B
22
E9
D0
C9
B2
C6
FE
03
0B
EA
FF
11
FA
1E
01
F8
0B
F8
1E
FB
23
F1
F7
EE
11
FC
11
16
01
EB
EA
BB
C2
E9
13
10
F3
F4
F0
F6
07
01
08
F0
F4
DC
E2
EA
00
F1
1A
01
F1
FF
EC
1F
F3
E3
D3
E0
CB
F5
17
0E
07
F7
E6
DD
03
0F
FB
D9
F4
F9
DD
CB
FF
0E
11
0B
09
F4
F7
F4
05
EC
E7
BE
FA
09
19
18
14
F6
FD
DA
F6
07
00
0A
FB
D4
DB
E0
F0
0A
1D
13
26
25
1D
0C
01
E8
F6
E0
09
24
1D
22
09
DA
C6
CB
F3
15
2A
1B
DC
C1
BE
F4
08
12
10
16
3D
2C
26
18
16
21
12
F8
0E
13
1F
15
E7
F3
D6
E6
07
12
09
28
11
CF
E9
02
13
E7
FB
27
1E
2E
13
FB
EE
00
FB
0E
17
31
13
F6
F9
F4
E8
F6
F2
1C
0A
26
19
E7
DB
FC
09
FB
07
0D
09
15
FC
E1
FB
14
01
F9
F9
28
22
E8
08
E4
EA
F0
00
27
2B
17
03
D7
DC
F4
F8
10
F2
08
FE
FA
D5
F2
13
0B
E7
09
FA
15
09
02
F7
F0
06
06
F6
2E
12
16
06
FE
E1
EA
E9
13
F3
EA
21
FC
DB
D6
F8
17
2A
05
F2
0B
DC
0E
1D
F2
0A
EF
06
03
02
0F
F6
EE
06
F8
07
0D
FE
FA
17
0B
EE
F5
0D
1A
25
17
F1
E2
E9
0D
13
01
12
FE
1B
03
01
FF
CD
E3
E3
0E
1E
F4
F8
F2
E4
FE
CF
EF
10
1D
23
E8
EE
D3
EF
FC
0A
24
FC
0C
F8
E3
E0
DA
C9
E1
D9
14
F4
F1
23
0F
E0
F9
FE
04
04
25
20
F8
E9
E6
E5
0D
0F
14
06
E7
F3
F3
FB
FA
D2
E0
D4
EA
06
F1
09
0D
DA
03
04
FB
0F
10
25
11
E8
EF
F1
FA
01
FD
EE
D9
F6
DB
F5
EC
C1
CD
E1
E2
0C
FB
F8
13
F9
E5
03
FF
F9
20
13
13
06
F4
EF
00
FF
FF
FC
DF
CD
D4
F2
DC
D7
CF
F9
1A
08
0E
0D
09
F5
E8
09
17
16
12
18
1C
11
0E
10
05
14
05
F6
C4
C4
CA
EA
E6
D6
FB
FA
09
0C
00
FC
F5
02
DA
EA
08
FC
14
0A
15
20
15
F5
08
EA
D4
E0
F5
FC
F3
08
FB
FB
EC
F2
E6
04
09
F1
09
F0
F9
07
04
F0
04
13
1E
FD
1F
02
EB
C9
0F
1B
22
07
1B
19
07
03
01
0B
08
0D
F8
F3
FF
EC
F1
E7
E2
D6
19
28
25
F8
F5
19
14
D8
07
1A
06
2C
1C
21
12
FD
F2
F3
F5
FC
F5
FA
0C
E3
EE
D9
F8
D0
0B
2B
20
F8
10
FC
CF
F3
23
0E
06
0F
11
07
09
03
0E
0D
FE
05
08
07
03
04
F9
17
07
E2
EF
EC
E3
F0
F7
01
0C
F4
31
1C
02
0D
00
08
0D
08
11
05
FA
FC

