03
0F
0A
74
08
74
74
06
7B
03
03
74
73
71
79
0C
00
7E
0D
05
77
0F
00
73
75
73
07
76
01
7B
02
0C
7A
7D
07
08
6C
7A
75
01
10
0A
58
5C
7D
76
18
6E
09
7F
11
09
10
76
02
71
76
10
09
75
7F
6F
77
74
1C
0D
1B
0D
14
7A
0F
7E
75
6D
6A
66
08
06
0F
6F
0E
7D
0F
0A
75
7E
6F
6F
76
08
02
1D
14
17
18
23
18
79
12
07
16
72
65
78
0B
07
78
77
78
67
00
0D
0B
04
11
15
10
2F
04
1B
1A
7F
1B
7E
78
7E
78
08
6F
63
60
6D
77
07
0E
0C
01
0E
02
07
6E
74
78
09
15
14
75
0A
04
0D
1D
7D
71
7C
05
79
04
05
6B
0B
03
5F
5B
13
0B
01
06
10
00
0D
0E
7F
22
7F
7C
05
79
23
0B
72
70
5E
07
19
03
7B
72
6E
03
67
76
6A
02
7A
0E
19
0C
74
1B
00
7B
08
00
7A
73
73
6A
74
75
05
06
16
7B
09
78
00
65
61
6B
5F
10
14
0D
0F
70
78
1D
66
0B
19
6F
6C
7E
69
70
73
7B
77
7F
03
07
0D
07
6E
66
0E
6C
5B
61
74
79
67
7F
59
75
0C
13
1C
02
74
67
76
7C
67
06
03
18
09
7B
01
04
71
1E
78
69
68
73
5E
7E
0B
04
6A
67
25
12
17
14
7A
0E
00
04
78
0C
7E
6B
7D
74
0A
0E
78
0E
6C
7C
72
65
6C
6A
6B
7F
04
6B
04
73
06
08
7E
07
19
78
7F
71
72
6A
5E
17
1E
13
20
13
61
61
6E
4F
79
59
69
7D
05
78
73
77
7D
7C
73
04
70
7B
03
64
7C
6B
01
17
00
1F
1A
0A
09
7E
12
70
5F
64
54
67
6C
7E
60
05
03
0F
07
14
75
00
64
7E
10
76
10
0F
24
07
0E
0D
07
23
16
7D
68
01
1E
02
7E
5B
05
04
06
0E
05
10
11
7B
09
0B
03
05
15
16
00
17
19
09
08
0D
7B
7E
2B
7A
6A
08
1A
69
09
06
13
0D
7C
7E
70
6F
77
02
0E
73
10
06
17
0A
23
06
0C
00
75
07
31
19
1E
1A
08
21
14
10
0E
14
11
08
01
73
18
05
7E
66
7E
03
0F
14
09
18
06
18
72
16
2F
7D
77
70
7C
18
14
13
7D
00
06
10
74
01
11
0D
7B
03
78
00
1C
11
21
00
12
17
71
52
17
78
7E
12
00
03
22
0B
05
7B
04
78
7B
74
01
0B
03
07
24
1F
13
08
7A
6B
11
7E
03
66
6B
61
7E
7E
74
69
1F
26
31
16
1B
7C
0C
0B
10
0B
7F
11
16
1C
12
1B
09
7E
7B
0E
1E
00
73
0D
0C
02
09
7F
2B
16
0B
00
7F
7F
12
7C
13
0C
0F
28
14
0C
13
12
7F
01
0F
79
03
7D
7D
7B
6F
04
0C
25
0E
0F
7C
08
16
1E
00
76
6E
07
23
13
7C
0E
65
6F
04
07
74
7F
73
75
6D
5F
71
7D
72
12
12
79
07
62
79
6E
01
6E
08
73
7B
02
02
7F
04
69
00
6B
08
12
04
73
70
68
01
75
09
0C
1C
6F
62
74
71
6C
71
6C
00
6D
76
6F
07
6A
7D
14
7F
04
15
0E
02
15
7F
08
0C
05
7C
05
29
0D
0D
23
0E
7E
0B
08
78
6C
7E
00
65
7D
76
77
75
11
14
0F
06
78
09
7D
7B
0A
08
25
76
7D
19
10
07
13
78
14
79
6F
6E
75
70
02
71
74
09
0B
08
78
66
62
14
07
7C
76
0D
78
00
02
26
24
17
7E
01
13
04
6C
10
11
06
7A
72
70
00
78
79
7E
77
0A
68
78
7C
12
12
12
70
71
63
11
12
02
71
67
13
14
01
12
2C
73
00
0A
06
7B
00
7E
60
01
08
75
05

