03
E7
26
21
1B
00
21
DF
EE
FD
08
1D
0F
0F
FB
CA
1A
39
D7
1A
26
44
23
09
11
15
F1
F7
EE
1A
37
29
13
FE
07
D8
EB
D0
E6
D2
0E
03
01
09
F4
1D
EE
E8
EB
32
29
0B
1C
09
D4
15
F3
D3
F0
1E
0E
2C
44
25
DC
F8
36
D5
51
BD
DB
EC
F8
0C
1D
1C
0E
18
22
08
15
33
EF
FF
21
F4
15
ED
D0
FF
00
0F
0D
F4
E2
B9
D3
DC
D7
11
E9
0A
F4
E8
F8
28
DB
F6
C6
1A
F4
22
F0
FA
C3
1D
29
0E
EF
E8
F0
27
11
F9
EC
FB
F4
A6

