03
7B
7A
00
11
76
6E
79
04
7B
12
0E
7B
08
04
72
09
7E
74
7F
7C
73
12
08
07
10
77
02
70
7A
7F
10
0A
6F
7C
0E
74
6F
76
6F
76
77
29
21
06
79
65
71
77
78
7F
04
70
05
0B
0B
76
6D
79
05
07
0C
0B
7D
76
11
13
02
19
13
01
2B
22
05
14
1E
1F
10
74
04
0E
09
73
0D
01
12
71
79
00
09
7A
74
02
7C
16
77
15
12
07
26
12
04
14
10
72
48
69
63
7E
11
6D
06
7D
7C
17
00
75
73
76
71
01
18
14
20
04
13
12
0D
22
09
02
12
0E
59
72
58
69
11
7A
75
6F
70
11
00
73
0F
26
78
78
06
22
18
71
7B
78
05
79
6C
0E
03
75
06
1B
11
7B
66
55
5F
7A
00
01
11
03
05
71
7A
7A
60
6F
03
73
7C
02
79
16
16
17
7A
09
78
7C
16
14
0A
10
5E
08
25
79
6C
09
08
68
7B
7D
75
06
01
0E
6D
20
7C
17
10
1E
19
7B
00
7F
15
57
03
73
5E
7C
18
62
0F
15
71
78
66
0A
01
78
0F
68
7C
0E
08
09
0B
02
14
03
75
08
20
5D
79
02
00
09
02
0B
0A
0E
04
06
06
7C
11
6E
7A
78
5E
6B
74
03
7C
03
70
62
6D
7D
7D
71
0C
7C
7C
0E
0C
20
28
13
14
6A
6E
06
5E
5F
6A
77
62
6A
0C
03
14
7E
1C
60
71
07
76
6F
7D
0C
1E
71
17
18
0F
05
05
71
56
41
53
66
6A
5D
50
7E
0F
0C
08
1A
06
63
54
64
60
4D
6A
62
0B
01
70
0F
75
01
63
5B
4C
5F
4E
5E
7D
63
5E
7C
1D
07
79
0D
6A
63
70
64
6A
72
0A
70
7B
03
00
68
0A
12
5A
6F
76
6F
7A
70
7E
71
7A
0F
0E
1B
17
06
6A
65
6F
6B
05
09
1F
04
13
09
71
10
1C
12
68
7F
74
78
76
79
6A
76
6C
1B
18
1E
7D
7B
7A
6D
65
74
0E
0D
12
0C
7B
11
69
1F
1B
6A
72
7D
7D
64
0F
72
04
01
6F
0F
06
14
0A
6C
79
6A
7B
75
73
21
09
1F
0B
7D
0A
35
00
01
05
02
7C
0B
7D
71
75
6C
72
00
14
18
66
6F
6B
75
00
0C
72
1A
04
01
15
79
78
21
01
0B
79
29
0E
1A
08
05
7A
68
06
18
1B
05
6B
06
6D
01
68
7E
79
1D
31
16
12
10
09
19
1C
0C
12
0F
7D
0D
1A
18
75
72
01
02
20
16
03
7C
7A
7B
6F
76
00
11
20
05
14
10
04
00
1C
0C
12
0D
0E
07
1A
7B
12
7F
7E
14
13
10
00
10
01
04
7A
77
16
13
2F
15
08
6F
78
71
1E
10
18
22
00
10
15
0A
14
19
0D
10
04
1E
0D
0D
1A
7F
74
00
26
30
38
1E
10
02
02
11
27
10
17
16
1D
07
7F
13
00
72
13
01
1B
14
10
1F
18
00
02
72
28
2E
14
5C
6E
77
72
7A
7E
22
2C
7E
72
18
7D
05
62
7D
7C
6B
04
7B
1E
0F
2D
2C
16
65
2D
33
14
6E
74
76
07
16
05
02
0D
77
6A
07
71
6E
7F
09
6D
02
0D
78
7D
7C
7F
75
0E
6A
15
30
29
24
72
06
7A
0A
0B
15
6B
7A
62
7F
79
11
76
77
62
6F
6D
4B
64
06
72
06
1F
14
7B
13
0A
11
04
6E
7E
03
77
7A
7D
71
7E
23
25
70
6C
1E
14
10
71
6B
5B
59
75
09
05
1C
79
04
05
14
7B
75
07
0C
75
0A
73
0D
13
12
10
17
09
5A
64
6D
1D
71
7A
6E
01
70
76
09
0C
6D
70
06
7E
11
76
72
12
78
13
70
0C
01
6E
7B
5A
7A
7B
1A
0C
79
08
07
0B
08
12
6F
71
7F
7D
73
7B

