07
12
08
73
00
7F
0B
7D
7B
71
0B
71
03
79
14
09
6E
12
75
73
0B
07
00
78
0E
72
7F
70
04
72
0B
77
6F
6F
6A
6C
74
01
70
53
52
5B
75
5A
70
78
66
5A
5F
6F
7A
76
04
75
7E
00
7B
13
79
6F
72
75
5E
63
05
11
7B
6A
07
0E
1A
1C
0E
1A
7D
0D
11
02
5C
4E
79
04
01
01
7E
6F
0C
56
78
0E
60
71
72
7D
05
0E
0A
76
08
6E
0B
07
07
04
7B
02
74
44
7D
09
69
0D
05
0C
74
03
72
1C
1D
09
1C
08
1C
1A
14
13
18
76
67
54
7B
75
01
06
79
50
10
00
06
77
71
01
78
04
05
23
2A
21
07
19
7E
01
06
18
6A
17
7E
5F
02
62
01
70
6B
18
12
6D
7C
78
10
05
7A
23
28
08
33
19
7E
04
7A
7B
0A
6C
0C
77
7C
6F
73
02
7F
72
74
04
15
79
25
06
72
0A
00
0E
2C
2A
1A
05
67
65
76
07
08
77
0B
7B
71
65
0E
06
11
17
09
0A
14
0F
1B
71
02
0E
18
25
1C
78
7F
50
54
51
5B
78
6F
12
0C
04
63
69
00
0B
18
08
15
10
2E
3C
1F
13
79
6C
21
35
00
55
53
74
4D
70
7D
73
09
00
0C
7B
51
02
16
08
17
7D
09
74
0F
25
7F
10
0C
74
75
29
5B
52
56
5E
6C
6C
01
01
10
71
7B
78
63
7C
74
15
08
6D
09
70
10
2E
1A
0B
00
7A
6B
51
58
58
74
69
6A
5D
73
73
08
76
6F
5D
7A
69
6C
7D
11
7A
72
6A
72
75
63
69
75
08
09
5E
6D
6D
04
7D
11
0D
14
04
74
7E
13
7E
68
7E
6F
0B
71
7C
6D
6C
5A
15
6A
60
03
05
7B
63
6F
71
7D
10
1B
06
12
00
1B
7D
14
73
66
79
77
70
7F
74
65
6D
0D
6D
03
13
02
7D
7B
76
0F
07
18
34
0A
1A
7D
07
03
0C
0C
19
7D
0B
03
7E
6D
5E
54
63
10
09
27
26
66
7E
05
1E
2E
24
23
06
20
11
1C
02
1F
16
24
15
23
0D
7B
78
77
7D
65
5E
7B
10
2C
02
7E
11
21
78
26
12
1A
21
13
0B
04
1C
0E
1A
1B
14
15
0A
0D
00
77
12
07
6E
10
77
32
20
71
05
24
1B
26
14
0E
7A
0D
7B
0D
05
0E
08
17
07
10
7E
15
07
0D
20
76
77
62
1F
26
05
23
7B
7C
29
1C
0A
74
05
04
03
68
65
63
69
18
0A
1B
05
02
1B
0C
2A
0A
13
0D
13
0D
1F
0D
68
05
0A
02
1B
6F
69
6B
75
5F
55
4E
7A
21
10
17
05
1D
1D
14
1A
0C
1B
27
31
2B
09
7F
7D
7C
0B
74
08
70
6E
5D
61
4B
65
58
72
04
11
07
10
22
7A
0E
1C
28
2A
27
24
20
08
08
01
0B
07
76
05
70
62
71
5F
66
6F
6E
6F
70
02
0B
67
19
0C
08
10
1B
23
38
1C
6F
07
79
08
1B
0E
18
71
7F
6F
78
73
0A
74
79
7A
62
6D
6D
61
78
77
21
7D
07
2F
18
08
74
7E
12
7A
08
0E
34
7E
68
74
6A
60
7B
0A
0B
0B
01
70
70
50
53
6C
73
06
73
03
0A
06
16
09
79
07
05
14
2B
1B
02
7D
7D
71
14
07
73
7F
0D
78
55
64
7E
6B
7C
05
7A
1A
05
04
15
10
12
78
03
69
16
36
35
31
1E
66
7D
71
7A
06
03
75
6F
01
6D
66
67
7B
7E
62
5F
16
11
07
09
0A
13
0B
1C
03
18
25
6B
7D
76
01
16
1C
09
11
7D
10
61
70
06
7B
79
0F
12
75
0A
01
12
08
07
79
7C
03
74
07
7F
11
20
21
02
18
06
09
6E
73
18
12
73
05
65
7A
02
75
0B
01

