11
06
F0
0F
13
F2
08
FD
10
0E
EF
F9
02
02
0D
F9
0C
0D
ED
EE
07
FC
0F
FB
05
F0
F5
F8
0E
F3
F2
FA
0A
10
08
EE
EE
10
F0
0A
0F
06
1E
ED
F8
F9
F8
FA
FD
0C
0A
EC
ED
FF
04
02
0A
02
F6
0A
EA
F8
E9
F0
07
08
13
F3
EF
F0
C7
EA
EF
D6
D3
D2
C8
CF
ED
01
09
09
F2
02
FA
F8
F8
F8
F9
F4
F0
FB
20
ED
00
02
F9
F7
EF
D6
D5
E1
B8
AD
D7
BB
CE
12
F1
FD
F3
02
FE
0A
00
0F
25
01
16
18
12
14
10
16
13
16
0A
FC
F1
F5
CA
D4
D7
ED
E1
BF
FB
E8
ED
0C
10
00
EA
06
0D
1D
1E
1C
15
0E
01
F8
1B
12
02
0D
10
F1
DB
E9
DB
F0
F1
D6
FF
FB
F1
FA
FB
0A
FC
22
12
F7
16
0B
FB
04
0A
FA
EB
F8
13
F9
01
0D
F7
D0
E9
DE
DB
E6
E5
FA
F2
F5
04
1A
F2
22
17
F8
0D
02
0A
E6
FA
E0
EE
FC
04
11
20
03
F7
DA
D7
B2
C6
DB
E0
E7
FE
07
00
EC
FF
FC
2A
FA
02
E5
EF
D8
F4
E9
EB
0B
04
34
19
16
0D
E6
B9
B3
C8
D1
E0
DD
E5
0F
FC
E3
DE
E8
16
27
FD
FD
EA
F3
D6
EE
12
06
24
3A
52
3A
02
C3
B0
C5
C4
EA
EF
DC
F6
E7
0C
EE
04
1B
09
0A
0C
F4
E7
DB
F8
E9
02
0A
1E
4B
4A
3A
F0
CB
A7
C2
C6
E8
D6
05
06
EC
FF
F7
F2
36
18
03
05
0F
E9
F7
17
1A
18
29
1E
13
17
01
EE
CD
CD
AB
D2
FB
D7
FD
F3
FB
FF
E9
FF
0F
FD
FC
FB
FC
F9
0F
0F
0B
00
1A
28
FD
02
0A
FB
EA
EA
C2
E0
E2
2C
0E
FF
F6
0E
E9
FD
2C
0A
E9
02
0E
1B
14
15
09
FF
13
01
F8
00
11
EF
DE
E3
E5
0B
FB
1A
18
0F
14
EB
06
EC
22
15
13
FB
FE
04
0A
FE
EF
F3
15
FD
08
0C
04
DF
F3
E6
0C
2D
20
17
27
19
00
FA
07
05
0C
16
13
FB
EE
02
0E
EB
EF
ED
09
2A
27
15
01
EE
06
FC
0C
12
13
15
24
2C
F8
13
02
15
03
D9
D3
F3
07
10
03
F2
10
FE
0A
09
12
14
F9
F8
FD
01
02
14
25
2F
1A
4F
24
05
FE
0E
FF
03
DD
E1
03
F1
07
EE
00
02
06
F6
FC
EF
0B
0A
02
09
09
11
0E
15
11
15
1A
EE
03
16
01
09
FD
F2
FD
04
F0
11
F9
ED
04
E3
F8
F9
0A
03
FC
FE
03
09
FB
11
19
09
24
11
04
E4
07
FE
FD
E8
FE
F1
03
02
EF
EA
E7
E8
F1
EB
FB
00
0A
19
00
0E
EF
11
09
09
FB
04
0C
FC
00
F4
F2
FE
08
FB
1E
11
0B
EA
E4
00
F1
05
06
0B
02
25
F8
EB
EE
0C
08
15
F9
0F
0B
26
F4
F2
F0
F8
FA
16
0B
09
EA
F1
DE
FC
F9
0F
0E
14
04
F3
FF
EB
FC
EE
0C
20
0A
FE
F7
48
0F
0A
03
06
06
FC
F7
F6
E2
E8
06
03
01
00
0B
18
06
04
F4
0D
F6
03
11
02
0A
F3
F5
FE
34
0D
F6
F2
0F
FE
18
FC
FA
F1
03
05
0A
06
00
1F
0E
18
28
18
F3
F8
F8
12
07
F8
F5
08
1C
08
19
F4
EF
0D
0A
0D
F2
E1
08
EA
F1
05
F5
19
12
0D
32
17
07
E3
03
0B
FD
FE
08
00
F7
27
1E
09
27
11
FD
EA
E1
EA
EA
07
DF
F3
00
03
FB
10
03
02
F8
F1
FF
FE
00
0E
10
FB
F6
F8
E3
DB
FB
ED
0D
D9
D5
D9
DB
F9
F0
D5
09
02
E1
F1
E8
08
F4
F1
01
F2
0E
F7
11
01
0C
12
08
04
07
EE
F7
EA
DE
F3
E2
0C
25
19
EB
F4
01
E9
14
FB
F6
F3
FA
05
0E

