0C
F6
F2
FF
01
F2
05
F2
FE
FE
11
05
08
04
F1
06
F5
12
0A
09
09
04
F9
F9
0A
F4
08
0C
0F
F1
0F
0C
06
0F
F8
E5
FE
F6
F2
F1
04
F7
F5
FA
F0
F5
F7
E2
F4
FA
F4
DF
FD
F5
F0
F8
F0
F5
03
0A
E7
FF
F3
F1
EB
FA
D8
DB
EE
CF
DA
0E
FE
16
11
CB
E8
EE
E9
F3
F1
0D
FB
07
03
12
F7
F0
E6
ED
04
04
EC
CC
EA
EA
E8
EA
FC
0D
21
08
FD
F5
F3
F4
F0
D7
F9
F2
03
0D
02
0A
FB
01
E1
F5
EA
EE
CC
E2
D5
F1
EB
03
01
12
0F
02
01
0B
0F
00
15
F7
21
11
29
04
FD
FD
03
F6
F8
DF
EF
E6
D7
01
03
21
04
E0
E5
FC
07
15
F2
19
0E
05
12
0D
0D
16
00
F5
0E
FB
EB
DE
FB
EA
F3
01
04
0D
14
F8
EA
EE
FC
FC
02
0A
01
FE
10
06
19
2C
1E
10
19
EF
FC
FC
EA
02
02
0C
0A
E7
29
1B
FC
FD
F3
F1
FC
08
FB
EE
F0
E6
08
FE
00
17
09
0C
21
0D
ED
FB
06
13
FD
02
DB
F5
0D
FE
F1
E4
E7
04
F8
12
09
04
F9
EC
FB
02
10
FF
23
3A
15
FE
03
EC
06
FF
F4
03
E7
EB
0C
0D
EB
F6
F1
F1
EE
06
F9
08
F2
04
F3
07
EE
1E
18
2A
18
F8
FB
F0
EE
F6
F9
03
F7
01
10
0B
F9
F5
EB
D4
EB
01
EC
0C
10
03
07
F0
FE
07
FC
01
F3
EE
04
FF
F0
F6
03
0B
F8
0D
16
07
01
FF
00
ED
E7
DD
14
07
0A
0B
F1
EE
EA
E7
08
16
11
FC
EC
02
E8
11
F4
19
15
19
05
01
12
10
06
E5
E9
D1
F6
07
05
1C
15
FE
DB
F1
DD
E1
E2
D1
02
F7
DB
FD
0F
11
1B
06
01
1D
FF
06
10
02
EC
EE
EA
F3
F6
0E
FC
F3
ED
DD
DD
D4
F0
13
FF
F2
E7
0D
0F
0B
22
20
29
01
17
15
0C
F7
07
FC
F2
17
F6
E8
F0
FA
ED
D4
DE
E8
00
00
01
F2
FA
F8
0A
2B
21
1C
11
21
FC
15
18
06
0D
12
10
0C
EE
FA
E3
E9
E2
FA
E7
F0
08
11
0E
F3
E9
0B
07
05
24
09
18
19
F8
09
1E
31
25
06
FF
E2
E9
E4
E0
DE
FB
EE
00
EB
01
0A
00
FD
FE
10
15
F7
22
1F
1F
20
0A
04
1E
2A
22
19
F0
DF
D3
ED
DE
D9
F2
0D
07
ED
FD
07
06
F7
F3
16
EE
06
0A
08
0E
10
01
0F
13
06
F8
13
10
EA
E0
EE
F1
01
F1
12
00
CB
F7
04
0D
08
F1
14
05
F4
F8
FC
03
F6
EB
07
FA
08
ED
1D
03
06
03
10
F1
15
F6
0C
0B
D3
0F
FB
F8
0A
17
EF
F8
20
E9
E6
E0
ED
02
FA
F4
02
07
01
22
FE
14
12
00
18
1A
2C
1C
09
01
FE
01
FB
02
EA
01
EA
F6
E2
D1
DB
E3
08
E5
E3
01
18
1B
FC
F8
02
F6
23
17
2F
2A
0E
E7
FA
F0
F0
02
04
FB
E5
EF
E5
D8
EB
E8
08
04
FB
ED
0D
21
02
15
04
11
35
2D
45
40
02
E6
FB
03
0D
06
FB
16
FB
DB
F6
05
F7
18
EF
EB
F8
FE
0E
12
09
13
1C
1F
3F
44
4F
3A
F4
FF
F5
12
F4
F3
FC
F3
F1
DF
0E
FD
FB
16
20
0C
23
19
0F
18
08
12
34
17
35
23
3B
03
15
E9
F8
EE
07
15
06
EB
EE
0A
03
05
0A
06
F6
F4
0D
01
18
29
12
0B
0B
23
2A
10
22
1D
FF
F7
F0
00
04
F1
FA
0B
F4
16
36
09
E2
F8
F2
16
ED
00
F9
FE
F7
04
EB
FE
04
E1
16
0D
FF
EF
0E
F7
00
EE
01
F7
FB
FD
F9
F9
0A
FF
12
16
F2
EF
12
E2
EB
07
F7
FB
E6
E7
EC
F8
F0
08
EF

