D5
20
FA
1E
E5
FC
F0
08
27
44
15
F0
EE
1B
2E
29
EE
CD
46
F9
E0
F5
DB
00
19
04
DE
FC
F8
FB
E2
C7
DC
10
F8
FE
D6
07
13
EB
15
DC
06
06
E2
11
EB
24
05
1C
5A
CB
01
FF
09
F5
35
19
0D
21
00
18
1C
ED
D8
20
E8
28
E7
04
F8
0A
24
19
E5
29
28
B6
40
1D
C1
E6
E9
FA
07
E0
E7
2C
26
39
17
13
14
05
0B
FB
EE
2E
14
2C
DB
E6
13
1A
B7
15
FF
39
06
F0
33
16
FB
19
65
E7
ED
05
27
F5
DE
06
2B
2F
05
05
28
33

