06
F1
F2
08
FD
F2
FA
09
0D
02
F2
04
05
1D
EB
06
FF
F9
06
0B
F0
FB
FB
F6
F7
FC
F6
F7
FD
05
0D
12
03
07
1D
1D
1A
0A
1E
10
12
2C
0B
26
21
31
1D
1B
1E
11
1C
16
F3
FB
01
F4
06
FD
0C
10
2B
1C
08
16
07
F4
F4
13
06
F5
0E
17
2F
10
0A
11
FD
F4
0E
31
03
F2
F5
F2
FE
08
F9
1F
05
EF
2B
21
08
FD
12
17
F0
F6
0D
14
20
06
17
03
13
26
20
04
E6
E8
FB
0D
03
F2
FD
F2
F2
DE
DB
DD
EE
02
0E
06
0B
F6
F3
0C
06
0D
21
1B
16
FF
DB
EC
F1
DE
0B
FE
01
F4
0D
F7
F0
F0
E2
E9
03
0C
F9
F8
FA
0C
18
EF
17
18
FD
1D
1F
F5
F9
0E
F4
E9
0B
F7
FE
0E
FE
DC
E8
F3
F4
EF
F2
F9
F3
15
0A
0F
F6
08
F2
ED
F3
F5
FF
E4
FA
F6
02
13
FD
EE
FB
FF
09
DE
DA
D7
D3
E4
E3
0B
01
0A
06
E2
02
EC
EB
E4
01
EF
D3
F9
E3
DA
F9
FB
F9
09
F3
01
F2
F4
DD
E7
CE
CD
E9
04
03
03
FE
ED
DA
E7
E8
D2
C8
E1
E6
E9
D0
D4
F5
F4
F4
F3
EF
1E
08
F7
D0
C6
F6
F3
00
EE
07
0A
12
EF
DB
D4
D1
CE
B9
F0
DD
DC
F2
04
F8
F2
F0
E8
0E
12
01
05
D2
EB
F4
F8
F8
05
22
06
08
FE
F1
F2
FE
FF
F2
0F
F9
F4
FA
06
02
FB
F9
E5
F1
11
F2
EB
D9
EF
F2
02
F6
27
02
02
11
E7
03
04
F4
FD
1D
17
00
1A
1A
16
1C
09
0A
F7
F6
F4
ED
F7
CC
E9
FC
1A
13
06
1C
14
08
E0
09
FE
EB
08
21
15
1E
12
1B
06
2F
07
F1
CF
0C
F2
FC
F6
DA
F4
F7
1A
F7
13
1C
18
FD
FF
03
EF
F8
12
FD
2D
08
1B
0A
03
1A
09
DB
E3
12
EB
EA
05
D4
06
FF
FF
09
1C
18
17
0F
F6
FB
F9
F2
0C
18
FE
1F
2E
29
0F
0A
0B
E1
EA
F7
06
04
F5
D3
F7
04
12
FB
08
10
20
0D
03
FA
EB
F1
0E
07
F0
FC
12
09
03
FE
FF
E2
FB
E5
08
EE
0D
F4
18
E5
09
0E
1C
02
13
10
06
14
08
F3
F7
00
F0
EF
F3
F5
FC
08
1A
CF
0B
07
EF
E2
F9
07
E7
DD
F6
11
04
FF
27
0C
00
FD
F2
EB
FE
04
07
03
FC
FB
01
0F
02
E0
EE
09
05
F7
03
10
EB
DD
EF
07
EE
1C
0A
1D
FE
08
F9
F9
F4
EF
ED
03
FF
D9
05
06
05
DD
D6
05
18
F1
12
FC
03
D4
03
F3
03
20
29
0F
F3
13
F5
E8
EA
F7
FD
E9
0A
07
FD
05
F0
E4
DD
01
08
06
17
18
0A
D8
EA
F7
11
1B
0A
03
0F
FC
10
E6
E4
FE
05
F9
F8
1B
09
FB
EA
E9
09
F8
F0
11
F6
09
EF
DC
E2
EE
0D
05
2F
0C
23
12
15
0B
FE
01
FA
F6
F8
17
EA
ED
F8
38
11
0B
07
F7
E2
D9
D4
E4
E2
F2
0C
14
12
09
00
1A
21
FD
0D
F7
08
E4
E6
02
EF
DD
F9
18
FC
EE
01
0E
04
F8
E8
EB
EF
E1
F4
FD
E6
0C
09
09
FD
08
ED
F8
FC
F9
E8
DE
F0
02
00
FB
12
02
F0
00
F8
FA
0B
0C
F2
DB
D7
D7
DA
08
01
F4
03
04
F4
F2
C1
CD
C6
ED
E9
E0
E7
E5
0A
05
F1
F5
03
FD
EA
15
13
E8
D9
15
F4
D7
D3
D9
11
06
ED
D9
E9
F4
FB
F3
13
FE
EC
0A
EE
04
0B
F1
02
EC
FF
FC
E4
E4
04
EB
0B
F0
11
05
24
04
DF
EB
EA
FA
F3
F1
04
00
F9
0C
11
FC
F2
F8
10
FD
F0
F7
0F
0F
18
06
EF
05
F5
E2
E7
DF
ED
00
FB
FB
EA
F1
FB
0C
F6
EE
0E

