F7
EE
0E
EE
FF
FB
09
0F
04
0F
F4
00
19
1E
F3
F2
0A
FE
F9
ED
F2
F5
07
FE
F6
EE
F3
FE
EF
01
EE
02
04
F6
03
1B
04
1B
15
0D
0C
13
12
0E
00
13
FD
1B
21
0C
09
15
FA
11
F8
0D
FC
07
0B
F1
00
FD
15
22
1F
05
15
21
09
FF
28
27
2E
17
13
06
FF
08
1D
1B
F6
EC
04
FD
02
EF
EF
F3
E8
02
F3
08
F1
14
F8
02
F5
FE
06
1B
07
F6
19
FE
E1
08
16
25
07
EE
10
ED
03
EE
F8
E3
01
EF
F7
17
11
2C
10
1B
05
FD
F3
EB
05
11
02
E9
F4
E6
FF
2A
13
1F
00
15
F2
00
0F
00
FF
F5
F3
15
1D
14
0C
24
1C
F4
14
05
01
F9
DE
E3
FD
0D
07
20
28
13
17
08
03
F9
04
FF
F0
E9
F6
06
EE
01
0E
F7
01
1B
0C
0F
E0
CE
DD
F4
F4
E8
05
35
25
0C
05
18
FB
E1
FE
E2
FE
01
EA
F4
05
F6
17
FC
0A
0F
0B
FE
E9
F4
D6
D7
E6
03
FF
0A
34
1A
1C
22
11
E5
FF
0C
00
EA
EB
03
0C
04
FF
1D
0C
0B
10
E8
DE
E0
ED
E9
07
0C
0C
15
25
12
39
EE
11
D5
03
00
F7
EF
F7
15
03
08
FD
01
22
FE
0D
CD
D5
F1
FA
F5
00
19
16
2B
32
22
10
F4
0C
F3
FD
F9
FF
00
03
02
1C
0B
08
F4
20
04
00
D8
D6
E8
F3
F2
F8
F0
02
0E
18
14
F1
E5
08
EB
EA
E6
E4
E9
F0
04
08
0D
FD
0E
14
F0
E5
E9
E6
F8
F8
0A
E5
F8
E2
F3
FD
24
F9
EF
FA
00
F3
F4
F1
07
EC
EF
03
08
13
24
25
13
F5
F4
E7
E6
F0
01
FC
00
F7
E9
05
F3
E4
E3
01
0D
F4
F3
EB
FA
00
FC
08
13
01
08
10
FE
F2
11
EF
EF
06
06
F3
0C
FE
F6
F0
F7
F7
09
F8
03
FB
F8
06
FA
00
07
F8
F5
06
03
06
FE
FC
0F
07
EF
0D
09
F6
04
F6
E3
FE
0D
FE
FD
0B
05
1B
F0
EE
D8
EC
07
05
F1
F9
06
0A
FB
1E
14
EF
01
07
09
00
00
E5
E1
FE
23
FD
0A
E5
FD
05
06
F4
D3
ED
F3
F1
DD
F0
02
18
1F
0B
09
F6
ED
02
FE
19
01
E8
F3
01
43
F0
1E
06
F2
05
E8
F2
D7
F0
E0
EE
F3
DB
13
08
1B
04
17
E6
EB
FB
16
FE
06
F1
13
23
0E
DC
02
E9
FF
F6
F1
E6
E7
DC
04
01
00
F2
FA
08
02
13
FC
E8
FA
FB
06
FC
09
00
0F
13
0C
E4
EC
0F
07
09
05
E8
CF
E1
F5
F0
F5
1E
1A
0B
0F
F5
FB
08
00
1A
F8
00
F2
05
0C
F1
0F
FA
EE
F1
FF
FF
F0
F7
ED
D7
E9
06
08
26
2D
21
05
13
00
FC
03
14
05
FA
E7
04
0D
EB
2C
FE
FC
03
F4
FE
07
FC
02
EC
F7
F5
22
13
19
11
1E
0B
F4
03
FF
04
03
EE
FC
0B
0E
05
23
04
0E
0D
14
FC
F1
F5
FA
EC
01
EA
03
0D
16
21
25
18
F9
0E
17
1E
05
11
0E
05
0F
00
09
1A
F2
EF
F3
FB
F0
F6
0A
F3
ED
EC
E9
03
F6
0A
18
1C
0C
0D
18
06
18
F2
04
13
FC
F1
04
04
F6
03
FE
F5
F4
EA
F6
F0
F0
EF
EA
F3
03
09
12
22
17
12
F9
20
01
03
17
15
06
FA
0D
00
F0
F6
09
20
0C
F8
F6
0F
00
F5
F5
FA
E2
EF
0B
0E
05
F3
03
0F
08
04
F8
FB
1F
0E
15
0A
0B
0B
01
11
F7
0F
EE
D7
E3
E8
F3
ED
08
FA
EF
EA
D8
04
0C
0E
F1
F8
F9
16
FF
13
FD
FE
02
FA
0C
0C
FE
FE
FE
02
F3
EC
FA
DF
FD
13
EA
F7
1A
0C
E8
E9
01
08
F7
09
FE
0F
F9
00
0B

