D8
E2
0A
08
34
2D
0C
10
08
EC
EC
EF
FC
F0
F9
07
18
06
E5
EB
17
16
D9
EA
1C
2A
FD
41
CC
21
CE
07
18
12
D6
12
EF
24
07
1A
1D
F1
EE
1E
F8
FD
FC
E1
DC
F6
F9
E1
F2
10
15
25
19
FA
E6
18
12
08
F4
E0
F0
F8
D7
24
F7
35
FB
08
04
26
C2
E5
0A
EB
1F
E5
0D
DF
F6
03
FE
F6
0A
2A
F2
31
25
1F
F9
1F
2C
1F
18
2F
31
E4
F6
36
18
DB
C3
F2
11
F9
3E
1E
21
21
FE
28
F6
2D
03
01
2D
15
21
F9
E3
09
E8
1A
08
19

