F5
0F
FA
0F
09
11
FF
03
12
FD
FC
F7
11
F9
03
F5
EF
F1
04
11
0F
F1
0C
02
01
03
0A
04
0D
03
12
06
F6
F7
DF
EB
ED
F9
01
05
F0
FA
FC
F4
F3
02
F3
04
F4
F9
01
F1
FA
06
0C
EE
FD
0E
FD
03
EE
0F
F8
F3
FE
E6
E8
CC
CD
DF
CC
F6
FC
FC
1D
FD
18
00
F7
F7
EE
0B
F7
F9
FD
0C
F6
FC
ED
F4
00
13
0D
E8
CE
CB
F7
FF
19
03
DB
F4
FB
DC
F0
F5
12
0C
F7
04
05
08
03
0D
08
23
01
FF
F6
0A
13
EA
F2
EA
00
F7
07
F0
07
09
11
0A
FC
0B
FB
E4
05
09
1E
11
0A
ED
F4
E4
08
00
07
05
0A
EE
02
1A
17
03
03
01
F4
FE
03
EB
E8
F9
D8
D1
F5
04
EE
11
00
F6
FC
DF
03
05
01
0A
0C
E8
08
19
F5
0A
0C
0A
14
17
F7
ED
FE
FE
EA
DF
05
06
16
FE
0C
F3
E2
FC
F4
F7
D0
F8
EC
FF
FE
03
F9
09
EB
18
FF
09
F7
FF
12
FD
0D
E5
02
0A
FA
F1
0B
F4
18
1F
13
09
EF
FF
0C
12
03
E8
EE
FB
EC
1C
02
F1
07
F9
EB
16
F5
ED
F2
09
13
00
EE
F5
23
16
EF
E9
0B
14
00
14
F4
05
FB
00
04
F2
01
00
EF
EB
16
04
05
F9
E9
FF
18
E5
01
F2
F8
30
00
05
0E
F5
11
16
06
EF
04
E0
EF
D9
D8
F8
02
12
18
F8
0A
0E
17
F9
E0
F3
F6
F5
03
F8
F3
EC
1E
1C
25
06
07
F6
E4
D0
E6
DA
F5
FD
10
14
2E
10
0F
31
14
09
19
FC
09
F9
25
EA
F9
03
0A
15
F6
03
0D
05
E3
E5
09
FF
0F
17
0D
0D
12
0D
17
45
14
06
08
02
F9
FC
00
D3
F4
EF
EC
13
10
FA
1D
25
17
2A
14
27
00
FD
14
FA
0D
27
18
0B
F0
F5
DF
0E
FB
11
E6
DE
E9
FF
F7
07
18
25
36
2D
3C
36
2E
2D
08
02
05
F0
14
0E
08
01
F3
F3
DE
FA
F6
02
EF
E7
ED
D9
D4
F1
DB
02
13
21
42
3E
20
19
0F
09
0A
EF
F2
F4
0F
E9
D6
DD
19
FC
08
06
0C
D9
04
E6
C9
D1
D7
D2
19
20
2F
30
F6
07
FA
01
FC
E4
F0
EE
F5
00
DC
D3
E6
05
07
F1
16
10
00
E8
B9
BE
B5
A3
B1
E7
EF
14
E7
F7
05
F0
04
E4
F7
FF
04
03
F4
25
08
06
25
14
20
09
09
08
EB
B7
AF
95
A9
C1
CC
E7
F4
F8
F8
F7
FE
EE
07
FF
0B
FF
E3
17
17
F7
F8
FD
0C
0F
1A
1E
F5
00
E8
DF
F0
D1
D6
ED
FC
02
0D
12
06
EE
D7
E4
FC
EC
D4
0E
00
FE
FE
FC
20
1F
22
21
09
04
06
12
F5
E5
E7
DA
F5
FA
02
14
13
EB
CF
E4
0B
EF
EE
F8
10
FD
0C
11
03
12
23
24
0D
0C
18
08
08
03
04
EE
E9
05
FF
E7
F4
CF
CB
CA
F3
0B
E7
F4
FC
05
EF
F9
E7
13
26
29
25
1D
06
FA
06
16
F4
05
07
F5
EC
FA
E2
DC
E6
D9
EA
01
EB
EA
F6
F0
FB
0A
0E
2B
1F
27
0D
19
1A
09
0D
0A
08
0B
FA
F8
DF
DD
F8
E9
D4
E9
EC
F6
F5
02
F9
F4
F7
F1
10
28
2A
0F
0A
0F
EB
FA
0F
F5
FC
04
1D
EA
D0
DE
03
FC
EB
10
E7
E6
F2
02
EC
06
FE
EE
14
E2
EC
09
FA
01
F7
06
FA
FF
FE
F3
09
FA
05
06
FF
E6
EF
E2
E6
0B
02
06
F6
FC
F0
04
03
22
1E
F9
0B
0F
FD
1C
14
07
FE
F7
19
0E
FF
31
05
19
24
0A
FA
FC
04
01
F4
F3
FB
F9
F6
EF
F5
FC
DE
F3
E2
F8
0A
15
0D
13
2F
00
F4
1A
27
2D
FB
FF
F1
F9
FE
F1
FC
00

