08
11
71
11
12
05
72
7C
79
0D
70
0C
14
74
07
6F
08
74
09
6F
7E
06
08
09
70
0F
6E
7C
01
0E
77
09
74
0E
21
1D
0D
79
15
6E
03
61
09
09
5B
75
06
19
10
12
1A
07
75
72
01
04
77
10
02
05
6A
72
1D
18
24
12
28
06
11
08
09
33
08
20
2F
2C
0C
6C
05
18
04
6C
7D
0C
6F
7C
0F
7B
79
7F
0C
1A
20
09
0A
78
08
73
70
24
05
7B
16
0B
05
70
16
1A
7F
0B
7C
07
71
79
18
6E
7B
01
17
1C
11
08
1C
1E
1F
1B
1A
0A
2B
13
1A
1B
18
00
05
7F
09
04
00
68
10
75
0E
14
06
7D
0F
2A
7F
05
09
10
12
03
14
0C
11
09
69
7B
02
01
7E
1F
26
0B
0D
79
7C
12
6A
0B
10
01
10
1C
12
7D
0A
71
03
74
09
0F
04
02
79
52
70
59
61
06
25
2C
22
6C
70
0C
7D
79
00
07
05
1E
26
7D
01
75
76
0A
0C
16
6D
56
68
67
54
63
5E
12
03
1C
3E
06
0B
71
76
00
05
78
0B
15
05
6D
06
0A
0B
16
78
06
71
6E
53
5E
74
67
6E
7C
14
3C
31
11
05
67
73
08
07
75
0B
79
06
74
7A
78
6F
78
01
01
68
73
03
73
6F
67
09
07
15
15
3C
64
73
77
5E
77
0E
73
70
7C
71
6F
7E
04
14
14
03
74
77
04
79
0B
07
7B
72
73
01
17
07
76
0D
6C
77
7B
74
71
7E
67
7C
66
05
10
06
11
07
06
18
0A
04
7C
73
7E
7E
02
0B
16
2D
71
73
00
09
5C
5D
66
77
73
71
05
0A
0C
05
17
24
1E
14
77
6B
64
7F
6D
69
63
65
7B
61
5A
05
08
64
68
64
65
70
15
74
76
7F
0E
12
2A
35
0C
20
69
74
00
02
79
66
75
7A
78
79
1C
78
77
63
7F
61
6F
71
7D
12
7B
78
02
76
1B
1E
11
1A
70
5A
6C
7E
76
76
77
5C
0F
14
18
76
06
0F
6C
12
03
67
59
6C
7E
78
7E
7C
01
18
74
12
08
68
09
09
06
79
03
6A
28
0E
14
03
79
17
75
0C
72
7A
64
5F
56
6A
7C
7E
15
01
77
7B
63
02
70
71
21
1A
7C
0C
20
7F
04
0F
70
75
02
04
71
01
69
6F
6B
75
73
02
11
05
00
60
66
79
08
0B
24
73
17
0D
2A
16
7F
72
78
0B
1E
7C
04
06
14
08
04
11
7B
77
12
1B
67
03
6B
0A
0A
7F
05
70
0A
0D
2E
6E
19
16
07
66
19
7B
7E
0A
1C
0A
0A
12
12
64
11
7D
16
0D
09
75
74
09
70
07
11
19
3E
22
03
05
74
77
21
11
74
15
13
13
05
14
0B
73
0B
02
13
06
7D
7D
0C
20
1B
13
1C
14
1F
18
75
01
7B
7A
1C
0C
75
72
00
07
1D
01
7D
6B
73
77
10
7F
7C
15
0C
0F
7E
7D
31
32
1E
56
0F
76
14
01
01
02
76
69
15
74
05
07
07
67
01
79
71
6F
73
71
09
1F
01
72
20
35
09
5F
03
7B
71
14
1F
1F
01
75
04
11
7D
0A
73
12
71
66
62
64
75
0D
22
2C
10
02
18
16
1C
22
6F
11
0D
76
74
0A
66
16
06
05
0C
0E
19
77
5E
6B
62
7D
56
7E
78
05
15
70
75
1A
13
01
73
70
71
7F
0E
5E
79
04
0F
07
08
25
08
0F
7D
15
0E
07
6F
69
64
07
08
0E
0F
0C
0A
77
75
13
75
71
76
0D
5A
65
6E
70
0C
7F
75
78
6A
6C
0F
04
06
7B
5D
62
7E
73
17
11
76
7D
78
79
11
0D
07
7F
77
6A
6F
0A
6D
7B
6B
7C
01
17
2A
24
04
05
7D
60
61
6C
6F
11
74
10
72

