F9
12
F1
F9
F8
0B
F9
EF
0E
11
F7
F5
11
0B
F1
10
06
EE
F1
EE
09
09
FC
08
08
13
0E
FE
EF
F1
F1
07
F3
08
02
0B
00
10
07
FB
0C
04
04
E4
E3
01
02
04
0B
FF
0F
0D
06
0D
F9
06
12
F3
FC
F8
06
21
FD
07
07
07
0B
F1
07
FE
F9
13
0B
05
07
0F
FB
05
23
1B
F3
EF
F0
04
08
0F
00
EF
E0
F2
01
0D
F4
EC
0B
0E
FA
04
22
07
03
13
09
FD
1A
0A
2C
1F
1D
F8
03
F4
0D
F8
E8
01
00
09
E8
EC
E6
E2
D7
EC
FE
F0
14
FF
F8
F3
E2
FF
F8
1F
1C
25
2F
14
16
06
FB
00
EC
FE
16
05
19
1A
FF
0E
09
00
00
03
23
12
FD
0B
0B
DF
D3
EF
FC
1C
33
2A
04
17
EE
ED
02
11
F2
16
09
1C
FA
10
1D
0F
13
1A
1B
08
0E
FD
ED
0B
FF
06
29
3E
4F
0F
11
18
0B
08
02
FE
F0
EA
05
F8
F5
09
0F
EB
03
0C
F0
00
EE
01
07
09
0B
0F
F6
34
26
F4
29
06
0F
04
07
F4
DB
E3
F5
04
EE
FD
FA
F2
12
FA
02
02
FC
06
19
F7
F7
FE
F5
0A
10
0B
F5
F3
10
0E
E8
FE
D9
E5
0D
F0
E8
F4
CF
0C
13
FA
0F
03
EE
F6
F7
01
02
05
F3
F1
F7
05
02
08
F9
0F
04
04
06
E2
FE
E4
F0
E4
D4
FD
07
0F
02
F9
F0
00
03
FD
FD
08
03
D1
F0
FF
E9
0D
0A
09
F2
21
F4
DF
EF
F9
01
D8
E5
0D
03
0E
05
EC
0B
00
F4
05
E8
F3
F0
ED
E5
DA
EF
EF
FF
0F
EF
16
E5
F6
EC
0D
F1
E8
EB
1A
0C
18
FD
04
03
F4
F0
EA
F2
FB
E9
F1
D7
EC
03
15
E8
01
08
09
DB
04
EA
ED
E3
F6
FF
24
1D
00
0D
18
1A
F0
EF
08
F1
ED
D6
EE
DC
F1
01
FD
16
F9
09
E4
EF
0E
DE
DF
EE
F4
16
16
13
0F
02
06
02
01
F0
10
07
11
E8
E3
C8
F3
DD
06
FD
FA
F1
FD
F9
F8
F5
E7
E5
E4
F8
06
06
F3
06
1B
01
08
21
12
10
0D
02
E7
D3
F4
D2
F8
0C
FF
EC
E6
F7
01
F8
FC
F5
EF
15
0A
18
0A
09
13
10
14
00
04
F2
DF
E1
D1
C6
D2
CE
D0
F7
F7
DF
E7
03
0C
12
0C
EC
FF
12
17
05
FC
09
18
0B
09
05
FF
E9
E3
01
F8
E3
DB
F2
E8
E8
02
0E
E7
FC
F4
FF
ED
05
EA
FE
04
15
08
10
08
1C
15
03
DA
D3
DF
CF
E1
FC
E8
2A
EA
F7
28
08
F8
00
ED
04
F7
FF
E8
FF
F3
02
E6
0F
07
12
F8
EC
E2
CC
DD
DC
E4
E6
F5
FF
EC
F7
06
06
EA
D5
FF
03
07
DF
05
F9
F5
F1
01
0C
FD
01
F5
E9
D9
CF
DE
F0
E6
FB
02
05
0D
03
04
07
F0
DA
FE
05
F3
FE
F5
ED
F0
F6
F9
05
08
FC
FF
CD
B6
E0
FC
F1
EB
F8
02
F3
F9
FB
FB
16
02
0B
FA
09
12
FC
0B
09
F6
04
F4
08
0A
0F
F4
C2
DB
CA
D3
F9
F4
E4
EB
EA
09
08
00
F1
E5
0C
18
0E
0B
F0
04
E1
01
F9
F8
F7
FC
E6
AE
C2
BF
D4
E8
F7
F9
01
F2
FC
FE
07
12
05
FB
0E
2D
00
1A
F9
E6
FF
FD
FF
32
24
F8
F2
C2
A9
BA
D0
D9
F6
FD
FD
02
ED
F4
FD
04
EB
03
2D
43
05
F4
FF
F4
02
0D
06
16
F7
0F
FD
C3
D4
CD
CE
DE
EB
06
08
FB
F7
02
F2
07
F4
E3
09
2B
24
09
2B
01
FF
02
03
1E
FE
FD
13
0C
0B
0D
EE
FC
10
F9
F8
13
10
04
FC
FE
0C
F0
F8
13
FA
FF
F1
FE
24
F2
02
0D
F0
EC
FB
14
FA
FB
F6
F4
12
0A
06
03
0A
07

