F1
1E
FE
20
0B
0F
08
04
E1
E5
F9
39
B6
2E
E3
FA
23
D8
C3
DC
E1
D8
2B
DE
C1
DD
09
FD
C8
F3
41
D7
1D
0C
F7
F1
09
2A
27
F0
21
1D
15
1A
F3
28
01
01
14
5A
0D
3A
10
1D
0A
FD
2E
F6
DA
ED
E7
CD
DD
EF
22
F2
E3
03
E4
08
12
E5
D2
FD
FD
14
DF
2A
DE
F7
EA
F2
E8
0E
21
19
0C
0B
1C
11
C6
21
EF
EB
1C
4C
02
EB
E7
01
FC
35
FC
08
F3
1A
F0
00
11
1A
C9
0F
0B
E8
E4
07
03
09
16
21
E9
DF
0A
0E
F5
EA
22
E4

