F8
09
F7
F7
0A
0F
0F
02
FE
FB
10
EF
FB
00
FE
FC
00
EE
FB
FE
F3
07
02
0E
13
0D
F6
09
EF
FA
0C
F1
F8
EF
E5
DF
F4
F1
FE
F7
EC
C3
E9
CC
D3
CC
FA
DC
F6
00
FC
E8
F6
FA
11
0D
02
0F
06
E3
E4
F7
E5
F0
ED
CA
E3
C5
F3
F0
EF
E7
B4
EC
F5
08
05
02
DF
DD
DC
F8
F3
00
03
F4
00
DD
EC
FA
D8
E9
DA
D0
C3
CA
D4
BA
E0
EF
06
0B
D7
F7
2C
0C
11
12
F4
10
F2
FE
01
0F
09
0D
E9
E3
D5
C9
E2
DF
E3
E0
07
02
02
E1
DE
FA
07
02
16
0C
21
21
35
28
FA
0A
03
04
06
11
F4
E9
D6
E0
ED
00
10
0C
0C
FB
07
F4
E7
FE
04
F0
E7
FC
02
1B
18
1A
11
06
F2
11
F4
07
F9
E0
FE
ED
F7
04
FC
FB
FE
1C
F7
F8
E6
FE
12
07
15
F9
1C
28
13
E5
21
0E
0C
01
05
14
1B
1A
18
05
17
FC
FD
14
07
0B
12
FE
FA
F1
F2
0B
07
1B
27
1D
1E
F4
13
05
FA
F8
1C
1D
18
2E
03
16
09
02
1B
FF
08
F8
EA
E9
F0
EF
F6
E5
10
1A
12
1A
11
18
16
0E
08
02
FE
1B
23
28
1F
FE
F4
28
04
EF
DD
0D
10
F7
EA
FC
F1
EE
22
0C
19
09
1E
07
00
EF
FA
F3
06
0C
01
17
15
04
03
0A
E6
F3
E5
0B
06
DA
B8
ED
D5
F8
0E
24
15
26
21
08
E0
E5
FF
EB
DE
1A
EE
27
0D
14
15
0B
F5
F9
FB
03
09
B8
A7
B8
EA
28
3B
2A
3A
28
10
FA
22
05
F8
F0
FB
06
FE
17
1A
F8
F2
FF
FE
F6
F2
E4
DC
B2
9E
E6
03
37
32
2E
23
34
0A
09
FF
E7
F5
FB
0A
1A
06
0B
07
02
0C
0B
04
0A
FE
EE
D3
C6
BD
09
27
28
30
48
30
17
FB
EF
1D
0E
0B
F5
D8
00
0B
FB
01
FE
09
13
11
15
13
FE
EC
CC
D9
07
2D
38
23
08
07
EF
E3
F6
00
10
EB
F7
F9
2B
0B
E6
FF
F5
04
14
1B
FA
0C
FF
EB
DD
FE
05
20
12
11
E6
FF
D3
D4
A8
0A
08
00
08
EC
14
09
F3
0D
E4
EA
F5
16
21
10
19
FB
E8
F5
31
1E
FE
04
F4
F3
E5
F0
CE
09
0E
F7
F8
FB
07
0F
F5
F3
F9
F3
FE
FF
13
02
FE
06
FE
FF
1A
1F
0B
E8
F8
EE
E5
F8
CE
07
00
F1
03
F3
22
0A
17
07
F9
F6
EF
02
05
0B
06
03
F9
04
07
1A
00
FB
FF
CE
DE
1A
E4
08
E8
08
FF
F6
17
EE
FD
08
04
09
04
01
16
0E
FF
FA
0D
18
0E
26
0B
E6
01
E8
11
12
F2
17
03
FA
15
1B
06
EA
03
02
00
FA
EE
F8
12
FB
F6
F9
F8
14
0D
12
17
06
24
F4
23
1B
23
25
10
F5
F2
2A
12
04
08
10
07
FF
E3
07
0E
05
04
0E
02
FE
05
08
0E
1E
0C
1A
0A
19
F0
F3
0A
F5
09
18
02
0E
0F
19
F7
04
FE
E7
11
0C
F5
FC
F0
04
F9
E9
1D
19
13
0A
15
2D
10
F0
11
EE
F9
F0
F1
07
08
1F
FD
1A
10
08
FE
15
0E
F6
FC
02
FC
04
FA
08
F9
FC
28
23
14
10
05
EF
F6
1C
EE
00
E6
04
04
0C
1B
0E
14
07
21
0D
11
08
E6
F5
E9
FF
0A
04
02
F1
16
05
02
11
FE
20
F5
0F
19
1F
02
13
14
0F
00
12
20
33
1A
20
1A
11
E7
E1
F9
F7
01
E5
F3
F9
FB
F8
06
04
05
31
09
00
FF
24
FA
EB
E7
FB
0D
1B
F2
F0
14
0D
DA
F3
11
FF
1A
0E
03
0C
FC
0C
09
EF
F7
05
E1
F9
0B
F4
13
E3
14
07
0D
0D
F0
ED
F7
05
0F
19
0A
07
F5
12
FD
F9
06

