0F
0A
F9
FA
F5
01
F6
F1
EE
F1
F9
0B
05
07
01
F1
04
0E
09
EE
EE
F6
00
EF
01
FE
12
0D
0B
04
EE
FB
F1
10
15
09
FF
26
2D
07
0A
0A
FC
F5
F7
08
17
09
11
FF
FD
0E
00
11
10
07
05
07
F0
FF
F1
22
02
09
18
03
F8
03
12
E7
1E
11
F6
20
1C
F7
F5
0E
19
30
0E
03
EF
0F
0B
02
03
F9
F3
FD
14
04
F9
12
0E
21
FC
10
0B
22
FD
E8
FC
F2
FD
24
0C
1B
03
FD
20
00
F2
F2
E2
E8
EC
EF
F6
08
03
04
04
05
06
E1
05
07
F3
01
F4
0E
0C
21
0E
21
2C
23
02
0E
FA
08
E7
E4
E0
D4
F0
E8
FF
0F
FE
F9
16
FB
06
EE
07
00
02
E9
03
0E
0C
17
26
2D
1C
0C
0C
0B
1B
E4
0C
ED
F7
05
FB
E6
E4
F7
14
F6
11
F6
05
04
FB
EE
FF
F7
FD
2F
30
27
1F
0E
11
08
1D
00
E5
F4
0B
0A
06
FF
F8
02
F7
E7
EF
F3
0F
FC
F4
F7
F7
EE
0F
04
06
2F
30
2D
03
ED
07
EF
DD
F9
0C
07
F8
03
F1
18
F4
FE
EA
F4
F5
F1
03
F3
0D
FE
EE
09
25
1D
03
01
0E
01
0A
F1
E8
0B
19
02
DE
E1
F8
FC
04
E6
E6
06
E2
FA
0B
09
05
0C
FB
EC
08
17
26
02
F7
E1
F0
E4
F8
07
F4
0F
F0
FB
14
0D
EB
BB
CB
F2
E4
F2
EF
E3
E9
E6
CF
EB
08
13
27
EF
03
F8
ED
EB
F3
0D
03
0C
11
00
02
03
E6
D2
D0
DB
DE
DF
E0
EF
CC
B6
C7
D4
D3
0F
02
DF
0B
F1
17
E3
EA
F6
06
0D
10
06
09
0D
09
FE
E2
F6
F8
FD
F7
F5
DB
DE
D8
E7
E1
D9
EE
E9
0F
FE
E9
E1
DB
E0
FA
15
26
16
0A
0B
07
EA
EF
FF
1B
FF
18
0F
11
FF
FD
FD
E7
CE
DA
0A
15
F9
E3
FF
F1
FC
FB
05
1D
1F
19
0E
F8
15
08
08
15
1D
17
08
F1
EE
15
09
15
F9
0A
01
11
EE
01
12
08
08
09
1B
14
07
02
0C
1D
1A
0E
FE
18
0C
0B
ED
EB
11
FF
1C
F7
1A
0B
14
00
F4
09
F5
02
17
FB
00
FF
FE
01
11
24
1D
11
19
2E
11
04
FE
14
02
18
0C
F4
3C
20
13
F0
01
12
08
10
0C
11
FF
06
FD
FF
06
18
02
F2
1D
0A
12
0C
02
02
11
10
12
FE
1D
0F
0B
F8
EC
F5
20
12
0C
FA
01
FE
0B
09
11
0F
21
19
09
FC
FF
F4
EB
F0
FF
FA
FD
19
03
F2
FD
F5
03
F4
14
EC
EF
F3
EE
E5
FF
00
28
22
00
06
F8
04
F7
02
F6
F1
F2
07
18
18
FB
06
EB
F5
EB
FC
0A
E4
F0
FA
F3
FC
F2
0C
0F
08
07
F1
FC
02
07
00
FF
E7
F2
0D
12
15
22
07
FC
FD
0E
07
FE
E2
E1
DE
F2
24
20
EF
1A
25
09
07
03
0B
0B
FB
F0
06
0F
19
03
27
18
DA
08
F4
06
02
F4
FC
F5
D9
F7
01
14
FA
08
19
0A
EE
00
FF
11
FE
FA
EA
F3
18
0D
14
FB
D5
03
F2
06
0B
F5
DA
DD
D3
D6
FA
0D
F5
F4
FC
00
19
14
FE
02
02
04
0A
12
26
27
0B
14
0E
0A
0A
0F
0A
F3
FD
F0
D4
D8
CD
EE
EE
0C
0B
02
F7
06
13
E5
F4
EC
07
07
26
1C
08
F9
FF
EE
0F
F0
26
F7
EC
01
DB
F5
D7
EE
F8
FF
F6
FC
F0
06
0B
F3
19
F9
15
09
07
1C
15
17
05
F7
F7
F4
03
0D
FC
01
16
12
04
F3
E2
09
22
11
F7
FA
EE
E1
ED
E6
F4
1A
05
00
0F
0F
09
05
F4
06
08
08
09
F8
10
09
F2
E6
FB
11
FB
06
F9
00
F2
D8
00
E1
0D
FA
FA
F4
FA
02
0E
F9

