0B
12
09
F6
F4
01
12
05
0A
F5
F6
0A
0A
22
10
16
0D
F5
F2
EE
F1
05
04
06
FA
F2
F0
F7
F5
F1
0C
12
FA
FC
25
05
1B
08
19
09
0F
1F
F5
E9
0A
1D
08
08
15
FB
FF
0A
F7
F3
07
F2
0D
FA
F6
13
15
05
0E
28
2F
1B
2F
35
1A
EF
FC
F1
16
11
F4
07
00
0E
ED
07
12
EF
F6
09
F8
0A
12
17
22
FB
32
17
F6
27
2D
3E
03
E9
C7
D7
E6
FB
E6
E6
FD
19
F0
F1
0B
05
0D
07
FC
0B
FD
EF
33
FD
0A
07
0E
13
1E
0A
01
F3
FD
E5
08
06
E3
E0
DB
FB
E7
E0
F0
FD
FF
FE
00
03
F2
FC
19
03
FC
F6
0E
0B
F6
EA
0B
02
FE
ED
F2
F0
CA
AB
C7
E7
D7
E0
ED
E2
24
22
FE
03
FF
FE
26
31
05
04
00
F2
E1
F7
F2
F2
F6
C8
D3
E5
DB
B9
C0
D3
CF
DE
EA
F5
F5
0F
FC
13
1B
F1
F7
10
09
1F
01
03
E0
E5
CA
BF
CA
BC
BA
D1
C0
B0
DF
DA
E8
EE
00
ED
F0
F5
FB
33
14
0F
07
F9
23
23
11
0E
FF
E4
CA
C4
D2
D9
D3
D5
E3
E9
FB
EE
E5
13
0B
BD
D1
0B
05
16
37
2C
1C
14
2B
0D
05
07
07
0C
F7
FB
0A
00
09
0F
F6
FB
F9
19
FD
E3
FE
09
00
1F
FF
0A
2F
16
05
1E
17
FD
13
09
0E
18
14
24
30
26
29
24
2B
23
1E
1F
03
04
1C
0B
17
22
00
1A
0A
FB
2D
15
07
09
0A
15
16
22
11
31
29
28
14
22
1C
1D
32
27
10
12
20
25
DF
04
12
0B
10
FE
10
14
FB
14
FD
0E
09
10
01
05
09
19
1C
0F
04
03
15
FB
0F
FA
27
41
36
18
FD
18
2D
0A
0D
04
05
F4
F5
FF
09
10
F4
F0
FE
F0
F6
E3
11
00
03
18
1E
2D
29
39
29
FD
07
14
0F
17
ED
05
04
EB
F0
D9
0D
12
F5
08
E7
0D
02
F3
FB
E6
FA
F8
2C
3A
1C
18
19
FE
F1
0E
F7
E7
F5
F4
FC
D9
F4
DE
FD
1D
17
1A
00
F3
E9
E4
01
FA
F9
FF
0F
2D
12
25
E9
04
F3
F4
F3
E7
ED
02
EC
DE
F0
16
05
06
0D
FF
22
0E
F4
ED
11
0A
FA
12
13
1F
F2
2A
12
35
0C
F0
10
DC
F2
0F
FD
F8
EC
04
07
10
FC
17
1F
22
FF
06
09
F9
15
25
03
0D
0B
23
F6
18
0B
0E
10
CE
E0
10
F2
00
ED
11
09
25
14
05
12
07
0B
15
0E
03
05
16
16
21
05
2F
18
E4
E9
CD
0C
02
0A
01
FD
F3
DE
F2
27
2E
09
ED
F5
F6
09
0E
EC
FC
02
0C
07
0F
D6
04
15
EC
00
CD
EF
2B
F0
ED
DE
EA
00
FE
27
20
0B
F3
FE
EC
DD
E3
F1
DC
EA
FC
FC
D5
D1
EB
04
F6
FB
09
05
19
FF
EA
0B
E9
13
04
FF
FE
FB
0A
E6
F3
EC
FB
FF
F0
D5
D6
D6
B7
C9
F2
1F
FE
FC
FA
FE
10
F6
E4
EA
F2
F6
12
FB
16
18
09
10
12
F7
EB
FF
D9
DE
D4
C5
BD
EB
FE
F9
F6
F7
F4
02
08
FE
E4
DC
D7
F4
F9
F6
09
22
00
05
FB
0A
E9
C9
E2
F6
D8
C5
DD
D2
04
E5
0F
00
F1
11
1D
05
FF
E4
C3
F2
E2
FD
F1
E1
F3
F9
F7
00
FB
EF
E7
F8
F3
E6
FF
16
EC
E7
06
0C
0D
11
0B
0B
1B
17
08
CD
CB
FD
F7
F9
F9
0B
F1
FC
12
FA
02
07
01
04
12
0E
F8
F8
12
FA
0A
00
0D
F6
1C
1C
0D
09
F1
E8
E6
02
23
E6
E6
DC
CC
ED
24
12
FD
0F
E9
F1
00
0F
07
FB
11
F6
F1
F6
19
FF
FF
F9
11
27
F2
06
EE
02
E6
0A
11
F3
09
F6
20
2E
1B
0C
ED
FC
00

