11
04
07
0A
0D
0E
6F
79
71
7F
03
03
6F
67
79
08
07
11
7E
0F
09
76
06
00
06
75
77
79
6E
7E
09
0D
05
08
00
7D
5F
67
7E
61
67
72
71
07
79
66
00
7E
7E
61
63
60
74
7B
10
7F
0D
0F
12
67
69
65
76
6B
5B
71
6D
6A
5C
4B
59
75
7B
00
01
6F
7B
05
7D
5E
72
72
7D
0B
72
01
04
66
79
7A
62
67
59
66
68
6D
78
71
60
72
04
07
0F
47
5E
4B
4E
55
05
0A
61
0D
76
78
79
73
67
6C
06
09
71
7E
73
0D
05
7B
14
0C
6F
03
6A
54
6C
6A
71
77
0A
75
0D
6D
72
79
7A
72
68
00
05
7A
0E
1C
13
18
1C
0C
08
73
03
69
7B
66
59
7F
79
66
7A
0A
7A
7C
09
73
0A
19
01
7B
11
18
03
0F
0E
1C
0F
7D
79
03
09
23
10
0E
08
19
7A
71
5A
79
76
78
77
7E
12
1D
01
71
14
1D
7D
00
0C
11
71
78
7E
0D
15
19
2B
1E
1E
19
10
7E
6F
7C
0A
7C
13
02
71
77
6E
0E
23
0E
0A
7F
14
7F
69
68
13
06
1B
03
26
21
0A
03
79
79
68
53
74
71
01
21
0B
1C
12
0A
12
0B
12
0E
7B
04
74
05
06
16
03
21
1C
7A
0F
0A
70
72
5D
4A
01
12
14
00
13
79
06
1D
15
1A
03
05
02
7A
6A
60
7C
06
7F
0E
7C
7A
08
00
73
75
68
7D
7F
0A
0C
17
13
0A
75
0C
22
1A
10
04
05
7D
03
5C
19
1E
0F
78
6A
68
7E
00
03
01
73
18
7F
04
02
03
05
2C
1C
0E
7C
0D
05
6D
64
7D
69
7D
6A
18
75
09
7C
7C
6A
0D
15
02
76
0A
13
10
7C
10
1F
1D
11
73
77
69
01
76
72
07
6C
72
7B
0A
72
6F
68
76
7F
1F
1F
6C
73
07
26
0A
0E
77
15
07
7F
00
78
71
6C
7E
75
00
7B
67
03
78
7D
7B
0D
14
17
22
0E
16
77
10
26
0A
08
72
5D
01
77
6A
5F
5E
76
16
11
08
7B
0A
06
76
7D
16
02
09
05
1C
11
09
75
7A
0B
0D
7C
6A
74
68
64
60
5C
75
03
03
07
0C
03
6B
00
14
1B
23
10
0D
1F
22
09
08
09
5E
07
7D
77
77
01
52
59
58
74
63
7B
1E
0A
15
0F
73
7B
20
2A
23
15
05
14
06
0F
77
15
08
23
69
25
71
6B
5F
75
62
77
7F
0E
00
09
73
6E
6E
76
18
1B
11
7F
06
7F
0B
6C
08
06
7F
1E
7D
72
7C
06
76
79
6C
7B
78
11
77
6A
6A
66
7E
06
0E
07
15
68
6D
79
5E
73
78
18
64
72
7E
03
0B
7B
7E
5B
61
68
77
70
67
77
78
7E
07
01
7A
05
6B
5D
75
6E
60
6A
0B
21
0B
02
01
05
09
11
07
7B
69
68
57
69
71
71
7D
72
66
7D
10
72
0C
70
71
6D
56
6F
04
79
01
66
12
7C
74
13
65
70
09
59
69
6B
7C
02
72
7B
03
0B
17
09
08
62
74
62
66
05
0C
1E
06
67
09
77
03
6A
69
5E
70
69
66
75
7D
7B
0D
13
06
0C
05
05
60
61
70
0B
7E
0C
03
08
7F
57
77
05
09
05
79
75
68
62
70
6D
00
03
08
05
79
02
05
7D
69
68
10
2A
7E
71
70
7E
01
7A
72
01
06
64
0C
14
6A
72
0D
06
7F
11
1A
08
6F
09
10
0A
76
61
00
0D
68
6C
70
61
0B
7B
03
03
76
0A
78
1A
08
77
7A
20
2E
22
04
7F
24
38
13
7D
0B
22
27
1A
0B
09
75
78
03
08
08
77
7F
08
02
0E
00
1E
07
08
18
28
0B
7B
25
10
23
26
0D
10
18
1E
1A
15
06
01
05
05
7D

