03
F8
FE
09
01
F0
FE
FE
FD
EF
03
F3
FD
F7
F5
F3
F1
F8
F0
11
12
0B
02
FE
F6
02
08
13
FB
01
FB
0B
08
F7
F1
01
ED
EA
F6
03
ED
F7
FC
FA
11
FD
F4
E5
EA
02
EC
09
09
EF
EF
12
FC
F8
EF
08
06
EA
ED
EF
FA
D6
E7
E4
FF
FC
F7
EB
D3
EE
FD
DD
F1
DF
F1
E8
E8
EE
10
12
FD
0E
FA
12
E9
E5
DD
F6
EB
FE
EF
00
11
14
F5
EE
E1
E7
D7
EB
08
09
F5
01
EF
00
0E
FD
FB
00
0F
F5
E1
04
F8
0A
F8
04
EE
06
EF
0D
05
01
09
F2
FC
FD
03
FF
1F
0C
19
F7
1B
04
FF
0D
F8
E8
D8
04
0C
EA
19
0C
F4
18
01
09
E7
04
E1
DD
F5
D4
F5
FD
15
F4
07
EB
0A
08
06
E6
27
FA
0B
16
0A
07
0A
FC
0D
07
03
FF
FB
DC
E6
E9
F6
F3
F8
FF
02
F6
00
F1
02
00
07
F3
1F
18
FC
0D
1F
10
06
09
02
22
FB
FD
EA
06
02
01
07
F0
FE
05
0A
1D
F8
17
F2
02
01
05
0B
20
F9
FB
19
F9
18
16
03
00
07
ED
EF
0F
15
0C
04
06
03
0B
E1
23
1F
02
08
08
F0
1E
13
04
12
18
0E
0D
02
16
23
27
04
E5
F5
FD
20
1E
27
11
12
F4
F3
FE
FF
10
EA
FE
FC
1B
1A
FF
15
1A
00
09
F7
F4
13
0A
11
F7
E4
02
09
19
05
02
EE
FC
EB
F9
07
FD
F3
F5
F6
14
20
0C
0F
0C
17
1B
F6
F3
0F
1F
F0
D8
CD
EB
13
0F
13
01
FA
00
E8
EB
DF
DE
F4
E6
13
01
01
08
EC
F3
0B
05
17
EF
EE
FE
15
F1
D6
ED
01
F9
13
20
0C
F6
FF
DC
E0
D6
03
08
09
10
21
24
0B
EF
F1
00
F4
06
16
0F
02
DE
DA
F3
F4
15
F6
F7
08
14
0F
F7
F1
01
F8
0A
1A
0C
16
09
00
FA
0A
14
04
FE
24
22
FF
E5
DE
DF
03
07
0C
11
0B
0B
12
01
FA
08
0D
12
03
0D
28
FC
E7
00
0B
13
11
0E
27
FF
F7
DE
C9
D9
06
18
20
16
1B
07
18
F5
F7
0C
04
FD
15
E8
0D
E9
0D
00
F5
FE
13
F1
10
EF
E1
BE
EF
F7
FD
12
0C
0B
06
14
0B
F4
FC
01
14
FC
F4
FA
06
D5
05
08
17
F0
03
0C
08
EC
BD
E5
06
10
2A
27
11
0A
14
FD
FE
FF
1E
09
16
23
E3
10
0C
E5
DC
08
0D
0A
13
06
E8
D6
C3
E1
1B
0B
0A
0B
19
F7
EF
E7
D8
DC
19
FB
FD
05
F0
08
02
F6
FA
F3
02
F9
01
05
E4
D7
D0
02
09
22
00
F5
F9
FB
F5
DD
E2
F9
EF
EF
FA
FF
ED
24
16
E4
E9
07
F8
F3
DF
D7
DF
FC
01
02
07
FC
FA
04
FA
FC
E0
E3
ED
F1
F4
E9
FE
F9
00
F2
16
E9
EE
FD
E9
D6
F2
F3
FE
F7
0E
FD
0C
01
10
00
04
DC
F6
EF
FF
F7
FB
EF
35
FF
F9
0C
FF
07
ED
E6
F8
FA
06
FE
F5
FA
07
0A
0F
03
0C
EF
ED
EB
E5
FD
ED
FC
07
09
10
14
0E
05
E0
0D
03
EB
F1
F7
0A
F6
F1
F1
04
17
1A
04
03
05
F9
F8
00
20
05
07
ED
EC
F5
02
EF
05
14
F9
FA
EC
E2
CF
ED
E7
F4
F1
FE
0C
FA
10
00
21
07
0A
2B
0B
FF
FC
EE
F1
F5
FF
0A
F0
E8
12
03
F4
D7
CA
E2
F8
D8
FB
F6
F3
1C
0B
0B
1C
FE
EA
F4
03
1A
EC
03
00
FE
0B
0D
0B
07
F4
0E
D2
F2
D3
E5
0E
E5
DB
E4
E7
02
FC
EF
F2
00
07
0E
15
08
DC
E4
16
0E
02
0D
0E
00
0A
10
01
0F
0A
F0
15
1C
F7
06
0B
0D
FC
0B
36
29
20
15
1D
1D
19
F7
F2
09
07

