7D
72
71
0C
71
10
7F
7F
0F
70
7E
02
7B
72
6D
09
70
7B
0E
70
00
71
6D
09
76
0A
0D
07
09
0C
7C
07
0C
0F
5F
66
72
06
7B
6E
6D
6D
64
4E
74
70
7F
7E
65
68
67
7D
75
00
74
0D
0D
12
7B
76
76
7D
6E
63
01
17
72
02
10
79
08
7B
67
70
03
5A
6D
74
6C
5A
71
01
7D
0E
05
76
12
63
5E
08
69
19
26
03
1E
2D
19
0B
13
10
1D
0B
75
03
06
2A
22
0D
6E
6C
74
09
07
05
1F
79
0C
1D
12
09
0F
1C
12
1D
1B
0F
00
14
12
1A
00
12
13
19
23
15
27
13
18
73
71
0F
12
23
0D
74
06
15
15
14
7D
0C
10
0A
0A
75
0D
03
03
01
12
06
0F
04
25
25
05
69
04
07
00
0C
1D
02
7F
0F
09
1D
01
02
78
70
11
0B
16
03
6F
7B
01
61
06
0D
09
08
76
0D
7A
09
7C
00
14
0D
7C
05
7D
0C
0F
71
04
0A
04
09
06
66
6A
65
60
6C
74
00
0E
03
04
70
78
6D
15
18
0D
10
01
0B
03
06
08
01
0D
7C
7D
6F
06
55
7D
74
77
79
79
0F
13
0F
13
10
04
51
00
7D
74
02
73
76
73
0E
04
70
76
12
07
5F
7A
69
01
7B
77
0C
07
06
03
0F
15
6D
0E
01
7E
04
70
03
7D
68
74
7C
02
08
12
7C
78
5F
76
02
7F
12
0B
71
13
7E
7D
7C
6B
56
0D
7E
6F
07
76
11
0A
07
09
0B
6F
0C
1A
12
75
6A
75
7A
72
10
13
08
78
12
01
1E
0F
70
73
69
6E
73
67
18
10
6D
08
7F
78
7B
08
16
03
04
08
03
7E
06
01
11
0A
0E
1D
79
71
53
0A
08
76
65
03
15
7A
72
01
06
07
15
21
13
1B
16
7E
11
15
18
6F
6C
05
09
0D
71
7A
14
05
03
78
60
00
02
79
08
08
05
7F
19
16
15
17
0F
7B
7F
6B
6F
72
65
73
75
67
14
06
01
74
0B
11
75
1E
7C
06
14
7B
0C
6A
03
71
0B
14
0E
12
09
65
74
62
09
0C
04
79
10
0B
08
70
02
77
0E
0E
7A
14
05
05
7B
09
78
1C
15
14
0B
0C
09
79
78
06
77
70
73
6F
0F
76
09
09
6B
16
1C
13
71
7F
00
77
7B
7B
0F
10
1D
7A
79
6C
09
65
74
78
03
70
72
6F
10
73
75
63
12
08
33
19
06
18
72
01
79
10
11
1E
0C
05
03
72
6C
74
09
79
77
7C
05
7A
69
69
25
79
7B
63
32
18
22
7C
07
00
00
71
03
69
01
7D
74
01
72
12
01
7D
0F
08
7B
7B
61
1E
12
0B
09
09
22
14
0B
15
7F
7D
71
7E
76
70
00
02
75
7D
0F
13
19
17
1B
07
0B
6E
61
72
06
6F
07
1C
16
03
05
22
0E
76
0A
70
10
76
79
77
0A
6E
7D
06
15
7B
1F
1D
10
5A
5E
4E
76
05
7A
71
17
01
69
7C
0B
73
78
05
1D
01
79
6D
75
75
75
08
03
02
2D
22
6C
72
69
4E
72
0C
02
24
2A
79
08
68
04
12
7E
0A
11
6F
12
6B
02
0C
0E
2D
16
1F
16
14
7E
0D
6F
7B
75
70
0B
79
23
02
5F
77
10
0E
1C
1D
1E
06
05
0E
69
0D
71
05
14
12
75
1A
7A
70
78
6D
09
10
72
1C
5F
60
61
12
09
73
6E
23
08
7E
1B
10
20
0C
0D
1E
75
0E
04
6D
00
6B
6F
01
79
0E
05
0B
7A
01
5D
67
01
07
71
6D
7E
0D
75
5E
67
66
72
7D
55
51
61
5D
0D
09
02
76
79
0F
02
03
79
78
7E
7F
7F
67
07
5B
03
10
0B
7F
20
00
62
01
74
73
68
62
62
03
08
7C
7D

