FE
0C
01
03
F2
FE
F2
F9
04
04
07
FA
1A
13
0A
F6
03
0A
F6
F5
0C
FE
0A
01
04
03
F0
EE
F9
F2
EE
FC
0E
10
1F
13
23
09
0C
03
F8
1E
07
06
F8
14
0A
0A
FB
10
11
0B
12
0F
07
F7
0A
F5
0F
F1
F8
0D
25
2A
06
03
00
2A
1D
1A
25
16
07
16
F5
0F
FE
F8
19
08
F6
0B
10
0E
F6
06
F1
E1
05
00
0F
1B
17
1B
14
41
25
28
0B
1C
F9
EE
C7
ED
F2
F2
1A
0B
0D
FF
F4
08
08
10
04
01
F0
F4
FD
FA
FB
05
03
08
13
30
39
1C
0E
EE
E6
F1
02
FE
13
FC
01
11
F1
F5
03
01
14
EA
00
F3
EB
12
0E
2A
16
1C
11
DF
FC
DE
EE
E0
DD
EC
E8
FD
07
EA
F8
EB
F0
05
F3
FA
22
0A
13
0F
06
EF
FF
10
0D
1C
FD
E9
E9
C0
DD
E6
F4
F5
F4
FC
FC
0A
EA
F3
0A
F9
02
27
1F
10
0A
F6
F3
FF
0C
1E
22
18
F6
CF
C2
D4
E1
E6
0B
F9
E6
00
EC
0B
F7
05
0E
F1
FE
20
10
19
12
07
E8
FD
FB
19
12
14
ED
C9
DE
DA
EC
F1
F3
F7
F0
FA
F6
11
12
22
F4
E7
09
2E
06
F9
13
EE
FD
F6
15
07
1D
16
07
C6
D9
E9
F6
11
FD
EA
09
1A
06
24
2E
38
04
12
FA
21
F1
FC
22
04
FB
FD
1D
27
18
29
FF
D9
D3
F5
14
0F
18
04
11
0C
1F
23
35
35
F7
03
15
24
16
19
1C
17
00
14
16
1A
30
37
0C
DF
E9
07
1C
09
0F
19
13
1F
0F
FC
1C
2A
F6
0C
00
19
0A
0A
F5
FB
F9
0B
16
0C
26
38
0E
EC
EC
04
18
16
19
13
FA
14
22
F3
08
0F
1A
12
F7
18
31
13
03
03
1A
0D
10
16
29
24
EF
CF
D1
F8
FE
06
0D
0E
FB
0C
1D
08
FB
F4
17
FC
F5
F8
38
05
05
3A
FD
FD
14
1A
05
0D
E3
CA
F9
F2
0B
0E
0F
FD
0B
03
20
1E
0A
E0
F2
07
03
13
27
04
FC
05
1B
08
0C
FA
01
E4
D9
EA
01
FB
E9
EB
0C
01
FA
EC
F9
F4
E8
EE
F4
02
20
FC
14
14
06
09
F6
F9
F5
F9
ED
EA
D5
DE
FD
1A
F9
09
EE
00
FD
04
FD
EB
E3
F3
EA
E6
00
0F
F9
F1
0A
FC
E7
F1
EA
00
CC
E5
B4
D3
1B
01
0D
F3
04
E4
F8
0E
EF
E8
E8
22
E6
E6
03
11
00
E5
10
FD
EA
E8
04
F6
F4
BD
D2
05
1E
17
F0
FF
1F
F5
EC
EC
11
EF
03
11
E1
EE
07
17
1B
F2
18
F6
FC
E9
06
F7
D0
CF
D6
FF
0F
06
00
FD
00
E7
06
03
E7
E9
FE
E9
08
02
FB
11
FA
F9
EE
F7
E8
F6
E9
D7
DF
F2
02
07
23
18
00
FE
08
F4
E6
FF
F0
E8
F8
08
0C
F4
EF
F0
E4
DF
D3
F7
F7
F8
FB
FF
F9
FF
F6
19
16
0B
FB
03
16
F5
0C
14
03
FC
FF
00
FE
05
F5
FA
04
D1
E2
DE
11
FB
00
10
EF
E2
E6
FD
F3
13
03
12
18
14
F6
F5
F7
F4
E7
E1
FB
0E
ED
F9
E9
FB
FD
F4
FF
F4
12
0C
FA
DA
06
FF
07
FA
01
08
03
FA
EC
05
EF
DD
FA
F5
01
0E
F2
05
0F
26
1C
0B
0D
F5
04
05
EC
07
09
07
14
03
07
0C
07
09
05
F4
09
DA
0A
F6
EF
FC
10
F5
EF
FC
00
F3
FB
02
01
F6
F3
F8
0E
07
19
35
1E
0D
14
00
F9
19
0C
0E
19
F7
0A
12
09
F6
00
F3
E5
F1
EA
C8
DF
E5
EC
E6
00
13
FC
1B
F9
F4
0A
FD
F0
EF
16
FA
02
FD
03
FC
0E
FE
06
0A
1F
2B
28
14
02
1A
0A
F8
00
11
FA
DF
F5
16
F8
F8
16
3F
25
24
F5
0E
F8
09

