09
01
0E
FC
12
EE
F7
0F
FF
11
F6
FF
FB
FE
09
03
0E
0A
F6
FB
FB
EF
02
FE
F8
09
F1
F8
F7
ED
02
13
02
FC
01
03
EE
0D
F0
F8
FB
03
F4
01
DC
ED
01
F3
1D
18
F8
FA
0B
FF
F9
12
07
FF
02
F4
F9
FE
03
01
03
E4
03
1D
0B
F2
EC
ED
DA
CF
F9
13
0B
1A
1E
18
12
0C
F3
07
06
06
02
0E
02
F5
FF
1A
EA
C1
F7
EB
DA
D8
F4
AC
AB
E8
F9
0C
17
00
0B
F1
FB
2E
2E
EE
09
0F
FF
1B
2B
08
F3
14
E2
CF
F6
E5
F0
E6
C4
A4
C6
DC
FB
06
0D
04
EA
F5
1C
02
03
01
10
04
EF
F7
E8
06
0E
FF
FE
0D
02
1D
2B
EF
DF
E5
EC
F8
E9
F8
D7
F9
F0
FE
02
F9
F1
18
07
02
E3
EF
EF
0B
0D
FD
1D
18
F9
0B
16
EE
06
EC
0A
12
06
FC
F4
02
08
F4
EE
DD
0C
1A
F6
DD
F7
EF
00
F9
FE
FD
09
21
FC
0B
20
08
FC
F4
11
1A
EA
07
1F
EE
FA
10
07
EB
05
25
F6
E3
EE
02
0A
E3
D0
F4
2E
2D
10
2B
1E
F8
FE
E7
02
10
08
13
F1
00
F2
FB
F1
1D
E8
FA
F9
17
06
FF
00
D9
D3
05
25
0C
2B
21
19
EA
E3
FB
06
0D
1C
02
08
F7
FB
F0
0A
F7
FA
16
ED
F3
0D
D3
E3
DE
AB
E2
24
19
03
0B
E1
E6
00
2B
20
F7
0C
09
00
01
19
EB
FB
05
F4
20
EE
04
20
F1
E8
CE
C8
0E
27
0A
0B
F2
FE
03
12
18
07
09
0B
F5
F9
FA
02
FB
FA
C4
E0
24
F4
13
18
F1
D8
D6
E7
FF
0C
07
1D
F7
F1
14
20
30
2D
F8
F7
F8
06
0B
E7
EB
09
02
FA
1A
F3
ED
04
F1
CC
CD
EF
2A
0D
01
0D
0A
0A
0D
2B
21
11
FF
0E
16
0A
F1
F3
EB
FB
EB
DF
F5
F8
FB
E2
F3
01
D6
D9
0B
10
F8
EC
0C
09
1D
2E
20
04
1A
23
0D
0C
09
DB
E2
F4
FE
D3
06
00
F0
DA
08
FB
F8
DF
F6
E8
EB
E6
FB
F7
15
2F
18
02
0E
1E
12
05
F6
00
F0
D3
CB
D4
FB
05
0B
D2
00
0F
0F
F8
F1
D8
F2
02
14
13
21
10
21
1D
F9
04
0F
F8
E1
CE
DF
CF
C3
E3
E1
F2
F6
F6
F6
02
FA
07
F4
DF
E7
F6
05
FD
F7
06
FA
07
04
DA
F4
E7
EC
E1
F8
F4
F4
05
FC
F3
F7
E9
F5
EE
F2
B0
D3
C5
D1
EC
F2
E5
FC
FF
FB
F0
D7
C0
C8
DA
C3
CF
01
E4
09
31
F4
F0
0A
E9
0B
F2
D6
D8
E1
D5
C9
DC
F0
E2
F5
F4
12
EF
E0
D3
C0
C2
F5
FF
EA
DA
17
F5
0E
F9
EF
0B
26
2A
F0
FC
D4
E3
F4
DD
F5
E2
EA
FA
F8
F0
E5
C2
C2
E2
03
23
0B
EA
F4
0E
FC
0E
04
1A
15
35
17
02
00
0E
16
03
E8
FC
E2
E9
E2
DC
E6
EC
D1
ED
F9
06
EC
E5
F9
D9
08
F9
F0
1C
FA
0D
20
2A
10
0F
FB
1A
F4
FF
DE
F2
EF
E2
E2
E0
01
FE
0B
F2
F3
F4
1A
09
10
FF
FF
F4
D4
09
FE
25
1A
01
FA
FC
02
FF
F2
E4
D9
E5
E4
FA
E8
F2
E6
D3
E9
FD
1B
13
EF
F5
0C
0D
EC
2F
26
0E
14
FF
FC
F0
F0
DE
0A
09
F2
FA
F4
00
E1
D5
DB
DE
F0
EB
FE
15
12
12
11
F3
0D
38
31
FB
07
05
F7
FC
F5
E6
00
0F
F6
E5
EA
F9
E4
E1
D4
E5
F3
FC
1A
0A
07
0F
03
EE
13
4B
41
15
1E
0E
10
29
09
E8
E8
2B
1C
17
2A
F7
FD
EC
ED
CE
FE
01
02
09
FA
F4
EF
0F
08
F6
F3
15
18
FB
03
E6
04
05
10
03
34
10
30
1B
02
23
17
05
F0
EF
F2
F2
0D

