65
F5
E0
D6
2D
FE
FE
DA
1D
3D
DE
C1
E9
18
01
D1
EA
D3
0D
19
0A
BF
FB
0C
21
14
EA
F3
39
EC
EB
02
2E
34
48
1D
2C
CD
14
F5
04
2D
32
1B
FE
17
FE
3C
16
13
E6
33
0E
13
21
E0
EB
15
30
E2
33
0C
E9
FC
4D
E6
EC
0F
D1
34
0F
D7
0E
06
33
1F
00
10
2B
05
02
00
19
47
E6
37
22
D9
09
0A
15
ED
1E
10
25
FD
02
0C
EF
30
E2
AB
D3
F6
34
03
15
1A
F0
D5
09
00
F7
DA
09
F1
2B
EF
09
1B
D9
C4
AE
B4
FE
17
0F
27

