01
76
6F
72
10
0E
09
77
6D
7C
6E
6E
13
0E
7A
06
7B
02
02
7E
02
79
7C
7C
77
78
70
05
12
0A
0D
00
75
06
06
06
0D
0C
13
11
07
0D
06
7A
26
10
01
0B
13
13
73
0F
04
06
70
74
75
7F
71
74
79
10
79
1E
24
15
1B
10
03
0D
0C
15
7F
00
18
06
01
23
03
05
12
12
7D
71
13
7C
03
7A
14
75
03
12
74
20
7E
0D
17
19
00
02
6E
09
1B
18
03
6E
7E
73
28
1E
17
01
7B
09
65
6B
70
6D
71
05
0B
7F
73
1D
7E
76
04
0B
72
03
7E
04
7C
7C
6C
6C
75
63
0A
0B
0F
00
06
78
65
7D
01
72
74
74
79
69
0B
08
16
08
00
0F
7B
6A
78
76
06
0E
7E
5E
1B
00
10
7A
7D
08
7D
07
0B
0A
07
7C
1A
04
7E
00
15
00
0B
74
7D
10
0E
7F
12
7E
10
0F
04
16
04
1F
77
11
75
0C
7D
1C
09
02
10
22
7D
7F
7E
7F
7A
00
0B
78
0E
15
21
14
7F
70
05
7F
0A
7C
7F
73
7E
0B
6C
7E
0A
17
24
14
0F
13
1E
79
03
08
73
05
01
01
1A
0A
7E
7E
71
7B
08
0F
0F
04
06
7E
0A
74
01
03
10
7E
6B
0C
0F
16
02
00
79
6E
00
76
0E
21
06
18
7E
6E
07
09
19
05
06
75
0D
0A
74
61
75
7A
01
05
1A
7D
78
72
77
79
68
79
02
1B
21
7C
01
73
0C
7E
06
7B
69
79
0D
73
06
67
68
7F
70
67
08
13
78
71
67
78
65
7E
0F
16
08
1B
19
15
73
07
06
71
54
58
79
6E
05
0D
6B
11
76
65
65
5B
73
76
67
69
6F
19
7F
78
15
11
1B
7A
07
76
7E
66
5C
63
7F
00
7C
73
16
76
03
6C
7D
6C
6C
7B
06
78
0D
02
0A
72
09
1E
09
7F
01
74
70
6A
5F
03
10
77
06
06
02
1D
17
69
6C
7F
57
7E
78
74
7D
7E
19
76
12
01
10
06
06
7B
6C
0E
6D
23
0E
06
0A
00
17
0D
0B
07
7E
70
7B
08
6D
73
7A
7F
7D
07
1B
0B
05
79
08
11
6E
1D
7F
13
7E
6F
7C
03
20
1F
7A
71
57
72
74
78
0A
7F
6C
05
77
0A
12
7D
02
18
70
04
74
26
0A
11
7B
0C
08
04
16
04
04
6E
60
69
6B
77
6D
6F
7A
15
0A
78
73
10
09
04
7A
06
73
1E
03
0A
0B
07
7E
77
7C
69
66
4A
6A
6B
70
70
05
7E
77
10
03
6B
6E
0B
02
22
78
11
15
76
74
6C
6A
0B
0D
6D
05
6E
68
79
62
05
04
11
76
76
1E
16
0A
6F
72
07
1D
1B
70
04
1A
1A
0E
73
7B
0F
19
04
70
7B
78
04
01
7B
78
02
7F
0C
19
19
0E
1B
69
6F
01
75
0C
75
0C
32
0C
06
75
15
03
10
7F
1D
17
1D
10
7D
71
7F
11
01
06
78
2C
36
07
77
1E
00
73
75
28
2A
15
24
11
19
11
1C
23
0A
15
0F
04
02
7F
07
0D
05
00
0A
1D
0F
79
70
7E
0E
03
11
0E
03
1F
0A
13
02
1C
33
1B
07
0E
16
14
1B
04
7F
7E
77
0B
10
1B
2B
0B
0C
04
7A
08
77
77
0E
0B
17
05
12
1A
0E
0D
00
14
16
7C
0A
1C
11
1C
6E
72
74
14
0A
21
08
7A
11
03
7C
04
08
04
06
1A
16
6D
7D
7D
7D
04
79
77
00
7D
0A
7B
2A
71
15
10
17
13
74
03
77
0B
0C
05
05
74
77
6C
59
77
5D
7F
79
00
0E
65
10
37
77
76
12
0F
03
12
15
73
05
6D
0E
03
73
02
6E
7C
07
0D
13
0D
08
18
02
78
0B
7F
76
7A
74
6D
71
00
65
5F
01
74
0D
72
73

