3C
0C
EA
17
FF
EA
C6
02
E5
EE
F2
E3
AF
2B
26
F5
CD
EF
1E
14
DF
F3
21
2F
EC
DE
D4
02
CA
05
D3
D3
35
FD
26
0D
12
28
11
F5
05
19
46
11
DC
17
19
DA
2A
11
18
4B
06
15
03
0D
28
03
F8
FB
F8
10
A6
E9
02
06
D9
DF
CE
22
27
E8
DF
24
1A
22
17
1A
EA
E3
CF
CF
1C
13
17
13
10
00
20
F6
E9
2E
E9
20
E7
04
F0
0C
EA
0E
D2
D8
E1
F4
01
20
0B
1E
1E
21
1C
18
07
ED
F5
0F
2C
F6
2A
0D
2C
EA
EE
F3
20
E2
E6
2F

