00
3C
00
11
36
0B
3E
39
37
08
06
3F
31
04
0D
05
3C
35
36
03
2F
32
0B
37
09
32
02
00
37
09
35
04
07
13
32
30
2F
03
0A
07
38
0E
0C
39
03
02
0E
0A
35
39
04
3B
08
0A
3B
0C
2F
37
2F
3B
09
37
33
0D
38
10
33
08
3D
08
31
35
0C
0C
31
32
08
10
38
06
2E
03
3E
31
05
0C
03
32
30
09
3F
2E
3D
06
12
0B
3C
30
3A
39
3A
36
3A
01
01
0F
2E
0E
12
35
34
30
39
0D
3D
07
12
0B
36
00
3D
33
0E
10
07
36
10
39
37
06
04
3B
0C
06
0E
00
0F
3F
38
3A
34
2F
3D
09
34
08
0D
0A
07
30
3B
08
31
3F
36
2C
00
08
10
3A
09
0B
3D
30
0A
09
09
12
01
00
34
11
35
3A
10
03
3F
0B
07
01
3D
0B
39
05
06
37
30
2E
2B
3F
32
07
34
0F
39
2F
00
3A
07
04
0D
08
03
0B
3F
02
04
35
0C
38
01
02
36
3A
0D
31
36
33
07
05
0F
0C
3C
12
05
02
13
34
3A
03
3D
05
36
2D
01
35
04
30
35
2A
0A
32
03
30
3A
2F
2C
0D
06
06
2E
3E
04
0E
30
00
3D
39
08
35
02
3E
01
30
0A
3E
04
2F
04
2B
38
3C
2F
3D
00
0A
03
32
08
00
38
01
31
36
08
0E
33
3E
3A
10
3B
0C
04
2D
02
3A
10
3A
04
3F
35
01
32
37
31
06
0A
30
37
10
0C
01
0A
06
05
2F
11
2E
2A
33
0C
31
0B
3A
2C
38
2E
30
37
37
0B
0A
10
36
0B
37
3E
37
2E
3C
06
09
33
2C
2C
3E
3F
01
30
01
04
03
2F
32
34
03
0D
33
3A
0F
38
32
0D
12
08
0A
3D
0E
0B
35
0F
08
0D
32
01
30
08
38
01
05
07
39
3D
02
0E
09
30
02
31
0D
09
39
0C
06
09
0C
0E
2E
3B
11
2D
0D
05
08
34
30
06
35
34
0E
06
3F
07
32
05
0C
36
0B
3B
30
03
0A
08
2F
38
06
0B
01
03
2E
0D
07
08
00
01
31
3E
03
3F
06
3C
13
05
2F
07
07
01
35
11
2F
08
02
13
0B
08
35
32
3E
05
2F
0E
2F
38
2C
00
06
0A
33
0D
07
3B
36
01
38
3E
3E
0E
0F
02
12
32
05
07
2E
2E
0D
3D
05
36
0B
33
2B
2F
2D
2E
36
36
00
31
11
30
08
32
0E
3C
37
2F
01
01
35
04
3A
0C
30
30
31
37
06
34
33
01
33
3A
31
06
34
0D
33
34
11
0B
10
33
3E
0B
34
00
3F
3E
37
33
39
2C
07
0D
38
04
2C
2C
38
39
0C
2F
31
35
02
10
3C
3E
38
32
0C
31
33
05
39
07
3D
0C
38
0A
36
2C
0C
2B
3E
3E
32
2D
3D
2F
0B
30
11
11
11
3E
3D
32
05
3E
3E
3B
35
30
2C
3D
2F
35
2F
2F
0C
30
09
05
0E
38
04
36
3A
07
05
11
34
0E
39
30
11
32
0D
01
07
11
00
34
0A
38
3D
3F
06
3E
05
01
2D
0D
33
0C
35
2F
00
38
2F
02
0B
00
36
04
12
02
11
08
0F
35
02
0A
10
06
09
36
05
2A
0A
36
3A
33
2E
00
31
3B
3F
03
3C
02
0C
3F
01
2F
0F
3D
07
2E
32
07
35
3D
2F
0C
02
2F
04
2F
06
0F
07
06
0E
00
3D
3D
33
32
07
3E
0C
04
30
2F
00
31
36
3E
0E
0D
31
0C
0D
3A
3F
12
36
2F
07
0E
13
3B
12
39
32
06
34
09
32
12
0F
37
2D
3E
06
06
33
39
0B
0C
3A
37
36
2F
04
00
10
3E
00
02
3D
36
30
00
2F
09
3D
06
38
30
35
2D
3D
0E
34
0A
32
2E
3F
07
3B
3B
02
0B
13
06
00
31
36
05
3E

