01
0D
F5
08
0C
09
F9
04
0E
FF
0A
F8
E9
F9
1B
0B
13
F2
FD
FB
05
FD
08
0D
10
F8
F0
0A
02
F8
F7
11
EE
F3
0C
F6
08
FE
03
0D
10
03
E7
1B
15
08
F0
FB
16
F4
02
13
F6
F7
0C
FD
EE
02
F5
17
10
10
F7
F2
FF
EC
E9
F6
05
E0
E3
E5
16
01
02
DE
FD
06
0A
1C
03
14
F7
04
FF
FD
04
1E
18
F9
E7
F5
FA
0A
17
14
09
24
07
EF
FC
00
F5
F4
0C
1D
19
0C
EE
0E
DD
0C
0B
03
EF
FE
F9
E3
F3
F0
E4
1B
02
0D
19
0B
0D
0F
0B
27
13
17
03
0E
0C
F1
FF
0B
03
FF
FA
0B
EC
F2
F5
D2
FA
FB
F7
F4
07
FD
08
FD
1E
12
17
27
F6
05
0B
1B
1A
DC
F7
11
1F
FD
FD
F8
EE
DC
F6
D6
E6
EC
F6
FF
01
18
FB
F5
F7
02
10
04
0C
0B
EE
EF
0C
06
03
0F
14
0B
FF
F4
FD
E2
DD
EF
E0
01
EB
0A
12
09
09
0B
0A
17
05
F5
11
02
03
FB
FF
FF
0C
28
00
F5
F3
F9
F1
0B
DD
04
0D
08
00
0E
0F
13
1C
16
12
FD
1F
0A
1A
12
16
0E
0D
10
23
0E
09
17
06
E2
08
04
FA
F1
0A
07
0A
1A
16
04
FF
0B
10
03
FB
0B
0F
0D
F8
0C
F5
03
11
1B
19
F0
07
DE
FA
F0
0B
1B
28
0F
01
15
0E
12
FF
05
0D
0A
F8
0A
F8
08
07
FD
03
1C
FF
F3
06
FA
F9
DF
E1
07
1D
00
0E
0C
09
0F
FB
10
F3
05
F6
00
00
04
F3
11
FD
16
04
22
1E
17
22
F8
0B
03
FA
19
1A
02
F9
04
00
09
F4
FA
FC
FF
0F
08
03
0D
F6
03
11
09
16
25
26
F4
FD
D3
FF
06
EE
05
1F
EE
FB
0E
09
0B
F7
F7
FD
03
02
0F
01
0C
09
22
13
01
23
00
FB
FC
04
18
F8
FB
E5
FA
F2
10
14
09
FB
FB
08
00
01
2A
1D
F9
F0
F4
06
F2
03
02
18
04
04
0C
03
00
09
00
D8
09
12
09
05
0A
1B
F7
1B
16
08
1C
1B
0B
10
F0
04
00
ED
04
EA
16
0B
09
02
17
EA
F7
F7
05
14
12
15
FB
0B
0F
16
02
0F
F9
FD
00
01
F8
F2
F8
EC
ED
FC
F5
EA
2E
09
26
F4
03
FC
00
19
0F
FB
08
0D
00
0B
1A
0D
F8
01
FA
13
05
FC
FB
00
FC
F7
E8
E6
02
F9
23
0A
FF
EE
FE
0F
15
16
15
19
0A
0A
FF
0E
FE
05
1A
FF
11
05
09
F5
EB
FE
FB
FF
F4
E6
E2
07
03
0F
E7
F7
FB
FB
03
0E
11
1F
F0
F6
10
03
04
12
06
03
01
04
F5
04
EC
02
0B
EE
E5
0A
17
05
FC
11
15
03
F7
F5
0D
00
0E
0A
0C
FE
19
06
FE
1D
0B
13
E2
F5
F2
01
ED
0C
0E
06
F0
F1
F9
13
FC
1A
04
0B
F7
FF
02
FA
0D
04
0D
0C
19
F1
FC
F3
E1
0D
EE
FC
01
39
0F
06
FD
04
1C
FF
04
0D
17
F5
0D
0C
05
FE
1D
FF
05
15
FF
F0
F3
F9
D9
FE
F1
03
FA
24
F5
F4
FB
00
17
0B
EF
ED
E8
08
08
F6
00
16
0D
01
FF
20
F5
09
02
F8
E4
0A
FE
F4
FF
F6
F9
F6
0C
FF
F4
F0
D3
D3
DC
F0
00
13
19
1C
20
ED
F7
02
D7
F9
F2
09
EB
F7
0C
08
05
01
0E
FF
F6
2C
01
C5
BB
0C
ED
E4
ED
FF
E8
F1
04
F5
0B
FD
FA
0E
18
FF
08
F9
01
FE
FE
07
F9
F4
04
FF
03
F6
09
F3
E4
EA
F1
06
1E
17
F1
F2
EB
F7
FD
16
F7
10
05
E6
16
FA
04
12
F6
FC
F5
FA
F4
05
ED
12
FE
F2
F1
F0
04
0F
F3
0E
FF
EC
DE
F0
08
E2
F6
F8
ED
FA
F7
F1
01

