15
A0
19
2A
0A
EB
FA
D1
1B
D8
15
2F
EB
1D
ED
FD
E7
34
2D
1F
EA
33
3B
F1
05
17
F6
EF
E5
27
A9
05
D2
06
06
E4
F7
2F
FB
26
F7
E0
60
C6
01
B2
0D
17
2A
C8
BA
33
D6
2D
2F
F9
06
28
DF
33
29
3A
E1
EA
D7
35
E2
0F
1B
E1
15
F1
0C
0E
F5
F9
E8
4C
DF
17
33
24
FA
0C
CE
16
01
14
0D
53
06
C2
AA
19
E4
02
0B
B0
AC
E7
02
14
1E
EB
2C
D5
3E
EB
18
1D
21
FC
F1
94
CB
CA
BA
03
1E
44
1C
F1
C0
F3
E8
D9
1E
BF

