EF
08
02
F5
0A
0F
0E
08
FD
FC
00
02
E9
F4
03
F1
FF
F3
FB
01
0A
11
F2
0B
F2
F9
12
00
05
09
F0
F7
07
F6
DF
F9
F4
EB
EC
D8
CD
E1
EB
D2
DF
E5
E1
FB
F2
E7
EA
EE
04
11
F6
12
F9
FF
F8
F1
E6
E8
DF
F3
FA
10
0C
EF
DB
C8
E6
CC
D2
F2
D9
D0
C5
D2
DC
E1
FB
FD
0C
F2
0A
07
F8
F8
DC
E6
CD
D3
EF
0C
0F
1D
0C
DD
D6
F3
EB
EB
FF
01
13
1E
1E
04
08
2C
00
FC
08
0A
FC
FF
F8
EA
D7
E4
E7
F0
E8
F8
EF
FA
1A
0A
F8
18
14
EA
FE
17
FC
16
2E
23
15
0B
0F
04
F7
ED
DC
EF
01
E8
F1
F9
F3
E8
EF
F1
00
01
E7
F1
F3
E9
E1
F9
16
05
02
0E
12
1C
03
E8
1F
EA
E4
1F
12
00
09
FD
06
13
FD
07
0E
E0
E2
01
04
F1
F5
0E
1A
FD
06
17
0E
10
03
E1
1E
0A
E4
FE
F8
0A
FD
10
03
01
1E
FF
00
FA
00
13
EF
08
0D
11
16
ED
F5
02
12
1B
0D
1A
0B
FF
FE
09
FA
EE
06
00
F9
12
16
0B
05
12
07
0C
0A
F7
F0
05
07
E4
15
10
F0
0A
00
20
01
EE
11
12
F5
04
EC
05
F5
12
1C
11
04
08
FA
0C
1D
05
F6
EE
F0
EA
E5
E7
00
0E
01
10
1B
F4
00
1D
14
EF
ED
F7
16
18
1C
0E
18
26
1C
FB
04
FF
F6
E1
F1
BC
DA
06
F4
04
0A
F9
35
F7
F1
12
04
F5
F8
0A
05
1A
1E
10
FF
0A
FE
0A
10
FF
F6
DD
E7
C7
CF
E0
CC
2B
00
F8
14
01
07
22
FD
E7
0E
07
F3
FA
EA
E1
FD
FA
03
01
F8
11
ED
D5
FA
DE
F5
F8
14
13
F3
0C
08
E2
0A
14
E4
06
04
F2
EF
DE
EC
DF
F3
F7
03
0E
13
E8
03
E9
DA
F9
08
07
09
01
FE
FB
0D
11
17
FD
E1
E8
F7
F7
E6
D6
CD
C6
EB
EC
07
00
0A
EE
01
E0
07
1C
26
F8
1C
F7
F3
05
FC
FE
17
EB
FF
04
EE
E2
EA
F5
DF
EA
EF
F0
F7
18
02
F8
F1
FC
06
29
1B
F7
09
F1
FE
F6
ED
FE
F9
F4
17
27
32
1D
05
0D
00
F7
02
F8
18
0C
11
10
FC
12
0C
16
15
FB
25
E5
FB
06
00
E5
E5
10
1C
3C
2C
22
28
0B
07
FB
0D
0B
1F
0B
0D
0F
F3
F7
F9
00
17
F7
F9
E7
FA
0B
FB
F9
F2
0B
15
1C
1D
1D
06
12
12
FF
0B
1F
21
1B
FC
F8
0D
0F
0B
00
04
05
1E
FF
02
0B
08
20
04
1D
04
14
F7
04
05
0E
12
07
10
18
0A
06
08
07
13
06
EE
F7
FF
F5
0C
F7
F0
03
05
FD
19
FF
0E
F1
05
0C
F1
E6
F3
ED
F8
F0
10
04
04
FD
08
00
E7
FF
20
1B
1B
13
0A
F2
09
E5
08
FC
F3
D9
0D
0C
E4
E4
FB
E1
EC
EE
FC
F1
FD
0E
03
08
16
09
29
FF
D7
F4
0B
F5
F6
E2
EC
E7
05
F3
FC
DE
F1
E3
FA
FF
F8
F3
F7
0D
01
0B
EE
11
01
0E
30
06
DB
FF
FA
F3
EE
E5
07
F9
0A
FE
EF
DE
00
EF
01
F6
FC
F3
00
FC
E7
E9
EE
E9
FF
20
34
2A
F1
F0
F6
EF
11
F3
06
FE
0C
F4
F3
DE
F0
F8
F2
E4
EB
EF
F9
FC
0C
05
FE
04
14
1C
1B
0A
00
00
0C
FB
0B
0A
1F
FF
F0
EA
F5
E9
FE
02
01
05
05
F1
00
07
01
12
04
29
19
1B
38
F1
02
F5
FB
FD
04
08
07
05
EF
00
F6
03
04
0A
F4
08
F5
0E
0F
0B
FC
1F
16
15
29
F3
06
14
00
F1
F8
0A
F2
07
06
F6
08
01
06
11
10
0C
06
05
03
00
04
19
07
1E
22
22
2B
16
02
F7
F5
00

