EF
06
FA
12
F4
01
0B
F8
EE
FA
FC
06
16
1D
05
F7
0D
01
F8
EF
F8
0B
0D
02
FF
F0
FB
00
06
F8
FE
F6
EF
EE
FB
08
08
05
0A
04
F9
F6
0F
08
02
09
FD
0A
09
0C
02
F6
11
F7
FC
F1
0F
F2
01
13
07
13
00
EE
0E
FC
03
F5
13
18
FE
07
ED
FD
DA
CF
E6
EA
F2
FB
0F
07
0D
06
FC
FB
0B
0D
EC
05
03
F4
2B
15
2D
18
08
11
1B
05
0D
10
DF
DF
0A
F6
E1
F1
04
0E
EC
FF
12
02
22
F9
0C
2A
14
21
24
24
1C
31
3D
2E
25
1D
0E
12
1B
F8
03
DE
ED
B9
F3
E8
05
F0
06
12
03
15
0D
12
22
0C
11
FC
25
16
27
1E
1E
03
2A
12
0E
08
12
0C
E4
D5
F8
11
1B
0A
11
11
FF
04
FC
E2
F8
04
FA
04
05
1D
1D
18
18
0B
0E
1B
16
F2
F7
F7
E4
E9
F2
01
F2
EE
01
22
E3
1A
00
11
0A
0B
11
FF
00
0D
18
04
00
0D
F8
02
20
F3
02
F4
FC
E9
ED
ED
EF
08
EC
F7
16
11
29
0C
F4
00
19
19
04
ED
E6
E6
F4
F1
0F
1E
23
17
07
FF
07
D9
B7
E7
01
0D
04
FA
10
28
1B
0F
FB
13
F9
FD
E0
D9
D7
CE
ED
FD
0A
07
17
1F
0C
00
06
F0
DA
F8
15
0A
0E
06
09
04
F7
ED
F9
F3
ED
EC
D8
DC
D2
E4
E4
01
00
2B
1B
FD
FD
21
06
E2
B7
F2
E9
F0
F3
07
ED
FE
D9
EC
EA
DF
E9
D6
F4
F3
FC
F8
0D
FB
01
1F
0F
1C
11
14
FC
EA
DF
F9
F1
F3
F0
0E
ED
03
DE
D7
E2
FD
04
ED
0E
15
01
16
02
07
09
F2
F9
FF
01
E2
DF
ED
EE
10
03
F7
F9
06
F6
01
D3
F5
0A
F3
10
00
03
FB
08
17
0B
01
01
0B
F9
F5
F6
EA
03
E0
EB
EA
13
0E
0A
01
F9
05
F4
FB
0A
1D
0D
01
E5
F9
F0
04
09
0C
0C
03
EE
E8
0B
FE
01
F1
E8
E6
1B
00
FE
F7
0E
F4
FF
14
14
FA
DD
DC
F7
E6
FC
EA
07
01
14
EF
DE
ED
E7
0D
15
FD
13
07
F6
14
F0
0A
0D
FC
03
0B
E9
E5
D5
FF
EE
DF
E1
02
EA
03
F8
F3
0D
02
FD
0B
17
05
FA
FE
13
12
09
0E
13
FB
21
F6
F8
F9
E7
FF
DF
F2
EB
E7
F2
DB
01
16
0D
0A
FC
00
F9
F1
F4
03
E9
19
1A
F5
0B
04
04
0D
FD
EC
17
04
00
05
D2
D2
D5
F7
17
F4
F7
08
F6
11
01
F8
F3
04
E8
15
03
15
09
FE
EF
15
F5
FC
FF
00
F5
F0
EC
F5
02
F4
0C
08
0C
0C
F4
08
00
FB
E5
02
09
19
08
10
FC
05
11
0A
01
FB
05
12
18
03
F1
0B
ED
06
F9
02
FA
0A
18
FE
01
0F
F0
E8
06
F5
02
0F
17
18
FB
0C
01
26
10
0B
08
F4
FB
07
FF
01
03
0A
02
0B
F8
F8
FE
0B
EC
FC
01
11
F4
0B
15
05
11
17
12
17
06
23
12
02
F4
16
09
0C
05
F8
0A
23
10
03
00
EB
0C
09
0D
FB
EF
0A
10
22
EE
03
01
18
18
06
21
26
1A
24
19
0E
09
13
13
FF
08
05
05
FB
09
FF
FB
10
EF
01
06
20
08
F9
02
07
1B
00
0D
1B
11
0E
FF
07
12
23
0A
07
DD
F7
FA
F0
00
07
FF
01
FC
FC
00
F2
FC
E8
05
FC
0C
16
0E
16
F7
E3
00
01
03
0F
11
0D
08
07
F9
EC
F3
F8
FF
00
F7
FF
0E
F3
F8
E3
CD
ED
CD
0B
14
18
F9
05
F4
EB
DC
CF
E8
F6
FA
05
00
FC
FE
07
0A
F0
F0
09
F2
02
FA
03
00
FD
0A
E0
02
12
E9
F7
12
EE
E6
E4
04
0C
04
FB
FA
01
FE
F7
F8
F3

