1B
1B
C4
0C
E3
D8
F1
05
1C
F6
DC
C9
1A
0A
DD
FD
E2
05
0C
0A
F0
F3
F8
E8
CA
09
12
FF
02
D2
2C
E0
0C
13
0F
EC
F0
E6
03
D0
0D
F8
2C
2E
EC
F8
02
3D
D2
01
C7
D9
FF
ED
C8
05
12
DB
CC
F1
12
F7
13
12
13
11
FF
D5
2D
D9
FC
FA
12
FD
E5
0D
23
F5
07
D4
09
E5
1C
1B
C7
0A
14
02
D2
FA
E7
09
15
0E
31
15
FD
ED
1C
FC
25
D8
E5
08
25
F5
04
E0
AE
CB
DC
D4
D5
15
E4
07
F0
29
07
D5
F9
F9
10
06
23
F4
08
E3

