40
46
D1
66
61
7F
00
00
10
46
D1
66
61
7F
00
00
E0
45
D1
66
61
7F
00
00
B0
45
D1
66
61
7F
00
00
80
45
D1
66
61
7F
00
00
50
45
D1
66
61
7F
00
00
20
45
D1
66
61
7F
00
00
F0
44
D1
66
61
7F
00
00
C0
44
D1
66
61
7F
00
00
90
44
D1
66
61
7F
00
00
60
44
D1
66
61
7F
00
00
30
44
D1
66
61
7F
00
00
00
44
D1
66
61
7F
00
00
D0
43
D1
66
61
7F
00
00
A0
43
D1
66
61
7F
00
00
70
43
D1
66
61
7F
00
00

