08
79
7A
01
7B
75
7C
12
74
7E
75
0E
7C
6D
04
00
07
7D
70
0B
0E
00
10
7B
10
0D
11
0A
0D
77
09
72
7B
00
6F
77
0D
78
0C
75
6E
63
50
55
78
22
12
69
6F
76
08
79
0E
02
6F
72
6F
0E
78
6B
64
1C
7B
03
18
19
04
72
76
04
17
68
73
1B
6E
75
19
14
17
0F
7F
07
0B
77
6F
72
7D
66
75
1A
14
6D
7D
07
67
75
00
79
39
21
15
01
09
72
0D
28
0B
7A
18
04
07
71
71
78
04
00
7E
08
04
72
65
69
08
70
7D
6A
03
05
76
79
0A
12
1B
14
12
07
15
07
71
08
74
03
7C
6F
13
11
7C
5F
76
7E
6D
67
6C
69
7D
03
7C
7E
08
0C
14
0F
10
18
2D
0B
27
23
79
6F
7C
10
1D
7D
6E
5D
00
5A
5E
52
5F
00
01
72
11
6A
7A
07
77
0A
08
01
10
19
10
16
04
6B
7B
79
7F
14
21
71
00
02
56
65
5C
6A
6C
6D
74
06
06
6D
17
08
1D
7A
21
23
1B
06
75
61
00
6A
63
75
06
64
6D
71
51
66
6F
00
72
79
07
07
7F
77
67
78
75
5D
0C
09
77
6F
11
65
0E
78
76
04
67
72
63
50
75
07
6E
7C
7F
0A
77
6D
68
7E
02
79
68
5C
64
5B
75
63
00
7F
00
73
73
05
7A
7E
66
63
5D
73
08
7B
66
0D
66
73
74
6C
78
7A
68
54
5C
79
6D
76
0D
73
02
78
49
72
6F
01
0A
7E
6F
19
03
03
74
05
6A
74
7E
79
72
64
74
4A
45
66
44
78
03
73
0C
6B
5A
64
7A
7B
0A
0E
1C
16
25
7C
0F
79
7F
6A
6D
11
7A
66
6D
59
6A
70
57
56
7F
03
69
7F
77
72
0F
20
1D
06
18
1C
1F
07
05
76
01
1C
16
12
5E
6E
00
07
69
4D
5D
0D
6E
6E
75
0E
01
0F
12
28
71
1E
13
05
12
6E
7C
7D
15
11
0C
07
77
5E
70
02
05
77
06
02
0F
70
14
04
78
7E
11
12
7A
0D
0A
12
19
09
79
1B
0B
20
06
10
02
05
17
0A
0B
1F
7F
27
74
62
7B
76
64
6C
01
1A
03
78
1C
22
0B
72
01
32
22
38
18
18
09
2B
19
27
0A
1C
1C
08
72
04
0C
6E
08
7F
0D
1C
1C
23
12
78
7D
01
0F
25
31
2D
1B
1D
0B
24
02
73
61
06
0D
0A
7F
0E
7A
12
15
12
0C
0D
1E
10
02
6F
12
01
0D
31
1D
13
0C
14
7C
76
00
14
78
4E
4C
73
0C
7B
68
05
19
2F
7D
04
07
7B
69
78
06
7C
14
0B
19
6C
76
75
78
70
12
07
71
59
07
72
0F
78
1A
13
1D
75
79
10
05
0F
03
05
08
08
7E
61
7A
64
78
08
62
02
74
17
7F
7A
01
13
7C
08
19
18
16
29
70
01
0A
00
09
77
7F
03
71
4E
06
0B
7F
7D
02
01
1D
18
7C
64
2A
0C
07
77
77
70
74
02
72
7D
6D
7D
7C
03
09
7C
70
6E
74
06
70
74
6B
0B
76
0A
09
74
18
12
10
0C
02
14
77
5D
6B
7E
7E
6C
7C
70
76
71
04
7C
66
7A
0D
69
01
79
79
7B
01
6D
71
09
79
03
76
17
6F
6B
69
4A
5E
6D
55
68
52
55
7D
78
18
29
0F
74
09
16
06
7C
7B
1F
1E
09
05
7D
08
02
7C
7C
12
14
7B
7D
74
1A
5F
7A
73
78
0A
0A
13
6C
00
05
69
6C
7A
19
0A
70
0F
04
70
03
20
7A
09
0C
7C
73
6F
21
7C
68
63
6B
1E
7F
0A
5C
49
72
00
06
08
07
0A
06
0D
09
03
0F
06
02
7D
62
64
66
67
7D
7C
73
78
4F
7B
6C
79
6C
07
7F
6C
05
0A
06
13
75

