FD
EE
F1
09
F1
06
0A
0D
FA
12
0B
F2
00
E8
00
FA
0E
00
08
04
F4
EE
0E
FF
F1
00
FB
F1
FC
00
00
0D
ED
08
00
E5
E5
EB
EE
E9
0D
FA
FF
FA
E6
EE
0D
F3
E2
F9
0C
08
05
F9
FD
F8
0D
01
0E
DB
DC
F4
FA
F3
F1
D8
FB
DF
ED
0F
05
EB
F2
F4
F4
E9
03
FB
11
DE
03
EB
06
0C
F5
EF
0D
E4
F5
17
FA
FD
FE
F4
EF
08
04
F8
FF
0E
06
FF
05
FB
10
1B
21
0E
FB
FB
0E
F4
EE
F0
FB
0D
FF
04
F7
F2
EF
E6
FB
01
11
FC
00
FF
00
00
F5
03
12
16
18
18
14
12
34
0F
0A
05
0C
F7
FC
FD
00
04
00
0E
0A
18
FE
F6
1B
0F
F5
FB
E9
07
02
F1
F6
F8
13
1A
15
0B
F0
FC
25
13
0D
0F
01
F7
06
09
F7
0C
00
F9
F1
FD
F8
0A
E1
F6
E8
E9
03
0A
17
15
02
06
09
EE
00
1B
F3
EB
F2
FD
F7
13
0D
F4
09
13
03
0F
F9
05
00
F8
FF
F7
F5
1E
16
24
1A
FA
01
09
11
00
F5
01
05
1C
1A
08
F8
FD
09
28
17
15
0D
F0
F7
F3
01
FB
F4
04
49
51
1F
FF
F1
04
F1
0A
0B
FA
11
10
0B
06
10
15
07
26
24
00
FC
F9
0B
0F
F8
08
E7
FF
23
5C
18
EB
0E
04
F6
0E
12
F1
09
13
EC
18
13
26
15
15
0B
00
FD
FB
0E
0B
04
1C
FC
F0
01
29
F4
DE
FB
01
1D
04
F7
16
1D
0D
EA
F9
FD
0C
22
08
14
F9
06
04
03
FF
0F
01
F4
EF
0A
00
0E
04
FE
13
FF
F3
F7
01
0C
18
04
00
03
0F
01
05
F6
0C
15
17
0C
11
FE
03
03
02
04
DE
06
07
F2
F5
09
F3
0D
0A
F5
06
19
0C
13
11
F5
FC
FC
0D
20
0B
FF
FF
07
EE
FB
F6
E8
E4
E2
F2
F8
FF
06
05
F8
F4
FE
06
09
12
FA
10
FF
F0
F3
05
07
FB
EC
F2
0A
F4
04
15
01
08
EF
E4
F4
13
20
22
17
E9
F7
14
23
14
1C
12
07
01
02
F5
F8
14
F9
03
FE
13
12
09
F5
EF
FD
FE
FA
FE
F7
F1
FC
05
07
0E
28
1B
22
20
08
05
E8
06
E7
07
0C
FB
02
05
F6
E5
EF
ED
F3
E8
0A
05
F1
FB
EA
17
FB
05
12
0E
01
0C
E9
D7
F8
FE
0C
07
12
0F
0A
F4
15
F2
F0
CB
E9
EA
05
FE
01
F8
08
17
F9
13
FA
02
E0
05
FA
F9
0B
08
0D
F8
07
F4
19
06
08
02
D9
CA
EE
D9
F4
0B
FF
01
03
11
F8
0E
F4
F1
FA
D3
E0
F8
FD
F8
EF
F4
F7
12
EF
04
F7
D8
D4
ED
E0
F2
0A
25
F0
01
E1
F5
FF
F2
F1
FA
E1
F5
DD
02
F0
FC
0D
08
FD
1C
F9
FC
EA
F6
F6
DD
E6
F9
F8
01
F5
ED
F1
17
10
EA
FA
F1
D0
FE
01
00
F7
04
F0
E7
FD
F0
F4
04
F4
D4
F1
F4
C7
FF
F7
F9
ED
10
03
ED
FD
02
EB
EE
FA
04
FA
F5
03
0B
F7
FA
F9
12
ED
0A
16
F5
00
0B
E2
F2
03
FF
F4
17
01
0D
F6
10
FA
10
F5
01
0C
04
F7
01
17
0F
0D
F9
0A
FF
10
0B
01
EE
E4
0B
F6
0A
F9
F2
FC
1B
FD
1C
20
28
02
0B
22
1E
F3
F3
0B
E4
EF
0C
0A
14
17
FD
F0
EB
ED
06
12
00
0D
F7
0E
07
EF
0A
0F
17
16
12
16
01
07
EE
0B
01
02
00
FD
0F
02
0D
F8
FC
05
F2
01
0B
FC
E8
E1
02
F6
EF
14
23
FD
13
0C
06
23
23
2B
06
09
0A
F9
17
2B
1D
F4
18
F7
0D
F2
07
FD
01
08
16
14
1D
06
30
2C
0F
22
2A
36
25
16
17
24
20
1A
1F
23
0E
01
F6
05
0C

