44
DB
31
29
EB
FB
B9
C8
04
37
DF
0D
10
04
EF
0E
26
E5
0D
1F
FE
C9
EF
F9
13
FB
42
04
0C
22
E9
F0
E5
13
07
11
DC
2D
12
15
23
20
07
ED
2F
EA
00
04
34
E4
AA
0F
0B
14
1F
25
03
04
23
20
16
01
88
CB
F7
DA
D4
18
CD
24
F3
15
2C
42
09
21
F3
11
F7
0F
26
03
E4
1B
EC
FB
0D
EF
0C
0F
39
C3
DF
2D
25
FC
39
16
D5
28
E7
C4
E9
DB
01
FB
ED
2D
F5
2A
2C
1B
DE
EB
2E
F7
E4
EF
03
15
60
0D
12
F4
19
EA
01
E3
E0
26
1E
EF
FD
1A
0C
0B
FB
17
EB
F5
FC
F4
FC
04
1F
03
07
F5
1D
FB
DB
D2
1C
10
26
5A
DF
FA
E6
14
1D
D3
DF
D0
BB
42
F7
23
07
E6
BE
2C
15
20
12
20
E5
D9
E2
D9
28
EA
1C
14
23
E3
06
ED
2D
06
25
D6
FD
11
FA
E5
1F
04
D4
F9
29
2D
BF
21
1E
0A
05
01
28
23
E2
18
05
D6
19
27
18
13
F4
29
FF
16
22
C8
E3
2A
3E
D4
D3
4C
2C
FC
D1
E2
0D
11
38
F2
FA
0E
E2
27
14
20
19
F8
2A
D6
FD
2C
1C
14
1C
EF
16
0C

