F2
EF
05
0A
DE
3F
E1
DF
EF
BB
DF
EA
E7
13
21
30
11
08
F6
0F
2B
39
2B
0B
D5
F0
E1
14
FF
23
38
25
15
0E
F7
1B
FD
CE
1B
CD
DD
02
C9
EB
0C
E8
1B
0B
0A
0A
DE
25
0F
F1
21
E2
2B
DF
C3
03
2D
24
2B
D0
11
F1
36
BA
33
0C
C9
23
1B
1D
FB
FD
14
41
FE
F6
F9
E7
F8
00
EE
D8
F3
11
D6
0A
FE
E9
F7
ED
FA
DB
FE
24
DF
C7
15
52
FD
0A
FD
1F
3C
FF
CD
19
17
FB
DE
D2
CC
C7
1A
EB
08
14
05
20
60
10
27
05
09
D9
F9
D8
05
0C
01
21
D8
05
01
C6
ED
05
E1
E9
2C
1B
33
FC
DD
08
27
B6
E2
17
F5
27
23
C2
31
05
50
02
07
2D
26
EC
E8
ED
F4
07
29
29
ED
10
1A
04
1C
2F
DB
10
E2
32
25
04
E0
08
FE
DF
E0
25
D0
07
C1
F7
56
C5
21
05
F6
E9
F4
04
0A
F8
0A
30
0B
F9
FD
EC
46
15
10
ED
DE
00
FA
DB
E1
EB
08
D7
11
0E
FB
22
3F
28
18
0E
16
03
13
FF
34
21
F4
EB
1B
07
E6
03
14
F6
ED
E4
F8
08
EF
05
1C
20
20
E8
2A
29
10
F9

