CA
0B
1B
02
47
F0
41
EF
E1
62
C3
25
B7
17
FD
1F
21
17
14
09
0B
D9
D6
E8
04
28
33
0B
DD
D0
E6
0A
E1
E1
F7
DD
F1
F5
FA
0E
E1
1D
0D
F0
F8
1E
33
F2
F6
0D
2F
C5
E2
EF
10
F3
C9
E1
3D
10
1E
09
2A
ED
E8
01
E1
FD
B4
32
0E
22
E1
EF
0B
E5
13
C2
E8
EA
20
06
FF
F7
05
3B
FC
F6
03
DF
F8
14
D8
1C
13
ED
20
E6
FB
0A
23
B6
09
FB
17
2C
E9
2A
33
FB
0D
14
0C
19
D6
3C
ED
17
2D
0E
F0
F0
E1
0F
EA
03
22
D7
F1
1E
FE
20
0B
0F
08
04
E1
E5
F9
39
B6
2E
E3
FA
23
D8
C3
DC
E1
D8
2B
DE
C1
DD
09
FD
C8
F3
41
D7
1D
0C
F7
F1
09
2A
27
F0
21
1D
15
1A
F3
28
01
01
14
5A
0D
3A
10
1D
0A
FD
2E
F6
DA
ED
E7
CD
DD
EF
22
F2
E3
03
E4
08
12
E5
D2
FD
FD
14
DF
2A
DE
F7
EA
F2
E8
0E
21
19
0C
0B
1C
11
C6
21
EF
EB
1C
4C
02
EB
E7
01
FC
35
FC
08
F3
1A
F0
00
11
1A
C9
0F
0B
E8
E4
07
03
09
16
21
E9
DF
0A
0E
F5
EA
22
E4

