EF
FF
F7
09
2C
EC
03
CC
34
2E
FF
E7
13
14
24
DE
03
EA
17
FD
05
0A
FC
36
23
D7
28
EB
E6
BE
F7
D5
F9
0F
30
F6
3D
EA
1A
2A
26
17
22
12
0D
2E
24
B8
E5
06
07
16
F9
DC
17
3C
DE
09
53
C7
16
FE
07
13
11
F7
F3
F5
D1
EB
36
17
0E
D8
0D
DD
0D
D7
F8
CC
EF
E4
03
D5
1D
0D
00
23
1D
0F
13
0B
FB
F1
C9
0B
08
05
12
16
E3
F8
00
10
D6
21
EF
34
0A
E9
C4
1D
19
2B
D7
13
F2
14
FD
D3
09
07
E0
01
E6
E5
F6
25
03
18
06
2C
32
E5
CC
E2
FA
FC
DB
FD
02
00
DC
DD
E0
00
C6
0A
1C
03
35
CB
10
C2
17
EE
F1
F6
DA
07
F9
06
0C
EE
04
C5
07
0A
0D
18
D3
05
37
22
D3
DF
D5
1A
E9
F6
0E
FF
1B
EA
2B
D4
1D
31
C6
F8
CF
21
DD
20
D6
FA
FD
1A
0F
23
E2
DC
40
29
DE
F8
40
12
E0
F7
ED
14
F7
F3
02
F1
FF
0B
F5
08
F2
E3
07
40
38
DB
F4
09
F5
D6
2E
FC
DA
EC
30
E1
1A
32
04
26
19
F1
F9
ED
27
F4
0B
3F
D7
BF
D3
EA
D0
D2
EF
36

