04
FD
31
DA
D7
1B
C6
EC
06
D3
00
48
C8
DB
04
18
11
20
D9
F6
F6
BC
E9
FC
E2
1F
16
EF
F4
FF
13
F9
EC
ED
D9
FA
38
05
2B
F9
E1
21
14
20
23
1D
20
1E
04
EB
82
21
1A
2D
2A
1A
FA
F9
C0
DF
E8
1B
C0
D5
05
C9
EF
1D
E5
01
EE
19
2B
08
0A
12
1E
36
0C
D6
14
EC
14
E6
06
FB
31
2A
EA
49
19
E3
18
13
F3
F6
47
E7
19
F1
34
F9
FF
26
EA
FB
18
E6
F8
ED
DB
E7
0A
05
BF
12
DE
01
00
3E
15
FC
1E
ED
19
22
23
FA
BA
10
1E
E8
EA
E7
FD
01
0F
06
1B
14
1E
0E
17
01
0C
21
E5
F4
1F
EC
26
07
3A
24
EB
DB
1F
DD
41
0C
D0
E4
F9
2B
20
D4
08
F1
DF
EB
DF
F7
EA
0C
07
B5
E3
08
FE
F8
FE
07
CF
1F
1E
F3
03
23
03
F4
31
04
13
10
01
FE
08
F8
E9
D6
18
27
04
FC
1E
E7
24
26
41
30
04
C0
2B
DF
24
E6
DB
DA
08
2A
F6
05
ED
E6
E6
15
2B
16
12
36
FE
1C
E5
1B
D9
EF
E8
FE
CB
09
25
12
D2
36
13
DF
F1
F9
F0
1C
EF
17
F4
EC
1B
DA

