43
22
09
7E
F9
5A
1A
6E
B9
96
44
55
53
B2
D0
87
FB
D1
5A
5B
50
B5
69
3D
65
C7
57
B4
ED
ED
4A
19
F8
A6
07
E0
5F
39
18
82
3F
09
47
D2
D8
A4
4B
A3
F4
66
16
B0
3B
47
FF
B4
5A
F4
AF
D3
08
9C
CC
FD
79
EA
A1
78
EA
DC
20
62
20
9B
F1
9E
48
D1
D5
26
93
5D
8A
4E
01
95
B4
A5
32
6F
83
D1
71
D7
D5
E9
94
0C
0F
19
07
45
F0
46
F7
7A
67
71
7A
43
70
88
F3
7C
40
18
83
ED
1D
75
CE
19
89
24
49
7E
F1
BC
CC
8D
C8
00
66
62
98
37
84
C5
E8
EC
72
8A
4D
F0
65
EF
FA
C9
BD
E3
74
E9
14
F3
CC
18
E5
60
3E
57
D9
5C
B2
05
31
00
FC
9B
86
1C
9E
04
3D
93
70
B3
63
A0
4E
DF
EC
C6
9B
8C
8B
48
30
FB
0C
6B
A9
BA
EE
A6
C3
9B
14
ED
ED
8A
DE
77
09
F4
F1
32
2F
86
ED
3F
17
FC
4F
76
D1
10
EC
68
6F
9F
BD
62
63
AD
A3
E0
CD
F7
5B
94
52
C7
31
D1
DA
40
95
87
AF
0D
88
01
25
35
3D
1B
C9
D6
E5
AC
57
76
02
F7
F7
48

