43
B2
AD
48
4B
68
E4
C2
4F
1A
56
D1
9D
5E
2D
F2
DD
C9
19
02
ED
72
07
2A
90
DE
26
3F
30
A1
87
12
9A
E8
60
8E
B3
93
63
BE
D4
1E
6D
FC
0F
B9
3F
FD
45
26
48
B8
36
03
94
4A
7F
9A
58
35
96
A2
FA
79
B9
7D
E4
9D
0F
C8
A3
26
E8
CC
68
40
C7
6C
88
73
E2
75
DB
D6
6A
83
B9
0E
0E
23
70
5D
30
C6
C6
AF
6A
CA
85
F9
5A
3F
59
61
D1
8B
41
60
1B
95
82
82
7C
3E
9B
99
61
48
3B
88
10
64
89
66
46
31
00
CC
44
5E
49
BC
E6
ED
13
F1
38
FC
11
CB
8F
B8
2A
A8
88
99
96
25
CA
BA
7F
41
86
BD
F8
A3
1B
DB
1F
9C
43
F0
84
73
AC
62
DE
4A
88
D9
2F
39
AD
E3
66
09
E5
A6
EA
6A
47
31
B5
41
84
D5
F7
B2
05
4F
2D
37
A7
DA
C7
9F
4C
44
7B
A9
93
46
21
40
81
9A
F8
73
F7
1C
D8
9E
72
E9
5E
07
FA
55
D8
1C
A4
78
A0
32
11
41
CF
12
92
F1
8E
91
5F
4A
00
EC
DE
E0
3D
BA
0B
A4
22
71
CC
1D
BE
A5
51
97
CE
6B
C3
67
18
14

