5B
C2
9C
AC
E9
74
78
34
C2
99
6E
9B
90
D9
5F
F2
25
60
EC
09
36
25
48
0D
46
31
04
BD
A3
3E
11
3B
C6
B2
F6
C8
2B
E0
E8
90
93
5B
5C
B6
48
0B
C6
35
B7
03
F9
70
35
EB
4D
B5
EA
98
CA
82
C5
AC
0D
A8
35
C2
4C
AB
FA
8C
E1
09
CA
AC
93
FA
1A
16
ED
34
A5
5E
7A
64
43
7C
2C
22
EB
C5
AE
B1
F3
A2
D9
00
2B
43
60
EC
50
10
75
3B
56
71
47
53
B6
92
C3
38
06
51
0C
AB
CA
43
01
61
81
DB
C7
0B
10
81
16
B5
EB
C3
E4
8E
9F
20
6E
02
6C
05
17
1A
D9
20
60
95
6B
37
77
96
70
0F
C3
8D
E7
51
EF
0C
64
F9
F8
DF
82
B6
98
D9
56
2A
B5
B1
0B
D5
D0
4B
AE
59
18
F7
BC
DF
0E
D6
04
E7
06
78
93
CC
25
50
1A
C3
35
B2
97
CE
2A
58
DF
8A
88
E3
25
DF
DC
16
C8
48
B6
4E
10
26
11
87
2A
3A
B8
95
13
96
FF
CC
4E
82
93
AD
FC
58
75
01
FC
BD
28
DE
1F
98
E0
42
21
1A
F4
FA
F8
1C
06
1A
48
C5
65
41
74
41
BC
F6
50
DF
07
6A

