D0
2C
21
A0
B7
9E
55
00
83
B7
F6
85
56
50
9B
8F
F9
19
66
91
B5
58
12
2B
FD
3A
2C
02
37
EE
ED
B0
E3
18
43
EA
AA
8B
AD
F5
DE
55
BE
86
CE
F8
92
00
68
E3
BD
7A
16
2F
63
12
D2
1E
A2
29
48
65
F7
FF
15
EB
79
E3
7F
41
43
20
B7
C5
FA
D6
D0
8E
43
1D
E7
E8
2F
3A
8E
CA
36
8D
77
A0
32
08
CF
27
2A
C6
74
75
89
39
B4
FC
2C
5F
28
7F
14
9C
22
52
4A
CD
E6
B3
2F
0D
2F
A6
A4
BB
A1
C3
24
F5
DA
FB
69
AA
40
C7
93
6D
B7
B7
8E
6E
AE
0D
0E
39
BD
46
46
04
D4
D8
B3
1B
C9
1D
82
EE
16
8F
D5
9F
2D
F9
A6
4A
82
3D
06
0F
DF
26
6D
BA
B8
3F
41
D3
68
B0
BB
00
0F
06
C1
F7
3D
D5
4F
37
00
61
69
D3
07
F1
73
E6
A4
6C
C1
FB
59
64
BE
B8
77
1C
27
61
5B
EB
BF
4C
58
A7
0D
D6
3D
A4
B7
37
D0
63
7B
14
F0
1C
3A
6B
0C
CA
00
87
2B
02
61
1C
3D
E6
7E
60
B1
C9
3D
2C
C3
41
74
9B
D0
18
59
B4
5E
3B
2F
07
DD
C0
78
FA

