69
6A
8F
EF
3D
FB
4F
B2
1C
71
41
AB
A6
D9
29
5C
57
A1
0A
86
B5
2A
A1
72
C8
20
02
64
C6
65
35
FC
A6
29
5E
A4
23
39
A0
66
1E
4D
A7
BE
CD
83
34
1C
F6
B5
EC
D9
C8
9D
DB
62
F2
58
4B
04
9B
73
06
35
24
F0
92
FE
81
8C
1F
D9
65
FE
C1
63
25
5A
E7
A8
CD
45
D4
B4
C5
7C
2D
CB
12
E3
C0
06
F8
D7
E7
50
45
11
41
AA
48
57
22
F0
0F
32
E9
7E
BC
85
46
B5
79
FD
FD
E8
E1
B7
00
BB
DA
66
B4
82
18
FA
1E
9F
CB
EC
70
AE
07
0E
FF
24
93
A9
FD
07
96
F8
2B
46
B4
8C
C4
37
A2
EC
63
B0
CA
A8
69
06
B7
A5
DE
86
FD
6D
E1
7B
15
C0
CE
D6
6E
1B
50
64
D8
A3
83
DF
2D
58
63
4D
D2
4B
64
4C
37
CD
EE
1B
CB
5B
AF
60
6F
EC
05
4B
00
02
75
20
11
34
B7
4C
79
48
C7
D1
74
8C
2D
2D
02
45
4C
09
66
F7
E3
58
4E
63
19
D4
DB
14
DA
C3
5A
67
15
02
29
9E
2B
CE
04
C5
C7
49
43
43
D0
03
A7
FB
3C
A2
02
6D
AC
4E
CB
13
2A
71
61
AF
18
74
7D
E8
FC
DB
04
65
3D
91
B3
B1
09
38
C4
41
11
1E
53
F2
B1
EA
2F
C7
B6
50
79
BF
36
10
C4
FF
12
B3
F1
C7
D1
0E
19
84
A1
F2
CF
31
F0
CA
6B
7D
12
1C
A5
9A
8E
EE
EC
F5
88
95
5E
8B
2A
35

