3B
05
50
FA
6D
D8
82
7F
00
44
69
ED
95
2A
75
3B
82
D8
10
6C
AB
9C
C5
F8
6C
C0
57
F1
B0
D1
8D
2F
20
8D
05
8B
FB
69
11
42
D8
F4
99
96
C5
A0
27
47
3D
0B
D4
31
8B
D5
48
C9
0F
07
A3
AD
B8
73
C0
2F
E3
C1
AC
8D
28
E5
2B
E2
D0
D5
27
6B
58
A0
A1
78
45
39
38
5F
C7
5F
13
9C
A5
CF
61
A7
51
55
86
2D
A3
5E
F9
0F
BB
D6
A5
72
AE
5A
4B
31
31
A6
B9
02
3D
14
79
49
9F
A1
51
C5
8C
7E
75
E7
26
33
B4
89
B9
C7
52
FC
00
36
58
F2
E0
15
F0
6D
6A
CE
DA
5A
3D
AD
3D
5E
AA
F0
A8
19
AF
09
15
57
79
78
7A
C7
AA
6C
82
7E
01
E7
05
42
5D
27
BB
AA
B3
B7
F6
26
13
26
BE
FB
B7
71
77
BF
5A
01
19
59
23
5B
B4
C7
A5
09
71
27
6F
0F
7A
CE
A5
42
88
CB
60
E1
B2
29
D8
63
F9
39
DE
C8
9E
7D
42
76
29
51
1F
C9
2D
B3
88
F3
DE
B0
FB
8B
A4
48
04
72
97
06
BA
19
D8
95
E8
54
10
FA
D6
46
AB
91
16
47
F5
EE
5C
26
01
1E

