5D
AC
F5
48
78
CE
9D
63
96
9F
27
17
17
6F
93
AD
60
5A
43
FA
DD
17
1C
00
0E
CE
EA
4C
F2
EF
12
8C
C6
B9
A1
44
EB
1B
CA
56
E1
AE
53
E8
7A
14
F9
F5
6B
59
48
CA
C5
18
58
21
DD
AA
4F
71
BF
5E
BD
18
0F
64
7E
B8
C3
AB
8C
A5
A0
AB
FE
D3
BC
37
FE
20
BA
BE
02
B8
9F
DA
D6
B1
7B
62
27
E5
A6
85
2F
3F
57
E3
B3
74
93
5E
73
6C
41
FB
B2
BF
BB
4E
38
73
7B
FC
8C
34
C8
1D
4B
C2
C9
DB
31
FA
E6
51
A8
42
C5
A4
74
8F
CE
D1
8F
5A
3A
FD
8D
07
24
ED
3A
37
07
67
05
92
C9
A8
03
AE
0E
BD
88
91
3D
91
AB
D2
A9
8A
9F
2E
F1
50
10
95
A5
8F
F6
5C
3A
7A
23
EA
31
C4
AC
D1
A5
2B
7B
3B
93
13
55
4F
54
FB
09
4C
0E
A0
9E
2F
DA
12
2F
9A
F2
CD
D8
85
04
CA
46
60
11
C6
9C
FA
AD
44
6E
22
5C
6C
9C
5F
D9
50
A9
9D
FA
45
8B
05
E1
87
8C
FC
FC
F6
9C
FF
66
77
33
7E
D4
C9
6F
59
B7
DB
49
FA
B5
BB
B5
6F
BD
8E
E0
FD

