09
A4
94
4F
6F
15
A4
B8
B4
89
DF
52
E4
3F
AE
CB
73
96
67
E3
F7
9F
AE
EF
D3
96
F5
59
D9
2E
12
5A
A3
DC
5E
18
F0
CB
73
D3
66
A0
EE
28
25
47
FE
84
4D
21
FD
A4
9C
8F
CD
A8
A7
40
84
0A
68
5D
29
7B
F5
96
DA
9B
23
19
50
AB
7C
8E
AC
A5
59
BE
C4
12
77
98
D5
B8
6B
28
B9
34
DE
98
FA
DA
AD
37
89
97
7C
CD
20
C9
D4
26
18
F5
20
8C
8F
2F
63
D8
B4
14
C7
C7
D4
3F
FE
AC
AC
4F
5D
FA
86
9A
CF
D1
A5
3D
00
88
9B
07
01
74
55
6B
5D
F8
41
24
4D
64
E4
D7
7E
67
4D
25
88
A4
51
FD
EC
68
52
25
5D
59
14
A1
78
F6
54
85
64
38
95
D9
DB
27
4B
40
4F
E2
14
66
9C
34
CE
35
2D
39
BE
C7
70
EB
11
E1
5B
E0
6F
53
DC
23
B0
94
D7
D1
0D
01
66
90
77
4F
5E
6C
3F
5B
2D
9A
F8
2D
21
6B
AD
AB
74
98
AC
C0
99
ED
4E
0C
96
AE
3D
92
19
EF
1E
27
9C
E9
B9
7F
42
06
0B
91
02
50
F1
ED
EA
5B
A6
71
36
90
63
81
12
EC
31
61

