04
E5
DE
5C
44
DE
EF
BA
0A
AC
D9
BE
CA
B2
D3
B2
0B
B2
5C
BD
66
29
47
CF
5D
54
92
75
13
93
18
E1
7B
24
DF
CB
26
C5
8C
A8
16
DB
EE
67
79
46
BE
6A
2C
33
81
C4
A6
72
C3
65
7B
57
0C
5B
2E
36
AC
0C
44
49
20
E2
B5
64
3C
84
68
A7
44
A6
43
DA
3C
03
4E
A1
89
A9
2A
5C
D5
04
F1
CF
FB
66
E6
3D
B4
38
38
70
AB
4B
79
D7
8E
F0
98
A4
D1
DE
B0
E5
85
9C
BB
BA
70
05
B3
C3
EB
98
3D
99
E1
DC
EF
FD
30
4C
34
BC
A9
F2
B4
E9
73
22
1A
82
71
8E
5E
2E
15
C8
D4
78
1C
A2
18
7D
BB
C8
7F
6B
4F
C0
7B
24
A8
4A
7C
96
C8
67
0E
CB
DA
37
D2
AC
BB
AC
47
CA
7E
BE
04
6D
DB
87
57
9C
A7
F9
77
2A
3B
AE
B2
B0
92
F0
71
32
25
3B
62
07
02
3A
DA
5E
DE
E4
8C
DF
61
E4
C8
D1
E9
1E
55
79
16
B7
AD
CD
4A
8E
3F
78
FB
AF
70
63
7A
47
A2
66
77
8F
75
7A
14
E3
DD
88
46
4D
42
93
BC
BF
CC
BF
A2
69
74
37
84
C1
2E
50
40
42

