87
D6
5C
98
A4
C0
2D
63
31
70
1A
71
9E
6D
93
9B
8E
9A
46
A0
9F
45
A4
16
00
10
DD
F9
13
AA
22
06
AF
88
19
34
6E
E1
2C
D4
A2
6E
76
2E
D3
27
89
CC
70
4F
15
2A
AD
A9
F9
56
52
CA
97
E7
22
2B
AD
AD
45
9C
0F
63
33
E7
8E
AD
3F
A8
79
21
8D
7B
0D
65
33
FB
C5
AF
D4
CB
D7
14
9A
09
71
A9
18
3A
AF
72
6A
5A
07
C2
7D
AD
3F
7A
9B
1E
18
1A
76
CD
BE
34
79
E8
DD
61
8B
65
E2
55
DE
11
BB
3A
A5
AA
17
6D
47
0F
83
BF
24
B9
DC
51
B0
BA
DE
3C
DD
5F
6F
22
B1
9C
8F
A6
5D
2F
08
50
18
A4
96
A6
D2
87
B0
74
91
AE
6F
8A
CA
08
5B
48
AA
E9
74
C4
8F
EF
BB
97
D4
DA
B1
C1
48
CF
28
93
4E
CE
64
02
4D
5C
47
6B
CC
E1
E8
16
3C
21
3D
65
8D
45
C1
07
07
A9
D3
3C
54
9C
39
C5
79
79
15
34
70
E7
99
46
EE
0D
91
14
3A
FC
E8
9C
B1
E4
10
5A
61
62
B4
56
4A
1D
64
77
12
EA
73
4A
61
71
BB
B9
B0
CA
84
E4
46
09
51
93

