70
12
9F
53
02
EF
C1
BC
78
C1
39
F3
CE
4E
AB
D2
2B
68
83
6E
01
A2
25
74
AD
C7
D6
73
17
C2
45
DB
13
9A
BF
49
37
0E
B2
3C
C7
9C
5F
5F
60
0F
B5
F4
93
19
A6
29
B3
64
34
41
36
D0
76
70
2D
41
1D
12
6E
FA
75
70
C9
1F
31
8A
28
DB
92
56
34
C0
88
B5
78
E6
FB
E2
87
5D
4D
10
8B
EC
5C
7A
DF
AF
20
61
63
61
6F
87
15
E6
8A
9D
B2
1C
1D
94
02
46
5A
04
1B
DF
B8
68
2A
1A
02
63
90
DD
0F
0C
55
00
12
2A
74
B4
79
38
A1
3C
FA
35
F2
99
5E
2A
EA
BE
19
F0
EF
50
DC
7D
71
4D
06
A8
8B
7D
42
6E
B5
D3
AF
B2
21
B4
DC
93
AC
DA
54
23
14
3B
BB
BE
BA
6A
37
DA
75
E6
F5
FA
4E
02
C5
18
B2
10
0E
40
9C
E7
A2
DF
D3
D4
F8
EE
78
D2
B3
2A
18
D2
0B
A4
FF
71
69
41
64
26
5B
18
4C
56
C8
54
5B
98
33
30
49
8A
32
C8
6B
12
FB
E6
59
76
19
28
83
19
EC
F0
FC
EB
56
4A
A9
F5
29
23
BB
13
B1
CC
15
0B
00
51
DA
B4
89
7D

