F6
8E
CC
0D
A0
B7
6A
FF
0D
37
8B
D9
A9
D4
5D
03
9A
9F
53
A3
8B
3F
93
63
86
0F
77
39
CD
8D
FD
E8
0E
87
C6
92
E8
AA
3E
0D
58
D9
9F
D8
59
77
2A
6C
3A
DA
DC
2B
DE
7E
8C
6E
20
34
B3
6A
B0
06
5A
C2
5B
9B
FD
F0
DB
EF
4A
A8
74
8E
DB
B8
C5
11
BE
75
42
54
17
4E
01
78
5A
22
91
07
AD
89
06
2C
7E
D4
B0
57
EF
8C
3D
EE
95
C2
B2
73
E8
70
5E
37
CA
E7
3B
DA
83
17
56
FC
97
A9
E8
D9
F3
77
6E
C4
DB
58
AB
F2
D8
74
D6
1C
A3
19
72
92
0A
98
4B
A1
5F
17
2C
7A
17
E9
EF
B8
5D
56
F7
5C
DC
03
82
79
90
08
2E
3C
92
22
0C
C1
4D
09
82
B4
1C
CB
15
6C
E2
99
0C
A6
B6
FC
6A
63
23
4C
6F
B4
54
7F
4F
91
C6
C5
0E
39
D0
1F
BD
EC
E4
78
1A
79
2D
60
0B
AB
72
05
99
95
0F
37
74
63
3B
8F
7E
DA
48
AB
B4
2E
9E
DE
F7
1E
F3
C5
C6
2F
6A
1B
2B
07
39
04
6A
96
1D
85
A9
11
49
D3
F8
F3
1C
AE
AE
21
4C
49
AA
9B
DB
F9

