92
9C
7E
79
37
42
95
30
7F
71
46
34
17
3C
4B
54
66
05
28
FC
46
58
20
93
02
11
BB
B5
67
FC
AD
59
66
37
73
4D
10
F7
87
16
58
B2
65
D8
45
54
E0
B9
FD
CA
5E
58
AD
CD
4B
EC
47
26
FD
D8
05
1F
BF
C2
19
66
78
41
5D
E7
30
D3
6E
1E
9D
40
2F
A7
8E
EA
46
35
78
57
3F
BA
0C
22
CD
02
AB
25
76
CB
1D
34
B0
68
D1
EF
0B
8C
C4
6C
5A
83
96
55
BF
95
1A
21
BC
CF
A5
30
36
BC
29
BA
45
BB
E5
35
C3
25
64
03
21
B8
CE
B1
58
F1
B0
4C
2E
3A
EB
9F
A1
91
F7
A0
1B
59
DA
E3
CC
3F
50
7B
2B
B8
04
33
8C
FC
E3
85
6D
A8
C0
3B
6A
26
E9
3C
66
78
57
32
0A
31
D5
F7
48
F9
7D
2D
A6
FF
EA
CE
8D
7D
8C
28
49
87
95
9D
39
65
14
82
29
A6
97
DF
B3
CB
CE
A2
20
BA
56
B6
21
78
FD
24
A8
0E
FF
67
31
BE
53
78
67
C8
76
23
C4
A1
3B
4E
69
22
FE
8B
8E
1E
42
1A
55
2C
E6
F9
FB
9A
28
7C
9C
65
62
D9
6A
D9
32
F0
44
BB
F0
AB

