F2
EB
E2
4B
09
F5
BA
CD
E0
5E
E0
1B
07
A7
46
32
AE
EF
AD
8C
83
5C
AC
B4
D6
A3
FE
AB
89
8B
7F
45
53
B1
22
AE
6C
54
6D
1C
47
DF
B7
13
4F
18
F2
C9
05
AC
8B
50
59
47
D3
E8
2D
01
9E
54
B8
3A
6D
93
0D
C5
93
FC
E8
62
E2
59
B1
DA
79
2D
CB
00
4F
B9
F1
8A
BF
33
0C
C3
A1
9B
78
92
73
3B
19
46
9B
41
2B
05
00
B2
AA
81
F4
68
68
F3
56
57
68
9B
F9
44
75
87
E5
DF
87
42
A5
41
28
89
3F
B9
50
A0
43
28
CB
9E
21
45
19
2B
41
E0
98
B1
B0
ED
8B
46
31
9F
29
1D
23
38
F2
DA
15
60
E7
CF
60
88
E5
77
6A
FA
0A
A3
C3
38
1B
3D
8B
9A
41
F3
D9
98
08
15
3F
A2
78
1C
E6
7D
0F
7E
32
30
B6
DF
67
72
0D
86
3B
A3
9F
94
04
61
BA
63
56
1E
1C
75
57
69
49
1B
FA
C3
42
31
19
E4
84
55
5A
2E
41
E2
69
D8
73
28
97
79
4B
9F
AD
AD
F1
E0
B4
AB
3B
CB
50
FD
BA
75
21
17
BB
00
2A
8E
3D
60
EF
08
65
04
04
D3
E5
94
7D
46

