DF
89
D9
FB
56
13
E4
AB
26
8D
D2
14
B8
2C
74
4E
2F
B3
D6
75
5B
B2
7D
EF
44
DE
5D
0A
87
6B
63
89
37
7B
06
42
21
E3
A1
F8
F6
C8
FF
37
B4
AA
73
03
95
A4
4A
76
07
56
A5
25
79
06
FA
3D
64
98
55
B6
AC
9C
1F
DC
F9
65
BD
CF
06
B3
75
A1
94
4B
BD
7C
F1
F2
1A
AC
5A
DD
AF
FC
B1
B8
35
B0
E2
B9
70
F1
60
99
F9
6E
CC
C7
D6
B8
9D
E7
68
50
7D
50
C0
C4
69
93
34
A1
CA
70
56
8B
0B
B4
E1
A5
27
5A
6F
53
9C
16
CF
31
00
B0
38
BA
F2
9E
C9
A6
A0
64
52
CB
CF
D4
53
86
5E
B9
0E
9A
34
42
00
CA
6C
5F
76
E9
84
37
0A
53
57
36
C6
DA
93
C1
00
4A
BF
15
93
91
9B
39
88
78
F6
C7
15
18
00
20
70
BE
E9
1D
B4
79
AF
37
B6
40
98
23
36
69
20
73
2F
64
3C
37
B1
DA
93
3B
27
65
FE
21
29
34
F4
1A
E6
45
9A
94
EE
2D
8C
2C
B0
AC
6A
74
62
9B
78
F0
89
AD
F2
03
49
DE
6B
BD
DD
B8
F9
58
EF
2F
40
4D
41
D1
88
2C
08
4A

