DB
A6
C6
09
EA
39
5F
FF
31
87
21
37
1F
72
1C
45
44
B3
F9
E2
F7
C1
9B
52
2D
39
C0
1D
01
FA
BC
71
D7
B0
5C
A9
E0
78
03
41
8D
E8
58
D4
9A
EB
DC
5E
C4
F0
F9
CB
8D
0D
CF
5E
C2
E5
9D
49
1C
9F
8E
1E
51
B0
7C
17
0E
BA
0F
62
ED
B5
E7
75
8D
6F
8D
AA
9D
53
5B
95
53
AC
5D
A3
27
1E
DF
46
7C
AA
F0
A6
2A
03
E1
6C
E0
C4
BB
85
47
8C
7F
E1
87
93
E9
16
F4
A4
3B
EC
B9
37
93
6B
08
89
62
7E
3A
3B
A0
33
E4
94
3D
A3
AA
FE
4D
27
FA
75
24
27
12
18
66
46
97
CA
8C
A6
5E
12
2A
CB
3C
9F
A9
DB
5E
04
05
7E
BF
FA
AB
56
8D
97
AD
9A
31
E9
37
59
D2
93
61
7E
39
A8
E8
10
04
19
97
B3
5C
37
A8
0B
6A
89
B5
3E
70
95
8D
E9
5B
DC
89
4E
1D
98
D3
6D
CC
EB
E3
FC
9D
9E
42
D1
A2
13
6B
9E
73
9E
96
0E
29
AE
28
78
54
56
10
2C
5D
BC
CD
46
D9
4D
F5
7D
04
6B
88
B0
4C
76
A4
A5
14
AE
F7
48
C9
DB
AE
03
7D
5A
A4
2C

