2F
E6
64
EB
5E
D9
1C
89
3C
91
E3
B3
5C
D0
3F
BE
25
36
9E
43
1D
A9
A1
C4
96
0D
A3
93
DB
6A
AC
39
C6
BA
C2
C7
46
7D
53
A0
EF
45
EE
37
73
C5
B1
6F
DD
C3
53
C1
6A
07
99
4A
EF
20
56
0F
BC
B1
C0
F6
79
F4
BA
F8
1D
73
50
A9
02
7A
D1
25
04
01
BD
DE
40
B3
2D
76
24
99
E2
30
E7
8C
6B
89
62
BA
8E
8F
35
59
BA
99
D8
6D
6C
7A
30
A8
7D
FD
00
AA
27
A2
27
25
A9
46
69
9B
8B
BB
A0
68
6F
35
23
92
A3
7A
58
5E
5B
15
B7
5D
79
61
E3
B0
02
6A
EC
67
7A
7E
8A
97
5B
D2
8C
58
70
CE
DD
30
2F
6F
00
D8
5F
12
14
19
BE
50
BC
FF
2E
8F
13
A3
3F
3C
52
40
4B
72
02
8E
6C
1B
F4
E1
A0
BE
18
A7
89
28
DB
2C
FA
3E
39
2A
FF
96
97
A0
47
D8
0B
92
C8
AB
16
69
9E
5D
35
90
38
17
5B
79
D8
0B
93
64
B5
F9
69
4B
C2
43
BB
0A
41
FF
A6
F7
D5
39
D1
B8
CF
97
EF
78
FA
14
F7
0A
EE
42
F0
3E
63
E4
4B
74
F1
6B
28
9E
6F
C2

