15
A0
19
2A
0A
EB
FA
D1
1B
D8
15
2F
EB
1D
ED
FD
E7
34
2D
1F
EA
33
3B
F1
05
17
F6
EF
E5
27
A9
05
D2
06
06
E4
F7
2F
FB
26
F7
E0
60
C6
01
B2
0D
17
2A
C8
BA
33
D6
2D
2F
F9
06
28
DF
33
29
3A
E1
EA
D7
35
E2
0F
1B
E1
15
F1
0C
0E
F5
F9
E8
4C
DF
17
33
24
FA
0C
CE
16
01
14
0D
53
06
C2
AA
19
E4
02
0B
B0
AC
E7
02
14
1E
EB
2C
D5
3E
EB
18
1D
21
FC
F1
94
CB
CA
BA
03
1E
44
1C
F1
C0
F3
E8
D9
1E
BF
ED
16
EC
03
EA
E2
11
FA
E4
1C
0B
F4
F3
20
21
E5
DB
1A
EE
D0
F8
F9
24
06
EA
D7
DC
1D
CC
13
35
B1
DC
16
F3
F3
16
23
F6
E9
E2
F4
DC
ED
00
FA
14
DA
E4
D8
23
33
EE
E6
14
18
06
DE
F0
25
04
F4
16
CB
01
15
08
18
ED
F9
EE
19
D2
EA
F2
E9
08
0D
2A
E8
D6
F1
08
F6
C8
FA
DD
F6
FC
11
C5
0D
02
FA
FE
F5
F0
DE
E7
BE
24
07
F6
15
0F
F3
E5
EB
24
0B
DC
E0
F3
F0
EA
34
26
FC
12
0A
DB
E4
00
F9
1A
F3
F0
F5

