FA
09
C7
07
50
2E
FA
E7
07
F5
0E
08
B2
16
FA
03
30
32
9C
34
03
D1
25
03
A8
29
EE
E8
E6
F5
30
1F
F9
FC
36
27
2C
13
2E
D9
0C
2A
3A
1B
1A
F8
0E
BF
1F
60
23
3A
03
1A
DA
DD
1C
1D
AC
09
ED
F3
C9
EE
FC
F3
F7
31
F4
1E
08
FF
F2
EE
2A
0D
03
F6
E3
EE
31
F2
01
18
FC
3F
F9
CD
1C
BA
F6
F9
22
F3
F4
21
17
F6
01
1A
03
EC
02
F6
2F
FE
02
FE
E4
11
0A
F7
21
FC
E6
21
0A
0B
15
25
E2
D0
D3
EE
F6
E8
F1
B4
10
E6
C2
25
37
0C
3C
15
02
04
18
16
C4
0F
DE
E1
01
F6
C1
17
E7
D4
E6
11
C3
2F
E3
02
F7
C6
F2
05
D2
0A
FB
13
2C
E5
26
15
08
26
0F
18
EC
27
26
B7
EB
63
27
0C
E2
25
1E
1B
0E
1D
B2
12
E5
0B
F1
3C
F1
24
16
19
BB
36
30
F9
F6
1E
1D
27
0C
00
F9
E5
32
05
08
1A
FA
3E
E3
F9
14
F3
CB
16
F5
13
20
21
DB
DF
0F
0E
F2
C8
F8
E3
10
09
0B
D7
0C
0B
34
DF
0B
29
1A
2A
00
27
19
0A
D3
BC
D9
10
1E
16
21
F5

