11
2D
14
F8
FE
EE
33
0D
2C
41
FD
23
00
0A
F6
D8
F9
32
F9
D3
0D
14
05
14
EB
D3
F1
FB
D4
08
EB
DE
D7
F6
D2
FA
29
26
EB
F1
19
EE
28
FD
F1
2D
FD
07
CD
0C
25
3D
FE
E3
E4
25
D8
FD
E6
22
21
ED
11
01
0C
16
EC
37
E8
F5
32
0F
09
21
ED
F2
2B
DB
F7
D8
04
FC
DC
E5
F2
34
CC
06
22
CD
12
26
1D
20
E3
30
37
C9
19
12
13
17
F7
DF
E2
D9
21
CE
17
F6
C8
18
FA
04
D0
00
ED
E3
E6
01
F6
07
C8
EB
F2
21
27
FA
4D
F3
35
DF
09
D1
2B
17
12
11
2C
D4
16
13
0B
05
22
18
22
1C
15
07
0F
D4
2A
2E
0F
3F
21
29
E7
F7
09
FD
F8
27
2A
2B
F8
2D
FF
30
0F
E0
02
14
2F
3F
EA
C6
E5
10
EC
05
D7
24
C2
EA
5B
12
14
F4
12
1E
57
15
10
1E
03
E7
FA
D8
FA
DC
E4
FB
0F
FF
2B
F9
2A
08
02
1C
DD
08
F5
D9
FE
27
27
05
EE
DF
FE
F9
19
DF
18
E9
26
2D
C8
CA
FB
22
17
28
F6
E2
DC
02
F3
1A
0A
14
FC
CF
13
23
3A
09
C3
C2
F0
DB
D3
51

