EB
FD
E0
24
FB
10
F3
34
05
3A
10
D6
33
16
0D
DB
14
D1
1E
04
E2
09
37
1C
15
DC
1B
F6
22
F1
0E
28
22
ED
EE
26
12
FE
14
02
1D
09
C3
F5
1C
01
D6
01
13
17
77
EE
F0
E4
01
0C
F2
14
7A
13
06
F5
11
1D
EA
E5
FF
0E
3D
E1
10
17
1A
FA
16
10
FB
CF
FE
29
E8
EE
10
13
2D
20
E9
06
21
CF
18
15
F2
05
03
21
E2
0B
1F
09
EB
E5
E2
2C
F5
29
DD
37
D3
F2
03
F7
00
EF
3F
DC
31
EE
E7
F7
A5
1A
14
EF
08
02
11
F7
20
EB
EE
18
0E
00
F4
0E
08
F0
14
D5
1D
26
17
03
DD
00
E7
E7
19
1E
0E
02
CE
14
3F
D1
E2
D3
3A
C1
F9
3C
4B
1A
4C
D0
07
F6
CC
EC
FA
03
04
E0
07
09
27
40
28
D6
31
18
DA
06
C1
26
FB
FB
3D
08
EB
43
E1
00
F7
CF
0E
AE
15
FA
26
06
16
F4
24
D8
C5
D7
07
0E
0A
CF
09
EE
1A
EF
1F
E3
F3
01
E7
21
CB
0B
DC
FF
1C
0E
0C
FC
31
16
DF
0E
A6
F6
E0
EC
1F
F1
28
04
BD
F3
FD
02
16
D6
D4
32
02
F5
17
EB
1F
E2

