CE
F2
19
F4
ED
F3
43
EE
F9
3E
10
DE
15
0F
EF
0C
02
15
11
06
15
2A
F1
F6
1B
2D
09
28
C9
0E
C9
15
EC
E9
F0
E9
E4
26
E3
23
DD
0C
27
26
1A
F7
00
06
F8
E8
EF
B2
FE
16
F2
35
E5
D2
E7
04
18
F3
FD
CA
27
FA
E2
1F
49
0A
0D
0D
1C
0A
BE
F1
EE
F1
E0
28
E1
30
FF
09
21
CA
18
00
EE
24
08
DB
F1
17
FD
E4
1D
0E
F7
27
D9
2C
31
F0
E8
1D
FF
0B
0D
25
33
1A
0D
2E
FA
08
DF
DF
06
D9
24
F8
F2
3E
F9
E3
DB
0A
EF
E5
D5
08
00
DA
DF
36
23
0E
09
EE
15
FC
EC
CA
EC
04
F6
F8
25
14
DB
0F
05
15
CD
D7
3B
10
F6
18
22
10
F4
25
0B
10
DD
E6
16
0C
5B
1C
ED
DC
D7
09
22
3F
4B
04
08
06
E2
24
03
25
2E
10
1E
F9
DD
41
11
03
19
F8
28
02
11
04
F8
07
2E
01
DB
F6
DF
35
06
1F
E0
32
11
34
D5
2D
0B
03
03
EA
05
F3
FF
1B
F8
E0
D5
27
31
E8
F2
E8
1C
14
FE
02
C9
1A
1B
19
19
12
50
21
0F
19
EB
EC
CC
BD
E7
FD
FA
F1
FF
E9

