0B
04
F1
0F
10
00
0C
EF
F1
F7
07
0C
09
11
11
02
11
0A
F1
F6
03
F6
11
F5
FD
0D
0C
03
12
F1
05
F4
FB
13
FF
15
FE
01
06
06
0A
1F
1B
1E
1F
14
18
22
1F
08
06
06
FC
01
07
12
10
FB
09
F7
12
1A
19
14
FA
F0
00
F8
01
0B
15
2A
42
33
0C
13
0B
06
FC
06
01
F7
0F
11
07
F5
F8
F1
F7
0B
1F
02
EB
DA
FC
04
F1
1E
20
30
46
22
0C
0E
FB
F8
F0
FA
E4
D9
FD
0C
12
09
03
02
17
03
0D
0A
F4
16
16
F5
EB
0D
FA
1E
0A
E8
F2
14
F3
EB
FD
E4
EE
E8
DD
F1
ED
0C
08
19
21
0B
FD
08
18
F2
0D
EB
0D
1D
1C
03
FE
E0
DB
E9
F1
E6
EE
0C
10
F3
FC
EC
F6
F5
07
1D
26
0A
F7
02
E8
EF
F2
ED
09
21
20
09
E5
FB
F5
EF
F6
E9
0E
12
18
0A
15
0F
11
0D
E1
ED
00
05
04
FF
F1
F6
02
07
20
26
11
F4
F8
DE
F7
E4
ED
F6
F8
02
04
09
26
F3
FA
02
E5
E1
E9
DF
EA
EC
F6
EF
E4
F7
09
34
2C
06
CF
F4
EF
F0
FA
F8
EE
F6
19
17
03
EF
F0
19
E7
13
F5
EF
F8
FD
ED
E2
F2
E9
1B
31
20
F2
DC
EF
FC
0D
F5
1B
10
0F
14
21
FE
FC
00
13
F9
FB
ED
CC
CA
E1
D8
E8
EC
0D
12
40
13
F2
D8
0C
F5
1B
F4
12
03
1A
0D
08
16
FE
F0
FB
E2
01
F4
E9
EB
DE
F5
FE
18
2A
3C
10
EA
F5
D9
FE
FE
FA
F4
F1
07
FB
FC
01
00
05
FB
FC
E3
F3
E1
FA
F1
0B
16
23
21
2E
25
08
EA
FA
F9
ED
02
F9
FF
F2
10
FF
14
EC
0C
01
F7
14
F9
01
F3
FD
11
07
17
41
25
20
11
F1
E1
E9
F3
F9
DB
F8
F7
FD
FF
21
1F
08
10
F1
02
0F
13
14
ED
1A
0A
0B
2A
3D
26
05
F6
DE
FA
EE
F3
DD
F7
E9
EF
FC
09
FB
2A
D7
F7
FA
F8
FF
23
2D
15
FC
08
0F
06
20
00
FE
E9
F5
E6
FE
06
F7
E5
F1
FC
13
F1
06
F9
D7
CB
FA
F7
15
01
0B
00
FE
F5
E8
01
F2
FA
E8
ED
F8
FA
FD
00
E4
F3
EC
ED
05
F3
00
FA
E1
C4
05
F2
14
02
0F
03
F8
CA
E0
00
DA
DF
EB
DC
F3
FB
DC
E6
F8
03
09
FE
0F
05
F4
F1
EC
DE
DA
F4
08
01
07
02
03
F4
EF
E6
E8
E4
EC
E4
D1
FB
F2
FB
EE
F4
F1
FB
1A
F8
EA
D3
FB
D4
D5
0A
15
03
09
13
F6
DD
FA
D9
05
F5
00
E7
FE
01
FB
FD
07
0B
FD
01
F9
FE
07
E5
ED
EE
F9
08
FC
00
07
13
14
08
F4
FB
13
EF
05
17
15
FD
12
FE
03
10
0B
19
02
FD
0D
FD
FD
F8
04
01
13
E9
08
01
F3
FE
0C
03
17
13
18
12
F2
F8
07
F3
00
1E
07
1A
10
FD
06
06
F1
EB
F7
12
12
F1
F1
F2
0D
00
16
1D
08
18
03
01
14
03
0E
12
15
12
16
18
06
0B
05
FD
F8
F9
0B
02
08
0A
22
03
EF
F7
02
F5
1C
1C
25
07
08
1C
20
00
10
04
20
08
0B
01
FD
F3
E9
04
FA
F0
F5
15
0A
F1
1E
0B
21
06
1E
0F
12
FF
04
1E
0F
17
16
01
03
F8
F0
12
E5
EC
F2
1B
0F
09
0C
F6
FA
1E
14
07
0B
07
12
1A
FE
FB
1E
01
FF
EC
ED
0B
14
F6
08
14
0D
F9
FE
F7
FF
F1
12
06
F9
DA
E5
E8
D4
CE
E2
F5
F7
04
03
F4
01
F1
D0
E5
08
F1
19
20
FA
F6
0C
10
07
F1
F2
0C
F0
0F
10
EA
0C
04
F0
D6
E2
E6
DC
D5
DF
CD
F3
E9
05
01
FD
08
16
06
F6
FC
F1
FF
FD
F2
F8
F0
F9
FA
F1
F4
F4
0F
F3
07
13
14
03
FE
0A
10
12
FC
02
FB
0A
04
F1
0B
0A
0B
F5
F5
04
12
0A
01
F5
1D
0C
1D
05
0D
17
03
30
19
19
0E
11
13
15
10
12
04
0A
F4
0A
EE
01
03
21
1D
04
11
FD
07
FC
06
0C
2C
FC
00
1B
1F
0B
00
EB
02
26
0B
2B
10
00
FC
09
F1
F6
F8
1D
14
FE
12
06
22
06
0F
29
2A
1F
F8
F5
1D
0A
23
FA
E1
F4
0B
05
1E
18
08
01
02
EE
28
17
20
F2
FB
FF
FE
0E
FF
1A
36
02
15
0A
17
08
0D
FE
E6
E8
E4
E2
DE
F0
F8
14
F6
02
0B
11
F8
F8
F0
F3
F9
0E
F3
19
FA
F5
E1
F5
FB
F6
FD
FE
F9
E1
E5
D5
D1
F0
04
F7
FE
02
0D
FE
FB
CF
E6
F2
FB
F9
03
07
ED
E8
09
FF
13
22
25
06
FF
E6
F8
DD
DA
FC
DC
FB
08
02
08
FD
EE
CF
DA
E0
EE
F2
02
F0
08
08
11
12
FD
24
0E
0E
FC
FA
FF
F5
E6
C6
CA
06
0C
0D
E9
E7
EA
E2
F5
F1
F3
FD
F7
02
13
14
19
05
0F
06
03
14
F7
12
1A
FA
EA
DA
FA
18
12
11
E9
F2
FC
E5
0C
F9
00
15
14
18
1C
09
10
14
08
1A
FD
FA
16
FD
F7
06
EE
ED
E7
10
F0
E0
E9
1C
02
FE
07
FA
13
03
16
FA
ED
1E
37
27
11
05
1B
FB
12
04
06
28
05
01
06
14
EB
03
13
02
FD
EF
08
18
17
0F
01
FF
09
16
18
0F
FA
FB
13
FC
04
FE
18
24
2D
F9
23
24
FB
F8
06
17
17
F2
00
FE
FF
FD
0C
08
FF
14
01
0A
0E
13
0E
FB
09
F8
F4
31
20
01
11
1E
FB
FD
0A
0A
00
FD
FD
05
F5
01
02
F9
F5
FE
11
13
F5
F2
01
F5
0D
0F
04
1B
09
02
F1
F0
F8
08
FB
1A
F0
EF
18
00
F9
02
F2
F3
EC
13
03
01
01
F6
00
0F
0D
1D
22
02
FF
D9
06
FD
01
F8
E6
F4
03
1C
FB
01
05
00
0A
FD
ED
05
FA
00
E4
F0
FC
0B
FF
1F
FC
F3
16
E7
EE
00
ED
FA
F6
FF
F9
24
FA
FA
0E
10
12
F3
03
05
D9
DA
EF
E4
EA
F1
03
03
F4
EC
F8
E4
E4
1C
F3
08
F4
0D
F1
FE
EB
10
0C
14
04
04
F9
03
D6
FE
F7
F9
EE
08
01
F8
02
E9
F4
02
04
07
1E
F0
09
EF
ED
E7
FE
F9
0C
F5
15
FD
F3
EA
E4
E7
01
01
01
07
F8
05
FE
08
D7
06
FC
06
EE
17
FD
F0
FA
EF
03
EC
06
03
07
09
06
FC
07
F9
F3
07
F0
10
14
FE
0C
F6
E8
FB
08
11
00
02
03
EE
EB
02
F7
FA
E1
F5
EC
05
FE
01
06
F6
FC
FA
0D
12
0F
12
05
FF
0D
18
FA
01
FA
F9
FC
FE
DC
FD
11
1B
F8
03
07
04
17
08
F3
FB
07
03
08
E9
07
E6
EC
F0
0B
EE
1B
11
06
F9
F2
16
F8
04
09
FF
0F
0E
09
0E
11
F3
FE
0F
FB
FA
FC
CF
01
E8
0C
11
F9
10
08
05
01
ED
1D
0B
00
FD
FF
02
03
0F
FA
F9
F4
08
EC
EF
F3
03
E6
E3
EE
FE
1D
1C
01
F8
EA
0F
F1
02
05
26
12
33
FA
12
10
04
09
06
08
F4
08
0D
F4
FB
D4
F8
F2
05
01
25
FD
FB
E6
05
02
00
0A
02
13
38
12
31
16
22
0B
13
FD
19
15
06
12
0C
F7
13
1C
17
19
00
FC
03
EB
0B
11
F3
F7
FC
09
3D
26
13
20
18
1D
22
34
30
3B
11
3B
2A
05
12
3C
17
18
07
E5
F1
FA
00
0A
F8
F5
12
03
0A
06
1C
0B
01
1D
14
19
0A
28
11
21
04
18
FA
E8
02
1E
12
F3
03
FA
09

