FA
1F
03
EB
09
02
00
23
D0
BD
0F
0F
F2
0A
31
17
22
E4
F3
1E
20
FE
EA
F5
E1
CE
17
F2
1D
FA
36
27
02
F5
E4
FE
EA
07
E2
F8
01
FE
BE
0A
1B
09
F6
2E
12
04
0C
DE
2A
1B
FA
CF
E6
1D
EB
05
E4
F8
15
E8
F3
FE
2F
EE
0F
EA
E4
18
30
24
F5
E0
22
07
0D
ED
12
02
1F
1C
33
F0
05
1E
19
DF
18
F2
22
EF
0E
FF
F2
F1
04
FC
25
FB
07
F2
09
01
23
DD
F4
06
B8
24
27
E8
01
EE
FE
0A
0B
0C
21
26
1A
FB
F5
1B
19
FF
D0
37
05
0B
EA
1D
BE
F3
31
44
EC
C8
0B
F5
16
20
05
E7
07
17
05
39
22
10
1B
BA
FD
FC
29
F0
E7
F5
1A
01
2B
E9
19
EA
2C
0F
17
23
CD
F6
0C
E7
20
E9
F4
DC
44
0F
2D
1A
2D
EE
F2
14
57
D9
F2
0D
09
30
FC
2E
20
00
2B
C4
1E
1A
F9
10
07
1E
E4
DA
03
16
9A
14
DF
ED
38
C9
DC
34
2D
13
01
32
20
27
06
0B
D9
E9
14
31
01
EF
11
0D
19
F8
EE
2D
DD
00
ED
22
30
0A
13
EF
39
18
08
03
F8
27
F3
26
24
ED
1D
43

