3C
0C
EA
17
FF
EA
C6
02
E5
EE
F2
E3
AF
2B
26
F5
CD
EF
1E
14
DF
F3
21
2F
EC
DE
D4
02
CA
05
D3
D3
35
FD
26
0D
12
28
11
F5
05
19
46
11
DC
17
19
DA
2A
11
18
4B
06
15
03
0D
28
03
F8
FB
F8
10
A6
E9
02
06
D9
DF
CE
22
27
E8
DF
24
1A
22
17
1A
EA
E3
CF
CF
1C
13
17
13
10
00
20
F6
E9
2E
E9
20
E7
04
F0
0C
EA
0E
D2
D8
E1
F4
01
20
0B
1E
1E
21
1C
18
07
ED
F5
0F
2C
F6
2A
0D
2C
EA
EE
F3
20
E2
E6
2F
0C
07
06
E7
E6
02
23
EE
F2
26
E1
3F
D2
EC
EE
2A
02
04
F7
E7
FC
01
02
29
E3
41
D0
52
E3
27
18
06
38
F7
D6
F4
25
2F
ED
27
DD
01
21
1F
DF
1B
13
4A
E0
25
E9
1E
2E
14
E5
EC
06
D7
FD
19
E7
F2
04
0A
52
14
F6
18
F2
62
DD
DB
E7
D3
D9
F9
21
EF
F5
13
0D
09
02
30
01
2F
CB
E0
22
12
CE
11
1E
E1
25
16
14
22
E6
1F
06
11
05
F4
1C
FE
28
FC
E9
F6
D1
F9
F6
1F
FB
1B
2D
EB
10
49
2C
FC
DC
D9
0B
18
0F
3F

