96
CD
04
07
F1
2B
3C
F3
E5
1F
5D
4D
29
17
20
1F
FD
1C
10
13
D8
25
E9
1D
1E
D3
24
4B
15
35
20
46
F4
BF
BF
BA
D0
F2
EB
EE
0C
16
F9
F6
DE
13
CE
08
E0
F0
2F
F8
CF
FB
FB
BE
F1
11
2C
EF
EF
1D
14
FB
E1
32
35
09
5B
F8
07
1C
10
0E
E2
27
E7
FE
0D
44
18
EF
DE
DC
10
CE
F7
DA
E8
ED
F9
18
08
1D
E5
F6
EF
03
F4
1A
E9
3C
1C
E3
03
11
2B
18
FF
EF
18
E4
D2
E2
FC
EC
DE
FE
03
24
F0
00
49
41
EB
F5
E5
F0
EF
12
19
FA
C8
19
20
21
D1
2A
E6
15
23
D2
D8
37
05
EC
47
12
29
F5
21
01
EB
F4
EB
30
FB
FC
BD
28
19
E8
CA
10
A9
09
22
FE
2B
15
F4
DA
F8
26
EB
4A
E2
DF
43
A2
FD
13
25
FD
F7
DB
F8
23
C4
E7
1E
DA
14
0F
CA
2B
D7
1E
D7
03
E8
F4
EC
19
FC
F6
2C
42
D0
21
0A
09
25
13
E5
29
E8
0C
ED
0D
20
F1
32
D8
D9
13
1C
15
1F
F1
27
EB
E7
15
EE
0B
1D
E5
38
FD
0A
06
67
FC
12
14
05
2C
FD
36
0E
4B
F7
E4
23
16

