FA
12
08
EE
06
F3
FA
F8
0E
09
0A
03
0A
03
0A
12
0A
11
F9
0F
F0
FB
09
FE
F2
10
EE
EF
0B
EF
0B
FD
00
04
EE
E5
D8
EC
EA
0C
F5
D5
DB
DB
C3
CF
DF
EC
F4
E7
F0
EF
0D
0F
04
F4
05
FB
F7
EA
E6
E7
FA
DA
CA
E0
EE
DA
F7
10
E9
EE
F2
1A
11
15
23
1E
F9
DD
FF
EF
FF
F8
0F
F9
09
D8
F9
F5
EA
D0
CC
E4
04
DE
D7
E1
DB
0A
F4
1B
1D
0F
15
29
16
2C
0C
12
F0
0C
FC
F5
03
EA
F0
0F
FA
E0
D9
F7
02
C4
EA
E5
E9
F5
E0
03
09
0A
FE
24
23
2B
1D
21
E1
F3
03
F8
DF
18
F4
E7
14
E6
03
FD
01
F5
F7
E8
F8
EA
EE
E4
05
11
0B
F8
FF
34
31
1C
D5
0C
F5
FE
2D
0B
FB
F8
08
08
11
24
10
01
FD
F6
1A
F7
DE
F4
0E
2A
10
14
1B
1A
F6
E2
D7
D0
02
10
20
19
0C
1B
0D
ED
FD
0E
0E
16
04
21
10
F3
EB
CB
F1
28
1B
08
15
E6
08
F9
F6
EF
01
20
26
F8
FC
07
07
EA
F0
05
04
F9
FF
09
E5
E3
C5
DA
12
28
00
F9
F8
EF
12
02
F5
FF
0F
19
DE
FF
FF
1E
0B
E2
F1
01
00
F6
E8
0E
01
BA
D9
0F
38
2A
09
FA
DE
F0
22
0A
00
FE
FC
0F
FF
F1
0F
11
EF
0A
11
04
04
1C
FD
05
E7
A4
D1
12
36
2B
F8
00
EF
F6
0D
19
E3
F5
1A
19
F9
0A
EA
00
16
1D
14
06
0D
1B
06
13
E4
B9
E4
1F
14
16
04
FD
E1
F3
0F
10
E7
01
FE
0E
03
2A
FC
EC
18
06
0B
08
0F
01
14
1F
E7
CE
E8
07
2D
2A
00
00
E3
CA
FE
19
01
F0
0A
F3
08
15
FA
F4
F7
03
18
14
09
FA
FA
E3
E7
E0
FC
18
00
1C
FC
DF
E3
E2
FD
20
08
ED
FD
09
FC
FD
17
07
FD
13
0B
0C
EE
FD
E2
F1
14
F6
EF
FA
F4
21
E9
C2
CC
D9
DA
14
17
F7
10
00
01
1D
08
FD
1B
14
04
01
D8
EF
F4
F3
06
FD
02
FE
18
09
E5
DB
F8
FA
E4
F4
E9
0E
1B
FE
EB
E6
06
13
01
EF
EA
CA
DF
E3
F4
00
05
05
F4
1A
08
14
03
2C
0B
19
10
03
13
01
0A
04
05
05
03
0F
F7
EE
F3
D2
E5
F5
0E
20
03
06
12
16
1A
09
F8
28
01
0C
0D
1E
22
0B
E7
0B
FB
17
08
14
03
DB
EE
E2
E9
10
1C
15
13
0B
04
0A
11
10
EF
FB
F3
05
1E
FD
39
0D
0D
00
E8
F3
F4
F9
E1
E5
E8
F1
04
21
16
15
17
EE
12
F7
FA
FC
DA
02
E4
0B
07
FB
12
F7
0A
FE
0D
0B
C7
D3
F4
CE
FC
FF
0D
16
25
F5
E3
E4
0E
0A
1F
08
F4
F3
FD
03
02
EE
04
F2
F9
0E
10
05
DE
E0
D4
CB
EC
0C
0D
1E
07
F7
F4
F3
F4
FD
1F
2B
03
FA
F4
19
09
1B
D0
11
F3
F0
13
02
E5
D0
F8
F8
FD
03
0F
1E
FC
01
DB
E5
F4
EE
FB
03
20
18
07
17
26
09
EC
F9
FE
F1
E3
ED
FF
FF
06
F5
04
02
1E
22
06
0C
04
D8
CB
D3
FB
F9
0B
06
FD
18
1D
14
03
0E
FA
04
03
CC
EC
15
05
FC
0A
18
17
2A
1F
00
05
E9
E3
DF
F5
F3
F3
09
1B
17
08
20
F4
03
EE
F8
EC
19
2D
17
FD
FF
0A
EE
14
1D
16
0E
ED
F8
05
20
FB
E2
07
20
FB
0A
F2
FE
0D
FB
07
0A
EF
ED
E9
EE
05
07
0A
F2
EA
D3
F7
F8
D3
F1
EB
04
F5
FA
0F
F2
1B
0E
FA
F9
03
F4
F8
0F
EE
11
1A
3A
05
FD
07
28
17
FA
0F
50
3F
61
30
26
0E
02
33
4B
20
0C
F7
0E
0F
0C
FA
EE
03
0D
08
F2
0D
F4
0B
06
FC
0E
EA
F3
02
03
F8
0D
F4
07
0F
0B
FE
07
0D
F0
12
F1
0E
F8
04
F8
FB
0B
F5
F5
DE
F2
FD
DF
05
F3
EA
FC
FC
F3
E4
F8
DF
FC
FB
E4
FF
10
0F
0A
FE
04
F4
20
0B
E8
E4
E0
D7
D7
CC
CE
E5
EC
D8
00
F1
EF
F0
E7
E5
F9
F1
F3
ED
0F
EE
11
05
FE
F8
16
EC
03
E5
E2
FB
E6
E9
F6
04
F6
06
0E
13
07
EF
FA
12
01
FC
E7
E6
20
F3
EE
08
08
0F
FC
FB
DB
DB
F5
D8
F6
F6
14
FF
15
13
0F
05
0E
07
F6
EE
0D
13
04
02
07
F4
D6
0A
11
0C
FC
E1
E4
E7
ED
F0
0A
0F
18
06
01
0E
01
F2
0E
F2
DA
F3
09
1A
F1
06
04
F8
E4
EF
0B
06
0D
FB
1A
19
04
0B
09
0B
F8
0D
02
F6
F0
F4
FB
F5
FE
DF
05
19
19
19
02
02
ED
01
11
0F
21
F2
0E
16
0D
03
12
14
13
FB
08
ED
D7
E1
FF
09
08
F6
F2
14
23
0B
14
FF
01
10
F2
23
08
04
F6
FA
E6
FA
F9
02
EB
00
0E
FF
F4
FB
06
FF
0B
08
F1
02
13
17
28
F7
14
F5
F3
09
ED
E9
F4
FF
F6
F1
E5
E6
F2
08
00
1C
15
30
18
07
10
F7
F4
17
0A
13
13
1B
12
10
00
0E
EF
FB
F9
F8
F3
00
00
F1
00
15
16
0C
2E
2D
10
14
1A
00
14
1D
15
06
38
15
F1
12
15
1B
06
ED
E1
06
DC
0F
F5
16
0B
FB
F6
EF
01
F8
04
F9
06
10
03
06
06
FE
10
35
F7
0E
11
1F
15
0B
F1
FB
EE
17
02
17
0F
0E
F6
D1
E1
E2
E6
0F
07
0F
FC
04
ED
FC
22
1A
F4
F7
16
FB
1D
0C
FB
0E
05
23
1E
1E
15
06
F8
E4
DD
DF
F2
08
1D
17
FC
FF
EA
F1
2C
07
EF
F3
0C
F5
07
15
30
10
13
1F
13
0E
16
01
FD
D9
0C
F6
0D
12
14
17
FC
F6
02
16
16
02
FC
11
04
2E
2F
35
19
20
0B
19
14
04
FD
14
E4
FE
F3
E7
07
00
03
EE
0E
F6
14
0D
F8
05
EF
F6
05
0C
34
27
1B
05
0E
0A
EA
ED
F5
02
0B
EA
FC
FA
F3
0D
02
14
01
02
F2
F5
F2
10
15
FD
F3
13
10
37
1E
0D
02
0F
FB
08
F7
12
FA
12
11
F4
03
FF
09
F5
03
F8
06
02
DE
02
19
E6
F7
1A
11
1D
28
0C
F8
ED
FD
13
0D
13
FC
04
F6
F8
07
0C
FD
01
F8
03
01
08
EE
F4
F1
0A
15
21
14
0A
33
00
F1
DF
E0
FB
ED
FE
11
07
EC
09
00
08
03
15
04
EA
F7
12
03
07
02
F3
24
16
0A
13
1F
1F
FC
E5
EB
EC
ED
FB
F6
F4
F8
EF
0E
18
08
F7
07
EA
09
F8
F9
EF
01
01
F1
0B
04
F6
0B
18
0C
05
01
D9
ED
E3
E4
01
0E
11
F9
F8
F4
FE
00
15
10
14
0A
0D
01
F0
F2
FE
0B
DD
E7
0C
F5
F3
02
F5
E7
ED
F4
0A
03
08
0D
FF
01
FB
28
17
27
1C
00
18
07
F7
04
FE
10
E4
D3
E6
02
FC
01
09
23
14
26
09
14
05
0E
02
0D
14
0A
09
19
29
04
FD
0A
EF
F7
09
12
E6
E2
CA
D9
FF
00
F5
FC
0B
1F
22
0B
13
0D
1C
19
FF
FA
15
1C
2A
F4
DE
F7
05
0E
12
04
F3
DF
01
FE
F4
DF
E6
DE
D7
17
05
04
FE
03
18
02
ED
F2
1C
11
10
F2
02
F8
04
F0
03
07
F4
F2
E7
DE
FF
D5
CB
DF
03
FA
E1
F8
F6
E6
E9
E5
E9
E4
F7
FE
06
EF
11
0F
F6
F8
F7
0A
FC
F5
E9
F6
E5
06
EE
EC
0E
01
E9
C4
E0
E5
DB
EB
ED
EF
D3
E3
EF
ED
03
EE

