E9
EB
3D
12
2E
14
1A
F4
31
41
0E
0A
2A
FC
E7
1E
F8
02
3B
12
00
1E
24
1D
50
09
0F
02
32
29
CA
E4
0F
04
2A
25
F1
11
E5
F8
10
F1
2E
1F
DC
E0
F0
E2
0E
1B
21
EF
22
04
EE
15
AF
40
51
EC
18
1B
3F
29
2B
35
14
00
06
CD
E8
F0
F2
05
17
25
E2
F9
B9
1D
01
1C
DB
FC
1C
07
16
0B
29
EF
1D
EE
06
F6
D7
C3
0F
D3
E6
2B
FD
2D
DA
FA
0B
F1
D4
3F
0C
EC
24
25
1D
DE
16
02
24
E7
01
05
07
FB
C7
0F
12
F3
2F
E8
0E
27
48
17
0A
FC
2D
2F
CC
FB
39
5B
13
F0
21
FB
04
0A
C9
17
2A
02
EF
E2
D2
1E
05
39
E6
F9
07
3B
1A
EC
E4
03
E9
21
04
28
FE
E8
04
E2
DD
DF
15
35
DF
19
02
E5
2D
3D
12
F2
DE
E4
F3
E8
E4
11
0C
EB
FA
02
E3
26
B8
2F
FE
E8
D7
DE
E6
19
01
38
D7
DF
00
EB
EA
19
29
2F
F0
EB
0A
F5
F8
E9
14
E0
F4
0E
27
F3
29
E9
18
2B
07
CF
37
E6
44
04
18
24
C2
0D
ED
05
05
09
24
E0
DA
37
32
E6
F8
09
FC
1B
0B
02

