3F
33
3E
17
03
C2
03
F8
E4
C3
42
2C
2D
C4
F0
E0
17
2F
CC
07
07
E3
FD
CF
0D
15
1B
0B
05
26
0F
4A
40
FB
17
F6
F5
30
0D
19
04
2D
1F
DC
1C
FC
16
FF
1E
24
27
21
2C
21
D6
FA
F6
F1
1F
04
FF
04
0D
E8
46
D4
31
10
C2
E7
DA
FB
0D
BB
D4
C1
EC
3F
D9
E5
5C
16
F3
35
E5
23
07
EB
E2
BD
14
DC
13
E8
CF
EE
3B
DE
F7
03
10
4A
E9
D7
1D
19
4C
E8
39
F8
21
F3
E6
F0
DB
EE
1C
EC
F4
30
03
0A
F8
C8
08
F9
1E
F7
24
0B
10
09
E3
C2
D7
EB
42
F9
01
CE
4A
04
05
DF
E6
28
15
1C
23
2C
14
F3
41
F5
33
15
FD
18
DC
19
04
30
FD
15
40
F4
15
3C
DC
0A
28
27
05
E5
2C
FE
DE
B3
AB
1E
05
00
EC
53
E1
2E
48
0E
E5
30
20
04
1C
0F
FE
16
1D
B1
16
18
20
E9
EA
0B
F5
28
E0
DB
01
F3
EE
06
FF
D5
08
22
E7
1E
33
F6
FC
24
D0
D0
1D
D1
21
30
2D
1F
FD
F0
22
EC
03
0C
D3
18
16
E9
E6
BF
CD
F8
DF
E2
13
EF
5B
28
C8
D7
17
FA
ED
12

