4F
0E
2F
DF
09
C8
34
16
07
EA
1F
14
02
C6
1E
E1
21
2B
02
DA
E8
EF
20
CC
16
43
F6
2B
2C
16
14
00
2C
17
17
27
F1
F8
D7
EF
EF
F0
3F
0B
F4
1B
14
26
DD
D0
D3
1B
13
00
E3
28
19
F8
F1
14
38
12
07
DA
77
D3
2B
24
EC
04
EB
EF
21
1E
F6
1F
EF
42
16
E1
41
15
22
15
D5
17
1E
EF
FC
1F
26
CC
05
F8
14
0A
3A
DA
F9
20
0E
3A
BD
C1
39
17
16
17
2F
E5
FF
E3
01
FC
EF
19
EC
D4
0C
08
34
FD
AF
00
F3
03
E1
28
1B
FE
01
ED
03
E9
1C
F1
07
04
34
F4
D6
17
F2
BD
09
40
FB
EE
20
12
F7
14
01
1B
2D
30
FB
19
2F
07
27
E0
13
E7
F6
DC
DB
FE
DB
00
31
12
20
08
FF
2C
06
07
DF
00
E4
00
DB
21
04
F9
BF
27
36
0E
19
E2
22
E6
F3
CC
2E
AD
15
14
1B
D5
D5
CE
09
32
D5
D4
20
12
DE
11
D8
15
16
EA
F2
35
D4
34
0D
F5
BD
F8
1C
0B
DF
D1
FF
57
16
00
22
00
19
E4
D5
E3
2E
DE
DA
F6
C5
08
FF
27
11
CC
27
13
28
C9
F9
17
E5
C4

