D5
20
FA
1E
E5
FC
F0
08
27
44
15
F0
EE
1B
2E
29
EE
CD
46
F9
E0
F5
DB
00
19
04
DE
FC
F8
FB
E2
C7
DC
10
F8
FE
D6
07
13
EB
15
DC
06
06
E2
11
EB
24
05
1C
5A
CB
01
FF
09
F5
35
19
0D
21
00
18
1C
ED
D8
20
E8
28
E7
04
F8
0A
24
19
E5
29
28
B6
40
1D
C1
E6
E9
FA
07
E0
E7
2C
26
39
17
13
14
05
0B
FB
EE
2E
14
2C
DB
E6
13
1A
B7
15
FF
39
06
F0
33
16
FB
19
65
E7
ED
05
27
F5
DE
06
2B
2F
05
05
28
33
12
2C
D1
DE
DA
F3
E2
D8
20
D2
0D
E4
C9
F7
2A
EC
F7
03
0D
2D
E7
F3
12
1E
E7
1A
E8
F1
0E
E1
54
E5
E7
FB
22
E9
3F
E6
08
FC
14
F0
EA
FE
F0
1A
2C
C7
2B
31
FE
49
0C
2D
11
00
43
1F
D1
24
EE
E5
D4
20
FF
CD
43
D7
F8
B9
1C
23
0D
11
20
24
22
22
1E
12
1F
1A
EE
11
D9
F0
19
DF
DE
D6
1B
FF
19
FC
16
2C
F8
F9
FE
DB
FA
03
03
11
E0
13
EC
D3
F6
F2
0C
0F
EE
E1
D5
12
E8
02
05
F9
FF
22
E9
E4
1F
31
E7
C0

