3A
F2
10
FE
00
D6
E6
FC
0F
E8
D4
BD
D2
EF
26
F4
DA
BC
F1
1A
0C
F1
F7
E8
F6
35
F0
25
01
E6
C8
E2
0C
28
28
22
F6
2B
22
15
D9
0E
3F
F2
0E
17
FD
07
27
28
B9
22
05
0F
EE
DE
38
06
ED
F8
28
0E
E9
F2
04
E9
11
1E
2B
DF
10
0C
28
20
CB
FF
1A
0C
16
11
09
E8
EC
16
CC
20
12
15
05
2A
E3
11
F5
26
22
2A
00
F0
F3
E7
0E
FF
F6
11
0E
0F
23
E7
01
14
49
09
EF
F4
05
F5
F6
EA
09
EC
0F
FB
21
DC
24
F4
E5
37
1B
1B
C4
0C
E3
D8
F1
05
1C
F6
DC
C9
1A
0A
DD
FD
E2
05
0C
0A
F0
F3
F8
E8
CA
09
12
FF
02
D2
2C
E0
0C
13
0F
EC
F0
E6
03
D0
0D
F8
2C
2E
EC
F8
02
3D
D2
01
C7
D9
FF
ED
C8
05
12
DB
CC
F1
12
F7
13
12
13
11
FF
D5
2D
D9
FC
FA
12
FD
E5
0D
23
F5
07
D4
09
E5
1C
1B
C7
0A
14
02
D2
FA
E7
09
15
0E
31
15
FD
ED
1C
FC
25
D8
E5
08
25
F5
04
E0
AE
CB
DC
D4
D5
15
E4
07
F0
29
07
D5
F9
F9
10
06
23
F4
08
E3

