59
FB
FB
1D
24
02
EA
05
07
07
CE
DD
C4
1B
29
00
E9
C3
06
F4
F7
D8
1A
EC
0F
F6
17
09
F6
A8
F8
04
E5
39
FA
20
21
21
FA
24
EA
FB
F7
FF
2C
16
FB
1D
EC
08
A3
0F
08
0A
1F
FF
FA
F2
FA
26
E5
EE
9D
DA
29
E7
C9
02
DB
F9
0B
1E
1E
FE
1B
EC
F8
FB
1D
DD
EC
E1
EA
09
DF
E3
F1
E1
FC
F4
13
0A
FB
1B
15
37
17
21
1A
E5
16
CE
23
19
F5
F4
00
E0
E9
18
38
2A
F6
E8
E2
1B
11
EB
17
24
20
F8
FC
09
27
EA
EF
05
FE
05
F8
0D
17
DB
29
02
03
2D
FC
D6
C0
F3
22
17
E3
B9
1F
20
E4
EE
E4
D0
F5
2B
D1
3A
04
EC
05
C7
04
2D
24
12
EB
1E
17
13
07
0F
0A
24
15
EB
CE
F3
E2
E8
F1
34
24
00
E2
10
41
16
15
15
3E
22
E3
DE
EE
00
BF
F2
AF
02
F7
DA
0E
FF
0D
FF
FC
01
FC
05
E5
DC
EB
F2
CA
08
07
03
DB
13
FF
ED
0A
04
3A
1D
1A
34
24
E8
19
E5
21
17
DA
11
C9
DD
07
1D
1F
FE
E2
22
0B
32
E4
11
34
DA
1E
E5
FE
07
13
F5
DD
30

