65
F5
E0
D6
2D
FE
FE
DA
1D
3D
DE
C1
E9
18
01
D1
EA
D3
0D
19
0A
BF
FB
0C
21
14
EA
F3
39
EC
EB
02
2E
34
48
1D
2C
CD
14
F5
04
2D
32
1B
FE
17
FE
3C
16
13
E6
33
0E
13
21
E0
EB
15
30
E2
33
0C
E9
FC
4D
E6
EC
0F
D1
34
0F
D7
0E
06
33
1F
00
10
2B
05
02
00
19
47
E6
37
22
D9
09
0A
15
ED
1E
10
25
FD
02
0C
EF
30
E2
AB
D3
F6
34
03
15
1A
F0
D5
09
00
F7
DA
09
F1
2B
EF
09
1B
D9
C4
AE
B4
FE
17
0F
27
EE
1D
06
03
00
36
FF
E7
F6
FA
ED
15
21
FE
14
3B
25
1C
33
1A
1A
12
04
E4
29
1B
EC
E9
E1
20
B4
05
15
32
F2
0D
BE
21
28
04
FC
DD
11
FD
25
DF
CC
1F
06
02
E7
DB
ED
D7
15
FB
1D
04
E2
35
DD
09
C8
FB
27
09
E6
E2
04
40
D1
25
F0
04
FE
1B
1E
F4
F3
58
B7
18
0A
EA
0A
CB
E0
0D
CD
19
ED
CB
FF
2B
30
EA
0D
12
E1
EE
15
0E
2D
E3
DC
14
1A
EB
07
F4
0F
14
0A
E1
26
E7
E9
00
04
13
0A
4B
1E
46
0A
2A
1D
EE

