FA
12
08
EE
06
F3
FA
F8
0E
09
0A
03
0A
03
0A
12
0A
11
F9
0F
F0
FB
09
FE
F2
10
EE
EF
0B
EF
0B
FD
00
04
EE
E5
D8
EC
EA
0C
F5
D5
DB
DB
C3
CF
DF
EC
F4
E7
F0
EF
0D
0F
04
F4
05
FB
F7
EA
E6
E7
FA
DA
CA
E0
EE
DA
F7
10
E9
EE
F2
1A
11
15
23
1E
F9
DD
FF
EF
FF
F8
0F
F9
09
D8
F9
F5
EA
D0
CC
E4
04
DE
D7
E1
DB
0A
F4
1B
1D
0F
15
29
16
2C
0C
12
F0
0C
FC
F5
03
EA
F0
0F
FA
E0
D9
F7
02
C4
EA
E5
E9
F5
E0
03
09
0A
FE
24
23
2B
1D
21
E1
F3
03
F8
DF
18
F4
E7
14
E6
03
FD
01
F5
F7
E8
F8
EA
EE
E4
05
11
0B
F8
FF
34
31
1C
D5
0C
F5
FE
2D
0B
FB
F8
08
08
11
24
10
01
FD
F6
1A
F7
DE
F4
0E
2A
10
14
1B
1A
F6
E2
D7
D0
02
10
20
19
0C
1B
0D
ED
FD
0E
0E
16
04
21
10
F3
EB
CB
F1
28
1B
08
15
E6
08
F9
F6
EF
01
20
26
F8
FC
07
07
EA
F0
05
04
F9
FF
09
E5
E3
C5
DA
12
28
00
F9
F8
EF
12
02
F5
FF
0F
19
DE
FF
FF
1E
0B
E2
F1
01
00
F6
E8
0E
01
BA
D9
0F
38
2A
09
FA
DE
F0
22
0A
00
FE
FC
0F
FF
F1
0F
11
EF
0A
11
04
04
1C
FD
05
E7
A4
D1
12
36
2B
F8
00
EF
F6
0D
19
E3
F5
1A
19
F9
0A
EA
00
16
1D
14
06
0D
1B
06
13
E4
B9
E4
1F
14
16
04
FD
E1
F3
0F
10
E7
01
FE
0E
03
2A
FC
EC
18
06
0B
08
0F
01
14
1F
E7
CE
E8
07
2D
2A
00
00
E3
CA
FE
19
01
F0
0A
F3
08
15
FA
F4
F7
03
18
14
09
FA
FA
E3
E7
E0
FC
18
00
1C
FC
DF
E3
E2
FD
20
08
ED
FD
09
FC
FD
17
07
FD
13
0B
0C
EE
FD
E2
F1
14
F6
EF
FA
F4
21
E9
C2
CC
D9
DA
14
17
F7
10
00
01
1D
08
FD
1B
14
04
01
D8
EF
F4
F3
06
FD
02
FE
18
09
E5
DB
F8
FA
E4
F4
E9
0E
1B
FE
EB
E6
06
13
01
EF
EA
CA
DF
E3
F4
00
05
05
F4
1A
08
14
03
2C
0B
19
10
03
13
01
0A
04
05
05
03
0F
F7
EE
F3
D2
E5
F5
0E
20
03
06
12
16
1A
09
F8
28
01
0C
0D
1E
22
0B
E7
0B
FB
17
08
14
03
DB
EE
E2
E9
10
1C
15
13
0B
04
0A
11
10
EF
FB
F3
05
1E
FD
39
0D
0D
00
E8
F3
F4
F9
E1
E5
E8
F1
04
21
16
15
17
EE
12
F7
FA
FC
DA
02
E4
0B
07
FB
12
F7
0A
FE
0D
0B
C7
D3
F4
CE
FC
FF
0D
16
25
F5
E3
E4
0E
0A
1F
08
F4
F3
FD
03
02
EE
04
F2
F9
0E
10
05
DE
E0
D4
CB
EC
0C
0D
1E
07
F7
F4
F3
F4
FD
1F
2B
03
FA
F4
19
09
1B
D0
11
F3
F0
13
02
E5
D0
F8
F8
FD
03
0F
1E
FC
01
DB
E5
F4
EE
FB
03
20
18
07
17
26
09
EC
F9
FE
F1
E3
ED
FF
FF
06
F5
04
02
1E
22
06
0C
04
D8
CB
D3
FB
F9
0B
06
FD
18
1D
14
03
0E
FA
04
03
CC
EC
15
05
FC
0A
18
17
2A
1F
00
05
E9
E3
DF
F5
F3
F3
09
1B
17
08
20
F4
03
EE
F8
EC
19
2D
17
FD
FF
0A
EE
14
1D
16
0E
ED
F8
05
20
FB
E2
07
20
FB
0A
F2
FE
0D
FB
07
0A
EF
ED
E9
EE
05
07
0A
F2
EA
D3
F7
F8
D3
F1
EB
04
F5
FA
0F
F2
1B
0E
FA
F9
03
F4
F8
0F
EE
11
1A
3A
05
FD
07
28
17
FA
0F
50
3F
61
30
26
0E
02
33
4B
20
0C
F7
0E
0F
0C
FA
EE
03
0D
08
F2
0D
F4
0B
06
FC
0E
EA
F3
02
03
F8
0D
F4
07
0F
0B
FE
07
0D
F0
12
F1
0E
F8
04
F8
FB
0B
F5
F5
DE
F2
FD
DF
05
F3
EA
FC
FC
F3
E4
F8
DF
FC
FB
E4
FF
10
0F
0A
FE
04
F4
20
0B
E8
E4
E0
D7
D7
CC
CE
E5
EC
D8
00
F1
EF
F0
E7
E5
F9
F1
F3
ED
0F
EE
11
05
FE
F8
16
EC
03
E5
E2
FB
E6
E9
F6
04
F6
06
0E
13
07
EF
FA
12
01
FC
E7
E6
20
F3
EE
08
08
0F
FC
FB
DB
DB
F5
D8
F6
F6
14
FF
15
13
0F
05
0E
07
F6
EE
0D
13
04
02
07
F4
D6
0A
11
0C
FC
E1
E4
E7
ED
F0
0A
0F
18
06
01
0E
01
F2
0E
F2
DA
F3
09
1A
F1
06
04
F8
E4
EF
0B
06
0D
FB
1A
19
04
0B
09
0B
F8
0D
02
F6
F0
F4
FB
F5
FE
DF
05
19
19
19
02
02
ED
01
11
0F
21
F2
0E
16
0D
03
12
14
13
FB
08
ED
D7
E1
FF
09
08
F6
F2
14
23
0B
14
FF
01
10
F2
23
08
04
F6
FA
E6
FA
F9
02
EB
00
0E
FF
F4
FB
06
FF
0B
08
F1
02
13
17
28
F7
14
F5
F3
09
ED
E9
F4
FF
F6
F1
E5
E6
F2
08
00
1C
15
30
18
07
10
F7
F4
17
0A
13
13
1B
12
10
00
0E
EF
FB
F9
F8
F3
00
00
F1
00
15
16
0C
2E
2D
10
14
1A
00
14
1D
15
06
38
15
F1
12
15
1B
06
ED
E1
06
DC
0F
F5
16
0B
FB
F6
EF
01
F8
04
F9
06
10
03
06
06
FE
10
35
F7
0E
11
1F
15
0B
F1
FB
EE
17
02
17
0F
0E
F6
D1
E1
E2
E6
0F
07
0F
FC
04
ED
FC
22
1A
F4
F7
16
FB
1D
0C
FB
0E
05
23
1E
1E
15
06
F8
E4
DD
DF
F2
08
1D
17
FC
FF
EA
F1
2C
07
EF
F3
0C
F5
07
15
30
10
13
1F
13
0E
16
01
FD
D9
0C
F6
0D
12
14
17
FC
F6
02
16
16
02
FC
11
04
2E
2F
35
19
20
0B
19
14
04
FD
14
E4
FE
F3
E7
07
00
03
EE
0E
F6
14
0D
F8
05
EF
F6
05
0C
34
27
1B
05
0E
0A
EA
ED
F5
02
0B
EA
FC
FA
F3
0D
02
14
01
02
F2
F5
F2
10
15
FD
F3
13
10
37
1E
0D
02
0F
FB
08
F7
12
FA
12
11
F4
03
FF
09
F5
03
F8
06
02
DE
02
19
E6
F7
1A
11
1D
28
0C
F8
ED
FD
13
0D
13
FC
04
F6
F8
07
0C
FD
01
F8
03
01
08
EE
F4
F1
0A
15
21
14
0A
33
00
F1
DF
E0
FB
ED
FE
11
07
EC
09
00
08
03
15
04
EA
F7
12
03
07
02
F3
24
16
0A
13
1F
1F
FC
E5
EB
EC
ED
FB
F6
F4
F8
EF
0E
18
08
F7
07
EA
09
F8
F9
EF
01
01
F1
0B
04
F6
0B
18
0C
05
01
D9
ED
E3
E4
01
0E
11
F9
F8
F4
FE
00
15
10
14
0A
0D
01
F0
F2
FE
0B
DD
E7
0C
F5
F3
02
F5
E7
ED
F4
0A
03
08
0D
FF
01
FB
28
17
27
1C
00
18
07
F7
04
FE
10
E4
D3
E6
02
FC
01
09
23
14
26
09
14
05
0E
02
0D
14
0A
09
19
29
04
FD
0A
EF
F7
09
12
E6
E2
CA
D9
FF
00
F5
FC
0B
1F
22
0B
13
0D
1C
19
FF
FA
15
1C
2A
F4
DE
F7
05
0E
12
04
F3
DF
01
FE
F4
DF
E6
DE
D7
17
05
04
FE
03
18
02
ED
F2
1C
11
10
F2
02
F8
04
F0
03
07
F4
F2
E7
DE
FF
D5
CB
DF
03
FA
E1
F8
F6
E6
E9
E5
E9
E4
F7
FE
06
EF
11
0F
F6
F8
F7
0A
FC
F5
E9
F6
E5
06
EE
EC
0E
01
E9
C4
E0
E5
DB
EB
ED
EF
D3
E3
EF
ED
03
EE
0B
04
F1
0F
10
00
0C
EF
F1
F7
07
0C
09
11
11
02
11
0A
F1
F6
03
F6
11
F5
FD
0D
0C
03
12
F1
05
F4
FB
13
FF
15
FE
01
06
06
0A
1F
1B
1E
1F
14
18
22
1F
08
06
06
FC
01
07
12
10
FB
09
F7
12
1A
19
14
FA
F0
00
F8
01
0B
15
2A
42
33
0C
13
0B
06
FC
06
01
F7
0F
11
07
F5
F8
F1
F7
0B
1F
02
EB
DA
FC
04
F1
1E
20
30
46
22
0C
0E
FB
F8
F0
FA
E4
D9
FD
0C
12
09
03
02
17
03
0D
0A
F4
16
16
F5
EB
0D
FA
1E
0A
E8
F2
14
F3
EB
FD
E4
EE
E8
DD
F1
ED
0C
08
19
21
0B
FD
08
18
F2
0D
EB
0D
1D
1C
03
FE
E0
DB
E9
F1
E6
EE
0C
10
F3
FC
EC
F6
F5
07
1D
26
0A
F7
02
E8
EF
F2
ED
09
21
20
09
E5
FB
F5
EF
F6
E9
0E
12
18
0A
15
0F
11
0D
E1
ED
00
05
04
FF
F1
F6
02
07
20
26
11
F4
F8
DE
F7
E4
ED
F6
F8
02
04
09
26
F3
FA
02
E5
E1
E9
DF
EA
EC
F6
EF
E4
F7
09
34
2C
06
CF
F4
EF
F0
FA
F8
EE
F6
19
17
03
EF
F0
19
E7
13
F5
EF
F8
FD
ED
E2
F2
E9
1B
31
20
F2
DC
EF
FC
0D
F5
1B
10
0F
14
21
FE
FC
00
13
F9
FB
ED
CC
CA
E1
D8
E8
EC
0D
12
40
13
F2
D8
0C
F5
1B
F4
12
03
1A
0D
08
16
FE
F0
FB
E2
01
F4
E9
EB
DE
F5
FE
18
2A
3C
10
EA
F5
D9
FE
FE
FA
F4
F1
07
FB
FC
01
00
05
FB
FC
E3
F3
E1
FA
F1
0B
16
23
21
2E
25
08
EA
FA
F9
ED
02
F9
FF
F2
10
FF
14
EC
0C
01
F7
14
F9
01
F3
FD
11
07
17
41
25
20
11
F1
E1
E9
F3
F9
DB
F8
F7
FD
FF
21
1F
08
10
F1
02
0F
13
14
ED
1A
0A
0B
2A
3D
26
05
F6
DE
FA
EE
F3
DD
F7
E9
EF
FC
09
FB
2A
D7
F7
FA
F8
FF
23
2D
15
FC
08
0F
06
20
00
FE
E9
F5
E6
FE
06
F7
E5
F1
FC
13
F1
06
F9
D7
CB
FA
F7
15
01
0B
00
FE
F5
E8
01
F2
FA
E8
ED
F8
FA
FD
00
E4
F3
EC
ED
05
F3
00
FA
E1
C4
05
F2
14
02
0F
03
F8
CA
E0
00
DA
DF
EB
DC
F3
FB
DC
E6
F8
03
09
FE
0F
05
F4
F1
EC
DE
DA
F4
08
01
07
02
03
F4
EF
E6
E8
E4
EC
E4
D1
FB
F2
FB
EE
F4
F1
FB
1A
F8
EA
D3
FB
D4
D5
0A
15
03
09
13
F6
DD
FA
D9
05
F5
00
E7
FE
01
FB
FD
07
0B
FD
01
F9
FE
07
E5
ED
EE
F9
08
FC
00
07
13
14
08
F4
FB
13
EF
05
17
15
FD
12
FE
03
10
0B
19
02
FD
0D
FD
FD
F8
04
01
13
E9
08
01
F3
FE
0C
03
17
13
18
12
F2
F8
07
F3
00
1E
07
1A
10
FD
06
06
F1
EB
F7
12
12
F1
F1
F2
0D
00
16
1D
08
18
03
01
14
03
0E
12
15
12
16
18
06
0B
05
FD
F8
F9
0B
02
08
0A
22
03
EF
F7
02
F5
1C
1C
25
07
08
1C
20
00
10
04
20
08
0B
01
FD
F3
E9
04
FA
F0
F5
15
0A
F1
1E
0B
21
06
1E
0F
12
FF
04
1E
0F
17
16
01
03
F8
F0
12
E5
EC
F2
1B
0F
09
0C
F6
FA
1E
14
07
0B
07
12
1A
FE
FB
1E
01
FF
EC
ED
0B
14
F6
08
14
0D
F9
FE
F7
FF
F1
12
06
F9
DA
E5
E8
D4
CE
E2
F5
F7
04
03
F4
01
F1
D0
E5
08
F1
19
20
FA
F6
0C
10
07
F1
F2
0C
F0
0F
10
EA
0C
04
F0
D6
E2
E6
DC
D5
DF
CD
F3
E9
05
01
FD
08
16
06
F6
FC
F1
FF
FD
F2
F8
F0
F9
FA
F1
F4
F4
0F
F3
07
13
14
03
FE
0A
10
12
FC
02
FB
0A
04
F1
0B
0A
0B
F5
F5
04
12
0A
01
F5
1D
0C
1D
05
0D
17
03
30
19
19
0E
11
13
15
10
12
04
0A
F4
0A
EE
01
03
21
1D
04
11
FD
07
FC
06
0C
2C
FC
00
1B
1F
0B
00
EB
02
26
0B
2B
10
00
FC
09
F1
F6
F8
1D
14
FE
12
06
22
06
0F
29
2A
1F
F8
F5
1D
0A
23
FA
E1
F4
0B
05
1E
18
08
01
02
EE
28
17
20
F2
FB
FF
FE
0E
FF
1A
36
02
15
0A
17
08
0D
FE
E6
E8
E4
E2
DE
F0
F8
14
F6
02
0B
11
F8
F8
F0
F3
F9
0E
F3
19
FA
F5
E1
F5
FB
F6
FD
FE
F9
E1
E5
D5
D1
F0
04
F7
FE
02
0D
FE
FB
CF
E6
F2
FB
F9
03
07
ED
E8
09
FF
13
22
25
06
FF
E6
F8
DD
DA
FC
DC
FB
08
02
08
FD
EE
CF
DA
E0
EE
F2
02
F0
08
08
11
12
FD
24
0E
0E
FC
FA
FF
F5
E6
C6
CA
06
0C
0D
E9
E7
EA
E2
F5
F1
F3
FD
F7
02
13
14
19
05
0F
06
03
14
F7
12
1A
FA
EA
DA
FA
18
12
11
E9
F2
FC
E5
0C
F9
00
15
14
18
1C
09
10
14
08
1A
FD
FA
16
FD
F7
06
EE
ED
E7
10
F0
E0
E9
1C
02
FE
07
FA
13
03
16
FA
ED
1E
37
27
11
05
1B
FB
12
04
06
28
05
01
06
14
EB
03
13
02
FD
EF
08
18
17
0F
01
FF
09
16
18
0F
FA
FB
13
FC
04
FE
18
24
2D
F9
23
24
FB
F8
06
17
17
F2
00
FE
FF
FD
0C
08
FF
14
01
0A
0E
13
0E
FB
09
F8
F4
31
20
01
11
1E
FB
FD
0A
0A
00
FD
FD
05
F5
01
02
F9
F5
FE
11
13
F5
F2
01
F5
0D
0F
04
1B
09
02
F1
F0
F8
08
FB
1A
F0
EF
18
00
F9
02
F2
F3
EC
13
03
01
01
F6
00
0F
0D
1D
22
02
FF
D9
06
FD
01
F8
E6
F4
03
1C
FB
01
05
00
0A
FD
ED
05
FA
00
E4
F0
FC
0B
FF
1F
FC
F3
16
E7
EE
00
ED
FA
F6
FF
F9
24
FA
FA
0E
10
12
F3
03
05
D9
DA
EF
E4
EA
F1
03
03
F4
EC
F8
E4
E4
1C
F3
08
F4
0D
F1
FE
EB
10
0C
14
04
04
F9
03
D6
FE
F7
F9
EE
08
01
F8
02
E9
F4
02
04
07
1E
F0
09
EF
ED
E7
FE
F9
0C
F5
15
FD
F3
EA
E4
E7
01
01
01
07
F8
05
FE
08
D7
06
FC
06
EE
17
FD
F0
FA
EF
03
EC
06
03
07
09
06
FC
07
F9
F3
07
F0
10
14
FE
0C
F6
E8
FB
08
11
00
02
03
EE
EB
02
F7
FA
E1
F5
EC
05
FE
01
06
F6
FC
FA
0D
12
0F
12
05
FF
0D
18
FA
01
FA
F9
FC
FE
DC
FD
11
1B
F8
03
07
04
17
08
F3
FB
07
03
08
E9
07
E6
EC
F0
0B
EE
1B
11
06
F9
F2
16
F8
04
09
FF
0F
0E
09
0E
11
F3
FE
0F
FB
FA
FC
CF
01
E8
0C
11
F9
10
08
05
01
ED
1D
0B
00
FD
FF
02
03
0F
FA
F9
F4
08
EC
EF
F3
03
E6
E3
EE
FE
1D
1C
01
F8
EA
0F
F1
02
05
26
12
33
FA
12
10
04
09
06
08
F4
08
0D
F4
FB
D4
F8
F2
05
01
25
FD
FB
E6
05
02
00
0A
02
13
38
12
31
16
22
0B
13
FD
19
15
06
12
0C
F7
13
1C
17
19
00
FC
03
EB
0B
11
F3
F7
FC
09
3D
26
13
20
18
1D
22
34
30
3B
11
3B
2A
05
12
3C
17
18
07
E5
F1
FA
00
0A
F8
F5
12
03
0A
06
1C
0B
01
1D
14
19
0A
28
11
21
04
18
FA
E8
02
1E
12
F3
03
FA
09
08
FC
09
00
0D
07
FF
07
FD
FF
FA
00
FB
0B
06
F0
FE
F0
F2
FF
FC
F1
00
0E
F2
F2
03
04
08
F5
05
05
FE
03
01
F4
07
F0
0A
2B
1E
F8
FF
F0
2B
14
09
F6
E8
FE
ED
FD
F2
FA
05
02
01
FB
09
E9
F0
F3
FE
F2
14
22
0C
1F
2C
00
19
FB
F6
F4
E2
CF
D7
FE
02
01
0C
0D
FC
F3
FE
FE
F1
08
01
0B
02
EB
24
14
02
29
14
0C
10
F4
17
F4
E2
E9
FF
EE
EE
09
2E
1E
12
FF
06
F4
1D
0A
07
18
0F
03
12
0A
0D
07
00
06
05
FE
0D
FA
05
E9
EA
E0
DC
07
0B
06
22
17
06
F9
06
F5
F2
E8
0D
EF
FE
FB
0F
09
FB
18
07
08
F6
EE
09
EB
E5
D2
E0
F9
ED
0E
0A
21
12
F8
12
0E
12
FC
DC
F7
FF
FD
11
09
F9
11
16
20
1E
0A
19
02
D3
DC
DF
D8
DC
EC
0A
1B
EF
2D
21
FF
F0
F2
EF
F1
00
05
FA
1F
18
17
0B
16
2B
2B
0A
1A
FE
DF
F5
C6
E5
05
0B
0E
00
07
1A
E0
F4
F4
F9
DE
11
06
07
0C
FA
DF
EF
06
0B
1A
22
14
02
DE
F6
C3
C7
C7
EC
E3
F3
F6
E2
03
0C
F7
0F
13
1B
F7
06
E9
DF
DA
CD
F4
0C
21
21
29
07
F1
D4
C0
E1
DC
E5
EE
F8
F2
E6
05
DF
0E
13
FA
07
EE
E5
D2
E0
C5
EE
05
1E
1B
24
08
0A
FA
E3
BF
E5
F9
E7
FE
08
FA
DF
00
E1
FA
FD
EE
F9
E3
05
E2
D6
D7
F4
F4
02
1C
09
26
2B
06
EC
E4
DB
EF
EA
02
0F
05
01
FE
09
E8
DF
FA
F5
E7
ED
EC
FB
F7
12
F1
0D
FB
17
12
04
06
EF
EA
DB
E5
EF
0E
0F
FE
07
08
EF
F1
FF
EF
13
0A
0A
01
FF
FB
F0
ED
FA
FD
02
1D
FF
03
03
F2
0F
F5
FC
08
04
06
EE
FD
FA
E8
ED
19
05
14
1E
01
09
0C
E8
0A
F1
0F
10
00
FD
10
FD
E7
F8
F1
2F
09
FB
FD
D8
EC
E6
F2
F8
0A
09
01
19
F5
FA
F9
E0
0B
08
13
10
16
F3
09
0D
F9
FD
0D
10
F3
09
0F
08
FC
06
EE
E8
F6
FF
04
23
FB
18
FA
FE
06
0C
0F
EB
EB
FA
0E
14
E7
F7
02
FE
14
FF
F8
21
F7
E3
DA
EB
EE
08
07
15
12
0B
0D
03
11
FC
0F
04
F2
FF
00
F7
D4
E3
0E
19
27
15
0D
FE
F1
E9
DA
06
12
F4
FD
13
06
0E
F8
F6
03
0D
18
F7
15
03
00
F2
DA
F1
17
20
32
E9
06
F7
F3
09
E8
E7
FA
02
F2
0A
FA
1C
0D
0B
FF
10
FE
03
0D
FE
0A
DC
FC
F0
07
12
04
F8
25
03
0D
E3
FB
EF
F9
F4
F8
FF
FA
14
FA
07
F6
F6
F7
08
FD
E9
07
DC
05
DE
F6
F8
FD
00
09
0C
FC
03
EB
E9
FF
FC
02
14
12
1D
FA
02
E7
02
06
04
FB
00
0C
07
0E
06
F6
37
0A
F5
00
24
00
F2
17
07
17
1B
F5
FE
FE
F7
F4
15
09
F8
FE
13
16
1C
05
0B
00
0F
EB
1B
F1
F5
0D
1D
FD
DA
F9
ED
16
02
F0
06
0D
E7
E3
06
FD
FF
F8
13
13
17
1B
08
16
16
FC
21
02
F6
FF
08
0D
0A
04
ED
0C
F8
09
EE
EF
EA
F8
EC
EE
EC
EF
FC
F5
04
2A
28
24
21
15
F7
FC
F3
F8
03
F8
12
26
1A
21
0C
04
15
25
FC
F8
0F
F2
D0
F7
F2
13
0E
16
08
F9
DD
07
05
FF
0E
0B
0C
08
1B
23
14
20
16
0D
27
10
15
02
15
EB
EC
F6
21
19
2D
0B
07
F5
0E
0D
F4
0A
06
0B
0F
00
F2
FA
FD
06
07
10
2A
23
01
01
F6
03
DD
F6
2B
11
FD
FC
FD
E8
0B
09
11
F9
FE
F9
03
0B
03
F4
05
F2
04
FB
03
08
F2
EE
01
03
FB
F0
0F
F8
FE
F2
0B
FD
FA
FB
04
F5
F4
FE
09
F4
FC
F1
F5
F0
01
0A
DC
F0
27
1D
E0
20
07
09
02
14
0A
1B
F8
0D
F6
0F
F6
12
10
0D
13
0F
FE
16
F0
01
F5
FE
F8
ED
E4
E2
DF
EA
02
10
42
1E
16
22
01
14
F5
F8
F1
F2
06
FA
F7
FB
FD
FF
0C
F8
F3
ED
C6
F2
F5
F5
F8
0A
E9
FA
22
FF
08
25
04
04
0E
01
19
12
F5
01
EC
F7
FD
03
FB
D8
BF
E5
CE
EC
EA
EC
06
04
00
06
0E
08
FE
09
0A
0D
2B
0F
1F
09
F3
F8
FB
F3
00
FF
D6
D5
C5
F3
DF
08
E7
05
0F
F7
F5
0F
0E
0A
22
11
0A
E9
01
0E
21
0B
04
00
FD
E6
F5
EE
D4
DA
EC
D9
DB
FA
FF
15
01
12
0A
20
F0
04
0B
06
F5
0B
0A
2D
0A
06
08
CC
F7
02
E3
E1
D7
DE
EB
EE
F7
0E
09
14
0C
1F
25
F9
11
05
F3
05
F1
04
09
24
08
12
0A
E8
E0
F3
F9
E7
0E
D8
D0
E1
0F
15
2B
0E
0B
05
1E
F8
02
04
FC
0F
04
22
37
34
0B
13
09
F2
05
EF
D3
F2
FA
EB
D9
0E
12
1C
0D
22
FE
EB
F4
07
06
FD
F5
FB
15
09
4D
32
F0
F4
10
ED
1F
F9
D2
DC
D1
D1
DC
E8
03
0B
1C
16
EF
F8
F6
EE
F9
E2
FE
E7
FE
0A
20
03
0D
E5
F3
01
19
FD
E8
F0
EC
DA
E1
F7
F6
0D
14
1F
00
FC
13
F8
07
E1
E6
D7
E9
05
0F
24
3F
EC
07
0C
0B
0A
04
D7
C0
CE
E9
0F
02
11
00
16
0D
FE
F5
13
ED
01
E5
E1
EB
F5
0B
06
22
E7
06
FD
E5
F1
F6
C2
C0
DE
E8
EF
F3
06
22
14
1D
0D
FA
05
F3
EF
FE
D0
E0
FE
F2
F1
F3
09
02
FD
E3
09
ED
EF
DC
D5
DF
F1
FA
0A
1C
17
00
15
01
0D
E5
DB
DF
D4
E1
E5
E3
F6
E4
F7
F8
0B
E3
FB
F7
06
00
F1
EB
D8
02
F4
07
14
FD
03
14
FA
15
F4
EA
CE
C3
CF
DB
FB
DA
F2
E2
E8
E5
FF
1C
FD
07
DE
FE
CE
E5
E6
06
FD
09
08
15
FE
08
F1
CD
A2
D0
DF
F1
E8
D3
09
FB
F5
DA
02
02
F9
16
F3
FA
EE
E3
EF
FD
DA
FD
24
1C
26
00
E8
D1
C0
C3
C7
DA
D5
FF
17
09
EF
E7
D8
FA
1A
03
1A
0B
F4
F7
FE
FC
EB
04
01
24
27
12
FE
D2
B8
BD
CF
D4
E0
FF
D9
0C
06
0D
C4
08
03
FA
0A
18
FF
EE
FC
00
02
03
02
18
29
0F
F6
E4
D2
CD
E8
FE
F4
E7
E1
F5
0E
02
CE
FE
0E
10
FC
06
07
10
03
EB
04
F3
FD
0F
0C
F9
F5
CE
C0
E1
D0
FC
0B
FA
FE
09
F3
DE
EE
EF
F7
FF
0B
F5
02
EA
16
F3
00
05
08
FA
FF
EF
DD
EC
D2
BE
DC
E8
0C
FD
04
0D
F3
F9
03
E0
EE
FD
FE
06
11
16
1F
22
22
07
0F
F9
EA
DF
E9
BE
BC
C7
F9
F8
01
EE
00
00
F5
EC
22
0C
FB
E0
02
0F
F0
12
00
0A
03
1E
0B
10
E1
E7
D3
D5
E1
CC
E8
E8
08
E5
08
F3
08
F4
10
EF
DF
F0
F8
EC
F1
FE
F4
35
0D
09
14
21
F0
E2
DD
ED
D2
F2
E6
01
E1
E6
F5
FF
08
15
E9
E6
D2
0D
F2
F8
03
02
0B
18
E9
F5
FB
22
13
E6
E2
FA
E1
F3
02
FE
02
F3
0F
0E
00
11
0E
04
F7
E9
F1
D0
DB
F2
08
F8
F9
F3
EC
1C
0A
E7
F6
FC
FD
FF
0C
FE
0C
0D
FF
F8
FE
F2
12
07
02
01
E5
E4
C7
FA
FA
06
FE
1A
17
12
F1
04
12
03
EF
07
FD
F5
02
F9
FB
FB
09
08
F0
FA
01
12
EF
0F
09
EF
F8
11
09
01
FA
00
12
F8
EE
F8
0E
FB
07
0C
F5
01
F3
0B
07
F7
06
F9
F1
13
FE
02
0F
FD
18
0A
1B
FD
00
0E
18
12
FD
1C
FD
FD
0A
0D
0A
F1
03
11
F6
F2
EB
07
0A
FC
0A
15
06
05
11
17
1A
E7
E8
CE
DF
F8
F2
EF
F5
03
0B
05
F6
FF
12
F7
F9
FD
F4
1A
0E
1F
23
19
F5
1D
0A
06
08
EB
F3
06
02
04
F1
E4
E8
CF
EF
DF
FF
F4
01
09
00
EB
15
1D
2A
2B
31
06
06
12
11
13
FA
08
0A
26
21
1E
16
0B
F5
FC
FD
D6
FE
F0
F6
F3
F4
EA
06
1F
32
24
0F
00
0A
20
18
0F
0A
FF
FE
F9
01
05
1A
16
09
F4
0A
E0
D4
FE
12
FB
09
02
03
0C
2E
16
EF
03
1A
FD
1B
F9
EE
0B
FD
07
09
F0
F8
01
19
EC
04
02
E7
02
08
FF
12
26
DE
E8
10
02
04
E8
0B
0B
1C
F3
08
0D
10
0F
07
05
13
FF
F5
E8
E5
0B
E3
F6
F1
08
0B
22
CB
DF
01
E6
EE
02
0A
08
0E
00
ED
15
FE
EE
EC
04
09
FC
16
F9
D7
EC
15
EB
01
FD
0E
08
FB
F8
F7
FF
FE
03
FF
0D
02
FB
EB
F4
F3
08
14
1B
03
1B
04
F9
FB
DD
02
06
FD
01
FF
FA
0B
F2
FC
13
F4
08
0A
08
00
F2
E2
D8
F0
F8
15
0C
07
14
0E
1D
0C
EF
17
0A
FB
06
F3
13
FC
F8
09
1A
F7
01
11
FE
F6
DA
E9
D7
06
0E
06
17
15
0C
1C
31
26
05
F7
10
0F
03
F2
09
F5
04
17
10
0C
05
0B
F7
DF
CB
ED
F8
01
08
FC
F7
FA
13
26
15
31
15
D7
04
00
F3
07
04
FB
31
2D
25
19
0C
ED
E4
BB
E4
01
09
02
E1
EC
D9
E5
F7
2E
11
07
0D
0C
08
F6
0D
14
10
11
26
28
10
14
0C
F6
CC
DD
E1
EB
0A
F9
EB
D6
DA
F4
06
21
12
16
F4
F2
0E
F2
07
FC
E9
FC
17
20
18
F8
E1
E2
D5
CF
ED
04
F8
E1
D9
CC
F4
06
06
02
F0
05
FE
EA
1B
13
07
01
FF
0B
27
2A
1E
09
E6
DB
D4
CD
F5
F8
04
F3
E9
D1
FF
FF
0F
EC
13
06
F0
09
FC
11
02
FA
15
23
05
1A
10
1C
0F
01
E0
E8
E8
F3
EE
E2
C2
EC
FA
10
FB
E5
13
F0
F4
08
F8
E3
08
09
17
1F
15
00
1F
33
21
27
14
03
F6
F3
E4
CD
F0
07
07
11
F8
FD
FC
F8
EC
2D
FB
F8
F1
0C
2C
01
0C
00
16
11
2B
36
33
2C
07
F6
ED
E6
E4
0F
1C
1C
1C
08
04
EB
F5
1D
FE
F8
04
F3
11
F1
E7
00
13
07
21
14
17
FC
FD
F6
0C
F6
1D
16
FE
09
FB
F9
EB
0A
29
31
05
F2
0E
EF
E8
DA
E1
07
FB
FE
11
FF
24
05
15
01
1F
21
21
0A
00
F2
F6
F6
09
12
35
2D
FF
0D
01
F9
02
F2
06
0C
06
E3
00
F4
EF
00
0E
09
21
2D
27
0B
1E
13
09
EF
00
19
12
09
F3
04
04
FA
07
00
FE
09
19
0A
F0
E8
FD
F3
08
15
13
20
20
15
1E
07
0D
0D
FF
16
29
00
04
F8
EE
04
17
0A
25
28
1C
10
17
F6
F8
F4
EA
FC
03
21
2D
0E
FD
07
24
07
1A
1D
0C
0E
09
F7
FB
FE
0F
0A
05
20
FA
ED
03
18
0B
FA
FD
F2
09
05
0D
FD
E5
06
24
36
29
10
10
16
0A
12
06
0A
FC
FA
10
1E
06
F1
0D
14
FB
FC
F2
0A
FC
15
0E
12
0C
04
38
40
2B
01
FC
FA
F2
09
0A
F8
05
FE
F7
EE
F8
EE
04
0D
12
13
06
0F
05
06
0B
17
16
07
0F
26
29
10
11
F7
11
11
EF
08
02
F5
0A
0F
0E
08
FD
FC
00
02
E9
F4
03
F1
FF
F3
FB
01
0A
11
F2
0B
F2
F9
12
00
05
09
F0
F7
07
F6
DF
F9
F4
EB
EC
D8
CD
E1
EB
D2
DF
E5
E1
FB
F2
E7
EA
EE
04
11
F6
12
F9
FF
F8
F1
E6
E8
DF
F3
FA
10
0C
EF
DB
C8
E6
CC
D2
F2
D9
D0
C5
D2
DC
E1
FB
FD
0C
F2
0A
07
F8
F8
DC
E6
CD
D3
EF
0C
0F
1D
0C
DD
D6
F3
EB
EB
FF
01
13
1E
1E
04
08
2C
00
FC
08
0A
FC
FF
F8
EA
D7
E4
E7
F0
E8
F8
EF
FA
1A
0A
F8
18
14
EA
FE
17
FC
16
2E
23
15
0B
0F
04
F7
ED
DC
EF
01
E8
F1
F9
F3
E8
EF
F1
00
01
E7
F1
F3
E9
E1
F9
16
05
02
0E
12
1C
03
E8
1F
EA
E4
1F
12
00
09
FD
06
13
FD
07
0E
E0
E2
01
04
F1
F5
0E
1A
FD
06
17
0E
10
03
E1
1E
0A
E4
FE
F8
0A
FD
10
03
01
1E
FF
00
FA
00
13
EF
08
0D
11
16
ED
F5
02
12
1B
0D
1A
0B
FF
FE
09
FA
EE
06
00
F9
12
16
0B
05
12
07
0C
0A
F7
F0
05
07
E4
15
10
F0
0A
00
20
01
EE
11
12
F5
04
EC
05
F5
12
1C
11
04
08
FA
0C
1D
05
F6
EE
F0
EA
E5
E7
00
0E
01
10
1B
F4
00
1D
14
EF
ED
F7
16
18
1C
0E
18
26
1C
FB
04
FF
F6
E1
F1
BC
DA
06
F4
04
0A
F9
35
F7
F1
12
04
F5
F8
0A
05
1A
1E
10
FF
0A
FE
0A
10
FF
F6
DD
E7
C7
CF
E0
CC
2B
00
F8
14
01
07
22
FD
E7
0E
07
F3
FA
EA
E1
FD
FA
03
01
F8
11
ED
D5
FA
DE
F5
F8
14
13
F3
0C
08
E2
0A
14
E4
06
04
F2
EF
DE
EC
DF
F3
F7
03
0E
13
E8
03
E9
DA
F9
08
07
09
01
FE
FB
0D
11
17
FD
E1
E8
F7
F7
E6
D6
CD
C6
EB
EC
07
00
0A
EE
01
E0
07
1C
26
F8
1C
F7
F3
05
FC
FE
17
EB
FF
04
EE
E2
EA
F5
DF
EA
EF
F0
F7
18
02
F8
F1
FC
06
29
1B
F7
09
F1
FE
F6
ED
FE
F9
F4
17
27
32
1D
05
0D
00
F7
02
F8
18
0C
11
10
FC
12
0C
16
15
FB
25
E5
FB
06
00
E5
E5
10
1C
3C
2C
22
28
0B
07
FB
0D
0B
1F
0B
0D
0F
F3
F7
F9
00
17
F7
F9
E7
FA
0B
FB
F9
F2
0B
15
1C
1D
1D
06
12
12
FF
0B
1F
21
1B
FC
F8
0D
0F
0B
00
04
05
1E
FF
02
0B
08
20
04
1D
04
14
F7
04
05
0E
12
07
10
18
0A
06
08
07
13
06
EE
F7
FF
F5
0C
F7
F0
03
05
FD
19
FF
0E
F1
05
0C
F1
E6
F3
ED
F8
F0
10
04
04
FD
08
00
E7
FF
20
1B
1B
13
0A
F2
09
E5
08
FC
F3
D9
0D
0C
E4
E4
FB
E1
EC
EE
FC
F1
FD
0E
03
08
16
09
29
FF
D7
F4
0B
F5
F6
E2
EC
E7
05
F3
FC
DE
F1
E3
FA
FF
F8
F3
F7
0D
01
0B
EE
11
01
0E
30
06
DB
FF
FA
F3
EE
E5
07
F9
0A
FE
EF
DE
00
EF
01
F6
FC
F3
00
FC
E7
E9
EE
E9
FF
20
34
2A
F1
F0
F6
EF
11
F3
06
FE
0C
F4
F3
DE
F0
F8
F2
E4
EB
EF
F9
FC
0C
05
FE
04
14
1C
1B
0A
00
00
0C
FB
0B
0A
1F
FF
F0
EA
F5
E9
FE
02
01
05
05
F1
00
07
01
12
04
29
19
1B
38
F1
02
F5
FB
FD
04
08
07
05
EF
00
F6
03
04
0A
F4
08
F5
0E
0F
0B
FC
1F
16
15
29
F3
06
14
00
F1
F8
0A
F2
07
06
F6
08
01
06
11
10
0C
06
05
03
00
04
19
07
1E
22
22
2B
16
02
F7
F5
00
FC
F8
0D
F0
FE
EE
08
03
ED
F9
05
EF
0C
FE
0C
FB
F9
F5
08
00
09
F3
01
0A
F5
06
00
F9
0C
10
F9
04
10
EE
0E
10
0C
02
F2
EF
03
EC
F1
E8
13
FE
05
F0
EB
E5
03
FD
F6
11
F7
F8
F6
F4
FA
FA
F4
FC
11
11
0D
0F
0A
14
12
DF
F3
00
E7
D3
E1
E7
07
E7
F1
EB
F5
13
04
0E
FF
0C
01
EB
F1
00
0C
0C
12
F9
F3
EB
F8
E1
E1
E2
DF
EB
D7
02
0D
D6
EE
F5
F6
F9
04
F3
FB
F5
06
F0
FF
FD
14
06
25
05
19
13
13
1B
DE
FA
D3
D6
D6
E4
0D
E7
CE
EC
F0
FA
07
EE
0B
02
12
09
0A
F1
E6
FC
EE
FB
FE
F5
03
12
0A
FF
FB
D9
E3
12
E8
FE
0B
14
12
0A
0E
00
F9
04
06
02
FA
F7
E7
F5
EA
07
FD
E5
02
01
11
0E
0F
09
E8
FE
ED
FB
FF
05
CD
13
FB
15
0F
20
F1
E8
FC
F8
FE
F7
EA
FB
F0
EE
00
01
25
0E
FD
00
E9
FB
F8
F8
FA
E3
C8
FD
04
0E
FA
08
01
F6
F7
F3
EB
E4
FD
FD
FE
FF
0F
26
25
EC
EA
EB
F5
F8
F6
02
00
F2
B3
CA
0C
10
FF
02
09
F6
14
2A
17
15
18
FD
1F
FE
04
07
F9
FB
02
F4
F1
07
02
F8
17
06
C4
F8
1A
03
13
FE
F3
0F
07
24
1E
1E
08
1C
0E
16
FB
00
E2
F5
03
F5
F6
0A
0C
02
17
FA
F0
0A
EE
17
FE
FB
F2
11
20
35
2C
10
08
16
FD
F8
F3
DE
D1
F1
03
05
09
14
09
F5
03
07
F3
E2
DD
FE
FA
F5
10
11
0B
21
16
02
EA
F3
ED
CF
C9
D8
F6
F3
02
10
FF
18
15
0F
FA
0C
09
E0
02
07
06
FA
14
17
EE
F2
EF
EC
E9
F1
EF
D1
C7
FC
F9
F7
0F
13
22
08
08
F9
FE
FF
FC
DE
08
0F
FB
F8
0D
01
D7
BF
F5
FE
CF
D7
D1
DD
F5
05
19
1A
21
25
10
F3
08
F2
F1
FE
05
E6
13
FA
06
F4
02
FF
FB
EE
DF
DF
D3
C4
D4
FB
08
1B
0E
0F
1D
FD
04
F3
F9
FE
FA
F8
11
FD
0E
F3
0D
FE
2D
03
0F
F1
EB
E2
CB
CE
D5
09
1A
1D
19
F4
01
0E
11
FE
F2
F7
12
FF
13
02
0D
09
00
03
28
2D
24
F8
ED
E8
E7
E9
08
0C
21
22
27
03
EB
F6
FE
01
F9
F9
F4
FE
EF
29
22
13
17
F6
07
34
0D
0D
FE
F2
F8
FE
06
0D
26
16
0A
00
09
02
FF
FA
E4
D9
EF
F6
FF
11
10
05
03
0E
0A
04
1A
18
ED
00
FB
FF
27
0C
05
27
19
FD
EC
FB
F1
ED
03
E4
F7
0D
1E
1B
0D
0F
F2
0C
14
11
1E
10
00
09
10
F9
19
0A
F9
EF
06
06
E5
FD
FB
FE
16
F7
13
1C
17
20
18
09
03
0C
0B
12
07
E8
0C
0B
0D
02
03
FD
06
ED
0A
05
F3
EB
0D
1D
09
17
FB
12
16
F4
DF
F0
FA
15
05
FA
F8
16
07
03
06
0F
F8
E2
F0
FF
FF
09
F5
08
FB
FB
FF
12
24
1D
18
F1
E4
08
04
FD
FD
DB
E3
F6
02
FB
0B
05
0D
01
FF
FB
F4
0C
15
0F
15
0B
11
19
1E
15
1B
F3
1B
09
F4
0A
F0
15
1F
04
04
01
F5
F9
E1
EB
E1
F5
E8
05
F3
0B
04
11
FE
01
1E
18
0A
FA
F9
F8
EE
F5
FF
EE
0E
03
10
F7
06
06
E3
ED
EC
F9
FF
06
16
0E
23
0A
0C
20
07
F7
ED
F6
10
FE
FE
FF
04
F7
F4
FE
F6
30
0C
FD
06
EB
E6
EC
F6
E1
F9
13
31
1D
13
14
25
18
E7
09
F4
05
F7
F8
09
FC
F9
07
0F
FF
FB
18
20
0A
03
0B
1B
04
03
0E
21
17
06
17
11
1B
07
01
F8
F4
09
08
10
EF
F6
FB
0E
12
09
F6
0E
0D
16
00
1C
14
FB
F4
0E
12
F3
F6
09
0C
F6
12
0F
F1
F0
05
F2
0D
00
11
1D
12
0A
14
11
0F
00
10
F2
F3
12
10
13
15
06
11
0A
00
F8
07
11
F6
0E
10
F2
FF
08
1D
1A
16
28
1D
21
47
29
10
2A
23
21
0F
1C
FF
04
18
0E
02
08
F9
EF
0A
0B
F1
09
FD
14
3A
30
2F
18
1E
FB
28
21
23
1C
02
0B
09
ED
04
FE
23
F9
FD
01
F6
14
F8
F2
02
1C
0F
18
18
40
19
1D
15
26
0F
FD
08
0E
04
ED
F3
E4
05
E9
D6
EE
04
07
09
25
0A
FA
0F
0F
04
1F
02
11
1F
20
12
29
2F
27
0C
FD
F5
0F
EE
F3
EC
07
06
E2
10
03
06
0A
1F
07
16
EF
1A
0B
0B
0D
36
1E
1A
17
2B
09
1D
17
12
0E
F4
07
E4
E5
F8
F3
F3
EE
23
19
22
F8
35
10
1A
32
1A
1B
31
28
04
17
18
08
1C
1D
16
08
EF
00
FB
FB
DE
E3
D6
18
26
18
04
09
FF
F3
F4
11
EB
00
02
0A
F6
EA
E9
DF
E8
F0
F8
F3
FE
F3
E4
EB
E0
E7
00
F9
F8
EF
F1
FC
03
F4
D5
F2
DF
E7
E3
D8
C5
C2
E4
DF
CC
CD
CF
E6
F6
FE
EF
FA
DD
04
08
D9
D6
EB
FB
12
F5
10
EA
D9
DD
CA
B9
AC
B9
AB
BC
C7
B3
B0
D9
00
F3
08
DA
F2
EE
F4
EA
EE
DB
E5
F2
0C
06
F8
10
EF
E2
D9
BA
C9
D0
CC
F2
CE
D2
F5
E4
09
00
F2
FD
05
FA
F6
0B
FC
E8
CB
09
FC
F7
E9
2E
08
F8
E5
FC
00
FC
14
0A
08
0B
1E
00
18
FE
FE
11
06
FA
06
0C
19
03
13
2E
E4
04
0B
16
25
12
04
FE
15
0B
32
0D
1B
2B
1A
08
03
09
19
12
09
0B
10
0E
F7
06
F1
02
0F
FA
0B
13
F8
0D
21
14
17
24
0D
06
07
24
17
04
FD
F1
FF
06
05
E9
FB
EA
EF
F4
0D
0E
01
F2
EC
07
EE
1D
25
06
02
07
F8
0C
09
F6
FA
0A
17
F0
15
02
0D
FF
F6
FC
F9
F6
04
06
FB
F4
05
06
1C
0B
16
03
E3
F2
0C
16
03
F6
08
EB
F7
E5
F9
04
FC
09
F7
03
0A
17
04
01
FD
0D
28
0C
0A
11
11
FA
EE
02
0D
1B
0C
04
F6
EF
FE
00
FC
F2
F5
FB
EF
EF
F7
1E
F0
12
07
EE
27
F1
F4
F9
F5
0D
F7
F2
0E
16
1E
FA
EF
FC
03
00
F1
EB
ED
12
10
FA
FD
57
21
13
F1
F0
0F
F6
F3
09
12
F0
F3
0A
03
0E
13
1E
04
1D
19
25
0F
10
F1
14
0C
F6
F8
24
21
09
FF
F8
13
1D
F1
00
E9
EC
F3
E5
FD
05
1C
12
1D
08
18
27
20
E5
08
FD
01
ED
04
0C
0A
08
F1
FB
12
25
DD
DC
E9
F5
E3
F6
0A
F3
01
05
0F
F6
FF
12
F1
02
03
00
19
07
FE
14
28
F6
05
07
1E
FE
00
FF
02
FB
F9
0D
04
06
FC
0F
10
0D
FB
F2
F0
F4
1E
FE
1A
11
E0
12
0A
FF
0F
01
0B
FB
07
FF
11
01
FB
0A
02
F9
FA
FC
F2
ED
F3
EC
E1
0C
29
14
0D
0D
E8
15
FC
F8
F5
07
2C
FA
FE
ED
F2
F3
FC
D7
00
FB
0A
08
16
FF
EC
04
F0
ED
03
19
F3
EB
0C
13
13
EF
F6
FB
09
F8
06
F4
00
15
DF
FE
1B
20
20
FE
F3
D5
ED
FC
E2
D8
D2
DE
0E
ED
F0
01
08
FB
FC
F5
F2
00
F0
F2
F6
F8
F8
F0
0F
01
F0
04
21
02
14
17
F1
FC
FE
19
10
F3
0C
05
F3
09
F9
12
03
F7
0C
FA
04
01
0B
F3
F0
F1
08
02
0F
F8
15
1B
F9
0E
05
0F
F9
FA
07
00
06
FF
0E
0A
F4
F8
07
F0
01
01
01
FA
0E
06
06
EC
EB
06
EE
04
02
06
F5
03
F1
00
0B
13
0D
F2
03
FD
12
01
EF
04
02
EE
F2
E8
ED
EA
DD
E5
02
D2
D8
D7
E8
01
F3
05
F3
EA
09
02
F5
0D
12
11
0B
EA
E5
06
FE
E2
F4
D8
E1
E0
CE
C7
EF
E2
F7
EC
D0
F8
E5
DA
E5
D7
F6
FA
F0
04
08
FA
06
F1
DD
E2
D0
E1
FA
D9
DB
E3
C9
B9
F1
DB
E3
01
FA
11
21
FB
FE
EC
FC
E5
DD
FF
FD
0F
0D
01
E5
F3
C6
DC
D9
D2
C9
DF
F8
DA
C5
D1
ED
D3
FA
FC
09
20
28
0D
F2
F2
FF
FE
00
11
F1
07
EA
FD
E7
FF
F3
FA
D9
E9
D6
D8
D8
F5
DE
03
FD
F0
12
00
0E
F8
09
FD
DC
F2
F0
03
04
14
09
0B
0B
F1
E2
09
08
F3
F0
EA
E6
06
07
1B
21
07
07
13
05
04
F9
DC
07
F1
02
FB
0B
26
05
F0
17
0D
03
06
FC
EF
04
0F
EF
EC
08
25
01
11
0D
F2
FF
F4
12
02
0F
10
01
17
FC
00
0E
07
03
FD
01
FB
0E
0B
F9
F9
F8
FA
F2
FD
17
0F
07
EE
02
05
F5
F5
F5
09
12
27
05
F7
02
FC
FE
FE
22
15
22
06
1E
05
E5
FA
04
12
27
02
FE
F1
F1
D9
F7
D3
FB
1C
FE
0C
F5
08
EE
12
05
21
16
26
10
12
05
E6
E1
0A
04
0B
12
0B
FA
F1
04
E5
ED
0E
07
F9
F6
08
41
FC
F0
08
FB
0E
FE
F8
16
FA
ED
EA
EC
16
1F
13
0D
13
F6
15
03
D6
E2
E7
DF
FE
0D
14
1D
F0
14
F8
09
0F
12
F6
FA
E8
DF
E4
08
35
23
17
2B
14
0B
F7
ED
E3
D2
10
19
1C
FE
13
19
0A
1A
0B
04
09
01
00
E7
E8
F7
0F
28
09
1C
17
03
0E
16
13
D7
D4
DA
FA
F7
E0
12
FC
09
0F
12
E2
EB
FF
17
07
F3
DA
D9
E9
05
08
04
1B
17
1F
1D
07
FC
F0
D5
02
E0
D8
F7
0E
EA
18
12
04
18
18
19
15
FF
F2
F7
F9
09
04
FB
08
03
02
25
29
00
EA
F0
ED
10
F8
06
F6
EB
F3
0F
F8
19
1D
22
27
00
E6
FB
FC
F9
0F
06
FC
F4
1B
19
13
FB
F0
F1
D3
05
E3
EE
F7
F7
04
FC
EC
1F
22
17
2F
25
0F
F4
0C
15
0F
F6
F9
10
FC
03
FB
F6
07
D9
DD
F2
DA
1C
F6
17
04
F0
FA
E1
06
F9
FF
16
20
08
11
FA
07
05
13
F2
16
FD
FF
F9
06
D9
E0
E2
02
0C
F8
1C
01
FE
F8
FB
0F
EE
E6
0D
03
FC
F7
F0
F4
03
F5
E4
FC
01
F2
E8
D4
D9
04
F1
09
FB
E7
07
F0
EF
E8
ED
E6
CF
F0
F0
01
04
01
EA
EA
06
EF
05
FB
05
0D
F3
F3
FB
2B
F6
F7
0A
06
06
05
D2
EA
D8
CA
C8
E9
EE
F6
F7
FD
DD
D5
DC
F5
ED
03
0F
10
EF
FA
02
20
C4
00
F0
0D
0A
07
F5
D3
DA
D6
E2
D4
EB
DC
E5
ED
F1
F1
FC
EA
F6
F6
04
00
0C
FE
FB
15
DD
0C
01
FF
EF
14
04
F4
FC
03
EA
FB
F8
E9
E2
F5
E7
E9
F2
F6
F9
01
FC
0E
EF
F6
07
20
01
F0
FC
02
FE
1C
20
10
1D
10
02
12
F7
11
E2
FC
04
F2
13
08
F7
FB
00
04
0D
17
00
E9
F0
F4
F6
F3
0F
10
1E
2A
07
00
0D
18
02
14
1F
F8
F6
FE
16
09
10
0C
F8
F9
10
09
F6
F3
E8
06
FB
06
09
07
FF
FF
0E
30
23
06
0F
15
0D
0E
1C
17
26
13
01
18
18
2D
1A
21
0C
F5
F6
09
0A
FF
F7
F6
F1
FE
F9
15
05
19
31
13
11
10
24
14
2C
20
16
02
26
19
1F
09
01
08
0C
F4
FE
FA
F6
12
03
F2
0A
FB
0E
10
05
04
FC
F2
EE
0B
F3
F5
F6
0B
F0
0E
09
F5
11
FE
F1
04
08
06
00
0A
FB
FE
0E
0A
16
10
19
05
FF
07
F6
05
10
F9
18
F7
F7
05
F6
F1
F7
0A
02
03
05
0D
FB
FC
F7
FB
FB
13
F8
FF
0A
E9
F3
E1
FE
05
F1
0D
F8
F5
F4
EF
06
FB
01
FA
F6
EF
EF
0A
12
FC
EF
04
F4
0E
FB
03
07
F8
E1
14
01
EE
ED
F6
F5
EB
07
14
10
07
FC
FA
F9
F7
EE
FA
F8
15
D7
FD
12
15
13
0F
EC
EC
EF
0D
FC
F3
0A
FD
0A
15
1A
08
27
32
05
13
F2
06
0E
F0
F0
00
12
29
1A
27
2B
04
FC
FF
DC
0F
F5
F3
FA
E0
0C
14
12
02
F5
FF
10
F7
12
FE
03
03
FF
0F
1E
31
23
2C
FE
ED
EC
F0
EF
DE
E3
F7
08
EA
06
F6
00
23
18
14
06
FB
FF
FD
0F
12
15
F5
02
36
3B
2F
F2
F4
01
08
EF
FB
FA
0E
0D
10
10
10
13
08
FF
08
26
01
E1
F3
F0
21
07
EA
03
25
31
27
25
06
E8
FE
02
10
04
03
16
F7
00
F4
0D
04
F3
FD
09
15
FE
FA
F3
0D
3F
F8
EE
FE
0C
11
F9
FD
0C
F3
FC
14
F3
F7
0B
E4
02
F5
F6
F5
14
11
15
11
D9
0B
0E
19
25
E2
EF
13
13
1B
12
1F
F7
F7
08
E9
F4
F9
FA
00
F2
F3
EC
FA
20
23
16
04
03
FC
0C
0E
19
05
0D
FD
22
1A
17
22
EE
FA
DB
EF
EF
F9
03
0D
FC
D5
E8
FD
02
11
2E
F7
F7
ED
F5
05
05
09
14
11
27
22
28
1F
F2
E2
C4
CE
F8
F2
14
06
F4
DC
DF
0E
F5
0F
31
09
12
F5
FA
0B
03
10
28
1E
23
2C
28
F5
DE
CF
CD
C4
DB
F0
FE
E5
F3
E3
DE
F0
0F
27
08
0D
18
00
FD
0C
16
06
1E
2C
35
37
12
00
E5
DF
D2
D5
EA
E9
DF
E8
F6
D8
04
FC
0A
15
34
0A
EF
F4
F0
F8
2C
04
00
21
0E
33
29
F9
F9
E4
E6
F2
E8
E2
F2
CA
E7
DE
FD
0B
19
1F
21
F4
F7
F3
0E
0A
0E
0A
0A
1E
11
25
1B
ED
FB
EC
FA
04
0D
FE
EA
DF
EF
EE
07
03
21
05
05
1C
00
EF
EE
0E
10
FA
F9
20
06
06
17
FD
EF
FE
E6
F9
03
FA
E2
D6
F7
04
08
2D
28
22
03
10
03
F9
0C
FE
07
01
08
16
15
1D
07
06
F6
05
E5
05
F7
EC
E9
EA
FB
1A
24
10
33
25
20
14
FB
E8
FC
F7
F2
23
FE
0E
FC
14
F5
E9
05
EA
0A
FC
03
F8
EE
0A
FB
03
1B
20
2A
06
22
00
FF
F8
0F
F6
E8
FD
0F
1F
E9
FF
0F
0B
07
02
05
06
E8
F1
F5
15
FD
F8
F6
01
13
FD
03
0D
F2
F3
13
06
E9
0E
26
23
04
F8
06
17
0F
F0
EC
F6
E2
0D
F7
F8
EB
02
F1
0E
1E
05
EA
0C
F5
02
0E
01
FA
09
08
0C
03
02
02
F8
01
F7
EF
F0
F3
10
1A
11
FA
02
15
28
18
0A
DB
F7
FA
00
10
10
FF
E8
02
33
27
FD
F9
E7
FD
E9
04
12
05
14
15
2C
0C
06
21
1E
F7
E4
D4
08
03
F3
07
06
F4
03
FD
1B
25
11
F1
FD
FB
EF
DC
04
F5
0B
07
30
FA
FB
0E
27
FC
D8
EA
F6
09
FB
06
0A
01
FD
11
09
0D
31
05
2C
0E
FA
F8
07
14
1F
23
12
20
F2
F9
0F
13
E7
1C
F3
00
00
0A
F9
EE
F4
FE
1E
14
18
10
04
14
1D
00
E6
12
F5
FC
03
01
1B
DF
DC
F3
CA
F1
10
F3
03
09
FC
11
0F
0A
FB
06
14
05
F1
02
18
17
FF
2D
2C
08
F4
17
15
0A
EB
FD
F1
EE
F2
03
0C
05
00
FF
04
FF
F3
FC
09
13
0D
08
F5
F7
15
15
0D
F9
08
05
F2
0A
EF
F2
F4
F3
08
F4
03
F2
FB
0A
FC
05
F1
12
05
FF
FB
FB
D6
F1
FB
21
0F
E9
F9
02
00
00
09
F3
FA
02
FF
EE
F1
10
0E
F0
13
0F
0B
F9
04
02
0D
05
11
FE
21
EC
06
21
1B
08
37
14
FC
F5
1A
0E
F0
07
F4
03
F4
04
07
1C
16
F2
03
05
0D
03
03
17
17
1B
28
20
21
11
2E
0B
0B
F2
F7
1B
01
17
F9
00
F5
F1
ED
ED
F4
06
05
09
12
07
0C
15
24
09
16
0B
FA
F9
00
FB
09
E2
EF
F3
FB
0D
FE
EF
F2
0C
07
F7
F5
E8
17
15
23
F2
FA
01
F8
FD
1E
0E
03
ED
08
EA
19
FA
0A
E2
FD
1B
19
12
00
F3
EF
CB
F5
EB
ED
02
15
F7
F2
00
F1
E1
E3
FE
FB
EF
F9
F2
0B
01
0C
14
F3
25
06
F1
35
E9
FE
DA
FB
F2
EA
F5
FA
FD
DE
FC
E8
F9
FE
E9
15
FD
FE
F2
00
13
0F
F9
F9
0E
23
0F
1C
F1
0B
00
14
FC
01
EB
E8
E4
E8
0F
F5
02
05
F2
1C
FA
04
17
1A
20
1B
16
20
05
19
FF
1A
E6
17
FA
FC
16
F7
0D
08
12
0D
0E
13
25
31
2A
21
22
EE
FC
FD
1E
12
14
25
F3
FF
FE
1D
F5
1C
FA
F1
0C
FD
0E
25
1C
29
18
29
26
1A
06
09
01
1A
08
0A
03
F3
FD
13
14
FB
05
16
24
2D
26
10
07
FF
17
16
17
23
0D
F7
08
ED
F7
06
19
02
09
F6
ED
E8
D7
0B
16
F8
FF
04
06
FC
FC
F3
EB
20
20
16
0A
F4
D4
D8
EC
EF
F9
E9
FC
F5
F6
E4
DF
DF
B0
F8
0C
EE
0E
FE
18
EA
DD
FB
04
E3
F5
E4
E4
C8
CF
C9
E9
F9
FC
F0
01
EC
FD
FD
D9
C9
CD
07
E5
F2
F6
FC
16
04
FD
E4
E4
F0
C9
CB
F2
D2
E1
DB
F9
01
0A
F8
F3
16
02
FB
F3
EA
C7
F2
E5
E5
F2
01
0E
E5
07
D8
F0
E5
C1
C9
C8
E8
EB
E9
F3
0E
F8
04
09
FA
03
07
F5
0F
D5
DC
F9
F5
F5
18
18
00
05
ED
FD
E1
F6
D9
CA
E1
EC
F8
01
0A
0D
04
10
20
02
05
EC
F3
CE
CD
01
10
10
17
0C
1C
20
01
1E
0D
15
EE
02
EA
E7
E3
EC
13
FB
F7
FE
0A
07
F7
E7
EC
0D
04
F0
F2
F9
11
17
18
1F
34
1C
29
18
26
0C
F6
FF
0F
18
21
07
18
08
0F
DF
F4
E7
EE
13
E9
0B
22
08
16
03
14
23
16
37
31
36
1F
F9
F5
FD
18
16
F8
0F
FE
F4
06
F8
E5
E9
02
1E
01
0C
0E
0C
03
E9
C6
0C
03
0F
0E
22
22
08
0D
F5
04
18
0F
00
ED
FE
08
F2
FF
EF
04
16
E4
EE
FC
07
F2
EB
CB
EB
DE
E0
10
0C
06
07
FF
FF
FB
F7
FF
04
00
FC
FA
FD
FC
EF
FC
06
F8
DB
05
0F
00
E7
C4
C9
DB
E9
F1
EF
F5
04
02
14
0F
15
14
06
FD
FB
F0
D1
DB
C0
EB
08
F1
DF
12
F4
F4
10
CC
D4
E9
E3
DE
E2
E9
E8
0B
00
FA
FC
FC
F8
F5
FE
DA
D7
F0
DE
F2
17
F2
F3
07
F5
0B
F0
02
13
2D
0B
07
FE
F9
04
14
21
02
15
17
12
0D
E5
EF
F0
0F
E7
EF
EA
00
04
04
FC
05
DA
F7
0D
2E
19
05
FD
08
EF
F4
23
16
FE
07
F1
FA
EB
00
03
08
F9
03
02
FA
0D
F0
12
0F
EF
FD
EC
09
20
25
15
EF
00
04
14
19
F2
17
00
F4
EE
07
F1
FC
0A
12
02
17
0A
F4
03
08
11
0D
15
15
F3
09
14
11
05
FF
F1
01
06
DF
02
0D
09
0F
0D
10
FE
14
F1
0A
06
09
EF
06
FA
12
F4
01
0B
F8
EE
FA
FC
06
16
1D
05
F7
0D
01
F8
EF
F8
0B
0D
02
FF
F0
FB
00
06
F8
FE
F6
EF
EE
FB
08
08
05
0A
04
F9
F6
0F
08
02
09
FD
0A
09
0C
02
F6
11
F7
FC
F1
0F
F2
01
13
07
13
00
EE
0E
FC
03
F5
13
18
FE
07
ED
FD
DA
CF
E6
EA
F2
FB
0F
07
0D
06
FC
FB
0B
0D
EC
05
03
F4
2B
15
2D
18
08
11
1B
05
0D
10
DF
DF
0A
F6
E1
F1
04
0E
EC
FF
12
02
22
F9
0C
2A
14
21
24
24
1C
31
3D
2E
25
1D
0E
12
1B
F8
03
DE
ED
B9
F3
E8
05
F0
06
12
03
15
0D
12
22
0C
11
FC
25
16
27
1E
1E
03
2A
12
0E
08
12
0C
E4
D5
F8
11
1B
0A
11
11
FF
04
FC
E2
F8
04
FA
04
05
1D
1D
18
18
0B
0E
1B
16
F2
F7
F7
E4
E9
F2
01
F2
EE
01
22
E3
1A
00
11
0A
0B
11
FF
00
0D
18
04
00
0D
F8
02
20
F3
02
F4
FC
E9
ED
ED
EF
08
EC
F7
16
11
29
0C
F4
00
19
19
04
ED
E6
E6
F4
F1
0F
1E
23
17
07
FF
07
D9
B7
E7
01
0D
04
FA
10
28
1B
0F
FB
13
F9
FD
E0
D9
D7
CE
ED
FD
0A
07
17
1F
0C
00
06
F0
DA
F8
15
0A
0E
06
09
04
F7
ED
F9
F3
ED
EC
D8
DC
D2
E4
E4
01
00
2B
1B
FD
FD
21
06
E2
B7
F2
E9
F0
F3
07
ED
FE
D9
EC
EA
DF
E9
D6
F4
F3
FC
F8
0D
FB
01
1F
0F
1C
11
14
FC
EA
DF
F9
F1
F3
F0
0E
ED
03
DE
D7
E2
FD
04
ED
0E
15
01
16
02
07
09
F2
F9
FF
01
E2
DF
ED
EE
10
03
F7
F9
06
F6
01
D3
F5
0A
F3
10
00
03
FB
08
17
0B
01
01
0B
F9
F5
F6
EA
03
E0
EB
EA
13
0E
0A
01
F9
05
F4
FB
0A
1D
0D
01
E5
F9
F0
04
09
0C
0C
03
EE
E8
0B
FE
01
F1
E8
E6
1B
00
FE
F7
0E
F4
FF
14
14
FA
DD
DC
F7
E6
FC
EA
07
01
14
EF
DE
ED
E7
0D
15
FD
13
07
F6
14
F0
0A
0D
FC
03
0B
E9
E5
D5
FF
EE
DF
E1
02
EA
03
F8
F3
0D
02
FD
0B
17
05
FA
FE
13
12
09
0E
13
FB
21
F6
F8
F9
E7
FF
DF
F2
EB
E7
F2
DB
01
16
0D
0A
FC
00
F9
F1
F4
03
E9
19
1A
F5
0B
04
04
0D
FD
EC
17
04
00
05
D2
D2
D5
F7
17
F4
F7
08
F6
11
01
F8
F3
04
E8
15
03
15
09
FE
EF
15
F5
FC
FF
00
F5
F0
EC
F5
02
F4
0C
08
0C
0C
F4
08
00
FB
E5
02
09
19
08
10
FC
05
11
0A
01
FB
05
12
18
03
F1
0B
ED
06
F9
02
FA
0A
18
FE
01
0F
F0
E8
06
F5
02
0F
17
18
FB
0C
01
26
10
0B
08
F4
FB
07
FF
01
03
0A
02
0B
F8
F8
FE
0B
EC
FC
01
11
F4
0B
15
05
11
17
12
17
06
23
12
02
F4
16
09
0C
05
F8
0A
23
10
03
00
EB
0C
09
0D
FB
EF
0A
10
22
EE
03
01
18
18
06
21
26
1A
24
19
0E
09
13
13
FF
08
05
05
FB
09
FF
FB
10
EF
01
06
20
08
F9
02
07
1B
00
0D
1B
11
0E
FF
07
12
23
0A
07
DD
F7
FA
F0
00
07
FF
01
FC
FC
00
F2
FC
E8
05
FC
0C
16
0E
16
F7
E3
00
01
03
0F
11
0D
08
07
F9
EC
F3
F8
FF
00
F7
FF
0E
F3
F8
E3
CD
ED
CD
0B
14
18
F9
05
F4
EB
DC
CF
E8
F6
FA
05
00
FC
FE
07
0A
F0
F0
09
F2
02
FA
03
00
FD
0A
E0
02
12
E9
F7
12
EE
E6
E4
04
0C
04
FB
FA
01
FE
F7
F8
F3
FD
F2
F1
0C
F1
10
FF
FF
0F
F0
FE
02
FB
F2
ED
09
F0
FB
0E
F0
00
F1
ED
09
F6
0A
0D
07
09
0C
FC
07
0C
0F
DF
E6
F2
06
FB
EE
ED
ED
E4
CE
F4
F0
FF
FE
E5
E8
E7
FD
F5
00
F4
0D
0D
12
FB
F6
F6
FD
EE
E3
01
17
F2
02
10
F9
08
FB
E7
F0
03
DA
ED
F4
EC
DA
F1
01
FD
0E
05
F6
12
E3
DE
08
E9
19
26
03
1E
2D
19
0B
13
10
1D
0B
F5
03
06
2A
22
0D
EE
EC
F4
09
07
05
1F
F9
0C
1D
12
09
0F
1C
12
1D
1B
0F
00
14
12
1A
00
12
13
19
23
15
27
13
18
F3
F1
0F
12
23
0D
F4
06
15
15
14
FD
0C
10
0A
0A
F5
0D
03
03
01
12
06
0F
04
25
25
05
E9
04
07
00
0C
1D
02
FF
0F
09
1D
01
02
F8
F0
11
0B
16
03
EF
FB
01
E1
06
0D
09
08
F6
0D
FA
09
FC
00
14
0D
FC
05
FD
0C
0F
F1
04
0A
04
09
06
E6
EA
E5
E0
EC
F4
00
0E
03
04
F0
F8
ED
15
18
0D
10
01
0B
03
06
08
01
0D
FC
FD
EF
06
D5
FD
F4
F7
F9
F9
0F
13
0F
13
10
04
D1
00
FD
F4
02
F3
F6
F3
0E
04
F0
F6
12
07
DF
FA
E9
01
FB
F7
0C
07
06
03
0F
15
ED
0E
01
FE
04
F0
03
FD
E8
F4
FC
02
08
12
FC
F8
DF
F6
02
FF
12
0B
F1
13
FE
FD
FC
EB
D6
0D
FE
EF
07
F6
11
0A
07
09
0B
EF
0C
1A
12
F5
EA
F5
FA
F2
10
13
08
F8
12
01
1E
0F
F0
F3
E9
EE
F3
E7
18
10
ED
08
FF
F8
FB
08
16
03
04
08
03
FE
06
01
11
0A
0E
1D
F9
F1
D3
0A
08
F6
E5
03
15
FA
F2
01
06
07
15
21
13
1B
16
FE
11
15
18
EF
EC
05
09
0D
F1
FA
14
05
03
F8
E0
00
02
F9
08
08
05
FF
19
16
15
17
0F
FB
FF
EB
EF
F2
E5
F3
F5
E7
14
06
01
F4
0B
11
F5
1E
FC
06
14
FB
0C
EA
03
F1
0B
14
0E
12
09
E5
F4
E2
09
0C
04
F9
10
0B
08
F0
02
F7
0E
0E
FA
14
05
05
FB
09
F8
1C
15
14
0B
0C
09
F9
F8
06
F7
F0
F3
EF
0F
F6
09
09
EB
16
1C
13
F1
FF
00
F7
FB
FB
0F
10
1D
FA
F9
EC
09
E5
F4
F8
03
F0
F2
EF
10
F3
F5
E3
12
08
33
19
06
18
F2
01
F9
10
11
1E
0C
05
03
F2
EC
F4
09
F9
F7
FC
05
FA
E9
E9
25
F9
FB
E3
32
18
22
FC
07
00
00
F1
03
E9
01
FD
F4
01
F2
12
01
FD
0F
08
FB
FB
E1
1E
12
0B
09
09
22
14
0B
15
FF
FD
F1
FE
F6
F0
00
02
F5
FD
0F
13
19
17
1B
07
0B
EE
E1
F2
06
EF
07
1C
16
03
05
22
0E
F6
0A
F0
10
F6
F9
F7
0A
EE
FD
06
15
FB
1F
1D
10
DA
DE
CE
F6
05
FA
F1
17
01
E9
FC
0B
F3
F8
05
1D
01
F9
ED
F5
F5
F5
08
03
02
2D
22
EC
F2
E9
CE
F2
0C
02
24
2A
F9
08
E8
04
12
FE
0A
11
EF
12
EB
02
0C
0E
2D
16
1F
16
14
FE
0D
EF
FB
F5
F0
0B
F9
23
02
DF
F7
10
0E
1C
1D
1E
06
05
0E
E9
0D
F1
05
14
12
F5
1A
FA
F0
F8
ED
09
10
F2
1C
DF
E0
E1
12
09
F3
EE
23
08
FE
1B
10
20
0C
0D
1E
F5
0E
04
ED
00
EB
EF
01
F9
0E
05
0B
FA
01
DD
E7
01
07
F1
ED
FE
0D
F5
DE
E7
E6
F2
FD
D5
D1
E1
DD
0D
09
02
F6
F9
0F
02
03
F9
F8
FE
FF
FF
E7
07
DB
03
10
0B
FF
20
00
E2
01
F4
F3
E8
E2
E2
03
08
FC
FD
06
F1
F2
08
FD
F2
FA
09
0D
02
F2
04
05
1D
EB
06
FF
F9
06
0B
F0
FB
FB
F6
F7
FC
F6
F7
FD
05
0D
12
03
07
1D
1D
1A
0A
1E
10
12
2C
0B
26
21
31
1D
1B
1E
11
1C
16
F3
FB
01
F4
06
FD
0C
10
2B
1C
08
16
07
F4
F4
13
06
F5
0E
17
2F
10
0A
11
FD
F4
0E
31
03
F2
F5
F2
FE
08
F9
1F
05
EF
2B
21
08
FD
12
17
F0
F6
0D
14
20
06
17
03
13
26
20
04
E6
E8
FB
0D
03
F2
FD
F2
F2
DE
DB
DD
EE
02
0E
06
0B
F6
F3
0C
06
0D
21
1B
16
FF
DB
EC
F1
DE
0B
FE
01
F4
0D
F7
F0
F0
E2
E9
03
0C
F9
F8
FA
0C
18
EF
17
18
FD
1D
1F
F5
F9
0E
F4
E9
0B
F7
FE
0E
FE
DC
E8
F3
F4
EF
F2
F9
F3
15
0A
0F
F6
08
F2
ED
F3
F5
FF
E4
FA
F6
02
13
FD
EE
FB
FF
09
DE
DA
D7
D3
E4
E3
0B
01
0A
06
E2
02
EC
EB
E4
01
EF
D3
F9
E3
DA
F9
FB
F9
09
F3
01
F2
F4
DD
E7
CE
CD
E9
04
03
03
FE
ED
DA
E7
E8
D2
C8
E1
E6
E9
D0
D4
F5
F4
F4
F3
EF
1E
08
F7
D0
C6
F6
F3
00
EE
07
0A
12
EF
DB
D4
D1
CE
B9
F0
DD
DC
F2
04
F8
F2
F0
E8
0E
12
01
05
D2
EB
F4
F8
F8
05
22
06
08
FE
F1
F2
FE
FF
F2
0F
F9
F4
FA
06
02
FB
F9
E5
F1
11
F2
EB
D9
EF
F2
02
F6
27
02
02
11
E7
03
04
F4
FD
1D
17
00
1A
1A
16
1C
09
0A
F7
F6
F4
ED
F7
CC
E9
FC
1A
13
06
1C
14
08
E0
09
FE
EB
08
21
15
1E
12
1B
06
2F
07
F1
CF
0C
F2
FC
F6
DA
F4
F7
1A
F7
13
1C
18
FD
FF
03
EF
F8
12
FD
2D
08
1B
0A
03
1A
09
DB
E3
12
EB
EA
05
D4
06
FF
FF
09
1C
18
17
0F
F6
FB
F9
F2
0C
18
FE
1F
2E
29
0F
0A
0B
E1
EA
F7
06
04
F5
D3
F7
04
12
FB
08
10
20
0D
03
FA
EB
F1
0E
07
F0
FC
12
09
03
FE
FF
E2
FB
E5
08
EE
0D
F4
18
E5
09
0E
1C
02
13
10
06
14
08
F3
F7
00
F0
EF
F3
F5
FC
08
1A
CF
0B
07
EF
E2
F9
07
E7
DD
F6
11
04
FF
27
0C
00
FD
F2
EB
FE
04
07
03
FC
FB
01
0F
02
E0
EE
09
05
F7
03
10
EB
DD
EF
07
EE
1C
0A
1D
FE
08
F9
F9
F4
EF
ED
03
FF
D9
05
06
05
DD
D6
05
18
F1
12
FC
03
D4
03
F3
03
20
29
0F
F3
13
F5
E8
EA
F7
FD
E9
0A
07
FD
05
F0
E4
DD
01
08
06
17
18
0A
D8
EA
F7
11
1B
0A
03
0F
FC
10
E6
E4
FE
05
F9
F8
1B
09
FB
EA
E9
09
F8
F0
11
F6
09
EF
DC
E2
EE
0D
05
2F
0C
23
12
15
0B
FE
01
FA
F6
F8
17
EA
ED
F8
38
11
0B
07
F7
E2
D9
D4
E4
E2
F2
0C
14
12
09
00
1A
21
FD
0D
F7
08
E4
E6
02
EF
DD
F9
18
FC
EE
01
0E
04
F8
E8
EB
EF
E1
F4
FD
E6
0C
09
09
FD
08
ED
F8
FC
F9
E8
DE
F0
02
00
FB
12
02
F0
00
F8
FA
0B
0C
F2
DB
D7
D7
DA
08
01
F4
03
04
F4
F2
C1
CD
C6
ED
E9
E0
E7
E5
0A
05
F1
F5
03
FD
EA
15
13
E8
D9
15
F4
D7
D3
D9
11
06
ED
D9
E9
F4
FB
F3
13
FE
EC
0A
EE
04
0B
F1
02
EC
FF
FC
E4
E4
04
EB
0B
F0
11
05
24
04
DF
EB
EA
FA
F3
F1
04
00
F9
0C
11
FC
F2
F8
10
FD
F0
F7
0F
0F
18
06
EF
05
F5
E2
E7
DF
ED
00
FB
FB
EA
F1
FB
0C
F6
EE
0E
F9
12
F1
F9
F8
0B
F9
EF
0E
11
F7
F5
11
0B
F1
10
06
EE
F1
EE
09
09
FC
08
08
13
0E
FE
EF
F1
F1
07
F3
08
02
0B
00
10
07
FB
0C
04
04
E4
E3
01
02
04
0B
FF
0F
0D
06
0D
F9
06
12
F3
FC
F8
06
21
FD
07
07
07
0B
F1
07
FE
F9
13
0B
05
07
0F
FB
05
23
1B
F3
EF
F0
04
08
0F
00
EF
E0
F2
01
0D
F4
EC
0B
0E
FA
04
22
07
03
13
09
FD
1A
0A
2C
1F
1D
F8
03
F4
0D
F8
E8
01
00
09
E8
EC
E6
E2
D7
EC
FE
F0
14
FF
F8
F3
E2
FF
F8
1F
1C
25
2F
14
16
06
FB
00
EC
FE
16
05
19
1A
FF
0E
09
00
00
03
23
12
FD
0B
0B
DF
D3
EF
FC
1C
33
2A
04
17
EE
ED
02
11
F2
16
09
1C
FA
10
1D
0F
13
1A
1B
08
0E
FD
ED
0B
FF
06
29
3E
4F
0F
11
18
0B
08
02
FE
F0
EA
05
F8
F5
09
0F
EB
03
0C
F0
00
EE
01
07
09
0B
0F
F6
34
26
F4
29
06
0F
04
07
F4
DB
E3
F5
04
EE
FD
FA
F2
12
FA
02
02
FC
06
19
F7
F7
FE
F5
0A
10
0B
F5
F3
10
0E
E8
FE
D9
E5
0D
F0
E8
F4
CF
0C
13
FA
0F
03
EE
F6
F7
01
02
05
F3
F1
F7
05
02
08
F9
0F
04
04
06
E2
FE
E4
F0
E4
D4
FD
07
0F
02
F9
F0
00
03
FD
FD
08
03
D1
F0
FF
E9
0D
0A
09
F2
21
F4
DF
EF
F9
01
D8
E5
0D
03
0E
05
EC
0B
00
F4
05
E8
F3
F0
ED
E5
DA
EF
EF
FF
0F
EF
16
E5
F6
EC
0D
F1
E8
EB
1A
0C
18
FD
04
03
F4
F0
EA
F2
FB
E9
F1
D7
EC
03
15
E8
01
08
09
DB
04
EA
ED
E3
F6
FF
24
1D
00
0D
18
1A
F0
EF
08
F1
ED
D6
EE
DC
F1
01
FD
16
F9
09
E4
EF
0E
DE
DF
EE
F4
16
16
13
0F
02
06
02
01
F0
10
07
11
E8
E3
C8
F3
DD
06
FD
FA
F1
FD
F9
F8
F5
E7
E5
E4
F8
06
06
F3
06
1B
01
08
21
12
10
0D
02
E7
D3
F4
D2
F8
0C
FF
EC
E6
F7
01
F8
FC
F5
EF
15
0A
18
0A
09
13
10
14
00
04
F2
DF
E1
D1
C6
D2
CE
D0
F7
F7
DF
E7
03
0C
12
0C
EC
FF
12
17
05
FC
09
18
0B
09
05
FF
E9
E3
01
F8
E3
DB
F2
E8
E8
02
0E
E7
FC
F4
FF
ED
05
EA
FE
04
15
08
10
08
1C
15
03
DA
D3
DF
CF
E1
FC
E8
2A
EA
F7
28
08
F8
00
ED
04
F7
FF
E8
FF
F3
02
E6
0F
07
12
F8
EC
E2
CC
DD
DC
E4
E6
F5
FF
EC
F7
06
06
EA
D5
FF
03
07
DF
05
F9
F5
F1
01
0C
FD
01
F5
E9
D9
CF
DE
F0
E6
FB
02
05
0D
03
04
07
F0
DA
FE
05
F3
FE
F5
ED
F0
F6
F9
05
08
FC
FF
CD
B6
E0
FC
F1
EB
F8
02
F3
F9
FB
FB
16
02
0B
FA
09
12
FC
0B
09
F6
04
F4
08
0A
0F
F4
C2
DB
CA
D3
F9
F4
E4
EB
EA
09
08
00
F1
E5
0C
18
0E
0B
F0
04
E1
01
F9
F8
F7
FC
E6
AE
C2
BF
D4
E8
F7
F9
01
F2
FC
FE
07
12
05
FB
0E
2D
00
1A
F9
E6
FF
FD
FF
32
24
F8
F2
C2
A9
BA
D0
D9
F6
FD
FD
02
ED
F4
FD
04
EB
03
2D
43
05
F4
FF
F4
02
0D
06
16
F7
0F
FD
C3
D4
CD
CE
DE
EB
06
08
FB
F7
02
F2
07
F4
E3
09
2B
24
09
2B
01
FF
02
03
1E
FE
FD
13
0C
0B
0D
EE
FC
10
F9
F8
13
10
04
FC
FE
0C
F0
F8
13
FA
FF
F1
FE
24
F2
02
0D
F0
EC
FB
14
FA
FB
F6
F4
12
0A
06
03
0A
07
12
F4
10
0F
10
FB
00
FC
F6
10
F3
02
1E
14
11
04
F6
FA
10
F2
FA
F0
F5
03
F1
11
FF
F2
0F
F9
02
0A
0F
11
FE
FC
F5
F5
03
05
04
1D
0B
01
E0
E7
13
0C
12
10
0C
09
ED
FC
FF
0E
12
F5
FB
0D
FD
05
EA
F7
F9
EB
08
08
ED
D3
CA
E6
CA
C2
E4
12
1A
35
1B
11
0C
E9
0E
FF
03
FB
10
06
09
0E
1F
0E
00
FB
DA
EE
F3
E5
CE
CE
E4
F6
F2
14
0F
EB
01
08
0A
FF
0C
F2
02
F0
FC
17
14
05
0F
01
E3
FB
F4
DB
E7
FA
EE
FD
00
FD
10
32
27
F7
EE
F1
F3
D1
F4
F3
F6
EE
17
F7
19
21
0E
04
EF
F4
0A
E9
E6
E3
FE
00
07
0F
10
FE
16
F1
F9
06
10
F2
E4
F5
0A
14
0A
15
18
03
11
0A
18
FD
F6
FC
EF
F5
F7
07
FB
19
07
FA
0B
02
16
F3
08
E0
0D
0B
0C
13
14
19
20
05
F7
10
0E
F5
FD
ED
ED
DA
FC
EE
12
1B
20
19
10
0F
04
E2
F0
FE
1B
F8
FB
EA
06
10
2F
20
04
07
E9
FB
11
DF
CC
EA
FD
18
15
1C
0A
FA
FA
07
EB
BA
D8
F7
12
01
01
05
1D
11
13
00
F0
11
06
FD
F0
E2
C3
DF
08
20
26
0F
11
00
05
03
EB
ED
E6
BF
D0
E5
03
FA
FA
0B
39
0E
E4
00
FE
E5
D2
E8
D5
E2
27
29
24
1B
17
01
FA
01
10
EC
D6
DF
03
30
F5
06
0F
01
0C
03
FB
FD
E9
EA
F0
D6
FB
17
2C
1D
1C
1C
07
FD
FC
14
01
EB
CF
D3
0B
15
EE
02
00
F8
15
F7
ED
FE
D8
F2
09
0B
1A
2F
07
13
04
07
11
E4
F2
0A
09
0C
EF
FD
E1
1A
1C
EF
EA
ED
E4
F6
FD
FE
EB
E8
00
0C
26
14
FA
EF
FC
1C
FF
F0
02
0B
E6
D3
E1
FE
E5
FC
FA
F1
0C
05
ED
DE
00
E4
FD
29
12
16
0C
E9
0A
06
09
1E
F3
EB
FF
0F
FB
E8
D8
F6
E0
F7
EE
01
0D
00
FD
EE
D7
D5
E5
11
03
28
1F
0A
F6
FB
03
04
FE
F2
01
20
E7
E8
E8
E9
00
F4
03
0B
06
F3
00
F8
C6
CC
EB
FB
FD
FE
12
05
F6
14
14
09
EF
FE
10
18
ED
ED
05
EF
D1
F0
EF
F5
FD
F9
E9
F0
BE
D7
D0
E0
E9
09
16
21
12
FC
0E
0B
F7
F3
F6
08
01
12
20
06
0B
E7
EF
FA
00
03
D5
CE
DF
DA
E8
F8
F0
09
FE
04
14
F2
F3
FF
FC
E6
EB
01
01
07
FD
15
20
1B
FD
2A
F9
22
F2
F5
F8
02
D9
CD
CC
E6
0E
08
01
F3
F0
FB
04
EE
EE
08
E7
DF
F0
29
16
FE
F2
06
09
3E
14
F3
09
08
EB
D8
DE
DD
E5
E6
FF
FE
0A
F2
0C
E9
E4
0D
07
E7
FC
09
00
11
F5
01
21
27
0A
15
16
1E
02
01
05
EC
FB
F8
FA
ED
12
FF
09
D6
0B
0C
1A
E1
15
FE
EE
12
14
0B
17
06
21
35
17
1C
22
15
13
04
E6
F9
FE
F4
E6
04
FE
F8
FD
15
0A
08
F2
E6
10
F8
0B
FF
06
EE
08
00
12
2C
0C
19
19
0C
00
10
10
F5
F1
FC
03
EC
F7
DA
CC
F2
06
18
1C
FE
02
F8
15
05
29
25
17
1E
13
1A
0F
F0
F1
DF
EC
E3
EC
0C
05
05
FE
FB
F1
F9
F9
0C
0C
FD
F7
12
12
10
24
27
E4
18
16
18
E2
C8
E6
F5
F3
E3
D0
E2
10
0C
02
F3
04
07
04
14
F5
0D
04
F6
11
23
0C
FF
EF
0D
E2
EE
04
F3
C8
E2
0E
14
FB
EF
0A
12
F2
01
05
EA
FA
FA
F7
F7
FE
07
FE
01
ED
EC
E5
F7
E9
04
F3
E0
F6
FA
FE
0B
FE
02
1B
02
ED
FD
0B
ED
F4
F9
02
F9
FB
03
EE
0A
10
06
05
F0
F4
0B
0E
10
12
12
0F
09
0D
FA
0B
F4
FD
FD
06
FB
F8
F8
0B
FD
0D
05
00
F7
F4
F9
F7
0E
08
06
FB
07
09
FD
E8
E4
E4
FB
11
0E
0F
0A
07
0C
F7
0D
F1
FA
EE
01
F7
01
09
04
10
FB
27
0C
04
23
22
F5
18
06
D9
FA
F6
D2
ED
F4
F4
1E
1B
16
EF
08
EF
F6
F6
FA
E7
FE
FD
FC
0E
23
1A
07
17
EC
D1
D7
D4
E2
F3
00
F3
1B
13
09
EF
08
1A
FB
F7
00
00
E9
DA
EF
08
F0
0E
0D
FA
FE
06
DB
DD
EC
F1
14
E7
F4
0B
0B
0D
FD
06
12
10
1E
06
12
05
F2
DC
FC
E6
EA
04
FF
F0
FA
00
E1
10
05
13
FD
07
FD
F6
0B
0F
EB
07
1A
21
1E
F9
04
0A
F1
EC
13
DF
F1
1D
0E
06
FC
17
04
F1
FF
01
FF
01
14
05
15
EC
12
03
0D
05
F3
0F
16
1A
0D
F6
EA
FB
07
17
06
19
FE
0D
01
EC
F8
16
19
11
11
10
1E
21
0A
01
F4
3C
22
0D
22
FF
21
F9
F6
11
20
16
05
F7
16
0A
0B
12
16
23
16
2A
1F
17
21
16
2F
FA
E9
22
0B
F2
08
26
1A
18
0B
26
2C
19
1E
FE
1A
08
0C
12
17
26
18
0B
15
11
FE
07
1A
09
06
1A
04
FF
03
18
14
22
24
14
F6
0B
02
31
08
0B
2C
10
F8
07
EB
06
08
F6
FF
06
FC
21
21
23
F8
0F
07
06
1E
4A
31
17
11
FF
0C
18
0A
09
09
E8
EC
D9
E6
E1
03
0C
F2
DD
F4
06
12
2C
F2
F9
FC
0A
18
0E
21
15
1E
09
03
F3
FD
E5
DC
CA
C0
C5
D6
F6
E4
DB
EE
E1
D0
05
16
21
15
F7
09
01
0A
E0
0B
0B
F4
FC
FC
E3
F3
F6
D7
F1
DA
CE
E5
DB
F0
E4
CC
E6
DF
E5
08
0A
16
18
FA
14
D7
F5
DE
EB
DC
E6
DF
EA
E7
D6
E5
12
F4
E0
DF
BF
CE
E1
ED
E0
F6
E8
03
22
1D
17
EF
F9
D6
D0
E7
DA
DA
C8
E5
E7
E7
ED
09
F7
FB
F3
F8
E1
D9
DA
D9
F7
14
10
F4
EB
F0
F4
F6
FA
F2
BD
D5
BC
E3
DF
E8
FB
F6
10
0E
12
F1
1A
0C
DA
DB
DA
07
0C
04
11
F4
F9
0A
FB
FE
02
E6
CF
EE
CA
DB
E7
F6
EF
0F
1C
15
21
FC
FA
FB
ED
F1
F7
FD
24
FA
0F
FB
F8
19
F9
F8
FB
0B
00
F4
F6
07
E3
04
06
1B
21
16
FE
19
FD
FE
FC
08
F1
0C
05
F6
24
F2
0A
2F
F2
FF
0D
11
01
FF
0C
FD
0A
F3
E8
18
12
12
12
FB
ED
07
FE
FC
1A
05
0C
08
05
FF
28
18
F3
0F
20
0F
1B
0B
2B
18
1C
F4
07
01
05
0D
16
09
0F
F9
12
0E
FD
1D
0D
F7
04
12
08
07
F6
09
0B
1A
28
30
23
0B
02
0A
0C
25
06
13
FF
11
19
2F
26
28
12
23
1C
15
14
09
22
11
05
EF
1B
17
29
41
2B
07
FB
0E
F4
0F
16
0D
11
23
0D
18
13
17
06
08
F9
11
02
17
FD
11
FB
F6
01
F6
33
1E
2D
0F
F8
FC
F3
0A
FF
0C
0E
02
07
14
1E
21
0D
EC
06
31
11
0E
1B
0F
04
0D
F9
EE
EE
0A
11
F1
F6
04
00
17
0E
06
0C
17
28
34
45
2F
11
12
F0
FD
1F
04
0B
0A
EE
F9
D5
17
06
F0
06
19
1D
FC
F4
FD
19
16
20
20
02
1E
09
26
00
1D
0A
E8
FB
07
F8
F1
12
10
06
EF
EE
E0
F3
FA
08
05
0C
15
0B
13
09
FC
F8
01
F6
21
FF
FC
FB
0C
EA
16
12
00
F1
F3
0C
F3
23
30
31
1D
1F
11
E8
F1
FD
17
02
FB
F4
2F
F3
12
F1
13
02
17
FA
EF
FD
F9
10
F0
F4
0F
F0
F3
F8
FA
EF
0F
FE
09
EF
FB
FF
0D
00
EE
F8
07
FF
FE
F7
11
EF
EF
0F
F0
FA
00
0E
06
F9
F1
F8
F2
F8
F6
E7
F3
ED
FF
0A
0F
34
12
F0
EC
F3
F9
E0
F7
F9
04
EE
F3
FE
F2
FC
0E
F4
07
13
04
19
0D
05
EA
F3
F0
0F
0D
07
03
0E
D6
EA
DF
ED
0F
12
FC
0D
EF
EF
01
F9
0B
10
EA
06
EA
D4
F7
F3
F3
F4
17
F6
0C
01
ED
EE
09
DF
0C
08
13
00
ED
F9
F2
F9
11
18
E6
02
FD
01
E5
FD
05
05
0A
03
11
10
FF
12
10
07
17
10
0B
05
0C
18
18
FE
F3
FB
04
03
EA
FB
DE
F0
00
0A
07
F0
11
0D
09
07
F6
00
01
08
F0
F4
0C
F4
02
0A
1E
0C
E5
11
F9
07
03
11
05
E0
FB
03
0A
FE
FB
1A
03
0B
F8
FB
08
F3
F2
0D
F4
19
0E
FF
13
0E
05
F2
16
FA
FE
1B
09
FD
02
05
1C
10
0B
17
0F
E2
0A
F7
0B
0C
F3
F1
FF
17
0E
FC
EB
FF
06
F6
13
06
16
FF
08
11
26
02
18
0F
F3
0C
F5
F4
FB
06
0A
07
0C
FC
E4
10
03
FB
FC
FF
07
F1
1A
1D
0C
06
F5
1B
16
FE
14
FC
0A
04
02
00
04
1B
08
0E
FB
F7
FB
F7
16
0C
F6
00
F2
04
12
12
04
00
1A
18
F8
1A
06
06
01
F2
EE
07
00
FE
08
02
0A
F1
0B
04
16
12
DF
08
F0
F4
06
F5
20
0E
1A
11
24
1F
03
03
03
08
FE
FC
0E
09
E8
FE
EF
EB
12
0A
FD
1D
00
12
12
F1
FB
11
2B
F9
0B
F6
0D
F1
ED
F8
EB
FE
0F
F1
19
FE
10
E0
F8
0D
04
0B
1A
23
15
00
24
F6
F9
FF
1F
EC
F4
FC
ED
FB
F0
EA
01
08
06
0D
08
FE
00
03
EE
01
25
27
12
06
17
0C
14
0D
FC
EF
F3
E8
FD
13
F5
0A
F3
08
FC
F7
13
04
16
F1
06
F3
F1
F3
07
F8
06
09
26
0B
0F
08
E9
F0
15
E5
0D
FF
14
07
FE
03
03
18
28
2B
11
16
0A
F3
F5
E4
19
F4
FC
E5
1D
18
0D
13
ED
F5
07
DE
ED
0E
EF
14
F7
13
15
1F
24
2D
1E
21
F3
F1
E3
05
11
F8
F9
01
1D
00
F9
03
F2
ED
E8
FF
F5
0F
E3
FF
0B
14
0D
17
1E
0D
14
14
FE
E3
DF
02
06
08
07
FF
10
13
10
02
FF
0A
FB
04
EC
06
F0
F3
04
F5
02
17
23
11
FC
ED
F3
FA
F6
08
15
0A
09
11
05
15
1B
05
EA
F1
EE
04
F9
E1
01
03
0E
FD
F3
F4
EC
EE
EE
F4
02
03
04
FE
F9
02
F6
F9
FD
1F
18
F7
F2
01
F8
0D
FE
FB
FD
FC
F5
14
F1
0C
F8
F1
ED
F0
02
0C
0E
05
05
F3
01
F8
06
15
11
F2
14
E2
F0
03
F8
0E
11
01
0F
02
02
0B
08
FE
07
E6
08
EA
FC
03
09
10
FC
E0
ED
34
EE
F9
00
0F
E9
17
19
01
10
EB
16
08
21
07
0B
F0
EE
F0
FE
F8
FE
F4
07
01
E3
E6
01
33
07
F7
06
F9
EA
14
EC
E4
E8
EE
EA
F1
EF
18
17
05
FB
F4
EB
F5
20
07
14
24
E5
C8
EC
E4
10
F4
F1
0B
D7
F4
F5
EB
D2
E2
F2
FC
01
00
13
F3
0C
EF
F3
EA
F7
10
FA
F3
DB
DC
18
FE
F3
07
01
D8
03
14
FB
F2
F1
D8
E3
F6
FF
E9
F9
09
0A
FE
EB
F6
DE
EA
F8
D9
E6
ED
13
1A
FB
04
F8
ED
E9
03
0E
FA
09
10
0E
EA
F0
1C
21
EB
EA
F0
E9
F7
EE
E7
E1
F0
FF
FD
FC
FD
FD
FB
F5
10
00
10
0B
FE
FA
F9
0A
F2
EA
F9
0A
E4
FD
FA
0B
FA
F2
FA
0C
08
16
FD
0B
EE
F1
00
F5
03
FB
09
04
FE
02
F0
02
05
F6
F5
17
08
03
11
0B
0A
F0
01
05
F1
FD
0B
F9
13
F0
F6
F2
0D
F1
0C
14
23
0A
18
F6
08
0A
FE
17
06
2C
15
FC
1D
01
05
11
1B
FB
F0
07
13
01
EE
F4
F3
1A
0C
02
16
10
12
04
F9
18
13
FA
02
14
08
08
0D
1A
F5
0A
08
2C
FE
FF
EE
0B
F0
F3
12
1B
1E
0D
09
12
00
F9
FD
EB
05
FF
FA
F3
11
10
2C
03
1C
04
0A
1E
01
FA
0B
0B
F0
0B
02
0B
FF
FE
00
04
F3
EA
08
15
07
12
F2
0F
03
02
0F
0A
FF
0D
F6
E5
E1
E4
0A
F6
EF
F4
F7
F9
14
06
FE
F0
0B
F2
E5
F9
FE
F2
ED
0C
04
0E
F6
0A
06
EB
DD
CD
DF
DF
F4
E6
06
FD
1E
08
1F
FD
19
FF
F4
F7
EF
F9
06
0B
F3
F3
0C
F9
FB
02
FE
10
EA
FD
01
F3
09
04
F0
30
14
2B
07
08
07
1D
0B
0E
FC
04
0E
E8
FF
0F
10
14
18
05
F7
F3
F7
07
FB
00
0F
F8
09
0C
F1
04
04
09
F6
13
0B
FF
0C
EB
07
FB
FE
02
0F
04
09
04
03
1A
11
12
12
0B
01
0E
0F
23
0C
08
18
FB
F9
0F
11
F0
EA
F1
EE
01
03
F5
10
12
FE
09
0A
11
25
12
18
11
07
0D
FC
1D
F5
0C
10
F7
00
E9
EC
EA
FE
FE
09
1B
02
09
F9
FD
FB
10
08
0B
0B
06
FB
23
35
24
14
0F
2D
2B
22
EF
FD
0B
0C
F7
01
01
08
0B
03
FE
FF
01
21
0E
04
17
0F
15
00
0D
2A
25
F3
FA
1D
19
07
F6
E8
EF
FE
F7
0A
12
06
02
24
13
FD
0C
0B
FB
16
0D
0E
E3
D6
F3
0C
23
F9
18
29
24
01
01
FA
04
0D
0B
0D
0A
0E
10
27
FE
05
08
F9
F4
0C
F9
F9
E5
ED
F8
F7
EB
F9
0F
0D
1E
F4
FC
15
0C
00
0C
FB
17
03
12
01
04
F6
FC
0B
F9
FC
14
0C
11
FE
DB
FD
E3
FD
F5
0A
FA
EE
0C
06
09
F7
04
FA
03
09
FB
FF
04
10
0B
0F
0C
0E
0C
16
13
12
EB
E5
FF
02
0B
0B
ED
01
1F
0A
F9
F6
EF
ED
EF
E7
01
EF
FB
0A
F8
08
06
18
F6
F4
E5
0E
D1
E0
00
09
F7
FF
FC
F5
05
01
09
F5
FE
F0
E7
E6
0B
14
0A
FF
14
0C
FF
0E
F8
05
03
EF
EE
F0
04
08
FB
FB
E9
EA
10
EE
03
ED
FA
02
F7
FB
1A
00
02
FF
FD
05
EB
F5
04
05
D3
E2
1A
21
F9
00
FD
F2
00
E7
07
0A
FC
F5
FA
E4
FA
FF
0E
1C
0F
F5
FC
06
E9
ED
E7
E0
E7
EF
17
FE
09
FF
01
F7
FF
02
E3
10
04
F2
03
EE
E6
09
16
1B
0E
05
F7
0A
EA
ED
DA
ED
DD
08
19
0C
F0
FE
FA
0D
0D
E2
E7
0C
15
0C
09
FD
0B
02
06
0C
F5
FB
06
FE
FD
E5
E9
DF
E2
F8
08
F1
07
F2
00
0C
F1
0B
0C
FB
06
13
0F
1A
FA
05
F5
07
09
F5
FA
EF
F7
F5
D3
E2
E5
F7
FD
0B
11
F1
F5
0A
10
15
0E
0C
1D
ED
FD
15
FD
06
F5
02
01
F5
E1
EE
D4
D5
E1
EF
F2
F7
01
05
0B
0B
F8
03
16
35
2F
29
FF
FE
06
15
00
F9
F6
FD
EB
04
EE
E4
D1
D9
D8
D2
E0
F9
EA
EE
F3
0D
0C
D6
07
26
40
F7
1A
07
15
02
06
1D
0A
06
FE
F5
F1
F5
F6
FA
DF
0C
F8
00
06
03
F2
0D
0E
01
0A
01
FA
0F
1F
0D
18
1E
15
F8
14
28
16
10
0B
16
33
26
14
19
FD
FF
16
04
F3
06
00
0E
F3
04
08
02
18
06
16
27
1B
FC
16
18
18
1B
37
0A
0A
01
FA
F5
14
11
05
06
0F
F8
FD
EF
07
0F
FC
FB
F6
FE
FC
F5
F1
10
12
F8
F9
03
F4
0B
F7
F7
0C
06
09
F9
F2
08
0F
F9
08
08
04
EF
0B
F4
09
F7
09
09
02
01
FB
01
FE
E9
F5
FF
FE
FC
F4
EC
EC
03
F7
10
FD
F1
FE
06
10
06
F7
F3
FE
01
EA
E6
D5
D2
BF
D6
D7
E4
25
12
23
08
FD
0C
FE
06
0F
F6
02
12
FF
01
F9
FF
FB
12
FF
F1
E7
EF
D1
FA
F6
DF
F6
04
05
06
07
F4
F1
F1
E0
14
EC
0A
F4
FA
F8
EC
10
1E
09
F2
E9
03
0E
0D
12
04
FA
12
1A
F9
EA
07
F2
F7
03
0D
10
0F
34
19
06
FD
0B
02
0A
FA
12
29
0A
0C
FC
02
F6
FE
05
05
0E
0D
03
F3
F7
0B
EF
FE
FC
F9
FD
11
EE
10
FC
0D
00
FE
F8
07
15
FE
09
13
19
FF
FF
F0
01
10
0B
FE
08
F8
F8
DD
EC
F9
1B
0D
27
12
10
D7
F9
05
1D
13
0A
0A
03
25
F9
02
07
13
0D
FC
FA
00
FD
0D
08
DC
F5
EF
26
11
18
FD
08
C2
F4
08
04
02
09
11
0E
0A
15
10
FA
1E
EF
0A
EE
F3
0A
08
FE
EE
02
02
28
2A
FC
FA
FE
0E
04
FA
02
0C
19
1C
15
0D
12
0D
05
FA
E5
EF
E4
E3
EE
FC
EA
FC
F1
FE
0A
EE
FE
F2
F8
1E
0B
11
0A
15
01
14
ED
05
F6
0E
17
15
EE
E5
EA
EB
F7
D7
DB
DD
EB
E5
02
01
FA
F6
0A
01
E0
00
16
00
FE
E5
F5
E1
E3
FD
FE
FB
EB
E9
FE
0D
FA
DF
E0
BC
C3
E9
EE
1F
0D
FD
F8
F8
D9
17
12
0C
04
E6
E5
FA
04
0F
10
F3
E7
EC
07
F8
EF
FF
02
E9
FF
F1
10
11
FE
0E
04
0D
D4
14
FE
0A
FB
0D
F5
FF
02
ED
06
F2
E1
F6
E9
F4
FB
EF
0C
11
09
1D
FE
1B
F1
08
15
0C
D2
01
E9
F5
F9
FA
04
F4
02
03
F8
F8
E7
F1
03
FA
E4
01
EB
08
FC
19
FA
07
F8
03
00
02
E1
C1
E8
E8
EA
11
0C
0D
0B
FD
13
FD
EA
0A
FF
E6
E7
E4
01
F9
04
19
03
18
0A
EB
02
0A
EF
AA
BC
C6
C9
EB
02
08
03
0D
16
0E
12
F0
E8
02
E9
EB
05
11
1E
40
1F
22
F3
F4
0F
15
23
C2
C5
BA
CE
EB
CC
E3
EE
F4
0C
07
0F
F1
E9
FE
E9
F1
FE
02
0C
04
F0
FF
09
FB
F4
12
21
EF
B8
BD
D4
D8
A6
BE
C4
D8
E2
05
07
FD
F2
00
FB
0E
F5
0E
00
04
EA
03
F1
F9
EE
ED
24
14
EA
CD
CC
C1
9F
BE
B3
BD
C4
E6
11
0D
14
FF
06
17
FE
F9
F7
FA
0E
05
ED
07
F0
04
11
0D
06
E8
EC
03
E2
D6
F2
E1
F5
11
1D
15
21
05
0C
1B
15
00
25
13
0E
EE
F5
F7
07
08
39
35
19
18
32
1C
05
04
23
13
11
06
0F
02
19
0C
03
09
05
FF
21
02
FB
E2
FD
03
FE
E4
27
36
23
28
3C
24
33
2F
40
33
1C
01
FD
04
0F
0C
03
27
FE
1C
19
F2
FD
ED
0D
EF
F3
10
19
59
33
3D
44
3C
20
33
2A
00
13
FE
F0
07
08
0A
10
20
FB
F3
01
F0
07
15
FD
FA
EE
F5
1C
2F
12
4D
3D
35
2F
0B
11
03
03
01
FC
00
07
0D
12
12
EB
F5
FB
05
F9
04
0D
00
04
19
05
03
26
38
29
11
06
19
05
12
22
F0
FE
07
E8
0C
1E
E2
01
08
14
01
0A
06
F6
F8
EF
06
00
F1
06
13
F8
09
E2
1C
06
0F
FC
EC
07
01
F1
EB
0A
FE
10
23
0B
F1
F1
03
FB
0E
07
F3
0D
F5
FB
E6
DE
ED
E5
C9
BB
B8
C7
DF
04
E1
D1
CF
D1
F5
03
EF
0C
00
FF
08
08
FB
F0
09
07
0B
EE
08
EF
10
ED
11
07
0C
F7
0B
F1
0A
06
F3
0F
10
09
EE
10
FC
10
EF
F3
F7
0C
F1
F9
12
0C
FE
06
EF
EC
0E
03
F7
F2
1D
0E
0F
F1
E9
E6
F5
E8
EC
EE
07
F0
EF
04
F4
09
F0
03
EC
09
EC
EE
DB
DB
EA
F9
F3
18
F1
FD
03
0A
10
F5
F8
FA
EF
0C
02
08
0C
EE
F8
EE
EE
05
EE
FE
06
F7
F9
EC
DB
D9
10
0F
01
EA
05
0C
E4
D7
E0
F3
FF
FD
04
FD
FE
F3
04
F8
02
FB
11
1A
FF
FD
F1
EB
F5
15
08
14
11
14
08
EE
EF
EB
FF
EC
D8
C4
F3
09
14
EC
F6
10
FB
00
08
0D
0E
21
E9
FE
EB
0B
02
0F
F1
1A
FB
0F
0F
FD
F9
F1
D9
E4
FC
EB
F8
F0
F3
F6
08
11
0B
F0
11
06
0F
13
00
FD
F3
03
0C
05
03
06
FB
EB
F5
E9
E1
E0
F8
F0
F0
FD
F8
0D
E9
FF
0B
E5
F3
10
07
F6
04
06
0D
0A
15
04
F9
FD
03
ED
FA
E7
FA
FF
EB
F6
FD
0F
F2
13
04
0A
1D
FA
01
F6
FF
00
11
04
FF
E8
02
FF
06
10
10
07
05
0F
24
04
CD
F3
F1
F5
F1
0A
0E
0B
02
ED
13
10
F7
01
0F
01
EC
13
1C
09
23
17
12
1C
0B
F9
11
26
EE
0E
0E
F4
11
1C
F3
07
F1
ED
04
07
FB
00
E1
FB
FA
33
28
27
21
0C
0C
F0
0C
0F
23
17
D2
E2
EA
00
11
01
E6
02
1E
05
FC
01
EA
E8
E2
F3
01
0D
18
1B
16
FC
FB
02
18
0E
0A
FD
E1
09
0E
04
0C
FE
0D
FA
04
13
F5
13
ED
EE
DF
11
04
0D
27
13
07
FC
E7
04
FD
05
F2
EF
B8
F4
E1
0B
15
0C
15
EC
01
F5
15
FE
FB
FC
E4
0A
FF
15
17
08
03
0B
ED
E2
E4
DA
DF
DB
D3
F2
F4
02
FC
05
01
E8
EE
DF
04
E8
F3
F2
EC
02
07
EE
08
15
14
F8
E7
D9
DF
EC
FA
00
DF
F5
ED
F1
EB
F5
1F
00
F7
E7
04
06
13
06
F5
07
17
0B
18
FD
16
0F
03
EA
01
0C
05
E8
F0
04
EB
13
01
0A
06
E8
FD
E8
15
10
0D
05
16
F5
07
06
14
EE
F7
E7
06
FD
FC
07
0F
05
10
02
FE
F4
02
01
03
00
FB
EC
EB
F3
04
EA
DC
E3
EE
11
17
FD
FA
EF
F5
00
0B
0E
16
04
23
01
03
F9
1A
17
0A
E3
EA
0F
09
F5
D6
D6
C3
CA
E6
F7
F9
E9
F1
F4
DA
00
FE
05
0A
05
FB
15
00
FA
0A
FF
08
F5
FE
F1
FB
02
E7
EC
EE
C9
C6
FC
F6
F7
F5
FC
F0
F3
07
04
FC
FF
0C
1A
E8
03
0F
FB
06
F4
F4
FB
07
0E
FF
E6
F8
FB
D9
E0
E3
FE
F3
FB
11
01
FE
02
14
0C
00
08
0E
EE
F6
FD
1B
1B
20
03
16
0C
08
FA
03
FC
EC
00
FD
04
14
F4
0E
0E
15
F6
FB
F5
EB
04
F5
F9
F9
09
ED
F6
0B
29
2D
1A
06
12
10
04
F5
EC
FE
0C
F6
09
F9
04
18
E1
0B
FC
F4
FF
08
0C
11
F6
0D
04
12
17
11
10
1E
08
1C
F3
EE
EE
E9
12
FD
0D
0A
07
14
E5
04
FF
F5
01
15
FE
07
F2
FF
25
24
17
0D
1A
0A
14
29
0F
FA
07
FF
F6
01
07
FB
02
ED
FA
FB
13
FE
F3
FA
09
FC
F8
10
EF
EA
05
FE
22
23
28
17
FE
19
1A
19
1F
16
18
08
38
14
08
FE
E9
E3
FD
11
F9
0F
07
00
19
08
05
14
24
FB
19
27
1B
14
20
1F
08
22
20
20
2A
1F
0E
09
06
F1
F0
01
F0
0D
FA
0E
06
0E
00
F8
01
28
FE
04
0F
EB
F6
18
0D
0A
16
28
01
EC
12
18
0B
0E
FB
06
FD
F7
0E
F4
02
10
0A
F9
11
F0
08
00
0F
F0
F8
F1
FA
F8
03
0D
FB
0E
08
05
07
FC
05
0F
09
09
F9
F0
F3
F7
0E
E4
E8
EE
F6
0A
E9
FC
E4
E7
E9
EF
F6
F6
F0
05
F8
F3
FC
05
EF
EE
06
FC
F2
F7
0B
05
FA
EE
E6
F2
0B
0D
E9
D9
E8
EE
DB
DF
E9
04
09
E6
FF
F5
F3
F9
FC
03
07
02
00
F3
EF
04
FA
FB
11
17
1D
2A
1D
03
14
E4
14
F7
FF
14
F7
13
10
0B
0E
1F
01
F7
F7
10
05
07
FF
16
FE
FA
09
19
22
24
20
0F
F7
14
19
24
1C
12
FE
05
10
0E
12
28
1F
09
0E
F0
03
0C
FF
03
12
0E
15
12
0C
FF
15
08
19
08
FF
0B
14
1B
1F
1A
11
13
00
10
33
21
04
05
01
F2
03
F6
23
34
32
0F
1B
16
0A
F6
0D
15
1A
1D
12
FF
09
11
F5
F8
E8
EF
0B
2D
FD
00
FE
0B
07
1B
25
16
25
2F
05
07
07
FC
15
25
2D
21
0E
0E
F2
FA
FA
D1
E2
F8
E8
11
21
0D
FD
07
1C
15
1D
10
21
1C
FE
06
0A
05
F1
09
18
11
00
05
F0
0E
E7
ED
F2
EF
06
35
13
10
F5
13
FA
F3
1A
0B
0D
02
F4
0D
F7
F2
02
F3
E6
F5
08
06
05
08
07
03
04
07
1F
34
06
0A
DF
FF
0D
F9
FD
0D
0D
FB
05
FA
15
08
FA
F0
DF
08
07
F4
06
0F
0F
16
02
E0
07
03
EC
F1
00
03
E3
00
F8
E9
13
14
FE
0F
07
F7
13
F1
F7
F4
17
1B
14
FF
F1
FB
FC
F6
F2
12
ED
FC
FC
19
F3
ED
08
E9
F8
00
05
14
05
FE
03
FF
F3
F7
11
18
1C
0C
EE
F9
E2
E0
ED
F3
F0
FE
F0
EA
FE
F0
D7
DC
F3
E2
F3
FC
ED
F8
F4
F8
E7
F6
FA
0E
0B
05
08
05
DE
FA
F6
00
10
F6
F6
06
E4
D3
D2
D1
DC
CA
EA
E3
E7
F0
ED
FB
10
0A
09
07
0C
F8
0F
F4
0A
EE
E7
04
EC
E8
06
EC
DE
D8
D5
D6
DD
D7
D7
D7
EF
F4
FC
FB
FC
FE
07
06
F9
F4
04
07
18
22
F6
08
0C
F9
13
1E
04
04
D3
EB
CF
CA
E9
E7
E0
0C
05
02
F8
07
FF
08
F6
F1
F4
11
05
19
DE
0B
0E
0B
0C
20
20
F7
F6
E9
D7
E0
F0
ED
ED
F7
09
E9
EF
F1
F9
F2
FC
F0
F2
F1
F6
15
F3
ED
19
09
F9
1C
16
E3
0E
EE
D6
02
E1
F9
0F
F6
E9
E0
10
13
03
FE
01
06
F5
F9
04
0B
15
F5
F7
FB
F4
19
0B
01
09
F7
00
F2
EF
15
00
06
ED
01
12
07
0D
0A
FA
0C
F0
E6
FA
10
03
E8
FA
08
02
1F
2E
20
14
FF
F7
08
11
09
F1
F8
0B
06
09
27
21
21
0E
FF
F7
F3
18
14
E2
08
F1
F6
F4
32
1F
10
06
14
14
16
16
14
10
04
08
23
0C
05
10
FC
0F
07
FB
EA
22
FD
EB
F3
F3
01
EE
0E
07
0E
F1
12
23
1D
FD
F3
0F
1C
FD
10
09
21
FF
13
F1
F8
EA
03
24
11
EB
EF
02
09
FE
14
39
F1
E4
02
FB
14
F1
0E
0F
21
FF
0B
0A
16
1B
FF
E7
F7
FD
06
17
FD
F3
E1
F0
FC
F9
F0
1B
00
E5
0D
F5
04
FE
08
00
29
23
18
2E
19
15
0D
F2
E6
F5
EF
E2
04
09
F3
10
FB
F3
F2
F1
D2
E2
1A
0A
06
EB
1D
07
06
29
1F
35
29
25
F6
10
E9
F6
E2
EA
05
0F
0D
EE
0D
01
00
0B
02
09
04
06
F6
15
15
15
ED
F1
FA
1D
0D
29
1E
07
08
0C
0A
F1
05
04
F0
08
0E
FE
02
01
FE
FF
E1
E9
03
ED
D1
D6
D6
F7
15
10
F7
E4
DF
EA
F2
EC
FB
0C
F8
F6
FA
10
F9
FC
12
F7
F8
F8
FD
0B
F3
F4
F4
02
F5
13
0B
F8
13
F5
00
09
F8
FB
03
0E
02
F3
EF
09
11
0B
03
FE
11
0F
13
02
14
0B
FE
FF
15
1A
0D
22
05
21
07
09
19
18
12
0C
F3
F0
12
FD
FD
FA
F7
02
20
FF
0E
10
17
11
33
40
1C
10
1A
12
1E
1A
FD
21
35
2C
24
1D
1D
04
09
01
13
F8
FC
01
16
05
06
03
27
13
F2
06
F7
FE
FC
E5
02
03
F9
2B
12
F7
02
17
1D
04
FC
0F
F1
FF
09
04
23
0F
13
DD
10
F8
EB
FD
E0
07
F9
F9
F9
FA
FA
FE
10
05
10
FB
F6
06
F6
FC
F9
EE
25
0B
12
06
D7
F9
F9
02
03
FC
00
F8
F5
10
06
FD
E6
FB
FB
15
13
15
08
EF
EB
E9
09
07
FB
05
12
08
E4
05
E7
FA
1C
FE
FA
06
FF
0B
F4
FD
F8
EB
E7
FD
07
F9
FE
F1
E0
04
03
34
FF
F2
04
01
E9
F6
F0
08
0E
FB
13
17
0E
03
F7
FF
E8
F6
03
F3
ED
E9
F3
EB
01
F6
12
FE
ED
E1
FD
0C
E1
EB
0C
F9
F3
F8
07
00
21
0A
FA
1E
04
FA
04
F4
FE
03
E2
C6
E2
FB
02
0D
D6
20
0D
18
00
06
FA
00
0E
03
0A
F3
01
02
0B
07
E8
F4
F9
EF
1B
FB
D9
EF
13
15
08
21
DC
ED
F0
0B
0B
10
13
16
FF
EC
E6
D9
E6
FE
FC
F7
EF
F4
F3
E6
11
00
0C
23
27
2E
F6
FB
EE
DC
D6
EC
EE
F6
13
0C
F8
E5
C2
B9
F8
F9
FC
E3
DF
E2
FE
FD
07
23
14
14
D2
23
F6
F8
E9
EB
D8
D3
D4
E8
E3
DC
D3
C0
B2
D2
FC
07
FD
F9
0F
09
00
09
FC
16
15
19
FA
2A
FF
E8
10
FA
D0
D6
CE
CA
DE
B9
C4
C8
F1
F9
1E
11
03
0A
0F
0D
03
02
EA
08
20
1A
05
05
FB
07
0D
FF
CC
C3
E7
C8
DA
DD
F5
04
1F
17
1A
1D
25
14
00
06
EE
01
0B
FD
13
ED
0E
FD
FA
F5
0C
06
FD
DE
E2
E4
E6
E7
20
31
1E
3A
1E
0C
FE
F9
1E
10
E6
05
EF
0B
17
00
F8
0D
F8
FE
11
06
19
F4
11
EE
06
F5
15
0A
2C
1C
17
FA
00
FB
18
12
ED
01
F4
10
23
F9
F1
F9
F1
F5
17
1B
15
F8
0C
1C
05
F5
1C
20
1A
0E
0A
E2
FB
02
02
02
E8
E8
FD
05
27
05
13
0A
04
F1
09
02
0E
11
06
0C
FB
FB
FD
1B
23
1E
EC
03
0D
16
1F
0C
EF
DD
F9
05
10
37
1B
23
0D
F2
00
F8
03
19
1A
0F
FD
01
14
02
1C
01
1A
02
08
02
1A
14
0B
FF
04
05
03
14
0D
20
EE
E0
F3
16
21
12
01
1E
18
0E
03
01
FE
F7
08
06
FB
F9
F8
06
0D
0B
FB
05
F6
09
1E
FB
FE
06
21
24
12
F9
02
FA
0F
FE
18
FA
F9
10
1A
01
0C
F1
F6
03
F3
06
04
F9
F8
1F
32
FE
0B
0B
FA
FB
23
20
01
F4
0B
04
F4
FF
F4
09
F0
FC
FD
FB
ED
03
F5
FC
F3
FF
FA
FE
19
FE
F4
F0
12
D0
14
F5
EF
EB
EB
FE
EB
02
05
FD
EC
F7
FA
E4
F5
F2
F0
FF
EA
EE
F4
15
12
FF
04
0F
EB
EA
F1
F9
F7
F5
E4
E7
F8
EF
E7
D2
EA
FA
E8
F3
E7
D2
D8
D8
E4
FB
08
1A
19
0B
FE
F6
0D
2F
0B
0E
F0
08
ED
FD
F6
FF
F1
EF
EE
08
F6
E8
D7
CE
F0
D8
D7
E8
02
FE
15
FC
05
FE
F2
FC
E1
FF
FF
41
22
F9
1E
FD
F2
18
F9
0C
F0
D3
E7
F3
F5
E3
E7
F5
10
00
FF
EE
FA
EE
FA
F7
0E
15
F4
1A
11
1E
28
24
18
26
FF
28
21
11
0A
EE
F0
F8
EB
0B
08
05
07
00
EE
01
FE
09
06
12
F7
0D
FA
08
FA
EE
13
0D
F7
F9
F7
13
12
0B
08
F1
05
00
FB
11
00
0B
01
0E
00
F4
F5
06
04
F7
FC
0F
F1
E3
01
0E
03
FE
DB
D9
1B
FC
17
04
10
EF
FA
F7
07
0F
F7
01
07
04
F7
F4
0B
0A
EA
F8
F6
0A
0A
FB
14
17
08
13
F1
13
F9
01
07
03
FF
05
F6
FD
EE
FD
F9
08
F2
E9
F0
01
F2
01
FF
05
F3
0D
1D
04
12
08
09
00
08
12
F2
E3
EA
08
0D
07
F7
12
02
05
EC
FF
08
ED
05
EA
EC
06
F6
0A
09
05
FC
F8
F2
EB
F3
F5
D6
E0
ED
FA
EE
FC
FE
FF
15
F9
F1
FE
EF
F9
04
F1
F5
E1
E8
FE
06
09
02
FD
FE
DE
EF
E4
C4
FA
14
04
E6
F2
09
E8
F1
FE
F6
00
FD
EB
FA
E4
E2
E1
FF
14
0D
27
0D
FC
0C
E5
F0
FB
EA
00
06
D7
EB
FF
0A
F7
F2
EB
EC
01
ED
E3
F0
F7
E1
FA
14
00
22
05
15
FF
E7
E1
EB
EF
F9
FD
E1
E5
FA
D4
F7
F0
E4
E3
F2
F2
01
EA
E7
FF
FC
0E
F7
02
18
0A
E0
D3
E2
E3
E6
EF
0B
EB
EF
F4
0C
FC
10
FA
EF
D3
E4
00
DD
C5
ED
F1
17
F7
12
1C
13
06
D3
D9
E4
03
D8
EE
00
FA
DA
EB
FE
15
F7
FB
E9
F3
F4
F3
DF
F2
EE
E9
F6
15
16
16
19
02
EB
E8
F3
F3
E8
FC
FC
0D
F9
EC
06
02
F9
02
06
F7
EC
E3
DA
0C
F6
FC
19
09
13
F5
01
01
0D
FE
F9
FA
F7
04
F1
F9
D2
CC
C8
FB
05
F2
11
FB
E3
EA
E2
FB
EA
06
1F
2C
17
F5
0D
17
29
17
10
E3
06
F5
05
F7
E1
E5
C5
FE
06
0C
EB
E4
F5
ED
E4
04
F8
08
2C
1D
13
0F
1A
18
27
0B
06
DC
E7
EF
EB
D4
D7
D0
DD
E8
EF
F1
EA
01
DA
CC
D3
D6
00
21
17
03
F4
01
FD
FF
1B
15
FA
F4
0F
E7
E1
CB
EA
EB
D9
F6
FA
06
FB
EE
FA
EE
F0
CA
09
16
22
10
F5
02
F1
04
25
16
0B
EE
F9
24
0D
F3
01
F8
E1
FC
EF
0E
F7
06
0C
FD
F0
00
1B
00
1A
2B
08
EE
05
23
15
F8
FD
06
FF
0B
01
23
F8
D7
E9
F1
0E
F1
F0
00
0C
0A
0E
0C
03
11
19
13
F2
01
15
04
0C
F1
08
F7
F7
E8
F2
1F
14
CA
EC
DB
0B
EF
00
15
12
01
F7
DD
FE
0A
05
EC
0C
F5
15
00
E9
F4
E1
E3
DD
EE
04
18
E9
C9
DD
18
F7
F9
D1
08
01
00
E2
FA
EE
E8
DF
FF
EF
00
12
0E
EF
E5
D7
EA
CC
F0
02
08
EC
ED
F8
08
EE
07
E1
F3
13
0B
0C
F4
DD
DE
E2
EB
03
F8
1A
F8
08
F7
04
F8
FC
02
04
E5
F8
00
12
10
13
0A
FB
FF
FD
15
FD
E6
F4
E1
E1
EF
05
05
10
ED
0D
FB
FE
EC
FB
FC
E5
E8
F5
10
FD
F2
0B
08
FA
EE
05
E7
D4
D6
02
DE
F7
E0
02
FA
E5
F9
0A
08
19
10
0E
26
DB
FE
F2
0A
05
F9
11
EF
F0
F6
F3
D7
B9
C3
F2
FF
0B
FA
F4
F3
06
E5
01
0A
04
0C
1C
0F
05
02
F0
E7
22
F9
FD
11
04
F5
F2
04
F9
DD
FC
0D
02
ED
F5
F7
E5
0B
0F
03
0D
F2
F9
15
10
20
FE
01
0C
F9
11
F9
F2
03
EF
07
FB
08
10
F5
10
02
FC
FB
01
FE
FB
F1
03
EF
00
09
13
15
EC
FF
FF
EF
FE
FB
F6
0B
10
15
11
24
15
02
08
FF
18
EC
21
29
0E
0A
EB
00
02
F5
EC
17
15
F2
FE
11
10
0A
EE
01
F7
FE
F9
16
14
EF
1B
03
15
FD
24
23
0C
11
FC
0D
03
22
02
F4
03
FE
11
01
07
0A
01
FB
12
FC
FB
F3
00
03
F8
0B
15
F2
EB
FB
FB
FA
01
0E
0A
F6
0E
F5
FB
FB
EF
0D
F3
F0
01
F8
12
FF
F9
06
F1
04
03
04
04
06
09
03
F7
F2
FF
19
0F
23
1D
0D
07
00
F1
07
05
06
02
03
0B
04
EE
03
F5
1C
14
04
EA
CB
E8
EF
EC
E2
E7
17
22
15
2E
F8
04
03
03
09
0E
F5
0D
07
FF
07
13
09
0F
F8
22
F3
DE
E2
EB
E4
01
0F
10
07
16
0D
11
1A
17
F7
E8
0C
EF
07
29
14
0A
F5
E3
EB
0A
03
FD
DA
E5
10
EA
E4
F0
F7
04
08
1C
0F
13
FF
15
01
FE
FB
F6
10
14
0E
1E
06
F9
2B
08
FE
ED
F7
14
0F
10
05
0A
FF
00
FC
FF
15
13
F3
21
14
01
FB
0B
1D
19
F9
0D
08
15
0E
F7
01
EF
08
FF
27
0A
EB
FB
03
05
1B
23
0E
07
1F
20
21
04
0E
01
3F
F7
0A
E2
0D
08
02
10
14
FC
E4
EF
F6
F8
F4
FF
0C
1B
2C
2C
09
FB
11
0C
02
F6
16
09
23
12
03
FB
06
FA
09
08
09
EE
0B
0C
FC
E1
E4
FD
16
19
15
04
18
1A
10
E3
E9
F6
F1
01
11
07
08
F4
02
FC
0C
02
03
EC
01
E0
DB
EF
ED
0D
14
2E
0D
1A
10
0B
FA
EF
05
19
24
01
0C
E9
02
11
F4
ED
04
EE
F2
EE
DE
E3
F0
FA
16
1F
35
2D
14
0C
02
FC
F9
EE
F1
11
04
04
0E
E9
08
FF
F9
F1
F4
02
F8
D9
DC
DB
2A
30
12
1C
23
16
04
EB
04
F5
0B
11
F3
0E
0C
0A
F5
02
01
01
23
05
EC
F0
FE
DE
EF
19
25
1B
0C
07
FB
F2
FA
D3
E4
02
F4
F2
E9
EA
1C
0F
11
03
11
04
1E
19
E5
FB
EC
EC
F7
0F
2A
2C
04
04
EC
FC
DD
EB
E2
E9
E6
E5
05
E7
F1
F6
12
F6
FB
03
21
F6
F4
FB
F8
03
0F
0A
1F
13
0E
EB
F9
EC
04
F7
FF
CC
D9
E7
01
F6
E6
0A
1C
11
EB
08
EE
EC
09
F9
EA
EF
1C
09
06
08
FE
EA
03
07
05
04
F7
E4
ED
D9
FF
E9
E6
F7
08
06
E9
F7
EE
04
FC
F4
F6
07
23
16
1C
03
F9
FF
0D
27
1F
F9
06
E2
F9
E6
D8
F4
F4
F5
0F
14
E7
F0
EB
F5
03
0D
FA
F6
26
1D
16
08
D7
03
04
12
0C
0A
21
03
14
F3
F5
04
D9
E4
11
03
FA
E1
F1
F1
F2
0C
1A
17
0E
FE
00
DB
F2
FD
F7
FF
F3
11
18
F6
EE
DF
02
13
F4
00
01
00
FE
EE
08
0D
F9
F8
07
19
0B
02
0F
D9
E1
FA
F1
E2
03
17
0E
05
F2
E3
E0
EA
09
11
02
EF
1B
07
F4
FA
0C
04
ED
EB
FB
0A
F8
06
F8
E6
ED
FD
21
22
32
F8
D1
D0
E9
02
F4
07
08
0C
06
09
04
28
1A
FB
E0
F9
F5
FD
EF
0A
DC
E3
04
E4
00
1E
0D
16
BB
D6
DB
DF
0B
F6
08
F8
05
0E
12
17
11
F1
03
01
10
0D
F5
F7
FE
08
F7
EA
FF
E3
FC
F8
D3
E1
F1
04
F4
F0
FD
11
0E
0F
26
11
19
0E
FB
F0
14
F9
27
1E
12
F4
02
F9
EA
FA
EC
EB
DF
F2
F6
26
0E
0C
0B
09
0C
02
1D
31
22
FA
10
FC
09
20
14
1F
07
1B
07
FD
E7
01
04
E6
CE
ED
03
DE
12
F1
11
E3
FE
1B
04
F5
EE
EC
04
13
1E
26
13
F0
DF
F7
DC
FA
00
F3
C6
BC
DE
F4
F1
E2
F7
10
F5
0E
FE
D6
F7
EA
DD
06
07
16
24
ED
19
F7
CC
E0
08
D2
D6
D7
CE
E0
F5
10
13
07
07
00
F8
06
F3
0E
14
03
05
F7
E5
ED
D4
FF
F2
EF
00
F4
F8
DD
FD
F3
02
D9
05
F5
01
01
0E
F7
F8
0B
03
02
FE
0F
13
0D
05
0E
F2
18
14
0B
11
0E
0D
07
09
EE
0D
EF
EE
ED
FA
FB
FD
03
0E
F1
02
F4
00
09
1B
08
11
17
05
18
1A
14
12
04
02
05
0D
10
0F
09
0F
F3
FC
10
03
03
F1
0B
FA
DC
FB
FF
1E
22
06
0C
0A
F1
DF
E5
06
F3
F8
FB
FD
FA
0A
F8
12
FC
00
FE
03
FB
F3
FC
DC
F7
10
16
1B
F8
04
F4
E2
EF
EE
0D
DD
DB
EC
FD
06
29
00
1A
EA
1A
F1
1B
02
F2
01
F7
04
0A
08
23
00
DA
01
EF
E5
F5
F5
F5
ED
F0
EA
0F
FD
0B
DC
0A
17
0E
02
DC
FC
FD
FD
16
F7
13
20
00
EC
0A
F6
D2
E3
F6
F0
11
08
0C
F3
05
FB
F7
F2
FF
00
18
0C
01
02
F5
EB
E2
E7
16
22
0D
F2
25
D3
D4
E9
DA
F5
FF
08
09
FA
F8
D5
D3
00
06
13
0E
F1
25
15
0D
E5
F2
07
0C
22
14
02
E0
DE
DA
ED
D4
F0
10
F7
13
01
EA
C5
E6
EE
28
FE
08
0D
11
18
05
FE
07
F4
E1
1A
18
05
03
EA
E8
E6
F4
11
15
02
02
05
E6
D0
F4
FD
02
EA
FA
FE
13
F3
0C
FF
00
D3
DD
F9
0C
02
F5
03
DB
DB
E2
09
1F
19
01
F4
E9
F3
F7
E3
CD
EB
E7
F6
27
1A
06
F5
F7
EC
E5
0C
F8
00
FE
C9
DA
CF
EE
1F
14
25
03
FB
FC
08
06
FD
05
EA
07
34
2E
14
0C
17
EF
D9
DE
E0
12
08
FD
F0
EB
E3
FA
1E
1A
14
13
F6
F1
E2
F8
02
F0
E6
F7
0F
EF
02
F2
FC
07
E4
D4
DA
E8
F3
11
F2
F3
FB
21
10
1C
FA
0B
EF
E3
F2
EF
EF
03
D6
E8
E6
F0
E2
18
EC
DE
0D
CA
F8
F1
0C
0B
EF
0B
20
2D
02
F2
EE
11
18
07
EF
02
E1
0C
10
FB
EC
F5
13
06
04
FE
1A
E5
F9
10
02
0B
06
1C
0A
0A
02
F6
F2
27
03
0D
EB
D8
EE
02
20
16
F6
F6
F7
05
EF
1B
24
FC
EB
FB
12
EF
14
11
02
21
F9
F3
00
0D
0D
04
EE
F1
04
FB
0C
F3
23
E8
F5
F8
F6
29
06
09
EB
EB
1E
FB
08
F7
0C
23
03
FF
11
21
27
11
07
13
01
FE
0C
10
2A
F7
00
06
00
0A
F0
11
13
14
0F
FC
18
18
07
1B
1A
1F
1E
12
F2
0D
15
11
0F
1D
F7
FF
00
07
09
EA
08
08
FF
FE
18
F2
F6
0C
00
06
10
1C
28
1E
26
12
09
01
1A
0E
27
E8
FC
1B
EE
E0
25
FB
F2
01
08
20
F8
00
09
05
0E
FA
07
11
FE
13
13
07
E5
F8
FC
03
F9
01
17
28
00
02
09
F9
E5
EB
03
09
07
0B
0A
09
0B
EC
F5
19
06
04
08
02
E4
10
03
DE
DF
D3
E8
F2
E7
02
F2
0E
FE
D6
E9
FB
1F
0E
03
DB
00
F9
EA
F0
FE
FE
F2
F6
DF
15
02
DF
E7
E3
E8
0F
18
43
EE
F3
11
F3
FA
F5
02
F8
E6
D2
D6
F0
E3
EC
EC
E5
F5
02
F4
F7
F7
FE
F6
F8
0C
25
19
46
F2
F6
F9
07
FD
FA
E4
F0
F0
EE
03
F5
ED
F9
EF
05
0A
F3
ED
12
1D
F9
13
1F
1C
23
26
1C
F0
0B
F3
0B
0D
DE
D8
EA
F1
00
F5
E6
FB
DA
E9
F7
0E
F1
FA
FE
0C
14
44
48
1D
32
11
22
EE
F1
F2
0B
1A
E1
EB
E5
E1
D1
DC
ED
EB
C9
C8
DA
E6
C4
B0
DF
C2
F8
1E
13
1A
26
FE
0F
00
FF
FB
07
FD
F9
01
00
D0
13
F9
F9
F0
AB
AA
CD
F5
DE
D5
EC
E7
D7
FE
FA
FA
F8
02
F3
EF
0C
F7
03
F5
0D
0A
F9
DE
E9
F6
E6
DD
F9
DC
DC
FD
FF
E6
E1
E1
F9
01
EE
F3
FD
01
FA
03
EE
09
0E
EF
F9
04
FC
0A
0A
F6
EE
06
12
0E
F4
0E
01
01
FF
01
FD
0D
12
04
EE
0D
FC
F9
F1
05
EE
02
02
FE
02
08
06
F4
E5
FB
E7
FF
E3
D5
00
FE
05
FA
F1
00
0D
E8
EE
F5
ED
F5
F3
F9
0B
EC
0F
EE
07
F6
F0
06
E5
F7
EB
D7
EE
DE
F4
F3
18
E9
08
DB
E5
E9
0E
FC
11
F5
09
F0
05
04
0A
03
F5
0D
F2
F6
E7
FA
06
DC
E8
FC
D2
CC
F8
07
F2
FF
13
FE
0B
25
03
0E
00
0F
EE
10
FD
FB
EE
F9
E0
C8
C7
E8
E8
EE
D7
DB
D9
DD
ED
DC
EB
05
F4
16
18
09
F9
D8
08
F2
E7
F1
1C
14
24
04
04
00
F0
01
FF
07
0D
F6
F5
E8
03
E2
D0
F9
00
FA
0C
26
F7
D5
F3
11
19
0E
13
06
0F
01
00
10
1D
04
10
14
FF
18
06
06
11
03
08
13
20
1A
1A
1A
04
ED
F6
08
24
FD
FF
F6
08
00
12
1D
0D
17
15
1B
19
14
1E
21
32
2E
2E
35
1E
10
0E
0E
FC
F1
10
13
0E
F9
F1
F8
00
07
16
22
23
2A
0A
19
2F
24
0E
1C
28
26
21
28
15
16
F1
02
07
12
FD
FC
15
FC
E9
06
09
01
1B
1B
1E
15
2E
24
11
1F
F7
0D
1E
FC
05
06
22
EE
0E
35
1B
1D
FD
0F
1A
0F
09
07
1C
EB
24
1F
0E
0F
F1
10
FE
E9
EA
EC
EC
FF
EE
E6
07
EC
1F
28
25
13
08
02
0E
08
03
09
05
07
10
FE
E7
F4
D0
C2
CB
E8
E4
EF
F2
DF
F5
FF
04
02
0B
14
0B
02
FD
11
FD
FE
E7
FC
F5
F0
F0
FD
E0
E4
BB
BA
CA
F0
07
F2
00
E0
03
E1
F1
E7
F2
23
F9
FA
E9
F4
FE
E1
C7
D1
E8
EB
E4
DE
E5
E0
CA
D5
F5
0C
FC
0E
02
E9
EC
ED
CA
CB
E9
0B
F5
13
F5
12
12
E5
E3
CA
F2
DF
ED
EC
F9
F1
EA
F3
1C
16
1C
1B
11
12
F8
E1
D4
EE
EE
EB
0C
18
FE
13
04
00
F0
E1
EB
E2
E2
E4
F1
06
F8
F9
12
1E
FB
FA
0C
F1
0B
F5
04
EC
FC
DB
F5
F2
03
FB
07
F3
09
CC
D4
EF
F5
12
FF
00
06
11
F9
1D
20
1D
0F
F3
FC
09
04
E4
E3
E1
F9
F6
F9
02
00
08
08
F1
E0
DE
FE
18
FB
06
10
01
06
13
FE
FA
FF
FB
F5
0D
F8
FF
02
0B
04
00
06
02
0D
FB
FA
E0
EE
FD
12
FD
F4
03
12
17
13
23
08
FE
00
05
14
F4
F2
FA
0B
14
25
FE
F6
F5
FF
F2
24
E9
EF
0A
0B
09
15
F0
06
07
FE
0B
11
0C
EE
FF
05
FA
D3
0B
10
23
F5
E0
FD
14
E9
00
F4
F8
F9
1C
0C
09
F9
FA
F9
F3
F6
08
EB
03
E8
FE
07
DA
D8
06
FC
23
06
0F
FF
04
0E
FE
02
0C
10
F1
0B
EC
FB
F5
FB
F6
FD
E1
EE
00
F7
06
E6
EC
F3
F9
02
EB
C7
10
E9
EE
F5
E5
14
0D
F4
FB
08
EE
F9
06
04
EB
F9
E4
07
0C
EE
EC
FD
F7
F3
14
14
F1
C1
0A
FD
02
ED
E3
10
24
03
0F
F4
EF
FF
0C
03
F8
E2
F7
F1
FC
03
ED
1B
F8
06
0D
F3
EB
E8
10
EF
FD
1A
EB
23
1E
24
21
0C
02
0D
0A
01
04
FD
04
00
E9
F5
18
1C
10
02
0A
02
02
EE
FB
04
06
E5
19
22
16
F4
0C
1B
16
FC
1C
30
F9
FF
1C
17
FB
0A
1D
0C
0B
15
00
0C
F3
FF
EF
10
F5
F1
F9
E1
03
FB
26
24
20
17
F3
EE
13
33
23
12
04
1D
3C
31
0B
E8
08
E1
01
03
F3
F0
F0
0A
08
F9
0E
13
17
06
13
23
F7
F6
FF
05
0B
03
17
0F
07
F3
E6
E0
F7
02
0E
FA
F1
0C
02
F6
03
10
10
F3
F8
FA
03
EE
07
ED
09
02
03
0B
01
F2
05
EF
0D
12
F1
FF
0D
FF
0D
08
0C
12
12
04
F6
07
FC
08
10
01
EF
0A
FD
F0
F0
03
F3
10
0F
F9
F8
EF
05
0C
12
00
00
06
EF
06
F0
0D
FF
FB
04
0F
FD
10
02
FD
0E
07
F1
EE
F7
E5
07
ED
06
01
F0
0F
12
F5
FC
FD
0E
F7
FA
09
FA
FB
FE
03
09
01
EB
09
07
EF
E6
03
FA
F5
E8
FC
01
07
EC
08
09
0B
F6
EE
09
06
0F
10
13
26
22
0A
01
01
01
E6
FC
FB
F4
FE
DD
E2
F3
0E
20
3B
23
2A
F0
F7
F2
12
04
0D
09
00
2B
29
0A
08
0F
E6
F1
DB
EB
E3
E9
E4
F7
E4
02
FC
1A
25
1B
20
F4
E5
F8
F6
F2
F7
23
13
F3
0D
14
0D
15
05
CE
E4
ED
E6
CD
F0
DF
E4
E9
06
03
05
02
1A
03
0E
02
07
0A
EE
F2
F6
F6
05
FF
F9
05
F1
F3
D0
BF
E0
CD
FD
FF
FD
FE
FE
02
17
0F
01
02
21
04
0F
F7
0C
FC
FC
08
03
F8
FD
0B
04
FC
EC
DA
D5
E9
E6
E6
E3
FB
09
2D
26
23
04
0E
29
0D
FA
FC
0C
11
09
0E
13
0B
05
FD
05
E5
E3
E2
E4
E9
EA
06
0A
FC
13
12
17
0A
0B
0C
2D
F6
FC
1D
0E
F6
F4
1E
16
07
F9
16
0D
F1
E9
F6
DB
03
FE
0E
03
22
10
10
0A
27
20
18
3C
F7
03
0C
17
F7
20
1F
0A
F5
0E
FD
EE
F9
FC
F6
F6
04
0F
04
17
0A
09
01
02
11
31
18
1E
FB
07
EF
F8
19
10
21
FE
F5
FB
16
F5
E5
00
F4
00
0C
07
17
10
02
05
E9
EC
FB
F8
E7
02
EE
03
FE
10
10
17
F4
F5
02
0C
12
18
02
F7
09
05
FF
EB
F2
03
07
D6
FC
FB
F5
FC
FB
F0
F5
FB
F9
0B
13
18
01
F7
05
16
0A
05
F9
FA
F7
FD
04
0C
02
E8
E1
F4
07
0E
E4
DE
FD
FC
03
0D
F9
FB
1F
18
1C
F3
11
1C
EF
FF
02
F9
0F
FB
FF
EC
D5
EE
DF
F5
1F
12
FB
EA
EC
E9
FF
F9
F6
07
FF
F3
2A
15
0E
FA
FA
12
01
1A
FA
E2
E0
FA
FE
EA
EC
09
16
0B
02
EA
16
01
FA
FD
F2
F2
F3
15
1F
15
FE
E3
F8
0B
16
17
D9
F3
D6
EA
DC
ED
F3
04
06
FE
E2
02
11
12
04
08
F3
08
F5
00
F4
DD
E7
00
FB
2E
0A
E9
F1
D0
FA
F6
F9
EE
14
15
FD
0B
02
05
FC
05
08
12
0B
0B
DD
E8
04
E5
03
FA
17
11
FF
FC
E0
D8
EB
E3
F8
E8
06
FF
1B
02
0C
F7
00
06
FE
FF
08
02
E3
F3
0A
0D
03
06
16
FA
09
E1
EE
E0
F4
D7
06
07
F1
FE
FB
FA
1F
09
EC
05
FE
FF
F1
11
EC
FC
0F
04
02
17
0B
11
E8
DC
F2
E0
ED
E0
FB
EF
06
F5
01
18
15
E9
FF
04
FC
FA
F1
EF
F0
EF
0F
03
04
0C
FC
F3
E3
D5
E9
D8
E0
D1
F0
01
F4
00
1B
12
05
E2
0E
12
09
EE
F8
11
00
0A
1D
1C
11
21
09
0B
F9
ED
EF
D3
EE
E8
FD
F5
F3
0C
36
29
F9
E4
F6
F9
F0
0B
02
08
05
18
16
FC
00
11
1F
F3
F8
F6
04
E6
16
F7
0C
17
14
30
17
20
F8
EB
F7
02
09
12
FD
12
05
F3
FD
D8
F3
08
18
F7
ED
07
0A
0A
01
0C
F4
00
09
FE
0F
14
EC
0A
08
07
F5
05
F2
09
F2
F7
1D
0D
06
F0
05
04
09
04
00
05
03
03
15
F0
F6
E4
02
FE
03
0C
04
0D
01
0D
0F
01
09
0F
F1
09
F6
F9
10
04
EF
EF
0E
F8
FB
F8
02
00
0D
FA
19
0B
0A
0E
FB
F3
02
F5
0F
FA
0F
09
11
FF
03
12
FD
FC
F7
11
F9
03
F5
EF
F1
04
11
0F
F1
0C
02
01
03
0A
04
0D
03
12
06
F6
F7
DF
EB
ED
F9
01
05
F0
FA
FC
F4
F3
02
F3
04
F4
F9
01
F1
FA
06
0C
EE
FD
0E
FD
03
EE
0F
F8
F3
FE
E6
E8
CC
CD
DF
CC
F6
FC
FC
1D
FD
18
00
F7
F7
EE
0B
F7
F9
FD
0C
F6
FC
ED
F4
00
13
0D
E8
CE
CB
F7
FF
19
03
DB
F4
FB
DC
F0
F5
12
0C
F7
04
05
08
03
0D
08
23
01
FF
F6
0A
13
EA
F2
EA
00
F7
07
F0
07
09
11
0A
FC
0B
FB
E4
05
09
1E
11
0A
ED
F4
E4
08
00
07
05
0A
EE
02
1A
17
03
03
01
F4
FE
03
EB
E8
F9
D8
D1
F5
04
EE
11
00
F6
FC
DF
03
05
01
0A
0C
E8
08
19
F5
0A
0C
0A
14
17
F7
ED
FE
FE
EA
DF
05
06
16
FE
0C
F3
E2
FC
F4
F7
D0
F8
EC
FF
FE
03
F9
09
EB
18
FF
09
F7
FF
12
FD
0D
E5
02
0A
FA
F1
0B
F4
18
1F
13
09
EF
FF
0C
12
03
E8
EE
FB
EC
1C
02
F1
07
F9
EB
16
F5
ED
F2
09
13
00
EE
F5
23
16
EF
E9
0B
14
00
14
F4
05
FB
00
04
F2
01
00
EF
EB
16
04
05
F9
E9
FF
18
E5
01
F2
F8
30
00
05
0E
F5
11
16
06
EF
04
E0
EF
D9
D8
F8
02
12
18
F8
0A
0E
17
F9
E0
F3
F6
F5
03
F8
F3
EC
1E
1C
25
06
07
F6
E4
D0
E6
DA
F5
FD
10
14
2E
10
0F
31
14
09
19
FC
09
F9
25
EA
F9
03
0A
15
F6
03
0D
05
E3
E5
09
FF
0F
17
0D
0D
12
0D
17
45
14
06
08
02
F9
FC
00
D3
F4
EF
EC
13
10
FA
1D
25
17
2A
14
27
00
FD
14
FA
0D
27
18
0B
F0
F5
DF
0E
FB
11
E6
DE
E9
FF
F7
07
18
25
36
2D
3C
36
2E
2D
08
02
05
F0
14
0E
08
01
F3
F3
DE
FA
F6
02
EF
E7
ED
D9
D4
F1
DB
02
13
21
42
3E
20
19
0F
09
0A
EF
F2
F4
0F
E9
D6
DD
19
FC
08
06
0C
D9
04
E6
C9
D1
D7
D2
19
20
2F
30
F6
07
FA
01
FC
E4
F0
EE
F5
00
DC
D3
E6
05
07
F1
16
10
00
E8
B9
BE
B5
A3
B1
E7
EF
14
E7
F7
05
F0
04
E4
F7
FF
04
03
F4
25
08
06
25
14
20
09
09
08
EB
B7
AF
95
A9
C1
CC
E7
F4
F8
F8
F7
FE
EE
07
FF
0B
FF
E3
17
17
F7
F8
FD
0C
0F
1A
1E
F5
00
E8
DF
F0
D1
D6
ED
FC
02
0D
12
06
EE
D7
E4
FC
EC
D4
0E
00
FE
FE
FC
20
1F
22
21
09
04
06
12
F5
E5
E7
DA
F5
FA
02
14
13
EB
CF
E4
0B
EF
EE
F8
10
FD
0C
11
03
12
23
24
0D
0C
18
08
08
03
04
EE
E9
05
FF
E7
F4
CF
CB
CA
F3
0B
E7
F4
FC
05
EF
F9
E7
13
26
29
25
1D
06
FA
06
16
F4
05
07
F5
EC
FA
E2
DC
E6
D9
EA
01
EB
EA
F6
F0
FB
0A
0E
2B
1F
27
0D
19
1A
09
0D
0A
08
0B
FA
F8
DF
DD
F8
E9
D4
E9
EC
F6
F5
02
F9
F4
F7
F1
10
28
2A
0F
0A
0F
EB
FA
0F
F5
FC
04
1D
EA
D0
DE
03
FC
EB
10
E7
E6
F2
02
EC
06
FE
EE
14
E2
EC
09
FA
01
F7
06
FA
FF
FE
F3
09
FA
05
06
FF
E6
EF
E2
E6
0B
02
06
F6
FC
F0
04
03
22
1E
F9
0B
0F
FD
1C
14
07
FE
F7
19
0E
FF
31
05
19
24
0A
FA
FC
04
01
F4
F3
FB
F9
F6
EF
F5
FC
DE
F3
E2
F8
0A
15
0D
13
2F
00
F4
1A
27
2D
FB
FF
F1
F9
FE
F1
FC
00
F5
FB
F9
04
FE
07
F7
EF
01
11
FC
ED
00
04
FE
F7
EF
0F
0D
F5
F2
F3
02
FF
01
F1
F7
0A
F4
EE
04
F5
F7
11
06
0C
FF
EF
FD
04
ED
F5
0A
13
01
16
FD
25
16
25
21
FF
0B
03
EF
F2
F8
08
F1
05
23
03
F0
F1
F2
F7
FC
FF
EC
DB
ED
07
FA
E9
EA
07
03
14
0F
0E
EC
F7
F0
06
F3
F0
FB
10
16
F9
FC
F3
DC
CF
F2
0B
FE
D4
E2
F0
EC
DF
EC
E8
0F
EE
FD
05
F0
1F
00
FB
05
07
EA
0B
0B
05
FB
FD
CE
CA
CC
F1
DF
FF
F1
E7
F0
D4
00
DD
01
E5
03
1F
04
08
EE
D1
F1
F1
07
04
15
17
FE
DA
C7
E6
E5
E9
E4
0D
09
F3
E4
E4
DD
DC
EE
CB
F3
0C
FD
F3
BE
F2
08
F0
09
09
F9
0D
14
F1
E4
D6
E1
EC
FD
12
06
F2
FD
F5
01
F5
F6
03
FB
FA
10
ED
FB
E8
F2
F1
01
09
ED
F5
0F
08
E3
08
EA
E6
09
0D
26
0A
02
0D
01
14
1A
08
18
18
FB
E0
02
E8
FE
02
07
0D
E3
F8
F7
11
FC
F6
DE
E7
06
00
12
10
0B
1D
34
14
0E
09
1E
18
11
0B
0F
10
03
2D
E7
FD
E6
FA
07
F9
09
F0
D9
DB
07
0E
20
0E
06
1D
26
15
0F
18
15
F2
1E
19
15
20
FC
15
F4
E6
E8
F1
0B
0D
08
E4
EE
09
12
38
1A
10
FD
FE
0F
23
10
1A
03
15
45
36
21
10
FD
F7
ED
09
04
F9
EE
F6
F1
E7
E8
F3
1C
39
1C
1F
EE
F8
05
EC
FD
1A
0E
10
0D
1A
31
1C
F5
10
12
10
E8
F5
F0
F3
ED
EF
F0
08
0C
27
10
1E
00
E5
F8
EB
F6
F0
F2
E4
CF
FC
1B
24
F4
12
20
19
09
02
F4
E8
F0
E9
16
33
18
07
14
04
06
04
EE
F1
F5
0C
E8
DD
E3
14
F7
F4
11
13
FD
19
EB
04
FB
ED
04
FB
14
19
17
13
0F
11
00
EC
03
F7
FE
F7
D7
D8
D6
F2
E4
EA
F3
FA
F3
F5
01
0D
0D
26
07
FC
0D
0E
10
EC
0B
1F
F0
16
01
F4
F5
E9
DF
DE
D0
E7
DF
FB
10
FE
D5
F4
06
08
F2
FE
F8
F8
F3
00
13
04
0E
FC
12
FD
E6
E0
EE
DE
CF
DD
CA
DC
DF
0E
FE
EE
D1
F8
05
00
FC
F2
06
F5
ED
F4
06
17
09
13
06
FD
E4
F4
FC
C4
EA
06
F1
F7
0F
13
1E
11
F1
E8
06
F2
00
0C
FD
FC
ED
F1
14
29
2F
14
FC
E2
DF
E6
E1
CC
DC
EB
F0
1B
27
20
F4
0E
13
E3
EA
FE
F7
23
FD
DD
04
12
19
1C
0A
E5
EA
DD
D8
CB
DC
F4
E1
F1
FE
0B
F4
0A
FF
1E
EA
C5
E2
FF
02
FF
FB
FE
F5
16
26
16
11
F4
D0
EE
EF
E0
D0
E0
06
ED
12
16
FD
F7
0A
E5
E3
DB
CE
EE
0C
0D
F8
02
10
11
19
03
F6
E0
E0
E2
F3
CD
E2
FE
FE
EC
FA
07
E2
F4
0D
FC
E8
F9
F2
ED
0E
15
01
FE
13
19
06
F7
00
E4
E0
01
CD
F7
DB
00
17
11
20
F0
F4
FD
11
04
F9
F0
16
10
1B
1A
0C
1B
21
0B
04
E8
E5
D8
D1
CD
C3
D9
F6
F9
10
14
06
03
20
0C
F8
08
F7
F7
F6
0C
FB
16
18
29
13
F4
04
F2
FD
EC
C1
DF
D5
CC
E9
EE
14
12
0E
F2
FD
F8
0F
F4
FD
17
1B
19
F4
00
02
14
04
14
03
08
F0
DE
E1
CF
E2
DD
F5
0A
30
10
29
08
FB
F5
ED
F7
EE
19
28
18
1B
13
03
0E
0F
F5
2A
1B
F4
F0
10
0A
14
13
03
17
06
FD
EA
0F
F9
01
FF
02
00
07
09
F7
0D
12
15
17
2C
01
ED
02
13
10
F6
0C
FF
03
F2
F6
10
0B
F6
11
EE
06
02
0B
FA
0F
08
01
FA
F0
02
F2
06
F0
FE
0A
10
12
F3
0F
F0
F2
0C
11
FA
01
01
F1
EE
F8
F8
F2
FB
F8
01
FD
F7
F6
FC
EA
F9
F2
F4
EF
FB
D9
E8
D2
F3
F9
F4
03
EB
06
F6
FF
F0
0D
10
07
00
DD
DC
FA
FD
01
F7
FB
E6
D1
D9
D5
D4
D9
F2
DE
E0
CF
EA
EA
03
D5
EF
EA
FE
F6
0B
0A
FE
EC
E5
EB
E3
EA
DA
DF
DE
F4
F4
C4
DA
D2
E1
ED
F8
F5
0B
FC
07
F2
F7
10
0A
01
04
EE
04
EA
E6
F0
E1
E8
CD
F7
DD
EF
FE
EE
E8
EB
DB
F4
F3
E1
E6
01
F7
06
0D
1C
1B
F4
11
12
F5
EB
F6
F8
DA
E3
02
F9
F0
ED
FE
F3
E5
FA
F3
D9
E3
D8
FD
F7
FF
EB
F5
16
0C
1C
10
F0
00
02
E9
13
E9
FE
FA
0A
F7
F8
FC
E5
03
F3
E3
F2
E5
F0
08
01
11
0D
09
13
34
12
11
F3
FC
09
EC
D9
E4
F5
E6
F5
06
ED
FD
06
0B
F1
0D
FE
01
11
15
19
0C
00
0C
1D
32
24
0D
12
F7
00
F5
EA
13
F3
F6
0A
06
FE
10
0A
06
1C
F9
18
22
1D
FF
0C
EF
1C
31
41
FE
0B
F9
16
09
04
13
F8
02
01
0D
FD
07
1A
FD
0C
20
1C
08
F5
0C
ED
E6
0E
00
F9
2E
45
0A
FD
0A
1E
1B
F7
0E
19
0D
14
F0
04
13
17
06
01
F4
19
13
01
EA
0C
F8
FA
13
F6
3F
3B
1D
13
14
03
26
F3
18
10
0C
18
03
0E
FF
1C
23
0F
EE
01
12
0D
FC
F5
06
09
07
FB
1B
22
17
12
F3
FB
33
FE
20
07
06
FC
1E
00
17
09
FC
08
FB
0E
0D
01
F4
F7
FD
F1
F9
02
E7
06
06
0F
01
07
22
10
15
15
02
0B
08
01
1B
15
FA
FD
F5
FE
F3
16
F1
DB
FC
E7
10
FF
10
1A
16
05
0A
10
21
08
0E
FB
FD
10
12
21
1E
17
F5
E5
F6
09
11
12
06
FF
04
F0
0A
1E
17
05
E8
FA
FB
FE
F9
0C
0F
F1
17
14
04
17
17
07
05
EC
E3
FE
0D
26
01
08
00
1C
01
0F
11
EC
F6
04
10
01
12
02
F8
0C
0C
0A
26
00
0A
1F
05
E0
E5
F3
01
0E
FE
FC
06
19
02
04
E0
E0
F9
E6
F5
12
FD
FA
F6
0F
0B
E9
1D
14
13
24
F5
E6
0A
08
11
0F
FB
F5
08
FF
01
EA
E8
DF
E5
F5
0A
F0
FB
F2
05
0D
F7
FC
09
E5
F1
EB
CE
DC
02
FD
08
F1
E1
F0
F7
D6
E3
02
F2
D8
EA
FC
0F
14
07
07
F6
03
F1
EE
FD
D8
DF
DD
E7
E7
F4
06
FD
F5
F9
07
ED
E9
DB
F3
FB
FE
EF
09
F9
20
F9
F5
D4
F8
F9
F4
DD
F1
D7
DF
E2
F8
01
F1
FC
EC
FB
FA
EF
D4
E8
F0
FD
2A
F9
F0
F3
02
ED
CF
EB
F8
F0
F6
FB
13
F0
DA
E8
04
06
FF
EF
0B
05
F6
EF
EE
F6
FC
13
21
EF
F1
F2
08
05
FA
FC
E9
DA
F6
04
F2
FA
FB
ED
E8
12
01
F9
07
FD
FD
EA
E3
DE
08
FE
1F
D9
05
04
10
E2
F9
04
F2
E8
D4
02
FC
02
FE
04
F8
01
1C
06
FA
FD
11
06
0B
F9
22
0E
03
F3
F6
FB
F9
00
E6
DF
EB
E5
E9
F0
00
DD
F7
EF
F9
0E
0E
FD
F1
ED
27
2D
26
15
09
FF
04
0F
F9
F9
0C
06
10
E1
F3
DC
DE
F6
E4
EE
F9
F7
04
0A
09
F5
09
1B
0E
2C
24
27
11
0E
16
F3
08
FC
02
06
FA
11
03
F4
0F
19
19
FD
F2
FF
13
14
28
1C
18
0F
0A
2D
3E
1C
0F
07
12
06
0F
05
F4
12
10
0A
2A
27
13
1B
2F
26
16
22
25
13
14
26
2F
35
25
29
17
2B
17
0C
F4
10
F6
F6
F2
F7
F5
F9
0D
F2
11
FE
11
0E
0E
0E
00
15
06
F8
05
F9
09
0A
0F
EE
12
05
EE
10
F7
00
13
03
04
04
10
0B
15
0B
01
0A
0C
03
F9
0C
F0
08
E7
F0
25
20
F1
F4
00
0E
0B
FA
0E
04
02
04
F5
EC
06
0E
09
22
1A
0D
33
10
1B
3F
24
27
FD
F3
F3
FE
0A
FF
0F
08
04
01
0E
F8
03
0B
0A
ED
EB
F2
E6
F5
09
FD
F0
F4
0B
05
01
15
F0
E4
0C
07
24
17
1E
E6
F6
F4
06
04
F0
1F
E9
02
EE
00
E3
0C
04
07
E7
08
02
08
F3
04
19
06
0E
1D
1D
0D
EC
D7
CB
F8
06
F7
11
0F
01
17
FB
F1
05
F9
E5
E8
F1
12
08
08
F0
10
24
01
0D
23
2C
FA
08
02
06
14
F3
F4
0B
EE
06
0D
F8
FD
E8
E9
E6
E4
FF
FF
0D
00
13
12
0B
09
F9
F4
19
0B
04
FC
11
FB
1A
0B
EC
0B
EC
E4
EA
F3
F9
F1
F1
ED
04
F7
13
00
08
F7
F8
FA
F7
F6
11
18
F7
05
0A
00
0F
10
F6
03
F3
E8
F7
07
13
13
F2
0A
09
06
1B
25
E8
DB
EF
FE
F5
F0
F7
F3
FA
01
ED
16
0D
08
05
06
07
F1
F2
EC
EE
EF
1E
2A
05
07
1C
1E
EB
E9
DD
F2
F7
13
0D
04
F2
F7
FF
F7
D7
F6
08
F3
FF
F1
08
12
06
FD
19
0C
24
0C
FE
F9
FF
DF
EC
03
03
1B
EF
EC
FE
E4
C8
DC
EA
F3
09
FA
ED
00
F8
FD
FA
F9
0D
FB
F9
15
FB
1C
0F
0F
FA
F6
10
09
03
F8
F3
F6
F3
0F
07
F1
04
08
F7
03
05
00
01
FC
0A
06
02
06
F0
09
F5
11
1F
08
08
FE
FB
EE
01
FE
FD
E0
F5
F5
0A
02
F4
DE
F7
0A
F6
E4
FB
DC
E4
00
05
00
10
03
09
D7
F2
FB
F7
04
EE
F8
14
0B
10
F1
03
EC
FD
E0
E9
08
F9
F3
C3
D0
E8
F5
0B
13
02
F3
E3
D6
DB
F0
E0
DD
EE
F8
28
24
FD
E6
F2
04
06
E8
FB
0A
FB
F0
F2
F6
03
FE
1F
2F
07
11
E3
E9
E7
EC
F3
FB
DA
EA
2D
12
0C
11
02
F8
0B
E2
E9
F7
0B
1B
12
18
18
03
00
21
12
F5
FE
0C
0C
F7
F5
F4
F6
FA
55
2B
1E
FF
FE
F1
EC
F6
D8
FD
F3
12
03
05
1F
00
FA
15
06
EC
FB
F6
FF
F4
11
15
13
09
38
30
1A
F9
07
ED
FF
ED
E9
0F
18
FD
FC
F9
00
E5
F3
0D
02
01
1B
11
EB
09
18
1C
FA
0D
1A
26
21
0E
FE
ED
16
E6
DF
F9
FA
FF
06
17
EE
F7
F0
FD
1B
05
FC
F4
F4
F7
F0
FB
0F
17
06
34
15
12
FF
E7
F4
FA
DC
E9
0E
FB
F4
11
EF
EF
EA
04
0F
05
05
04
0A
0B
09
EE
04
03
2B
1A
F1
F2
EE
E0
FA
04
E7
FE
15
0F
00
E9
00
01
17
FD
01
0A
FF
EE
EF
04
F6
FA
01
05
F0
FF
EF
F5
F2
FC
09
21
07
14
1D
15
F9
F3
EC
04
EF
F9
15
16
FA
FB
FB
04
1E
18
04
04
F7
E6
0F
F6
F9
00
E0
08
0C
20
04
F5
F3
E5
CD
F9
E3
E2
FB
0A
0F
13
25
08
1F
17
FD
00
F9
F2
F3
F4
0E
FE
D9
E6
09
17
F2
E2
EB
D1
C3
C3
CA
EB
06
01
FD
EB
06
FE
F4
EB
06
07
13
0E
04
F5
F4
01
F7
03
F8
F5
EB
DA
CC
E6
D9
B6
DE
0B
14
EE
05
FF
F7
0B
02
F0
F9
E8
2A
1F
0E
F4
01
11
E5
F7
21
FB
0B
04
12
EB
F8
05
F6
FA
17
09
F7
04
E8
01
20
10
19
06
0B
FF
0F
F6
FF
FB
03
16
FB
12
FC
05
03
05
03
0F
0F
10
16
1E
07
13
0C
08
1B
1B
EC
0A
02
10
05
FE
ED
FD
06
07
04
F9
EF
F9
09
08
F6
EB
06
17
0C
0D
F7
04
0F
F8
0E
FC
FB
06
F0
0B
0B
EE
F3
04
02
0A
EE
EA
01
FB
08
F1
EE
E8
05
E8
D2
F5
DC
DE
FC
E8
EC
F6
E6
EF
00
0D
FB
12
F3
0E
EF
EC
FF
E4
FB
09
0B
FB
F0
FC
0B
10
EF
F3
F5
D5
C9
C9
F1
E0
0A
FE
10
0B
06
EF
12
07
F8
ED
FB
F9
D6
E4
04
09
E0
F1
0C
08
F1
18
0E
15
00
FA
1E
23
0B
0A
F5
F7
0B
FB
05
10
11
EF
F3
DF
E0
E6
FD
FC
09
29
00
F8
0E
04
22
16
0E
24
15
F5
EC
FF
FC
16
EF
F8
10
08
02
11
E8
0C
FF
FF
01
E7
13
03
ED
06
05
13
14
F6
13
11
17
EA
D6
0C
11
0F
F4
F9
02
E6
E6
F0
CE
E3
FF
FA
DC
DE
F0
02
FF
0D
1E
0C
06
08
EC
0D
F4
F2
ED
DF
14
10
0E
0D
DE
F8
EF
1E
03
E5
CE
EF
F1
02
F9
FC
03
03
18
0D
F4
EF
0B
F8
F4
F6
F0
21
08
E5
04
FD
EA
EE
0B
0E
F2
FE
DB
07
F3
16
0A
0B
0F
FD
F5
F5
FC
FD
22
F5
FD
F4
01
FC
0D
12
0E
F2
F6
20
29
05
E8
F7
E4
05
1C
21
0D
06
0E
05
E9
FD
EF
01
25
20
F3
07
02
F3
F3
0F
D8
FC
DA
ED
0F
F8
F4
FF
14
1F
16
04
1B
01
F1
0F
FF
11
0C
0F
1C
1A
ED
FE
16
FA
D6
EF
FE
F9
EC
DB
FD
03
0B
17
10
02
07
03
15
11
08
FD
F8
1C
0C
2D
27
1F
F4
E6
E7
02
0F
09
FA
FA
F7
FB
F6
FD
07
04
16
F9
F5
02
04
F8
0B
03
2F
2E
21
29
1C
E5
EC
D3
EE
F8
F9
E7
E8
F3
F4
05
0A
EB
F6
F4
F2
ED
E7
EB
08
11
12
25
21
20
29
0F
00
E6
F4
FB
E2
E5
F5
11
12
0B
0A
EE
0E
ED
EE
FD
10
F0
D6
FD
03
0E
18
26
19
0A
01
E6
CB
E6
E4
F7
F9
FB
F2
29
FB
EF
06
F3
08
F5
00
FF
F9
EE
04
F3
0B
15
13
20
02
13
F7
D7
D3
DB
02
09
09
F3
18
FD
20
12
14
11
02
F2
F8
F4
10
05
FE
1E
28
17
20
0A
16
07
F8
D3
C0
CC
F5
09
0C
EE
10
1C
27
FC
EE
12
E5
EF
FD
F8
09
1A
1B
1A
17
22
1D
14
F0
E9
D6
BD
CA
E5
02
16
1D
FF
0A
14
FF
06
00
EE
08
E7
0B
04
FB
0B
FE
17
0B
E1
EF
EF
DF
DE
D8
D0
EE
11
11
2B
18
0C
F7
E6
06
FA
00
E6
F5
01
10
FB
0A
0E
1B
03
E1
E3
02
E8
D6
F1
00
DD
EA
F9
11
2A
23
F0
E8
18
F0
0C
EB
EA
FE
FC
F4
14
02
F5
F6
09
01
FA
D8
EE
00
E5
F4
FE
13
05
0B
20
14
02
F7
0D
02
02
02
E2
02
19
09
18
05
0F
09
09
01
F7
E0
EC
F4
EF
F6
F0
F1
00
03
03
E8
D3
FC
E7
12
02
07
18
0B
23
11
23
2D
0A
11
05
E6
F5
F4
E5
F5
F4
F1
FD
F6
08
1F
13
E9
E1
E7
CA
F6
0F
FA
FB
1B
FD
09
0A
15
15
00
F7
FE
E8
F4
ED
E9
14
FC
FF
04
FC
13
FF
EB
F2
E4
EF
F4
F2
08
03
E0
0A
14
19
12
0F
D7
F0
ED
01
F1
E0
F6
F9
FB
F2
CF
F7
FA
E7
F7
E3
EE
F8
03
02
EF
29
F6
F2
0B
0C
16
FB
0D
07
FF
F6
07
07
14
F6
0F
E5
DB
06
03
EE
ED
CD
11
0D
12
F4
10
07
19
1C
04
FC
23
0B
14
24
1C
F1
0A
10
20
1A
04
1A
FD
E9
12
1F
1E
02
0B
09
0E
03
13
FC
11
F9
01
16
01
0F
18
10
13
12
02
35
21
03
00
12
0F
FB
19
1D
E8
09
0C
02
FF
F0
08
F9
09
0D
0A
F2
09
0E
0F
F2
F8
09
F4
07
F9
FD
F9
10
02
F7
02
09
EF
F6
10
07
F6
04
00
F9
F9
11
FE
E5
03
F6
00
07
EC
05
07
04
ED
10
F5
01
E0
FA
EF
FA
EA
FA
F1
0B
03
F8
04
0C
12
F2
F4
04
E5
08
F9
E8
F7
F3
EC
EE
DB
DC
0D
00
04
F9
E9
ED
F6
00
15
0C
F6
02
F8
F4
05
0A
07
F4
E2
CA
E1
DE
D9
CB
CA
D5
D9
D6
F1
FA
FF
E4
F8
15
FC
FB
FE
05
09
00
F1
FE
0D
F3
ED
F5
E7
05
F2
06
F9
E9
F3
F9
EF
EF
04
E8
E6
FB
01
12
F3
09
F1
00
F6
FB
00
F2
FC
F5
F3
F4
EF
26
FD
06
07
0F
01
FE
06
E8
04
03
F1
00
0A
EF
FA
F8
0D
F8
F8
10
0A
FD
0E
0F
EE
FF
F8
15
06
0D
07
FE
04
09
02
05
FD
F1
0C
EA
07
08
02
ED
08
F5
FD
02
FE
24
13
10
FE
FE
00
06
0F
05
05
FC
F6
E5
0A
FC
FE
07
05
F3
0E
FC
12
0C
0E
EE
FB
07
FC
04
11
F9
FF
19
0E
16
1C
08
FB
02
0A
05
FA
0B
01
F9
ED
E9
FC
E7
F5
F7
0A
22
0A
14
0F
0C
12
1D
12
12
0C
05
F8
FE
04
0B
FE
11
00
12
07
0A
FC
01
04
E0
11
F9
0B
07
EE
FE
15
11
FE
1C
1E
06
09
0E
0A
0B
06
00
05
07
E2
0C
16
07
05
F3
FB
E3
EC
F1
DC
D7
F9
FE
03
0B
14
18
0C
24
0C
19
14
13
01
18
F4
E0
EF
0D
01
07
05
04
13
05
FA
0D
E8
07
06
F0
1D
18
31
FE
04
00
06
08
15
0B
10
EC
E2
F1
06
0E
19
F3
FB
0D
F6
F5
0C
2B
04
10
23
FB
14
15
21
E5
EF
FC
12
FF
FE
F9
F1
FA
DD
E1
12
06
0F
04
0D
07
0E
09
0E
0F
1E
0F
02
EC
11
10
02
E1
EF
15
14
05
FC
F3
F4
E1
F6
04
FF
10
0B
0C
1B
FC
11
06
18
1A
2E
08
09
0B
F5
03
FC
D1
F7
02
FC
10
FA
E5
E0
03
0C
28
0C
06
0D
F3
10
F4
02
FB
F6
08
36
FA
02
08
06
E9
F5
DF
F7
03
FB
F3
04
00
F5
0A
16
21
1F
12
F9
F3
F8
F8
EF
F2
10
FE
0C
1A
ED
0F
EA
0B
DE
E8
00
06
E6
02
F1
ED
11
12
17
2A
F9
10
F8
01
03
F7
F3
F5
F8
1F
16
15
EF
F9
ED
FB
FD
00
EB
E3
E0
FD
04
02
FE
0B
25
F9
00
F6
0A
F5
FF
F3
EF
F7
EB
25
06
1A
F6
EE
00
F8
EF
F4
EE
DA
FA
FD
0A
1C
11
0A
13
01
E8
03
F0
EE
FD
EF
01
02
F8
0E
04
13
07
F5
FC
FC
E9
D5
D8
E7
E8
04
05
FE
0E
08
E8
00
05
EB
EC
DF
F9
FA
E6
F5
EE
EB
E9
09
FF
F6
06
E0
EE
E3
E9
EE
EE
03
FE
FE
EF
EC
EB
FF
F2
00
0C
EE
EC
F9
F7
0B
07
04
E7
0D
06
0B
F1
F6
F0
EB
E7
F0
06
FD
FC
0C
03
15
12
10
FA
FE
EF
E6
E3
ED
F1
02
F0
F5
07
01
EE
FB
11
EC
E2
E2
EF
00
06
02
10
F4
FD
0B
0D
19
FF
EE
07
F7
F0
EA
10
F1
03
F5
FC
F7
F4
03
F7
01
E0
02
09
05
01
FC
F1
ED
FD
02
FC
03
FF
F2
D8
EB
0B
02
09
E5
F3
EE
06
08
12
11
03
E7
FE
1C
FA
F8
E6
F8
E0
F7
F6
E6
EA
1E
08
F8
FA
EB
ED
ED
E8
F9
F3
E9
F4
F5
F1
12
EE
12
E6
FE
F6
0E
EF
FE
EF
02
05
0F
F3
12
FB
F2
FB
04
17
EB
04
10
FA
FE
FB
00
0D
12
08
FC
01
0C
1F
14
F0
0C
1A
12
00
F0
F8
0B
E4
F0
0E
10
10
1E
0A
10
1D
06
FA
10
11
11
06
F0
0F
13
F2
08
FD
10
0E
EF
F9
02
02
0D
F9
0C
0D
ED
EE
07
FC
0F
FB
05
F0
F5
F8
0E
F3
F2
FA
0A
10
08
EE
EE
10
F0
0A
0F
06
1E
ED
F8
F9
F8
FA
FD
0C
0A
EC
ED
FF
04
02
0A
02
F6
0A
EA
F8
E9
F0
07
08
13
F3
EF
F0
C7
EA
EF
D6
D3
D2
C8
CF
ED
01
09
09
F2
02
FA
F8
F8
F8
F9
F4
F0
FB
20
ED
00
02
F9
F7
EF
D6
D5
E1
B8
AD
D7
BB
CE
12
F1
FD
F3
02
FE
0A
00
0F
25
01
16
18
12
14
10
16
13
16
0A
FC
F1
F5
CA
D4
D7
ED
E1
BF
FB
E8
ED
0C
10
00
EA
06
0D
1D
1E
1C
15
0E
01
F8
1B
12
02
0D
10
F1
DB
E9
DB
F0
F1
D6
FF
FB
F1
FA
FB
0A
FC
22
12
F7
16
0B
FB
04
0A
FA
EB
F8
13
F9
01
0D
F7
D0
E9
DE
DB
E6
E5
FA
F2
F5
04
1A
F2
22
17
F8
0D
02
0A
E6
FA
E0
EE
FC
04
11
20
03
F7
DA
D7
B2
C6
DB
E0
E7
FE
07
00
EC
FF
FC
2A
FA
02
E5
EF
D8
F4
E9
EB
0B
04
34
19
16
0D
E6
B9
B3
C8
D1
E0
DD
E5
0F
FC
E3
DE
E8
16
27
FD
FD
EA
F3
D6
EE
12
06
24
3A
52
3A
02
C3
B0
C5
C4
EA
EF
DC
F6
E7
0C
EE
04
1B
09
0A
0C
F4
E7
DB
F8
E9
02
0A
1E
4B
4A
3A
F0
CB
A7
C2
C6
E8
D6
05
06
EC
FF
F7
F2
36
18
03
05
0F
E9
F7
17
1A
18
29
1E
13
17
01
EE
CD
CD
AB
D2
FB
D7
FD
F3
FB
FF
E9
FF
0F
FD
FC
FB
FC
F9
0F
0F
0B
00
1A
28
FD
02
0A
FB
EA
EA
C2
E0
E2
2C
0E
FF
F6
0E
E9
FD
2C
0A
E9
02
0E
1B
14
15
09
FF
13
01
F8
00
11
EF
DE
E3
E5
0B
FB
1A
18
0F
14
EB
06
EC
22
15
13
FB
FE
04
0A
FE
EF
F3
15
FD
08
0C
04
DF
F3
E6
0C
2D
20
17
27
19
00
FA
07
05
0C
16
13
FB
EE
02
0E
EB
EF
ED
09
2A
27
15
01
EE
06
FC
0C
12
13
15
24
2C
F8
13
02
15
03
D9
D3
F3
07
10
03
F2
10
FE
0A
09
12
14
F9
F8
FD
01
02
14
25
2F
1A
4F
24
05
FE
0E
FF
03
DD
E1
03
F1
07
EE
00
02
06
F6
FC
EF
0B
0A
02
09
09
11
0E
15
11
15
1A
EE
03
16
01
09
FD
F2
FD
04
F0
11
F9
ED
04
E3
F8
F9
0A
03
FC
FE
03
09
FB
11
19
09
24
11
04
E4
07
FE
FD
E8
FE
F1
03
02
EF
EA
E7
E8
F1
EB
FB
00
0A
19
00
0E
EF
11
09
09
FB
04
0C
FC
00
F4
F2
FE
08
FB
1E
11
0B
EA
E4
00
F1
05
06
0B
02
25
F8
EB
EE
0C
08
15
F9
0F
0B
26
F4
F2
F0
F8
FA
16
0B
09
EA
F1
DE
FC
F9
0F
0E
14
04
F3
FF
EB
FC
EE
0C
20
0A
FE
F7
48
0F
0A
03
06
06
FC
F7
F6
E2
E8
06
03
01
00
0B
18
06
04
F4
0D
F6
03
11
02
0A
F3
F5
FE
34
0D
F6
F2
0F
FE
18
FC
FA
F1
03
05
0A
06
00
1F
0E
18
28
18
F3
F8
F8
12
07
F8
F5
08
1C
08
19
F4
EF
0D
0A
0D
F2
E1
08
EA
F1
05
F5
19
12
0D
32
17
07
E3
03
0B
FD
FE
08
00
F7
27
1E
09
27
11
FD
EA
E1
EA
EA
07
DF
F3
00
03
FB
10
03
02
F8
F1
FF
FE
00
0E
10
FB
F6
F8
E3
DB
FB
ED
0D
D9
D5
D9
DB
F9
F0
D5
09
02
E1
F1
E8
08
F4
F1
01
F2
0E
F7
11
01
0C
12
08
04
07
EE
F7
EA
DE
F3
E2
0C
25
19
EB
F4
01
E9
14
FB
F6
F3
FA
05
0E
F8
05
FA
08
F1
02
EF
FB
10
02
02
F8
0F
11
E2
F7
F8
EF
04
EE
FF
12
EF
FF
FC
0B
FD
F3
F8
01
02
0B
09
09
0D
FC
0D
FB
0A
2A
12
18
2C
20
0F
25
0B
1D
07
10
03
05
FC
02
10
10
05
04
07
01
EE
F2
0A
0B
01
16
12
08
FC
3D
0E
10
06
0C
F9
17
1D
FF
07
00
EF
E8
F7
06
12
F0
08
05
FA
07
02
FD
FB
EB
F3
04
DF
F6
2A
04
F9
16
06
2A
F2
FA
E6
0C
F0
DB
E4
F9
0A
F8
08
E1
D5
E1
05
07
FE
EF
FC
EC
FB
14
F9
F4
0C
0A
24
03
F8
F8
01
14
EC
DC
F6
26
0C
11
10
F1
02
EC
F7
F6
06
E7
F5
E5
FE
F4
0D
FE
F2
02
22
05
02
F5
07
FD
EF
E1
1F
21
10
E9
F5
FF
E5
F4
05
FA
E0
F3
F5
F8
05
21
09
16
F4
0C
F4
DA
D3
EE
E8
E2
FD
E3
FB
0A
10
F9
FD
F1
FF
ED
F0
D8
DA
F0
E1
FA
05
28
22
1C
04
0E
EB
F2
E5
0C
02
F9
0B
1B
09
F6
07
1B
EA
EA
FA
F5
FE
F3
E6
FB
F3
05
06
12
27
03
F7
13
07
E0
F0
FE
08
ED
18
0C
E7
FA
F6
0B
16
F7
FE
12
EC
0B
D8
F8
E6
EC
20
0A
0F
16
0B
13
0B
EF
F2
12
FA
02
F6
E9
DE
07
07
13
26
03
FF
19
FF
06
CF
FB
07
F5
05
FC
F3
F2
F3
03
05
FF
13
28
04
FB
F0
E3
F5
12
02
FF
E8
EE
E3
01
09
F4
DD
03
FE
00
05
F7
D7
E0
F3
F9
00
13
05
02
FE
EB
DF
E3
00
F4
01
FF
D0
03
F5
08
18
02
08
05
0F
0B
20
ED
F5
D9
D2
03
FA
0F
F6
EE
F9
EA
03
DE
DC
03
F8
0E
FC
0D
FF
05
07
06
F2
F8
FC
13
02
EE
EC
CF
F3
F9
FD
F4
F5
E0
D8
F8
F5
EF
F9
F6
17
F6
05
09
FB
1A
F1
0B
02
FA
F7
1D
15
FC
CF
DA
FC
F1
F8
E0
F5
F6
F1
02
26
01
17
06
19
0E
18
0A
ED
FE
E1
01
FA
F0
16
16
13
F4
C4
D8
E9
FF
E0
E5
FC
00
D9
EE
06
09
12
1C
F2
F4
FB
0E
EB
FC
FB
02
E9
F7
1A
1A
0E
ED
D9
F9
03
F9
FB
F9
FE
08
03
F8
2E
26
2D
24
F4
ED
EF
E8
E4
E7
F9
FE
FD
13
0E
27
04
09
E7
FD
16
0D
15
20
13
0B
1B
08
1D
40
1E
16
EA
0E
FD
F0
F1
EA
F3
F1
F3
16
07
06
13
05
E0
E9
F6
0A
25
28
15
14
0D
05
11
26
F3
F0
0B
1E
05
11
EA
EC
0C
13
F9
03
04
29
1F
0A
EF
13
0C
1C
16
18
1B
10
08
FD
F7
0E
16
07
FC
17
0A
FB
F3
EC
05
FB
05
03
0C
26
28
13
F6
0C
FA
10
01
20
0C
28
1E
1A
E0
02
27
0E
05
F3
F5
FF
FF
07
DF
03
02
0E
12
0E
09
12
FC
F4
00
F5
FD
F4
11
13
3D
22
F6
26
3E
08
04
FD
0E
18
02
FE
F7
E8
08
0F
14
FA
07
FB
06
F7
E9
F3
F2
03
FC
1C
16
03
ED
1E
26
FC
0A
F0
04
03
FE
00
0A
F1
06
0F
07
0E
19
02
F7
FF
F6
E4
E1
DE
F5
DE
C7
DC
F0
13
23
F4
FE
11
12
F2
0F
23
0B
08
F1
01
FB
FA
F8
E8
FF
F6
F1
02
05
D5
D8
E0
DD
DB
FB
09
1F
0A
11
11
F2
02
23
0D
ED
07
0F
15
0B
FB
CC
D3
A1
CD
FC
E5
F4
D8
C7
E1
D6
E4
F8
1D
18
13
12
FF
F5
F4
E9
F4
EE
14
30
10
29
1A
F8
C6
F0
46
3F
12
FC
FB
C5
D9
F6
F4
09
0C
0D
0F
F4
F1
04
07
FC
FE
FF
0E
05
0D
FF
08
13
11
10
24
E9
FD
E3
ED
05
08
03
10
FA
08
04
03
01
0D
F5
08
0C
09
F9
04
0E
FF
0A
F8
E9
F9
1B
0B
13
F2
FD
FB
05
FD
08
0D
10
F8
F0
0A
02
F8
F7
11
EE
F3
0C
F6
08
FE
03
0D
10
03
E7
1B
15
08
F0
FB
16
F4
02
13
F6
F7
0C
FD
EE
02
F5
17
10
10
F7
F2
FF
EC
E9
F6
05
E0
E3
E5
16
01
02
DE
FD
06
0A
1C
03
14
F7
04
FF
FD
04
1E
18
F9
E7
F5
FA
0A
17
14
09
24
07
EF
FC
00
F5
F4
0C
1D
19
0C
EE
0E
DD
0C
0B
03
EF
FE
F9
E3
F3
F0
E4
1B
02
0D
19
0B
0D
0F
0B
27
13
17
03
0E
0C
F1
FF
0B
03
FF
FA
0B
EC
F2
F5
D2
FA
FB
F7
F4
07
FD
08
FD
1E
12
17
27
F6
05
0B
1B
1A
DC
F7
11
1F
FD
FD
F8
EE
DC
F6
D6
E6
EC
F6
FF
01
18
FB
F5
F7
02
10
04
0C
0B
EE
EF
0C
06
03
0F
14
0B
FF
F4
FD
E2
DD
EF
E0
01
EB
0A
12
09
09
0B
0A
17
05
F5
11
02
03
FB
FF
FF
0C
28
00
F5
F3
F9
F1
0B
DD
04
0D
08
00
0E
0F
13
1C
16
12
FD
1F
0A
1A
12
16
0E
0D
10
23
0E
09
17
06
E2
08
04
FA
F1
0A
07
0A
1A
16
04
FF
0B
10
03
FB
0B
0F
0D
F8
0C
F5
03
11
1B
19
F0
07
DE
FA
F0
0B
1B
28
0F
01
15
0E
12
FF
05
0D
0A
F8
0A
F8
08
07
FD
03
1C
FF
F3
06
FA
F9
DF
E1
07
1D
00
0E
0C
09
0F
FB
10
F3
05
F6
00
00
04
F3
11
FD
16
04
22
1E
17
22
F8
0B
03
FA
19
1A
02
F9
04
00
09
F4
FA
FC
FF
0F
08
03
0D
F6
03
11
09
16
25
26
F4
FD
D3
FF
06
EE
05
1F
EE
FB
0E
09
0B
F7
F7
FD
03
02
0F
01
0C
09
22
13
01
23
00
FB
FC
04
18
F8
FB
E5
FA
F2
10
14
09
FB
FB
08
00
01
2A
1D
F9
F0
F4
06
F2
03
02
18
04
04
0C
03
00
09
00
D8
09
12
09
05
0A
1B
F7
1B
16
08
1C
1B
0B
10
F0
04
00
ED
04
EA
16
0B
09
02
17
EA
F7
F7
05
14
12
15
FB
0B
0F
16
02
0F
F9
FD
00
01
F8
F2
F8
EC
ED
FC
F5
EA
2E
09
26
F4
03
FC
00
19
0F
FB
08
0D
00
0B
1A
0D
F8
01
FA
13
05
FC
FB
00
FC
F7
E8
E6
02
F9
23
0A
FF
EE
FE
0F
15
16
15
19
0A
0A
FF
0E
FE
05
1A
FF
11
05
09
F5
EB
FE
FB
FF
F4
E6
E2
07
03
0F
E7
F7
FB
FB
03
0E
11
1F
F0
F6
10
03
04
12
06
03
01
04
F5
04
EC
02
0B
EE
E5
0A
17
05
FC
11
15
03
F7
F5
0D
00
0E
0A
0C
FE
19
06
FE
1D
0B
13
E2
F5
F2
01
ED
0C
0E
06
F0
F1
F9
13
FC
1A
04
0B
F7
FF
02
FA
0D
04
0D
0C
19
F1
FC
F3
E1
0D
EE
FC
01
39
0F
06
FD
04
1C
FF
04
0D
17
F5
0D
0C
05
FE
1D
FF
05
15
FF
F0
F3
F9
D9
FE
F1
03
FA
24
F5
F4
FB
00
17
0B
EF
ED
E8
08
08
F6
00
16
0D
01
FF
20
F5
09
02
F8
E4
0A
FE
F4
FF
F6
F9
F6
0C
FF
F4
F0
D3
D3
DC
F0
00
13
19
1C
20
ED
F7
02
D7
F9
F2
09
EB
F7
0C
08
05
01
0E
FF
F6
2C
01
C5
BB
0C
ED
E4
ED
FF
E8
F1
04
F5
0B
FD
FA
0E
18
FF
08
F9
01
FE
FE
07
F9
F4
04
FF
03
F6
09
F3
E4
EA
F1
06
1E
17
F1
F2
EB
F7
FD
16
F7
10
05
E6
16
FA
04
12
F6
FC
F5
FA
F4
05
ED
12
FE
F2
F1
F0
04
0F
F3
0E
FF
EC
DE
F0
08
E2
F6
F8
ED
FA
F7
F1
01
01
F0
03
FC
0F
F5
05
FC
F8
08
FE
FB
15
05
04
03
F8
FE
0E
FF
F6
0E
00
0E
F7
EE
04
0B
F1
13
FC
02
01
0A
1B
0A
05
07
0E
0A
09
09
0E
0C
1C
09
F2
14
0E
FD
F5
05
FE
FD
FA
11
07
06
F2
13
FA
FC
15
12
20
33
40
26
25
18
1D
FE
11
0B
F1
08
07
FD
F7
15
1E
16
F3
FC
F1
F6
14
F6
F9
08
16
FE
FB
11
09
0C
FB
1B
1B
07
08
17
02
0C
12
08
F2
12
1D
E5
FE
EE
0E
F8
FA
E9
09
19
16
F8
07
F8
FA
F6
05
00
05
04
07
00
06
FA
03
E4
E7
F0
EE
E1
ED
22
01
F4
F8
16
03
0F
FB
04
1A
FA
09
F3
EC
F9
DA
02
FB
0A
F9
08
EA
F0
F7
05
F6
F9
13
1E
00
1A
06
0B
EF
0F
01
04
07
0B
00
EF
FF
DE
C6
E3
FD
FB
0A
FB
0E
15
FB
E1
D1
E4
FC
0B
F8
0C
0D
0C
28
FD
F6
FE
11
12
17
0E
07
F6
D3
E5
F5
15
0F
1F
FF
19
1B
05
DD
E0
00
1F
F5
04
EE
04
1E
01
FA
17
21
19
21
13
0B
E1
EF
F3
04
07
08
14
FE
F7
FE
0F
D8
DD
EA
F9
FE
0D
07
FC
01
12
E1
18
24
01
16
0E
16
01
E3
01
1B
16
15
FC
FF
E5
16
FC
C8
E9
F2
0D
05
12
19
E2
F2
01
E8
0B
05
0B
0C
03
F2
EC
E6
13
15
0A
10
01
DC
ED
01
FA
DC
E5
E9
08
FF
0F
00
E2
E5
E7
E8
FF
03
04
E8
E1
E4
D6
06
FB
14
19
0F
ED
DC
F5
FA
02
E3
F3
D8
EC
0B
05
FA
D4
D8
E7
D4
EF
E9
E7
D8
E8
F9
EB
05
07
08
12
F9
D4
F8
0B
04
E8
1C
17
E9
FA
07
F9
02
E9
CC
D7
C9
CC
FA
E3
F1
DA
FB
08
FD
DB
01
01
FB
F0
FE
06
F8
FD
21
0D
0B
15
F3
EF
EF
08
EE
E1
CC
F4
F9
F6
00
FB
0B
01
FB
E9
E7
06
F8
01
EB
0E
01
03
24
1C
19
FF
FE
F1
00
02
0E
05
EF
08
FE
0C
F6
24
0C
22
E8
E7
02
11
05
16
F0
19
0C
2B
0D
10
1F
FF
EE
EE
02
F9
06
F0
00
1A
01
02
1D
19
1C
1F
F0
E7
03
FE
FE
0E
EF
21
10
09
2D
24
14
0C
FF
06
F9
FD
F0
F9
F9
03
0D
0F
14
0F
1E
09
04
E2
F9
F9
16
0D
09
18
1F
07
0C
0A
F9
17
09
03
FB
EB
15
E0
F8
1E
FD
1B
0B
1C
FD
07
00
FF
0D
1C
19
F5
EC
0A
19
12
01
13
F7
01
01
EA
F9
FE
01
03
E7
07
05
06
02
0D
05
00
FE
16
0C
0E
F2
F8
00
F2
0E
03
FF
15
19
FF
F1
FC
07
13
10
F5
EB
10
0A
FC
04
F8
06
0E
0B
1B
FF
14
ED
EE
0C
FD
0B
00
E7
FC
12
F9
EE
0F
04
1C
0A
F2
08
0C
FC
E6
08
11
16
1B
07
0F
FE
FA
F7
F0
0E
0E
14
FB
F1
13
24
F9
F4
F4
13
F6
FC
1E
17
07
F1
10
F6
0B
FE
FC
FA
EC
08
EC
DD
EC
E7
F7
0B
01
E6
FC
34
0B
07
F7
09
F3
FE
F7
05
1B
EE
0E
04
FD
0A
FB
01
F9
FE
06
F5
F4
ED
F0
0A
E9
E9
FB
23
FC
FD
F8
01
E5
19
00
FC
EC
E1
03
EE
F0
F3
19
F9
02
11
0D
05
F6
DD
E5
DE
E8
15
13
00
EF
11
04
E6
F9
2C
FA
DF
F8
FB
E9
E3
F7
08
0D
FE
17
06
FE
01
01
E2
E0
F3
04
07
F8
FA
F6
0D
10
F5
07
E8
E0
DA
12
19
F2
02
F4
01
F5
FE
04
00
F5
E6
F1
D8
CF
E3
15
18
FC
F4
EF
07
03
F8
F5
F5
12
F8
F5
14
16
11
11
FF
0A
F3
EB
04
FB
E2
F1
E8
FB
F9
0B
F6
FE
FC
FE
F3
10
FF
F8
FA
0F
FE
01
02
0E
FC
F2
04
FB
03
12
F9
09
F6
F4
F7
F0
08
04
F0
F9
EF
0C
FD
03
07
05
06
EC
F7
EE
F5
F7
EB
FD
EB
E3
D3
E9
0F
0C
EC
D8
D8
EC
F2
E2
06
0E
F8
07
FC
F3
0D
27
05
EB
E7
FB
07
05
ED
F2
0B
D4
07
F1
F4
07
0B
EB
F5
FB
E3
F6
09
FF
EE
0C
F5
F6
FD
1E
0D
E8
E5
F2
F4
0E
EF
FC
F2
F8
E8
01
F1
F4
E8
E0
FA
26
FC
0E
F8
1C
FB
10
09
F9
06
E9
E9
DD
FB
FF
D9
F7
EF
E5
F2
DF
D8
FD
E8
07
EC
E5
FA
EF
03
F6
2A
22
20
0A
0A
F7
F1
F8
F1
F2
F4
F5
23
07
F6
10
F3
15
08
EE
00
F9
FA
E6
E0
FD
03
DC
ED
0B
12
19
0C
EE
1C
08
02
14
F1
16
F8
06
17
0F
13
18
15
03
FD
1E
09
15
05
10
F6
EA
F3
01
FD
F7
F6
F4
17
0B
E4
F5
13
E2
F8
08
1F
14
0E
03
08
18
0D
1D
30
21
11
17
FA
F9
02
0D
F0
EA
05
07
00
FC
DB
E9
1B
E6
12
0E
01
21
0E
17
1B
20
2B
23
18
0B
27
19
14
0A
03
EE
F3
FB
F2
17
00
02
FF
F5
1F
09
09
F9
08
15
1A
11
06
0B
FF
19
24
09
0A
F0
EF
01
1F
1D
F6
27
0B
EF
0B
06
03
0F
2E
F4
EE
00
F2
0D
F7
0F
0B
F2
FD
EC
FF
E7
E6
F9
F2
07
0C
0F
05
03
FE
0E
0C
F2
09
0D
18
17
0E
F6
F4
EC
F3
03
F3
E8
FE
F3
E6
FF
EC
E9
0A
11
19
FE
12
02
F0
09
10
F5
13
05
02
FC
16
15
F8
EA
E0
FD
F5
E6
F0
05
F4
03
07
01
0D
F3
EA
F6
24
0B
F9
F9
F2
FF
0A
0D
F0
FC
E9
F0
FF
00
0D
01
EA
06
F4
F0
01
FE
02
0E
0F
08
DE
09
FE
07
10
0A
FD
17
1E
F0
E5
06
F5
F7
08
EF
03
06
FD
0C
ED
F1
02
03
0E
07
03
08
07
FA
17
18
0E
0D
E1
EA
15
FC
FA
F9
E7
06
F3
F9
FE
EF
FF
01
0B
0B
0B
F0
15
11
EB
FD
0A
06
04
13
02
DF
E6
02
1B
05
11
09
0D
F7
FB
15
FE
04
ED
09
FA
15
F7
FF
13
F4
F9
FF
F6
12
18
14
F8
00
F9
07
EC
13
23
12
13
06
04
1A
07
F4
06
24
06
11
F4
F0
F5
FA
E5
F0
FE
FB
10
0A
0B
F3
F7
ED
1B
F9
1D
10
19
07
05
15
09
F1
F7
08
1C
0A
EE
0E
F5
04
09
0C
06
EE
13
FD
F4
FD
0A
EF
1A
18
14
F2
0E
02
18
11
04
0E
07
F8
EB
F2
FE
11
10
F8
05
FC
ED
0C
08
17
FE
0C
FF
E1
F4
02
F3
EA
11
0B
00
0E
FE
F8
ED
FA
EF
E2
F1
01
E3
EB
FC
05
0B
FA
0A
F2
EE
11
D6
E9
F7
0A
02
02
F5
02
06
FE
F1
00
F7
E9
F8
04
E6
EF
D4
DE
EE
03
0B
0E
11
F5
00
03
0D
0C
EA
FA
0B
EC
F3
0A
12
F4
FD
F6
F3
E7
F3
02
FA
E7
DC
DB
0D
15
0E
07
EE
F4
F9
01
F8
0C
01
F7
F1
EB
FF
E5
FD
02
06
E8
F9
E5
F3
F3
F6
FE
ED
04
10
2E
1B
F2
E5
F0
F9
F6
F7
03
F3
18
FF
03
F4
E0
FA
F1
0C
0C
F5
1C
F3
E5
EC
01
1E
04
20
1D
2C
F2
FD
00
11
0B
15
12
19
0C
0F
14
E6
E3
15
05
F8
F1
0C
09
FA
02
0B
18
12
28
2A
24
27
1B
08
F8
07
10
FF
03
16
46
36
2C
26
12
1C
12
1D
21
2B
0D
2E
0B
11
40
27
1A
1D
1D
07
0F
FC
05
FE
FC
0A
06
08
EB
09
0D
F9
17
28
28
18
12
22
0F
F1
0C
0A
05
01
18
0D
FA
0A
F8
F7
04
11
04
07
0A
0D
0E
EF
F9
F1
FF
03
03
EF
E7
F9
08
07
11
FE
0F
09
F6
06
00
06
F5
F7
F9
EE
FE
09
0D
05
08
00
FD
DF
E7
FE
E1
E7
F2
F1
07
F9
E6
00
FE
FE
E1
E3
E0
F4
FB
10
FF
0D
0F
12
E7
E9
E5
F6
EB
DB
F1
ED
EA
DC
CB
D9
F5
FB
00
01
EF
FB
05
FD
DE
F2
F2
FD
0B
F2
01
04
E6
F9
FA
E2
E7
D9
E6
E8
ED
F8
F1
E0
F2
04
07
0F
C7
DE
CB
CE
D5
05
0A
E1
0D
F6
F8
F9
F3
E7
EC
06
09
F1
FE
F3
0D
05
FB
14
0C
EF
03
EA
D4
EC
EA
F1
F7
0A
F5
0D
ED
F2
F9
FA
F2
E8
00
05
FA
0E
1C
13
18
1C
0C
08
F3
03
E9
FB
E6
D9
FF
F9
E6
FA
0A
FA
FC
09
F3
0A
19
01
FB
11
18
03
0F
0E
1C
0F
FD
F9
03
09
23
10
0E
08
19
FA
F1
DA
F9
F6
F8
F7
FE
12
1D
01
F1
14
1D
FD
00
0C
11
F1
F8
FE
0D
15
19
2B
1E
1E
19
10
FE
EF
FC
0A
FC
13
02
F1
F7
EE
0E
23
0E
0A
FF
14
FF
E9
E8
13
06
1B
03
26
21
0A
03
F9
F9
E8
D3
F4
F1
01
21
0B
1C
12
0A
12
0B
12
0E
FB
04
F4
05
06
16
03
21
1C
FA
0F
0A
F0
F2
DD
CA
01
12
14
00
13
F9
06
1D
15
1A
03
05
02
FA
EA
E0
FC
06
FF
0E
FC
FA
08
00
F3
F5
E8
FD
FF
0A
0C
17
13
0A
F5
0C
22
1A
10
04
05
FD
03
DC
19
1E
0F
F8
EA
E8
FE
00
03
01
F3
18
FF
04
02
03
05
2C
1C
0E
FC
0D
05
ED
E4
FD
E9
FD
EA
18
F5
09
FC
FC
EA
0D
15
02
F6
0A
13
10
FC
10
1F
1D
11
F3
F7
E9
01
F6
F2
07
EC
F2
FB
0A
F2
EF
E8
F6
FF
1F
1F
EC
F3
07
26
0A
0E
F7
15
07
FF
00
F8
F1
EC
FE
F5
00
FB
E7
03
F8
FD
FB
0D
14
17
22
0E
16
F7
10
26
0A
08
F2
DD
01
F7
EA
DF
DE
F6
16
11
08
FB
0A
06
F6
FD
16
02
09
05
1C
11
09
F5
FA
0B
0D
FC
EA
F4
E8
E4
E0
DC
F5
03
03
07
0C
03
EB
00
14
1B
23
10
0D
1F
22
09
08
09
DE
07
FD
F7
F7
01
D2
D9
D8
F4
E3
FB
1E
0A
15
0F
F3
FB
20
2A
23
15
05
14
06
0F
F7
15
08
23
E9
25
F1
EB
DF
F5
E2
F7
FF
0E
00
09
F3
EE
EE
F6
18
1B
11
FF
06
FF
0B
EC
08
06
FF
1E
FD
F2
FC
06
F6
F9
EC
FB
F8
11
F7
EA
EA
E6
FE
06
0E
07
15
E8
ED
F9
DE
F3
F8
18
E4
F2
FE
03
0B
FB
FE
DB
E1
E8
F7
F0
E7
F7
F8
FE
07
01
FA
05
EB
DD
F5
EE
E0
EA
0B
21
0B
02
01
05
09
11
07
FB
E9
E8
D7
E9
F1
F1
FD
F2
E6
FD
10
F2
0C
F0
F1
ED
D6
EF
04
F9
01
E6
12
FC
F4
13
E5
F0
09
D9
E9
EB
FC
02
F2
FB
03
0B
17
09
08
E2
F4
E2
E6
05
0C
1E
06
E7
09
F7
03
EA
E9
DE
F0
E9
E6
F5
FD
FB
0D
13
06
0C
05
05
E0
E1
F0
0B
FE
0C
03
08
FF
D7
F7
05
09
05
F9
F5
E8
E2
F0
ED
00
03
08
05
F9
02
05
FD
E9
E8
10
2A
FE
F1
F0
FE
01
FA
F2
01
06
E4
0C
14
EA
F2
0D
06
FF
11
1A
08
EF
09
10
0A
F6
E1
00
0D
E8
EC
F0
E1
0B
FB
03
03
F6
0A
F8
1A
08
F7
FA
20
2E
22
04
FF
24
38
13
FD
0B
22
27
1A
0B
09
F5
F8
03
08
08
F7
FF
08
02
0E
00
1E
07
08
18
28
0B
FB
25
10
23
26
0D
10
18
1E
1A
15
06
01
05
05
FD
0C
FD
05
0B
0E
F9
EF
0D
05
09
0C
F5
F6
F8
FB
EE
EE
FB
FE
0F
FA
FD
06
F4
FA
F2
F2
EF
F8
F4
0F
FD
F9
F5
01
09
F9
18
08
01
0D
F5
0D
0B
14
06
FA
FE
F1
F0
F9
0D
F6
EF
F6
0B
F3
F7
00
F1
F4
F7
FE
02
02
F9
0E
09
2A
10
FA
FB
FC
EC
E6
FB
01
F4
F9
0B
0B
FA
F9
12
F8
FA
07
08
06
00
FA
F0
F5
FB
FD
E3
FC
E2
F2
F7
03
EE
DE
EF
E8
EE
F5
0F
F7
0F
11
11
F4
0E
FF
FB
EF
03
F2
F8
0D
E8
E8
EF
13
0C
00
0C
FD
E7
DE
CF
D9
E5
D9
FA
07
F6
04
04
FD
F0
11
F9
0A
F4
07
F2
04
E6
03
EE
EC
09
0E
25
11
DE
F9
D1
C1
EB
C9
F1
F6
E1
F9
05
09
02
E8
01
DD
EB
FF
FC
18
09
F7
F9
1A
07
1C
F7
0C
04
F4
CB
CB
DB
F0
EA
F0
E8
D8
F7
0B
0A
F9
FC
04
FC
02
18
12
0F
05
0C
0C
27
08
19
09
FA
E2
E4
E3
C8
CA
EB
D9
E2
F3
E3
02
15
EE
FB
0D
FF
0B
00
10
FD
07
15
0D
0F
10
1A
11
FB
E2
E1
EF
DF
BA
F0
D9
E3
E2
EE
0E
08
1D
D1
FB
23
F6
FE
FE
01
07
17
FF
24
18
20
12
EF
E3
E7
DE
DE
ED
E5
C2
12
14
1F
08
F9
1D
C8
E6
03
0C
0C
FA
F7
08
FD
0C
18
2B
34
26
0C
CA
C8
CE
E9
DF
E5
FD
15
22
2E
FC
F7
19
E8
00
20
13
1A
EC
EC
11
0C
ED
FA
17
14
14
0C
F0
C0
DB
0A
08
F5
E0
F9
FF
0C
FF
0F
21
ED
19
FB
0E
01
00
DC
FC
03
F9
02
1A
10
1F
09
DC
C6
F1
08
06
FA
01
0C
1E
29
07
0D
21
16
1B
FC
F5
D1
D6
F2
E9
ED
F3
04
13
08
2A
05
FB
E7
F7
13
14
24
FE
14
27
FE
F1
04
12
2E
08
05
C5
BB
D7
EE
1F
FC
FF
