26
10
ED
CE
BC
C4
F0
05
6F
52
08
E7
C4
F2
23
D2
45
06
4E
C9
BC
43
7B
FB
97
6F
61
8B
35
8D
A4
D0
49
61
D4
47
DC
E2
95
8F
D7
6B
E5
1A
05
0B
64
3C
B2
EF
6E
7C
91
D1
32
19
5E
F6
8C
8B
52
86
DA
16
F6
91
72
75
E5
E2
17
F0
D6
51
B7
87
EF
4E
9F
BC
C0
75
BB
C1
77
33
61
0F
1C
57
69
A8
B3
BD
3B
43
86
BB
A0
DC
2E
47
36
1E
D4
EB
D1
DE
8D
E5
2E
EB
86
24
63
07
BA
06
B0
BB
12
8F
8A
40
64
BF
59
C5
15
57
D2
27
CE
08
A7
98
5F
B8
4D
4B
61
FE
01
76
7B
D1
97
AD
E2
EA
CB
C2
52
D3
73
6F
9B
A7
2C
9D
33
38
42
48
C0
E2
5E
FA
42
B9
38
F8
92
5E
51
DF
CD
35
EC
FC
9B
6C
78
B7
A1
57
67
36
25
E0
7E
D0
BD
50
C9
1E
0D
4D
30
56
6C
CC
79
BB
9D
E6
A6
06
57
53
74
B0
B4
09
A0
4B
D2
D7
98
14
A9
B2
99
51
85
2D
90
CA
92
0B
E5
FE
CE
1C
41
F7
18
57
26
06
B8
EC
BA
DE
F5
DB
9F
66
A1
3B
06
A8
7C
A1
ED
EE
84
1C
6E
CE
6D
96
29
84
7D
20
1F
E4
ED
D2
0B
C2
F4
8B
60
1E
F5
8D
29
D2
6D
9B
64
B8
28
FC
8A
4F
3E
C0
0A
E8
28
DF
5F
74
70
BD
90
6C
27
2F
6D
E7
FB
87
54
D9
C1
02
66
B1
26
CE
B7
68
59
FD
C7
8C
1A
5D
69
51
9A
E9
A9
EC
02
86
F4
3A
99
1D
F3
2A
EC
CA
EE
2A
69
E6
3F
A3
E5
BE
EE
19
10
8C
AE
02
27
1B
62
94
EA
01
22
1E
CC
1A
0F
EE
1C
DC
A7
C5
A4
E2
77
01
D3
0E
23
85
93
DD
29
23
85
7A
38
D8
3F
43
74
60
37
23
8B
B4
38
4B
9C
5C
63
45
1B
63
E8
EA
B3
9A
3B
B3
5E
BB
86
4A
BA
3A
FF
93
0B
AD
F7
98
15
90
E6
8B
15
70
3C
F0
16
46
C6
0A
5E
F7
D7
11
7A
89
C3
AB
3C
BF
71
AB
B6
70
0D
99
5A
10
26
E5
88
30
43
25
BF
36
C1
BC
72
DB
DA
09
87
4C
C1
93
A1
BC
E8
2F
70
D2
DF
2D
A7
5E
57
A7
04
E8
7A
D5
10
49
73
24
3F
C2
67
AB
0B
B2
94
70
B9
C3
7D
5C
1A
D8
41
FA
96
EC
07
F8
AC
A2
82
50
C7
F2
2A
48
10
57
7A
53
DC
8C
52
BA
71
9B
06
74
CE
1C
35
BB
D5
9C
FA
8D
8B
EF
93
5D
18
38
CF
B2
AC
D2
C3
D1
B6
3A
55
C4
A9
C2
D9
84
F9
B6
B2
47
12
26
8C
30
F9
C3
3E
01
AA
CE
A1
08
69
CE
B6
1F
0D
31
53
3C
8A
EF
25
C4
49
BD
79
3A
C5
4D
11
03
94
F3
F4
A8
5E
C9
88
36
BB
51
7D
C8
91
F5
6F
56
EB
50
FC
49
17
F9
C1
6B
F8
B0
93
69
53
DC
91
C4
7B
17
98
13
5C
35
BB
2C
26
9E
E8
8B
85
B9
35
CA
2D
38
95
DB
19
1C
5D
2D
E3
BD
64
83
9B
A5
86
BD
9E
40
3E
03
62
A2
C5
EA
9E
76
52
F2
36
51
20
12
9B
67
8D
DC
1B
DB
C6
95
64
91
61
D2
DC
F3
2F
B0
55
D6
70
D3
08
BE
FE
40
81
0F
68
2B
B3
14
4D
18
D2
34
48
FF
64
B5
F6
FA
74
9F
26
56
7F
BB
5E
96
1A
8E
D2
48
88
67
53
FF
27
2A
58
7E
EE
01
11
DD
4E
A9
A7
17
A9
01
3C
94
EF
3C
BB
D3
24
54
C3
C0
39
92
22
99
92
07
1C
79
8B
1D
0C
2D
17
9F
98
4D
9D
63
60
33
E3
96
0E
87
19
5E
C1
41
F4
8C
8E
4C
7C
10
BE
53
D5
16
19
77
D5
05
C1
73
04
8E
99
F1
CF
4D
C5
F6
A5
DE
42
88
97
3F
9E
01
B4
FD
57
06
36
D1
3E
1F
AA
E7
D3
69
57
F6
1A
0A
CF
5B
DC
9A
0D
9B
08
EA
D5
45
96
26
24
7E
76
C6
B5
49
5F
78
16
4A
02
A1
8A
13
6B
11
82
9B
84
03
65
D9
DD
05
BB
FD
C3
16
CE
2E
0C
EC
DB
03
EC
B0
E0
B7
1E
22
A0
26
6F
ED
16
70
CE
F3
4F
5B
2C
01
A6
76
B6
B3
68
3B
C2
55
11
2F
B9
A6
A6
9D
B1
5B
76
1C
6D
DC
8C
45
C4
F0
C6
F6
6B
AD
FD
DD
DB
96
F0
15
14
CE
60
05
41
D3
16
24
A0
4E
A7
34
C3
17
01
24
3F
FD
5C
C7
5C
0D
95
60
53
D9
24
71
C9
A2
48
75
8C
AF
B7
99
CC
21
30
F2
1E
27
9A
84
5C
3A
EF
ED
BA
A6
47
65
3D
B6
6A
EE
BC
31
66
F2
05
BE
F5
B7
09
4C
23
D1
B4
5B
F1
D5
4E
20
AF
1E
D0
1A
0E
28
19
60
B8
8C
93
FB
C6
14
7E
BF
1A
0A
E3
BC
DD
EC
CC
B5
1C
15
92
64
25
42
D3
98
B9
E0
29
B5
89
56
CE
43
9E
14
D6
55
5F
88
47
27
00
A5
35
59
35
CA
C4
F3
DB
F5
4D
0E
93
4C
3D
B4
3E
50
E6
6B
95
6C
92
B1
13
6A
3E
C4
09
67
57
AD
D7
32
A7
0D
48
4E
C9
1F
42
2D
B7
5D
A0
BB
BD
D3
F7
EB
56
EE
19
4A
81
F3
09
8D
D0
2A
BD
BF
11
27
57
10
43
B4
A4
3F
21
76
E3
29
CE
FF
51
FB
EC
47
23
15
9B
4F
51
14
F9
BB
DE
D3
D7
81
67
2C
3B
AD
7A
C1
EC
15
51
50
EC
5C
12
D0
E8
99
79
E5
A5
AA
2C
43
68
5B
1D
57
E0
B2
F1
D6
0D
43
4D
70
36
00
25
E1
05
16
47
A9
55
29
BB
26
D2
47
5F
F6
A5
60
5C
D9
EC
E9
CE
41
55
CF
83
61
13
63
BE
B0
58
CA
BB
93
C2
5E
CD
5C
75
54
6B
2B
73
32
C2
55
AC
0E
0A
AA
BD
06
E9
D7
E5
A3
9C
2A
00
F3
F1
49
3B
1B
2A
41
54
41
BC
A9
E9
A2
6F
01
25
43
9F
D9
24
D8
34
09
D1
E9
76
AF
E0
8C
F8
8D
2A
71
0C
34
CD
46
50
0E
6C
A3
04
F4
7E
DE
D5
9D
A9
A4
C8
5B
8B
52
F6
C8
9D
4F
0A
D9
C5
3D
1D
57
8D
0B
B2
0D
5B
50
5E
42
6C
B7
E5
00
03
74
24
F9
04
A4
B6
C8
EC
8B
C6
0F
15
B4
87
F9
68
C3
00
71
33
C0
3B
AF
74
70
02
13
08
9E
F7
40
2A
78
EA
DC
4B
2E
05
40
39
2D
B7
27
05
B0
39
54
9C
1E
CC
39
93
73
ED
F4
10
54
25
2C
71
1D
DB
1E
02
0D
2E
7A
4D
79
40
F0
FB
EF
35
9C
A7
FF
D6
12
0B
90
5E
1F
52
38
07
B6
20
05
02
9F
94
01
DA
6A
C0
41
40
7D
F0
1A
E0
53
29
51
E6
FA
5B
67
46
DD
C9
4B
50
AE
57
EE
1D
5C
72
8D
07
E8
8E
29
95
1E
0A
2A
EB
47
84
F8
7E
8E
EB
FF
A8
05
F4
55
05
1D
1F
62
37
42
3D
AB
A7
BF
37
52
3A
0B
56
AA
43
FA
15
17
CE
AD
15
78
CC
9F
82
CD
13
AE
60
20
CD
44
71
23
C8
67
64
CD
FB
78
0C
A0
C9
50
B2
3D
9E
94
AE
C7
B4
AB
73
D7
F7
CD
AA
8D
6F
C9
4F
5F
4C
F2
79
29
5B
09
7B
C1
B3
C9
DE
F5
20
D1
DF
1F
52
90
8E
C3
D1
FE
3C
32
F9
5D
B9
A5
D1
8D
05
F6
2D
F9
41
D5
BD
7E
4C
C0
02
F7
F9
3B
B9
6F
54
C3
8C
57
4E
1E
99
0F
30
5F
52
04
3A
74
8F
02
2E
2E
A7
FF
1A
0A
30
DF
B6
29
85
B3
F4
F9
8F
F6
C4
21
F8
C5
BB
FA
9B
DF
21
5D
DF
C0
CD
20
2D
75
6F
54
19
50
73
24
54
C6
D9
00
50
D9
C8
00
B2
A7
E2
79
1C
9F
47
9A
CF
4E
33
DA
F8
52
4C
36
AD
1F
35
41
EA
0E
7D
85
20
89
E1
20
D8
14
1C
F1
E0
EF
A1
E9
EE
1D
47
6F
91
B8
1F
DE
CA
48
AB
22
7C
98
93
62
FD
96
10
25
C2
B9
9E
F4
5C
7B
78
34
5A
84
1F
2E
6F
B8
97
F8
CF
EA
C6
60
16
9B
8C
B1
5D
64
26
3C
5A
30
B9
49
8B
39
2C
9C
B3
CA
8E
54
2F
2D
13
9F
31
91
6A
70
C2
BE
A0
54
21
86
6E
6E
30
41
4B
DF
C2
5F
41
AB
A4
06
A0
05
62
63
79
0E
EB
35
9E
8C
DE
C3
3E
DB
3D
FB
5B
7E
F8
A1
F2
0B
B3
72
4C
AA
6A
88
47
9F
14
7E
7D
67
60
E1
88
BD
17
91
60
9F
2C
FE
C9
03
EC
77
14
9F
5B
6F
07
91
ED
B2
65
9C
5A
98
8E
BD
7B
75
94
A7
D8
79
6F
E3
B0
34
6B
88
E0
FA
12
A2
2B
AD
9D
76
65
B4
37
E3
C4
EA
B2
A4
F8
FC
48
5B
8C
A9
B5
78
C7
DD
91
10
48
55
69
F7
3F
21
76
23
00
E9
B2
7B
5C
40
6F
69
31
7A
26
4B
17
54
A1
BD
DA
0B
8D
E9
DB
34
FF
4D
29
02
39
20
DF
E8
1B
50
6A
18
23
90
54
FB
4F
31
A5
0D
AC
E5
A1
44
BB
15
73
23
44
E1
89
1F
F2
03
9D
F5
BE
0F
16
B6
BF
A7
3C
7E
F9
71
4C
32
C4
39
2E
38
69
F5
67
C4
2E
4B
66
5D
85
FC
DC
8A
69
DF
18
BF
3A
6F
31
D6
58
22
59
5F
C2
83
D6
35
8E
95
8D
3E
8E
34
87
98
95
20
66
8C
1C
4B
BB
30
E8
97
3D
9C
C7
BF
05
D1
00
1E
A3
14
D9
57
1E
EA
9F
B8
34
61
E1
90
84
70
EA
BD
A8
8A
D8
F0
0D
24
1F
8D
4F
6A
A8
C0
EF
3F
82
91
4C
AF
6F
40
5E
16
20
BC
F5
F2
D8
96
7B
3A
CB
8E
5B
E9
51
74
F7
6A
63
7E
13
FE
F0
F6
35
EF
58
BF
67
85

