95
BC
F3
F6
77
6D
00
39
0E
F1
9D
08
A8
5E
F5
B0
37
B3
2D
B6
06
56
85
FC
32
E7
8B
52
28
CF
D7
9B
58
B1
B2
6B
82
4A
41
08
58
58
C9
AB
45
F8
E8
EF
1A
A4
76
21
EA
68
89
3F
90
74
94
76
52
D2
E7
36
13
26
23
55
9B
EB
FA
4F
F4
30
1F
95
51
12
8A
BA
F5
0C
F4
F1
74
A5
1C
A2
3C
DE
2C
33
0A
B0
E5
74
5F
DE
5D
D8
18
65
A8
CC
E5
32
C6
88
C3
4C
29
8A
1C
6F
FE
57
12
D8
56
5A
D5
10
72
10
30
0F
5D
D5
69
88
75
C7
0C
A0
1C
A4
5C
95
6A
03
4F
D7
C5
76
3A
DF
EC
AF
03
6B
2A
08
8B
D6
7C
B2
A7
78
87
0C
D4
06
C9
78
CD
33
3A
4E
6C
72
54
96
CD
7B
6F
3D
22
39
00
70
7E
33
2D
31
94
F2
AB
D6
1C
8A
3C
42
7B
D4
07
5B
A4
14
50
16
50
0E
96
A5
72
FE
13
C9
13
93
DD
07
60
1E
D7
7B
F5
9B
99
C2
B7
DA
3B
78
D0
1D
7C
EE
A8
F8
4C
BF
D7
8D
83
CD
50
71
F3
C5
15
1A
39
F6
A8
FB
1E
DC
88
0E
A9
72
B4
85
01
60
06
0D
63
AE
B6
32
17
43
22
09
21
C7
15
29
45
9E
36
B7
D8
F4
E1
91
C8
9D
B3
0E
1B
58
3E
C7
F4
19
44
F2
51
27
79
24
C4
EE
8D
7E
B8
26
42
1D
59
03
B8
CD
C4
C2
D7
1D
4B
C4
3E
81
2F
63
83
34
A7
54

