43
5B
3B
87
5D
92
70
F2
B2
C2
05
D6
AC
9C
12
EB
AD
9C
50
5C
F5
7E
9F
E2
48
AC
FA
98
48
79
53
4B
4B
E9
6D
A4
78
37
02
09
68
74
D8
C0
CE
42
EF
F5
E4
78
82
2D
9D
95
C1
BA
C2
34
7F
63
63
30
BC
CD
4F
C2
00
31
96
7F
78
E0
1A
99
44
70
9F
71
C1
5E
56
6E
69
1A
27
46
39
E0
D1
9B
ED
71
17
34
F3
1B
9D
90
95
9E
17
17
CE
07
5E
D9
2A
6D
6F
3C
4E
A7
2D
5F
75
93
93
4B
AB
46
F2
F2
3B
9B
AD
54
D2
32
DD
25
82
8E
60
66
2B
AE
C9
60
D8
9A
5A
05
68
EF
19
EC
10
46
43
28
83
AD
02
09
6C
A0
FA
FC
6E
8C
ED
36
AB
9F
DD
46
01
83
72
25
9C
45
17
58
A2
5C
07
48
C5
A4
1C
20
25
AC
2A
0D
F8
16
00
93
74
B4
90
46
6C
00
0E
02
AD
D6
DE
31
C0
10
CE
11
C7
A3
26
04
57
DD
EA
BB
D6
FE
3F
BD
F1
F9
4C
B5
73
AB
30
A3
B0
13
F2
67
17
89
A1
3E
D1
AA
EF
FC
C2
8B
87
11
8D
22
12
AD
45
7F
12
3B
2F
06
8C
59
DB
45
9A
C6
20
AF
C6
66
13
53
E8
B2
8D
88
B9
37
9A
B1
60
F6
05
19
A1
73
BF
22
8E
C8
8B
34
44
4D
49
AE
B3
2B
FB
6E
EB
10
37
6C
93
E0
69
E1
1B
F7
0E
54
63
E8
11
2C
CA
87
B2
6D
BE
90
42
D4
56
16
3C
1C
D4
93
D8
A2
E1
58
C7
47
1E
5B
F4
6E
AE
B2
9C
DF
6D
5C
99
76
53
65
5F
B7
FC
B6
96
2E
E8
D8
5F
13
0F
48
C5
D3
7A
45
60
4F
B9
0B
A0
27
14
54
0F
18
3F
C6
27
89
F9
E0
B5
F2
FD
35
47
CC
F5
B9
F4
C9
45
B7
3D
70
6B
FD
93
05
26
03
0B
4F
59
CA
19
AC
48
F9
D4
15
48
5E
A6
8B
B8
70
31
2A
CA
58
29
50
36
35
8B
AD
C5
AD
B3
59
03
EB
D5
A9
18
CD
64
47
94
4D
48
F9
58
4B
34
D3
4A
B5
C9
56
21
EC
41
E8
7F
EA
0F
52
DD
47
36
2D
9A
98
07
CA
AA
26
D0
01
58
CA
A3
97
4F
FD
76
9E
35
82
AD
E7
71
D8
70
54
96
C5
B8
22
BF
05
2D
B8
A2
AC
73
2B
5E
1F
41
3A
FA
0D
C0
AD
BD
BF
1D
6D
79
A8
2F
AD
18
C2
12
93
B9
35
E3
45
0F
19
6E
0D
7D
C2
C1
9C
64
66
FA
C5
E4
4C
AC
0F
7E
78
75
93
9D
AB
8D
63
B8
41
70
FC
0F
FA
28
33
C3
5D
C9
E8
C8
8C
E5
E7
AB
E7
1F
62
A3
E1
2B
8E
8C
30
31
E2
26
09
E2
AD
A5
D3
8A
59
E8
CA
D0
3F
A0
6E
28
B1
CC
AC
D5
A8
AB
1E
DB
DA
68
93
27
79
FE
9D
92
79
40
FA
6B
21
D3
40
56
2D
C7
1A
58
8D
BC
2F
34
CB
6C
16
A0
7B
37
A7
C0
00
88
ED
A1
0D
FE
8E
88
4F
73
34
78
65
20
EA
B5
B9
E2
A5
45
33
BA
46
78
F1
75
5E
39
FB
BE
35
E6
8A
DB
7A
38
C5
02
78
FB
BF
D6
64
5F
AF
B8
57
E2
33
6A
43
C7
D4
9F
3F
87
0C
83
7C
5F
CB
DA
BA
5D
C3
B9
2C
13
D7
D6
0C
4D
A1
0E
22
9C
14
B1
22
10
9B
0E
EB
A5
9A
7B
CD
8B
78
23
C5
CF
09
62
02
EC
92
70
AE
61
71
27
AB
5C
73
5D
B1
A7
A9
E5
25
7A
3B
30
F3
51
18
A6
76
DF
19
C6
A2
55
3A
85
CB
AF
46
C6
D9
86
AF
2F
1D
20
9B
AF
00
2D
72
3F
34
61
41
6A
2B
A3
6A
57
B0
63
2B
CA
43
5E
5A
E3
68
61
05
85
60
F9
07
B3
D1
6F
00
F9
EC
0F
C2
74
EF
87
B2
5A
50
BB
7D
93
0B
15
AA
3F
10
D6
AD
5E
8C
E6
81
59
75
A5
3F
73
C4
8A
F4
61
3B
72
7A
6C
6C
9D
68
D1
56
AE
9B
41
5A
B2
68
8B
71
5A
1E
FB
83
1C
F3
41
47
4B
18
B2
96
1D
56
60
53
31
1A
BF
55
94
57
1B
B6
31
76
BB
BF
02
68
95
92
A6
CD
4E
95
46
9B
82
C3
B9
BE
38
1A
5A
F9
82
38
02
34
73
21
04
44
7C
06
3D
79
7B
BC
1B
75
3E
51
14
E8
FC
CF
DF
87
9B
0C
79
DD
8C
A5
B8
E5
99
AB
49
61
34
30
68
DF
61
CA
9F
8B
C8
36
2A
87
48
43
A1
65
1D
BC
1A
42
3B
01
51
E2
4B
29
02
A5
88
61
C5
55
C2
BA
63
41
10
81
8C
DE
C9
45
90
28
64
DB
7E
11
DB
BB
DD
89
89
C7
75
BB
31
E5
0F
3F
66
0B
E7
3A
FA
35
0C
B9
46
10
26
A5
E6
C3
55
50
31
81
33
AA
51
25
00
A0
00
16
B4
17
A8
64
12
43
CC
B5
89
6D
42
03
2A
28
44
EB
B9
47
C5
21
74
CB
5E
C3
C7
0F
A4
B8
B4
9E
49
E4
52
83
74
CE
79
21
BC
8E
FC
BF
8F
B1
38
45
E6
9F
00
24
CE
58
A1
19
ED
20
36
B9
D1
F1
3C
2B
13
6E
58
DC
8F
B0
FA
41
F1
02
F2
51
5A
4C
35
E0
38
6C
E0
B0
3A
2E
F2
98
FC
05
15
BA
FD
3A
99
B1
11
17
F0
DE
8D
EB
5E
B0
CB
1A
6D
3C
07
9F
2A
ED
8F
D9
6A
DD
24
A1
EA
8B
B8
20
CE
5F
ED
91
BE
46
2A
60
DA
6F
3A
F7
19
31
A8
95
5A
22
37
A0
F0
9F
88
6B
3D
B1
07
1B
EF
29
99
37
AD
9C
67
59
50
1D
96
77
3D
8F
05
DA
DC
23
25
96
5E
A6
92
E3
7D
38
CA
70
AA
5D
C9
CC
71
F2
BA
0F
F0
2F
A8
3F
4D
DA
7F
C3
A8
08
03
50
06
15
41
8D
19
50
AE
7B
A8
60
86
E7
AF
18
0E
2B
8B
E7
BD
51
09
A4
BD
B8
7D
CF
F8
EF
15
96
88
04
42
60
A3
0C
57
A6
91
33
6E
88
1B
64
79
D2
3D
8C
B5
E5
DB
F9
78
87
91
FC
D3
77
1F
F8
7A
B0
AB
E3
AF
6A
9C
DF
C7
74
D2
85
B2
FA
43
82
AA
91
A9
6D
21
0A
F0
B6
6C
AE
8A
A8
B4
A3
84
98
82
6F
9F
C0
DC
C3
73
D9
7E
8A
2E
3B
93
38
AC
56
01
CA
F1
6A
AC
1B
62
2A
E7
08
50
26
DA
3D
DE
B5
05
5B
10
E9
54
8B
4A
B1
42
48
95
3C
23
9A
88
0B
5D
AA
A5
66
14
41
D9
D5
27
E9
8F
78
3B
F3
2F
D0
BB
74
F6
57
BB
D9
39
4B
AA
C4
5C
32
BE
98
AD
AE
B3
8F
3A
0A
BA
08
E3
59
B7
EF
7A
31
6A
15
66
18
F6
BB
23
D5
37
3F
09
F7
26
97
EA
F7
DA
A2
E5
BC
13
D4
31
48
75
78
A6
DF
26
DA
C4
F9
E6
1C
EA
0E
BE
B1
AC
7D
F5
E6
6A
D6
FB
C1
D1
2D
FA
7D
47
04
B7
48
A5
A6
4E
0F
31
E7
71
CF
2B
FF
02
7E
B5
06
77
28
7B
EA
C5
32
41
78
BF
93
3B
CE
18
30
84
93
5A
4E
93
8D
B2
B6
D5
CC
01
CE
13
7D
10
DF
F7
25
19
64
55
8C
0E
67
B2
50
59
02
4F
28
40
72
05
1A
23
4D
54
49
9C
0D
4F
C3
5B
5C
FB
87
E7
86
2D
35
B4
47
09
95
A2
3B
37
B2
C7
6B
4C
9D
DF
A3
A7
97
A5
CC
0E
39
D3
9F
DA
CE
09
E1
A0
65
D4
94
C7
2A
71
E8
9E
14
F8
04
9F
58
27
16
2F
82
EE
61
4C
DF
6F
3C
DA
29
78
BA
44
8A
0F
21
12
A6
D2
63
7B
88
7A
3D
2F
97
B3
56
A9
E3
CE
65
9A
DF
2A
1E
93
25
A5
8D
F2
B3
18
1C
46
DF
42
45
CD
CB
D2
75
21
DC
88
C1
D8
CE
0B
57
40
16
CB
07
85
A2
A4
69
81
C8
60
07
04
20
FF
49
9A
48
E1
A9
CA
BA
71
1B
F8
B6
B2
D3
46
56
69
FA
73
4E
29
3C
60
B6
41
C3
F7
10
D8
54
11
21
64
42
1C
26
63
9C
C6
78
26
31
D8
11
F9
39
9C
FD
5B
19
9E
87
39
C5
FA
24
18
E4
72
2A
DE
79
AD
A8
4C
84
E9
3A
C8
79
44
0E
56
55
5E
B8
9E
15
6E
FF
C8
5A
07
95
7D
34
22
67
54
2E
FA
13
42
70
5C
31
5B
41
55
96
76
E7
6C
BE
98
E2
D8
FF
29
99
9C
53
33
69
1C
CC
51
46
5F
78
30
D8
A4
4E
1F
EE
D9
67
49
73
78
82
C9
0D
50
C8
8A
28
A0
93
2D
91
A9
76
32
97
32
AD
B3
14
9D
23
C8
79
11
FC
88
3A
FA
C4
6B
4B
41
58
F3
FC
45
A1
12
9F
CF
75
DE
E8
8B
3B
FB
AD
12
01
B0
9C
05
4E
E6
AD
92
FC
FB
B1
E1
69
59
F1
F1
BD
8B
E4
87
22
76
E0
8E
28
A4
10
8C
FE
19
B4
91
DE
48
5A
FC
8B
28
AB
5F
1F
04
61
FC
8E
83
3B
4A
98
72
62
F6
1E
19
CB
00
E0
97
B4
9C
42
EC
50
EC
42
06
56
FF
1A
F0
FD
DE
21
BA
4A
66
55
FC
BA
E0
1A
19
1D
77
2C
EB
75
3D
F4
D8
64
33
E6
56
21
BA
FA
95
77
7E
F9
4A
17
0B
F8
E8
12
D4
FB
A9
BB
A4
1C
54
EA
C9
9A
F5
00
22
06
10
73
6F
28
29
2A
71
1A
FA
4A
59
7C
23
8E
CC
48
D6
61
B7
9C
BB
3D
1D
C5
46
71
DB
65
13
60
BE
65
AB
BB
49
62
B1
EF
A5
41
91
B9
FA
D9
CC
08
51
74
16
B0
B5
6A
15
65
97
41
47
CA
BB
D9
0B
04
CE
BC
F5
84
B5
32
00
04
6B
F6
EE
E4
6F
F0
51
D3
C3
50
5C
46
BD
44
DA
E5
67
DF
26
09
8E
BB
B4
94
18
07
01
51
E0
F0
89
7D
14
6A
1E
93
FD
AB
7D
46

