E9
EB
3D
12
2E
14
1A
F4
31
41
0E
0A
2A
FC
E7
1E
F8
02
3B
12
00
1E
24
1D
50
09
0F
02
32
29
CA
E4
0F
04
2A
25
F1
11
E5
F8
10
F1
2E
1F
DC
E0
F0
E2
0E
1B
21
EF
22
04
EE
15
AF
40
51
EC
18
1B
3F
29
2B
35
14
00
06
CD
E8
F0
F2
05
17
25
E2
F9
B9
1D
01
1C
DB
FC
1C
07
16
0B
29
EF
1D
EE
06
F6
D7
C3
0F
D3
E6
2B
FD
2D
DA
FA
0B
F1
D4
3F
0C
EC
24
25
1D
DE
16
02
24
E7
01
05
07
FB
C7
0F
12
F3
2F
E8

