C8
F2
E4
04
F0
45
D3
DE
00
E6
F4
0C
03
28
38
F6
16
03
21
20
F2
23
24
1F
FB
AF
1C
C4
FE
0F
34
09
E4
F0
11
DA
F8
CD
34
19
17
19
9D
1D
E5
2A
12
FE
E4
EE
3E
D2
06
02
FF
FF
01
0D
42
E1
13
1F
35
1D
CA
0A
23
E8
26
CB
00
F4
1A
07
0E
0C
1C
EB
0B
32
D4
14
16
B7
00
AC
21
23
14
11
30
F7
41
31
05
BE
CC
08
43
0D
30
20
35
04
19
2A
E3
1E
CD
29
D3
F5
08
F3
1C
05
F5
14
1D
DD
CB
2B
60
FE
2A
27
03
EC

