F9
14
D4
EF
F8
DD
20
10
06
D2
24
FF
06
CE
2D
E4
01
0C
CC
06
0E
D0
CB
CB
E7
15
F2
3C
DD
08
35
14
09
0E
22
E9
0B
25
12
27
24
ED
29
32
0C
DE
DF
F6
02
1B
DE
01
11
DF
F0
12
28
E5
E6
FA
43
14
01
F0
F2
F0
0C
22
00
F3
FB
08
2D
09
FB
F8
F6
11
37
C2
21
FB
EC
ED
AC
2A
1D
E8
03
2C
DC
BB
DC
E9
29
31
EB
21
EA
FD
EF
19
02
37
28
18
08
DA
0E
F7
0C
E6
F4
38
C1
3E
EF
D6
35
11
1E
D5
F1
E5
FB
FE
07
DB

