F3
FB
0C
0F
F3
04
F7
02
FD
03
0C
FB
03
12
11
F0
FF
EE
0C
0F
F2
EF
01
FF
0A
0A
F7
10
F1
F2
FF
F9
02
02
14
03
13
FB
F4
1B
1F
2F
FD
15
28
0C
14
20
12
F5
0A
F5
F1
FD
03
FF
0F
FC
0B
24
17
FA
0D
08
0B
EA
07
FA
1E
06
FE
F8
09
E1
E7
07
16
08
04
1A
01
FB
EE
02
01
F5
F7
1C
20
15
18
12
0C
0F
0C
0C
1C
0F
1D
06
0E
1F
15
DE
F1
ED
E0
F4
06
03
E0
05
02
FC
18
0C
14
FD
EC
0B
15
0A
09
1B
26
17
06
F9
FD
F4
F6
F5
EC
D8
EA
C1
CF
DE
0F
EF
FF
F8
0C
FA
09
FC
F0
F3
0E
FD
0B
0A
0D
FE
12
17
0D
08
F5
09
F9
F4
F3
D5
EF
DD
EE
02
F8
0F
EB
11
F2
F3
EC
EB
EA
FF
01
ED
F8
13
04
05
09
F8
0F
00
04
0E
E4
D8
D3
F2
FB
FC
05
15
E7
F7
FA
00
11
FE
EE
00
01
FD
FB
F8
0F
0C
10
09
15
0D
F8
06
00
0B
F0
14
DF
E2
0D
11
F7
EB
FC
F7
F9
10
FC
F1
0D
FE
0E
F2
12
06
16
16
16
0D
F8
05
21
FB
01
DA
DA
03
F3
21
E9
FF
04
12
0B
00
FC
03
08
18
10
15
0C
0D
15
09
07
13
2E
07
08
2A
E1
F4
E1
00
01
18
1C
12
01
FF
F8
13
FC
FA
06
0B
F3
1F
28
0C
0C
08
14
01
0B
0A
22
27
F1
DE
D2
EC
F7
09
10
2B
12
CC
F0
08
0D
FC
0A
0C
FF
22
02
08
0F
00
0E
1A
27
0E
13
04
01
CD
F9
F7
05
FB
25
F3
F3
E3
F6
00
04
0B
01
02
0A
F5
0A
0A
F7
F8
1B
FE
FE
00
0A
03
F3
DA
DF
F7
F4
04
0B
F2
09
F4
0A
00
08
F5
F9
04
FB
08
E8
04
FB
EE
05
07
06
01
05
05
EB
F2
E6
F3
EA
F9
01
F2
FF
0B
12
0E
07
F2
ED
F4
FE
F6
EB
FB
EA
15
15
11
FD
19
0D
13
F7
F3
E2
FA
EA
F4
ED
ED
FB
17
12
FE
08
F7
04
DE
D2
EF
EC
FA
E7
04
F0
08
11
FB
1A
22
11
F5
E8
F0
02
F7
0C
02
FF
22
04
09
15
08
0D
D2
DD
D4
E6
F8
EF
FC
F6
FA
F4
00
FD
07
04
F3
CF
07
F8
04
05
FC
11
05
0A
20
07
00
FF
FD
EF
F0
F1
DD
EF
04
01
FF
ED
E9
10
FE
0D
E7
01
FA
19
F8
FD
02
F1
F6
06
03
0E
19
06
0F
ED
EB
E6
05
F3
FC
03
0E
FB
F4
07
F8
F7
E3
DE
EE
FE
25
FE
00
09
1B
0F
FD
FB
F6
13
FD
0A
F3
EF
01
FD
18
08
F7
EE
04
04
06
06
E4
F8
0B
F5
20
04
FA
0D
14
06
1E
09
F5
F7
05
0E
F8
11
FC
F6
F7
03
FB
03
FB
DB
E6
EA
ED
F5
0F
F7
FE
00
12
FF
F7
05
14
0F
F4
EB
09
0A
F8
06
F9
10
FF
09
F4
DC
C6
D7
CD
C2
F5
19
00
F0
03
01
F7
FD
02
11
10
0E
04
01
01
0A
03
00
0C
0E
0A
04
DF
D5
DF
D0
FA
D6
FC
01
0A
0C
EF
0E
06
DF
E2
0C
1E
02
F2
EF
EE
FE
0B
0A
F7
0E
04
F4
D8
B8
D9
F7
EF
FD
EE
F0
F5
04
F4
02
29
10
11
2C
1C
10
E5
F5
F7
03
EF
01
FF
1B
0A
F1
D8
DA
CF
DF
F3
F4
E4
03
F6
0B
F4
0D
00
13
19
1A
05
18
15
1A
13
03
09
0A
05
15
E5
D9
F8
EE
FB
F8
F3
FF
FC
F2
04
02
07
F1
F9
E9
04
F2
11
FE
0D
37
0F
09
23
0A
06
0D
06
16
07
FA
07
10
04
F5
F5
10
F9
00
F3
FB
08
12
F2
13
0D
0C
01
06
12
08
EE
1A
07
FE
0A
1F
03
EE
0A
0C
22
02
F9
EE
FB

