0E
7E
04
78
0A
03
78
72
73
72
12
6F
65
65
08
73
7C
0B
75
0D
00
04
7C
0F
75
08
73
03
79
6E
02
77
01
10
14
15
6F
7F
72
7C
7E
6E
02
7D
1B
00
0B
71
7B
6B
13
01
08
7C
7A
7D
05
05
75
0D
01
7F
0C
0B
7E
12
05
72
6B
5E
59
59
4A
61
4D
66
7A
6C
6F
7F
0F
04
01
02
02
12
0F
0E
7E
75
0C
05
28
2F
3D
35
1D
02
79
74
5E
7B
75
5A
7A
6B
01
01
71
05
69
7E
10
7A
0F
09
16
7B
01
10
1B
3A
29
31
30
2A
0B
75
65
66
74
62
7B
6A
7E
72
6F
66
7E
17
7A
77
03
00
19
79
77
2B
7D
0B
07
27
04
0E
7F
09
72
71
7A
0F
76
7B
6A
77
05
0C
12
02
04
7F
09
79
0B
6B
04
73
0B
7E
0B
0E
01
22
20
28
1A
06
7F
6E
6B
77
74
7A
79
6E
7E
6D
0A
03
72
63
6F
67
75
71
12
01
0D
0F
15
21
10
20
20
19
77
06
75
73
52
72
6B
72
60
02
07
6A
15
77
6D
0B
0E
08
1B
73
7A
07
08
03
7D
74
13
7D
15
0A
08
0E
07
6B
45
6D
04
03
00
70
6F
75
05
7F
04
02
10
05
14
0D
00
65
71
72
0A
0F
20
7B
7E
04
0C
7F
52
75
6B
08
6F
5D
7A
09
09
7B
13
10
7C
7E
08
6F
6F
63
6B
79
21
08
12
10
07
0A
15
0B
74
00
79
03
0D
6E
65
04
0C
78
7E
0F
15
70
01
79
06
03
11
79
1B
28
1D
7C
08
07
7E
7C
63
17
0B
7A
6B
5F
77
0C
1E
63
7F
76
06
6B
04
5D
7E
25
1D
0E
0C
0A
09
6E
08
6F
62
60
4E
76
19
0B
77
65
64
1E
1F
6D
6B
08
0B
6C
5F
79
0A
06
0D
03
07
0E
00
10
01
00
05
6E
52
7B
68
11
72
77
6B
70
74
79
03
0F
7C
08
79
69
13
78
09
6C
6F
7C
7D
04
02
7A
61
7A
61
78
0D
65
6F
03
59
78
04
00
13
15
07
7D
04
73
77
6E
08
76
7F
6B
07
00
72
6F
6F
0C
02
7B
72
07
7C
76
16
0E
1E
75
08
6C
0A
7C
17
06
03
64
79
7E
05
08
7C
6F
15
00
0A
18
09
06
68
7B
6E
0B
0D
0E
1B
72
7E
69
07
71
72
5F
17
7E
6D
63
77
7F
78
01
14
04
6D
7D
74
7C
71
07
16
10
1B
1D
74
75
7D
76
63
6D
66
73
15
77
73
67
72
72
79
1C
1D
03
1A
04
7D
10
02
70
04
0A
75
04
07
07
09
78
74
6B
78
0D
0A
7E
6C
6A
67
78
7E
0A
17
13
0A
11
64
73
20
0F
10
00
00
76
08
10
7F
01
01
06
79
7A
76
05
77
79
07
74
09
72
08
02
0D
6A
64
58
75
7F
74
02
03
0F
0D
7D
14
0A
75
79
04
7C
7F
08
12
03
05
03
74
15
7B
7C
6F
74
59
72
13
74
69
10
11
10
0C
79
6A
75
0D
07
74
05
13
77
1B
7D
01
11
00
0E
07
13
25
78
74
74
07
06
6F
0A
00
14
75
6A
07
7E
08
6A
06
06
6E
7C
7B
09
07
00
0F
6D
11
05
21
0C
0E
7D
60
7F
0B
6E
74
2C
0B
09
0B
15
1D
6C
16
02
7D
78
7C
07
1B
72
19
0D
0B
71
76
19
09
67
77
0E
6F
07
2A
00
07
18
2E
13
04
06
18
7D
7E
0B
04
0E
06
06
0C
05
23
7F
7A
70
5F
13
69
07
11
06
7D
14
7D
21
1C
10
74
11
2E
1B
1A
10
0A
66
7F
15
20
00
29
77
78
10
6D
6D
01
06
7E
0B
7D
7E
00
74
01
13
0A
6D
0B
6D
06
6A
7F
6E
75
57
07
72
7B
7E
70
64
76
72
78
03

