1B
FE
01
ED
03
E9
1C
F1
07
04
34
F4
D6
17
F2
BD
09
40
FB
EE
20
12
F7
14
01
1B
2D
30
FB
19
2F
07
27
E0
13
E7
F6
DC
DB
FE
DB
00
31
12
20
08
FF
2C
06
07
DF
00
E4
00
DB
21
04
F9
BF
27
36
0E
19
E2
22
E6
F3
CC
2E
AD
15
14
1B
D5
D5
CE
09
32
D5
D4
20
12
DE
11
D8
15
16
EA
F2
35
D4
34
0D
F5
BD
F8
1C
0B
DF
D1
FF
57
16
00
22
00
19
E4
D5
E3
2E
DE
DA
F6
C5
08
FF
27
11
CC
27
13
28
C9
F9
17
E5
C4

