0F
0D
0E
F4
F8
FF
04
13
FE
00
07
0E
12
0D
FB
F7
FD
05
EF
FF
0A
11
03
02
02
F0
F2
F2
F6
06
0A
0A
03
09
24
08
27
0A
1B
FB
0A
23
29
1E
03
13
1C
1C
2B
18
0E
09
F1
FA
FD
FF
04
EE
EF
FD
15
1D
27
27
04
F6
1B
1F
0E
FD
14
26
25
14
02
2C
19
08
0E
15
F8
06
04
F4
00
0F
09
F2
07
00
16
1C
E9
D7
ED
FB
F5
FC
24
18
29
0E
19
23
02
1A
19
1B
FC
01
04
FD
0D
08
E2
04
F4
08
14
E9
D3
DE
F0
FE
EF
14
00
27
04
00
01
01
F4
EF
FF
E5
C8
D0
EA
F6
F3
F4
F2
EF
F7
03
02
FD
F6
E5
03
16
16
16
1F
07
F8
04
15
FD
0C
E4
DD
EE
E3
F2
EA
07
12
08
08
E4
F8
ED
08
08
03
F6
0D
1A
1B
0B
04
11
09
13
00
04
0D
E8
EA
EB
F5
05
00
E7
0C
E2
FA
F3
EC
EE
ED
F4
F6
FB
07
13
13
00
19
13
F2
EB
F4
EE
0C
FD
F9
D2
D3
D0
D4
00
EF
E6
FE
EB
FC
05
02
F4
08
FD
13
18
02
EF
11
02
E8
DE
D5
F1
F8
F6
D8
CF
D1
DE
D5
FD
FF
E5
EA
E8
17
EC
07
10
F5
F1
FF
FF
06
0E
18
FD
F1
D3
F3
EB
EE
06
C9
DB
E4
CF
D9
FD
FF
F7
E7
07
0C
04
1B
0D
E8
EE
03
F9
FE
E3
F5
D3
DC
BC
E9
EC
08
F9
CC
EE
F1
EF
E3
DF
02
FB
17
0E
FF
05
01
13
EA
EE
E6
00
FB
E6
E2
D3
E5
DF
FF
16
0A
1B
0F
12
03
FC
E0
FB
F9
F0
F6
EE
0F
F5
FA
0D
15
EF
00
05
E0
DA
F4
06
F0
08
FE
0A
15
08
0A
2A
1D
F9
F2
DC
0C
09
EF
E9
11
F6
0A
04
13
F0
0E
05
E7
E6
0A
0F
00
E9
EB
0B
05
04
20
1F
24
F3
E8
FE
15
EE
EB
06
04
FB
0F
16
1F
05
FC
12
F1
F2
27
0F
19
E6
03
F8
11
18
FD
F7
10
0A
02
E8
F4
03
EB
F4
EA
F9
0C
FF
25
0F
25
15
FF
15
00
11
F7
0B
0B
13
0D
08
10
FA
F7
01
E1
ED
F6
EC
EB
F8
EF
0A
FD
03
07
0A
0B
13
07
EE
FF
F8
E6
E8
09
F4
09
F9
FB
EF
FE
06
F5
ED
12
FF
E8
09
E4
F4
FD
F6
11
FE
FD
04
EE
F9
0A
08
EB
00
13
09
0A
ED
F3
03
0E
13
F6
DA
08
EE
EC
07
FA
D6
04
1A
FB
02
01
F8
EE
F0
1E
15
FD
04
F8
F0
04
0B
FF
E6
08
17
FA
EC
05
FF
F7
F7
E2
F8
0E
0E
FE
0A
FC
F9
05
0A
09
01
19
11
06
07
FA
09
05
13
F1
10
FA
F8
FD
FA
0D
0D
FE
09
EB
EF
F6
ED
F0
EC
F2
F5
22
15
00
0E
0E
EA
E6
03
1A
18
0B
0F
E8
09
F4
00
01
06
EE
FF
EA
F2
EE
F3
0E
05
06
0E
25
F8
02
0F
02
FC
F3
FC
FF
02
12
F7
F4
FA
01
0E
14
0C
FB
05
F9
FF
F4
F1
11
0D
19
0B
FB
F7
0E
1C
FD
EC
F8
D9
FD
03
05
00
EA
07
FE
0F
00
E5
ED
FB
E3
E5
E6
F9
E3
E7
15
1B
13
EA
13
FE
02
FD
18
E9
FA
F7
17
FF
F9
FD
FF
F1
F0
E7
E1
01
E7
EB
FA
0E
0B
F2
09
08
F2
F2
FE
E6
0E
02
20
FF
17
23
F1
F1
0E
12
10
FD
16
0E
02
FE
E6
02
06
FB
0F
0F
24
47
07
DE
F8
FA
0F
0D
1B
06
18
19
06
0E
F9
11
0D
06
10
F9
09
F2
F9
0D
18
12
1F
08
1C
35
18
13
20
11
22
33
28
00
F3
07
12
EE
11
06
F1
0F
FF
FA
F9
09
F1
FC
FA
07
FA
0B
01
19
1D
EB
F8
FF
1C
10
09
0B
EE
F9
03
05
09
FA

