0C
FC
05
ED
F5
EF
FF
08
0B
05
F1
0C
12
FC
05
02
02
FA
FA
F1
01
FC
0B
F6
F1
09
01
F8
04
04
F6
F5
12
10
F0
FF
FF
FC
0D
0A
FB
DF
F4
0A
EF
07
FF
03
F5
FB
11
F6
F9
FE
05
03
F1
F9
02
14
FC
F0
05
07
01
1C
19
FF
09
19
15
FE
05
E0
0D
06
0C
13
F7
EF
F8
F7
F9
F3
F4
F1
02
FF
EC
19
02
1D
13
22
11
FD
18
17
24
FB
05
11
EF
EF
FC
0A
E9
E6
10
1C
07
0E
EF
FC
20
00
0C
1F
25
35
07
17
1B
1B
1F
0D
1B
17
22
27
0C
08
FE
04
08
DA
F3
0D
0E
F3
FC
F0
0D
F8
EC
04
20
F9
FC
0C
1F
29
11
21
06
13
18
00
13
FF
07
15
19
E8
EC
0D
1A
0D
F8
06
E6
FD
04
02
19
F9
FB
F9
FF
21
07
20
10
F8
03
12
0D
09
19
0E
12
F2
F4
FF
0A
F8
0C
26
E1
03
14
1F
11
EE
FD
FC
F3
13
08
FC
0B
FD
FA
F7
FF
08
05
0B
05
FA
ED
FE
04
ED
10
09
04
0C
32
12
03
0A
03
01
08
F1
FB
0C
01
F8
24
0B
1B
0E
1D
FD
FB
0A
08
07
0C
17
06
EC
0B
09
0E
2C
F3
FB
EE
FA
F0
E4
01
EF
01
10
1A
1B
FE
0F
1D
04
09
0D
FE
17
04
FE
00
F9
07
1C
FD
05
F2
00
EC
DE
F7
EC
00
E8
ED
EC
06
01
FB
E4
F3
FF
22
1B
0C
22
21
EE
EF
00
E5
0B
F1
D9
EE
F7
E6
D7
F1
1E
0A
FA
04
E5
DA
06
03
0A
09
FA
0D
0E
EC
04
0B
F0
F0
0E
F1
FA
F8
E3
E7
F4
04
03
09
0B
0D
06
FD
E9
D6
DE
01
07
01
0A
E7
F5
FC
FD
10
0A
0B
F0
FD
02
FB
FD
08
17
FF
0D
11
15
09
18
F2
F3
ED
EB
05
18
0F
08
FE
F1
DD
00
0F
F5
04
EB
EA
F4
FC
01
FC
FC
F0
F7
FC
FE
06
F9
F7
EC
D9
F9
F3
06
F7
ED
09
12
07
FA
02
FA
FA
0B
04
0A
FE
F2
F9
04
FA
FE
F7
FE
FF
F5
01
E0
F0
E2
EA
FC
02
07
09
0F
0B
F1
1E
15
F1
F8
12
0E
0A
E8
EA
DB
CC
D7
EF
E1
F6
F7
E8
F5
07
03
02
0D
13
09
0D
06
13
02
0D
0F
FC
FD
15
12
FE
F4
FD
E6
D7
D4
C9
CF
CA
D9
DC
EE
0D
18
10
05
07
15
1A
FA
09
11
F9
FD
23
0D
05
FE
E9
05
E8
E5
EF
F8
FC
EA
D2
C7
F8
06
0F
02
13
F6
FF
13
19
FD
07
1C
07
1F
EF
10
16
DF
FE
01
F7
F4
08
F0
EE
F3
F5
19
FB
0A
0E
F3
04
F3
06
11
06
0B
F8
FD
18
07
04
0C
18
17
1B
25
11
0F
11
05
07
0D
1A
19
03
12
0D
0B
E5
E9
F8
0A
E5
1A
01
F0
EE
0E
FC
10
33
27
08
1B
0D
06
23
FA
1A
0C
09
2B
15
14
01
F5
07
0A
F4
02
00
0F
F0
FE
17
04
FF
F4
22
1F
09
21
1A
24
38
1D
1D
1D
1F
27
07
1D
04
06
13
22
0E
E6
0D
1C
1B
03
0D
F6
0A
00
0E
22
03
11
1D
33
2C
24
45
27
1E
23
11
08
05
15
10
01
F3
0B
14
14
18
1C
EB
F7
06
05
FE
25
13
FF
14
13
1E
1A
F8
0E
06
01
1F
0F
FF
14
22
F4
F0
F9
F9
13
26
F7
FB
06
00
0B
F9
08
F3
06
07
0D
04
06
13
F4
E5
E6
E4
F6
F7
FF
23
2C
09
01
20
F7
EF
FA
07
08
EF
F2
05
0E
F2
F0
E4
C8
BC
BB
DC
05
E3
00
EE
E9
F2
E0
DD
F3
FE
FF
FF
F5
03
F8
08
EE
FB
F7
10
FE
02
DE
DE
C5
DE
F6
0C
12
03
F0
FD
09
08
06
01
F3
0C
FF
F8
F1
01
03
08
02

