FC
D4
12
21
E5
FC
29
EE
37
3D
1C
F4
F6
E9
19
01
28
F9
05
FB
26
CE
E5
E6
2A
08
E5
06
16
EB
F3
25
D0
EF
03
00
FE
DE
03
FD
0B
03
FC
2D
24
EC
1A
40
E9
FB
05
F3
0D
23
D8
36
F8
18
24
13
F2
CD
FB
33
47
DE
08
31
D5
21
EE
D1
08
E2
26
EA
11
F9
F1
18
29
FE
0E
1D
EB
F1
CF
CB
F7
0F
23
F0
1F
DF
03
D9
FD
FD
FA
1C
0D
1D
E2
AE
08
24
01
2D
23
21
C2
E3
13
E3
48
17
0B
F2
DB
EA
F5
DF
C2
2E
D7
EA
E7
FF

