F6
FE
17
18
20
12
C5
E8
1E
46
DA
17
F0
2B
FC
3A
16
F5
51
16
23
D1
07
F9
51
D1
F6
D4
2E
0A
CF
06
E7
16
17
08
07
17
2E
22
EB
E7
EC
06
13
06
0F
22
FC
CA
E2
00
13
D4
0B
38
CE
27
4E
F7
D3
E3
F7
16
1C
D6
D9
EB
B5
2C
0A
24
11
F1
39
08
02
C9
18
16
CE
00
19
F6
37
EE
DA
05
12
29
F4
0B
23
05
11
09
08
E0
2B
21
FF
CF
FA
E6
DF
22
0A
FC
05
2A
12
1E
17
FC
27
09
21
E3
F2
25
1B
3E
19
07
EF
01
F7
38

