20
EB
EE
18
0E
00
F4
0E
08
F0
14
D5
1D
26
17
03
DD
00
E7
E7
19
1E
0E
02
CE
14
3F
D1
E2
D3
3A
C1
F9
3C
4B
1A
4C
D0
07
F6
CC
EC
FA
03
04
E0
07
09
27
40
28
D6
31
18
DA
06
C1
26
FB
FB
3D
08
EB
43
E1
00
F7
CF
0E
AE
15
FA
26
06
16
F4
24
D8
C5
D7
07
0E
0A
CF
09
EE
1A
EF
1F
E3
F3
01
E7
21
CB
0B
DC
FF
1C
0E
0C
FC
31
16
DF
0E
A6
F6
E0
EC
1F
F1
28
04
BD
F3
FD
02
16
D6
D4
32
02
F5
17
EB
1F
E2

