FA
1F
03
EB
09
02
00
23
D0
BD
0F
0F
F2
0A
31
17
22
E4
F3
1E
20
FE
EA
F5
E1
CE
17
F2
1D
FA
36
27
02
F5
E4
FE
EA
07
E2
F8
01
FE
BE
0A
1B
09
F6
2E
12
04
0C
DE
2A
1B
FA
CF
E6
1D
EB
05
E4
F8
15
E8
F3
FE
2F
EE
0F
EA
E4
18
30
24
F5
E0
22
07
0D
ED
12
02
1F
1C
33
F0
05
1E
19
DF
18
F2
22
EF
0E
FF
F2
F1
04
FC
25
FB
07
F2
09
01
23
DD
F4
06
B8
24
27
E8
01
EE
FE
0A
0B
0C
21
26
1A
FB
F5
1B
19
FF

