10
0F
11
08
F9
02
F0
0A
09
02
0C
ED
10
0F
22
09
05
EE
07
F5
0C
FF
FE
03
F8
F6
F2
0E
FA
F7
FF
F7
0F
F9
F1
0E
FC
F7
03
0B
EE
F0
F6
E9
09
0A
EF
E1
F7
FA
E2
E2
FF
FA
03
FB
FC
09
04
FF
0D
06
03
01
12
0E
03
F4
13
1C
23
09
0C
15
FA
E1
F7
0D
01
E6
14
15
F3
FC
05
03
01
08
03
F7
08
FD
11
1E
F5
0E
19
18
07
15
02
0A
0A
FA
02
EE
F6
F5
F6
01
F1
F7
01
01
1D
17
E3
F2
FE
13
F0
05
1A
09
FF
06
15
15
1A
2F
18
0D
F0
CF
E5
CB
E7
E9
F6
EE
01
05
15
FC
EE
E5
EC
F8
EB
F1
F6
0C
F8
08
1E
07
12
11
0B
FC
1A
00
0B
F8
C4
DB
E5
E4
FB
F0
07
03
F3
F3
E8
D9
EE
F7
16
FB
0C
01
0F
1E
22
2B
1D
01
1B
14
00
E4
AF
DE
00
04
05
F4
07
EC
03
EE
D7
08
00
09
EC
07
EE
FD
FE
08
0E
15
2A
0E
1C
05
0E
E6
D5
07
EE
0D
0E
F4
03
0B
EC
E7
02
F2
01
E0
EC
FC
CD
DE
CE
EE
13
25
26
28
0C
20
01
01
CC
EB
FE
F5
03
E0
16
0F
EC
E0
EA
F7
10
E1
FB
F0
EF
F1
E2
EC
FB
FF
27
0A
08
09
05
13
D4
E2
10
F0
0B
F4
FB
F9
DE
02
FF
FA
FA
FD
F9
F1
06
F9
E6
E7
FF
01
00
1A
0E
22
18
04
C7
D0
EA
00
0C
04
EB
F4
EC
0C
F3
00
F6
EE
F1
FF
05
D6
F5
FA
E5
03
F9
1A
0B
1F
2F
F2
D6
FB
00
FE
E6
E9
0F
0E
1B
EE
19
0F
0E
05
1B
F0
FC
F7
F3
FA
02
F4
09
16
27
0E
05
F9
EF
FD
EB
06
0F
F3
02
1E
04
0E
09
13
17
00
0C
FC
F6
FD
FD
F6
F2
EB
03
02
26
03
00
E5
CE
DC
FA
F4
01
F2
DC
08
F1
E3
11
F9
0C
DB
F4
07
F8
01
09
06
05
06
FC
FD
F0
EF
EF
F8
E0
FF
05
18
F4
ED
D3
F2
12
F5
F5
EE
F2
0F
F5
07
FC
0D
09
02
0A
FA
F5
F4
EB
D7
EC
E6
EC
F2
05
10
08
FA
E5
FC
08
0C
E8
0C
F0
FF
09
F0
04
F1
F7
0D
F3
E8
01
EB
F7
EF
FD
F4
0D
0E
1B
14
F6
F6
FE
FF
F7
F9
00
01
0F
11
FF
0B
F8
0F
06
16
F1
EE
E0
F9
D8
F8
08
E0
F4
FD
14
17
0E
F0
F0
02
0D
F8
02
04
14
1C
06
01
FB
0C
0E
FC
06
F0
FF
FB
E4
F8
FA
0C
F6
F8
1A
0B
04
01
07
F6
0A
01
07
0A
03
1C
1E
FE
11
0E
11
14
F7
0B
F3
F4
F6
0F
02
F1
F2
F5
05
0B
FD
ED
13
0A
01
05
05
FF
06
17
01
F7
F0
FC
0B
10
09
00
10
0B
FA
07
11
0F
F7
EE
0A
11
03
FF
1A
15
FC
00
FF
0D
05
07
0A
00
FB
03
03
0A
0E
1C
20
FB
F8
02
0C
1C
28
0B
E5
08
04
FE
0B
FF
05
FD
14
20
19
1B
0F
F8
F6
F2
07
F3
0C
0A
0A
EE
EE
F3
0D
0B
26
F9
E6
0D
06
FF
13
0B
F8
FA
EE
F0
0F
18
13
18
08
06
EB
EE
19
1F
1B
0A
12
15
1C
27
19
F1
17
F7
F3
0B
E6
F1
EB
D3
FF
DF
F8
05
F2
0C
0F
02
F4
11
01
2A
25
2E
22
22
1D
1F
1D
FA
F3
FF
02
05
10
E9
D1
DB
F5
04
14
0A
F8
13
12
08
0C
11
1A
09
10
1D
32
0C
0D
01
F4
F9
11
05
0C
ED
08
0C
04
EC
FF
02
FC
EB
03
02
F6
F4
25
10
FC
FE
08
1A
3B
FA
0A
F5
ED
FF
F7
11
02
F9
0D
F8
F4
EC
E2
FA
E8
FC
26
14
19
06
DF
DA
D7
E5
16
EE
02
0D
EF
01
FB
00
F8
F7

