09
08
10
EF
F6
FB
0E
12
09
F6
0E
0D
16
00
1C
14
FB
F4
0E
12
F3
F6
09
0C
F6
12
0F
F1
F0
05
F2
0D
00
11
1D
12
0A
14
11
0F
00
10
F2
F3
12
10
13
15
06
11
0A
00
F8
07
11
F6
0E
10
F2
FF
08
1D
1A
16
28
1D
21
47
29
10
2A
23
21
0F
1C
FF
04
18
0E
02
08
F9
EF
0A
0B
F1
09
FD
14
3A
30
2F
18
1E
FB
28
21
23
1C
02
0B
09
ED
04
FE
23
F9
FD
01
F6
14
F8
F2
02
1C
0F
18
18
40
19
1D
15
26
0F
FD
08
0E
04
ED
F3
E4
05
E9
D6
EE
04
07
09
25
0A
FA
0F
0F
04
1F
02
11
1F
20
12
29
2F
27
0C
FD
F5
0F
EE
F3
EC
07
06
E2
10
03
06
0A
1F
07
16
EF
1A
0B
0B
0D
36
1E
1A
17
2B
09
1D
17
12
0E
F4
07
E4
E5
F8
F3
F3
EE
23
19
22
F8
35
10
1A
32
1A
1B
31
28
04
17
18
08
1C
1D
16
08
EF
00
FB
FB
DE
E3
D6
18
26
18
04
09
FF
F3
F4
11
EB
00
02
0A
F6
EA
E9
DF
E8
F0
F8
F3
FE
F3
E4
EB
E0
E7
00
F9
F8
EF
F1
FC
03
F4
D5
F2
DF
E7
E3
D8
C5
C2
E4
DF
CC
CD
CF
E6
F6
FE
EF
FA
DD
04
08
D9
D6
EB
FB
12
F5
10
EA
D9
DD
CA
B9
AC
B9
AB
BC
C7
B3
B0
D9
00
F3
08
DA
F2
EE
F4
EA
EE
DB
E5
F2
0C
06
F8
10
EF
E2
D9
BA
C9
D0
CC
F2
CE
D2
F5
E4
09
00
F2
FD
05
FA
F6
0B
FC
E8
CB
09
FC
F7
E9
2E
08
F8
E5
FC
00
FC
14
0A
08
0B
1E
00
18
FE
FE
11
06
FA
06
0C
19
03
13
2E
E4
04
0B
16
25
12
04
FE
15
0B
32
0D
1B
2B
1A
08
03
09
19
12
09
0B
10
0E
F7
06
F1
02
0F
FA
0B
13
F8
0D
21
14
17
24
0D
06
07
24
17
04
FD
F1
FF
06
05
E9
FB
EA
EF
F4
0D
0E
01
F2
EC
07
EE
1D
25
06
02
07
F8
0C
09
F6
FA
0A
17
F0
15
02
0D
FF
F6
FC
F9
F6
04
06
FB
F4
05
06
1C
0B
16
03
E3
F2
0C
16
03
F6
08
EB
F7
E5
F9
04
FC
09
F7
03
0A
17
04
01
FD
0D
28
0C
0A
11
11
FA
EE
02
0D
1B
0C
04
F6
EF
FE
00
FC
F2
F5
FB
EF
EF
F7
1E
F0
12
07
EE
27
F1
F4
F9
F5
0D
F7
F2
0E
16
1E
FA
EF
FC
03
00
F1
EB
ED
12
10
FA
FD
57
21
13
F1
F0
0F
F6
F3
09
12
F0
F3
0A
03
0E
13
1E
04
1D
19
25
0F
10
F1
14
0C
F6
F8
24
21
09
FF
F8
13
1D
F1
00
E9
EC
F3
E5
FD
05
1C
12
1D
08
18
27
20
E5
08
FD
01
ED
04
0C
0A
08
F1
FB
12
25
DD
DC
E9
F5
E3
F6
0A
F3
01
05
0F
F6
FF
12
F1
02
03
00
19
07
FE
14
28
F6
05
07
1E
FE
00
FF
02
FB
F9
0D
04
06
FC
0F
10
0D
FB
F2
F0
F4
1E
FE
1A
11
E0
12
0A
FF
0F
01
0B
FB
07
FF
11
01
FB
0A
02
F9
FA
FC
F2
ED
F3
EC
E1
0C
29
14
0D
0D
E8
15
FC
F8
F5
07
2C
FA
FE
ED
F2
F3
FC
D7
00
FB
0A
08
16
FF
EC
04
F0
ED
03
19
F3
EB
0C
13
13
EF
F6
FB
09
F8
06
F4
00
15
DF
FE
1B
20
20
FE
F3
D5
ED
FC
E2
D8
D2
DE
0E
ED
F0
01
08
FB
FC
F5
F2
00
F0
F2
F6
F8
F8
F0
0F
01
F0
04
21
02
14
17
F1
FC
FE
19
10
F3
0C
05
F3
09
F9
12
03
F7
0C
FA
04
01
0B
F3
F0
F1
08
02
0F
F8
15
1B
F9
0E
05
0F
F9
FA
07
00
06
FF

