24
0B
10
09
E3
C2
D7
EB
42
F9
01
CE
4A
04
05
DF
E6
28
15
1C
23
2C
14
F3
41
F5
33
15
FD
18
DC
19
04
30
FD
15
40
F4
15
3C
DC
0A
28
27
05
E5
2C
FE
DE
B3
AB
1E
05
00
EC
53
E1
2E
48
0E
E5
30
20
04
1C
0F
FE
16
1D
B1
16
18
20
E9
EA
0B
F5
28
E0
DB
01
F3
EE
06
FF
D5
08
22
E7
1E
33
F6
FC
24
D0
D0
1D
D1
21
30
2D
1F
FD
F0
22
EC
03
0C
D3
18
16
E9
E6
BF
CD
F8
DF
E2
13
EF
5B
28
C8
D7
17
FA
ED
12

