74
10
75
03
10
78
07
7D
0A
7B
10
0A
72
71
04
7F
08
09
71
0D
11
0F
0F
76
0F
06
7F
72
76
0B
11
7E
00
05
7D
66
5F
7C
76
7C
53
61
00
75
63
62
6B
6F
76
6E
7B
6D
0D
05
7F
71
7E
7D
11
78
63
67
77
6E
05
0C
7A
61
79
7A
68
7C
64
05
0A
73
65
65
5F
57
70
76
79
03
6E
07
06
70
5F
76
62
56
6A
6D
0A
75
6C
6C
56
71
5F
6D
76
7A
71
1C
07
19
66
72
73
7C
01
0E
72
62
6F
69
6D
67
67
10
04
79
79
6E
73
75
12
15
75
79
05
0C
22
1F
33
23
02
70
07
01
7B
6C
68
59
71
04
7F
74
05
7E
02
0F
0A
0C
0F
1A
0A
05
02
1D
1A
03
22
31
1E
6C
79
09
77
64
71
5C
75
0C
08
09
09
79
06
79
07
7E
7A
0F
73
11
07
75
01
1D
23
36
0E
79
10
61
65
0C
13
09
7B
02
0E
1B
7E
7A
09
05
73
1C
7D
75
6E
6A
09
76
7D
12
14
26
22
0F
70
60
11
23
19
03
02
12
78
16
0E
7B
0F
04
74
03
76
65
6E
7E
0E
01
00
01
15
23
2C
06
6C
57
07
7F
6A
04
03
0C
10
0D
05
1F
7F
0A
71
7A
05
76
79
00
7F
7D
78
01
19
18
0C
5F
0A
58
62
6C
0D
16
16
7F
75
18
1B
0B
09
07
7D
6C
7A
78
0A
12
05
74
6F
09
0C
70
0E
76
0F
76
53
6A
7B
01
0C
7D
15
17
77
08
1B
09
11
11
04
7E
0D
03
7C
78
6F
00
79
1E
3A
6F
6E
7A
02
0F
0D
07
09
7B
04
76
78
0B
06
7E
11
10
78
00
74
04
00
06
6E
01
14
7A
79
57
77
02
74
0C
7A
09
04
10
6F
74
6F
75
19
0F
1B
0D
1B
7D
7C
01
7E
7A
7D
02
6E
72
0D
21
10
06
6D
6A
0C
00
07
10
09
62
75
09
0D
13
0B
77
04
17
70
79
76
70
7B
6D
75
0B
05
0F
0F
71
63
0E
10
6E
15
09
1C
73
05
73
02
11
13
7B
11
07
0A
6C
01
6B
72
78
69
04
0D
11
04
69
06
0D
70
67
0D
74
07
7E
11
0B
05
14
0D
7C
01
00
7B
7D
07
7C
65
06
70
1A
0F
03
7D
6E
7A
7F
07
70
02
12
73
01
0A
14
10
13
16
0A
11
0E
05
7F
78
0E
00
71
08
6D
6E
00
05
00
76
1F
12
19
0E
04
7A
13
01
7E
7D
74
1B
75
09
0A
06
76
0A
09
7B
6E
7C
08
78
04
7B
64
6A
0F
70
76
7C
6A
7C
05
6D
7D
73
08
7A
0F
0E
07
7E
01
0F
0C
71
7E
20
10
00
7D
7D
68
09
05
7E
01
06
06
07
6F
07
69
70
75
01
09
79
7D
76
1A
18
10
7F
23
22
7D
68
75
0B
75
72
7E
6D
7E
0F
7E
79
71
01
09
7F
08
11
0A
00
13
02
04
14
14
12
23
25
7C
59
6D
7E
0C
79
09
7A
78
00
7B
67
7F
07
1F
08
0C
7A
13
7C
71
07
7D
77
14
1A
26
3A
7C
54
72
04
7E
07
0B
7B
69
5E
68
7A
7C
05
1A
22
18
1B
76
0D
79
0F
06
14
17
3F
2A
0B
06
01
01
79
0F
02
7F
5D
56
6E
01
7F
7E
02
7F
2D
06
0B
0A
0E
7B
14
04
08
10
07
0D
0D
76
05
78
76
7B
28
79
50
60
6E
6F
62
05
09
03
6A
05
08
1D
08
24
00
02
21
10
04
0A
73
6D
05
0D
70
74
7A
18
0C
01
04
6C
65
01
6A
03
06
62
7A
7A
01
06
11
53
6B
12
65
79
00
79
05
70
08
10
0A
7C
6A
76
68
79
02
7A
4B
77
79
7C
6E
0D
68
51
61
62
0A
76
7B
5B
77
09
77
04

