F9
D8
05
0C
01
21
D8
05
01
C6
ED
05
E1
E9
2C
1B
33
FC
DD
08
27
B6
E2
17
F5
27
23
C2
31
05
50
02
07
2D
26
EC
E8
ED
F4
07
29
29
ED
10
1A
04
1C
2F
DB
10
E2
32
25
04
E0
08
FE
DF
E0
25
D0
07
C1
F7
56
C5
21
05
F6
E9
F4
04
0A
F8
0A
30
0B
F9
FD
EC
46
15
10
ED
DE
00
FA
DB
E1
EB
08
D7
11
0E
FB
22
3F
28
18
0E
16
03
13
FF
34
21
F4
EB
1B
07
E6
03
14
F6
ED
E4
F8
08
EF
05
1C
20
20
E8
2A
29
10
F9

