FB
09
08
F0
FA
01
12
EF
0F
09
EF
F8
11
09
01
FA
00
12
F8
EE
F8
0E
FB
07
0C
F5
01
F3
0B
07
F7
06
F9
F1
13
FE
02
0F
FD
18
0A
1B
FD
00
0E
18
12
FD
1C
FD
FD
0A
0D
0A
F1
03
11
F6
F2
EB
07
0A
FC
0A
15
06
05
11
17
1A
E7
E8
CE
DF
F8
F2
EF
F5
03
0B
05
F6
FF
12
F7
F9
FD
F4
1A
0E
1F
23
19
F5
1D
0A
06
08
EB
F3
06
02
04
F1
E4
E8
CF
EF
DF
FF
F4
01
09
00
EB
15
1D
2A
2B
31
06
06
12
11
13
FA
08
0A
26
21
1E
16
0B
F5
FC
FD
D6
FE
F0
F6
F3
F4
EA
06
1F
32
24
0F
00
0A
20
18
0F
0A
FF
FE
F9
01
05
1A
16
09
F4
0A
E0
D4
FE
12
FB
09
02
03
0C
2E
16
EF
03
1A
FD
1B
F9
EE
0B
FD
07
09
F0
F8
01
19
EC
04
02
E7
02
08
FF
12
26
DE
E8
10
02
04
E8
0B
0B
1C
F3
08
0D
10
0F
07
05
13
FF
F5
E8
E5
0B
E3
F6
F1
08
0B
22
CB
DF
01
E6
EE
02
0A
08
0E
00
ED
15
FE
EE
EC
04
09
FC
16
F9
D7
EC
15
EB
01
FD
0E
08
FB
F8
F7
FF
FE
03
FF
0D
02
FB
EB
F4
F3
08
14
1B
03
1B
04
F9
FB
DD
02
06
FD
01
FF
FA
0B
F2
FC
13
F4
08
0A
08
00
F2
E2
D8
F0
F8
15
0C
07
14
0E
1D
0C
EF
17
0A
FB
06
F3
13
FC
F8
09
1A
F7
01
11
FE
F6
DA
E9
D7
06
0E
06
17
15
0C
1C
31
26
05
F7
10
0F
03
F2
09
F5
04
17
10
0C
05
0B
F7
DF
CB
ED
F8
01
08
FC
F7
FA
13
26
15
31
15
D7
04
00
F3
07
04
FB
31
2D
25
19
0C
ED
E4
BB
E4
01
09
02
E1
EC
D9
E5
F7
2E
11
07
0D
0C
08
F6
0D
14
10
11
26
28
10
14
0C
F6
CC
DD
E1
EB
0A
F9
EB
D6
DA
F4
06
21
12
16
F4
F2
0E
F2
07
FC
E9
FC
17
20
18
F8
E1
E2
D5
CF
ED
04
F8
E1
D9
CC
F4
06
06
02
F0
05
FE
EA
1B
13
07
01
FF
0B
27
2A
1E
09
E6
DB
D4
CD
F5
F8
04
F3
E9
D1
FF
FF
0F
EC
13
06
F0
09
FC
11
02
FA
15
23
05
1A
10
1C
0F
01
E0
E8
E8
F3
EE
E2
C2
EC
FA
10
FB
E5
13
F0
F4
08
F8
E3
08
09
17
1F
15
00
1F
33
21
27
14
03
F6
F3
E4
CD
F0
07
07
11
F8
FD
FC
F8
EC
2D
FB
F8
F1
0C
2C
01
0C
00
16
11
2B
36
33
2C
07
F6
ED
E6
E4
0F
1C
1C
1C
08
04
EB
F5
1D
FE
F8
04
F3
11
F1
E7
00
13
07
21
14
17
FC
FD
F6
0C
F6
1D
16
FE
09
FB
F9
EB
0A
29
31
05
F2
0E
EF
E8
DA
E1
07
FB
FE
11
FF
24
05
15
01
1F
21
21
0A
00
F2
F6
F6
09
12
35
2D
FF
0D
01
F9
02
F2
06
0C
06
E3
00
F4
EF
00
0E
09
21
2D
27
0B
1E
13
09
EF
00
19
12
09
F3
04
04
FA
07
00
FE
09
19
0A
F0
E8
FD
F3
08
15
13
20
20
15
1E
07
0D
0D
FF
16
29
00
04
F8
EE
04
17
0A
25
28
1C
10
17
F6
F8
F4
EA
FC
03
21
2D
0E
FD
07
24
07
1A
1D
0C
0E
09
F7
FB
FE
0F
0A
05
20
FA
ED
03
18
0B
FA
FD
F2
09
05
0D
FD
E5
06
24
36
29
10
10
16
0A
12
06
0A
FC
FA
10
1E
06
F1
0D
14
FB
FC
F2
0A
FC
15
0E
12
0C
04
38
40
2B
01
FC
FA
F2
09
0A
F8
05
FE
F7
EE
F8
EE
04
0D
12
13
06
0F
05
06
0B
17
16
07
0F
26
29
10
11
F7
11
11

