11
2D
14
F8
FE
EE
33
0D
2C
41
FD
23
00
0A
F6
D8
F9
32
F9
D3
0D
14
05
14
EB
D3
F1
FB
D4
08
EB
DE
D7
F6
D2
FA
29
26
EB
F1
19
EE
28
FD
F1
2D
FD
07
CD
0C
25
3D
FE
E3
E4
25
D8
FD
E6
22
21
ED
11
01
0C
16
EC
37
E8
F5
32
0F
09
21
ED
F2
2B
DB
F7
D8
04
FC
DC
E5
F2
34
CC
06
22
CD
12
26
1D
20
E3
30
37
C9
19
12
13
17
F7
DF
E2
D9
21
CE
17
F6
C8
18
FA
04
D0
00
ED
E3
E6
01
F6
07
C8
EB
F2
21
27
FA

