FE
ED
FD
06
07
04
F9
EF
F9
09
08
F6
EB
06
17
0C
0D
F7
04
0F
F8
0E
FC
FB
06
F0
0B
0B
EE
F3
04
02
0A
EE
EA
01
FB
08
F1
EE
E8
05
E8
D2
F5
DC
DE
FC
E8
EC
F6
E6
EF
00
0D
FB
12
F3
0E
EF
EC
FF
E4
FB
09
0B
FB
F0
FC
0B
10
EF
F3
F5
D5
C9
C9
F1
E0
0A
FE
10
0B
06
EF
12
07
F8
ED
FB
F9
D6
E4
04
09
E0
F1
0C
08
F1
18
0E
15
00
FA
1E
23
0B
0A
F5
F7
0B
FB
05
10
11
EF
F3
DF
E0
E6
FD
FC
09
29
00
F8
0E
04
22
16
0E
24
15
F5
EC
FF
FC
16
EF
F8
10
08
02
11
E8
0C
FF
FF
01
E7
13
03
ED
06
05
13
14
F6
13
11
17
EA
D6
0C
11
0F
F4
F9
02
E6
E6
F0
CE
E3
FF
FA
DC
DE
F0
02
FF
0D
1E
0C
06
08
EC
0D
F4
F2
ED
DF
14
10
0E
0D
DE
F8
EF
1E
03
E5
CE
EF
F1
02
F9
FC
03
03
18
0D
F4
EF
0B
F8
F4
F6
F0
21
08
E5
04
FD
EA
EE
0B
0E
F2
FE
DB
07
F3
16
0A
0B
0F
FD
F5
F5
FC
FD
22
F5
FD
F4
01
FC
0D
12
0E
F2
F6
20
29
05
E8
F7
E4
05
1C
21
0D
06
0E
05
E9
FD
EF
01
25
20
F3
07
02
F3
F3
0F
D8
FC
DA
ED
0F
F8
F4
FF
14
1F
16
04
1B
01
F1
0F
FF
11
0C
0F
1C
1A
ED
FE
16
FA
D6
EF
FE
F9
EC
DB
FD
03
0B
17
10
02
07
03
15
11
08
FD
F8
1C
0C
2D
27
1F
F4
E6
E7
02
0F
09
FA
FA
F7
FB
F6
FD
07
04
16
F9
F5
02
04
F8
0B
03
2F
2E
21
29
1C
E5
EC
D3
EE
F8
F9
E7
E8
F3
F4
05
0A
EB
F6
F4
F2
ED
E7
EB
08
11
12
25
21
20
29
0F
00
E6
F4
FB
E2
E5
F5
11
12
0B
0A
EE
0E
ED
EE
FD
10
F0
D6
FD
03
0E
18
26
19
0A
01
E6
CB
E6
E4
F7
F9
FB
F2
29
FB
EF
06
F3
08
F5
00
FF
F9
EE
04
F3
0B
15
13
20
02
13
F7
D7
D3
DB
02
09
09
F3
18
FD
20
12
14
11
02
F2
F8
F4
10
05
FE
1E
28
17
20
0A
16
07
F8
D3
C0
CC
F5
09
0C
EE
10
1C
27
FC
EE
12
E5
EF
FD
F8
09
1A
1B
1A
17
22
1D
14
F0
E9
D6
BD
CA
E5
02
16
1D
FF
0A
14
FF
06
00
EE
08
E7
0B
04
FB
0B
FE
17
0B
E1
EF
EF
DF
DE
D8
D0
EE
11
11
2B
18
0C
F7
E6
06
FA
00
E6
F5
01
10
FB
0A
0E
1B
03
E1
E3
02
E8
D6
F1
00
DD
EA
F9
11
2A
23
F0
E8
18
F0
0C
EB
EA
FE
FC
F4
14
02
F5
F6
09
01
FA
D8
EE
00
E5
F4
FE
13
05
0B
20
14
02
F7
0D
02
02
02
E2
02
19
09
18
05
0F
09
09
01
F7
E0
EC
F4
EF
F6
F0
F1
00
03
03
E8
D3
FC
E7
12
02
07
18
0B
23
11
23
2D
0A
11
05
E6
F5
F4
E5
F5
F4
F1
FD
F6
08
1F
13
E9
E1
E7
CA
F6
0F
FA
FB
1B
FD
09
0A
15
15
00
F7
FE
E8
F4
ED
E9
14
FC
FF
04
FC
13
FF
EB
F2
E4
EF
F4
F2
08
03
E0
0A
14
19
12
0F
D7
F0
ED
01
F1
E0
F6
F9
FB
F2
CF
F7
FA
E7
F7
E3
EE
F8
03
02
EF
29
F6
F2
0B
0C
16
FB
0D
07
FF
F6
07
07
14
F6
0F
E5
DB
06
03
EE
ED
CD
11
0D
12
F4
10
07
19
1C
04
FC
23
0B
14
24
1C
F1
0A
10
20
1A
04
1A
FD
E9
12
1F
1E
02
0B
09
0E
03
13
FC
11
F9
01
16
01
0F
18
10
13
12
02
35
21
03
00
12
0F
FB
19
1D
E8
09
0C
02
FF

