2C
1C
00
FB
19
00
17
F9
0E
08
E1
E7
CD
06
E6
17
F1
B7
1E
17
15
2E
E2
FF
09
00
E5
F8
23
DD
E9
1C
27
F5
26
19
D5
DE
23
00
29
0A
23
FA
EE
F9
05
D5
2C
11
48
19
FE
D8
1D
CA
2F
11
26
1C
08
DC
EA
16
DF
31
DB
1C
EC
12
33
1D
0E
F4
3B
F6
F5
E8
0D
35
CB
F5
E0
33
FB
2C
0C
FA
16
DA
E9
37
13
23
0C
26
CB
02
F8
16
E5
C3
E1
17
F2
F9
14
25
F9
20
07
15
24
26
43
FA
0E
FF
11
10
CE
D8
1E
ED
FD
00
0F
0D

