02
03
08
2B
03
26
07
00
07
EC
04
21
DF
B8
17
E8
CA
E7
02
F9
D5
CF
F7
DE
03
F6
C5
EA
03
27
16
04
11
18
CC
E9
DF
EC
E6
DB
F1
FA
1E
E8
CD
D9
FD
F4
00
46
2B
E3
F4
EE
1D
FE
15
05
1B
DF
EA
14
FF
0F
23
DE
F6
04
E9
10
C8
E3
D8
C7
FA
EF
D5
12
EE
06
E4
14
E5
0E
C5
06
05
DE
0B
D6
D6
CB
1B
D6
F0
F6
0D
08
FF
DC
EF
F0
0E
1D
12
DE
17
31
32
0F
E1
E0
DF
C9
EA
FA
F1
0C
D6
30
CB
FC
1A
DE
EB
1E
19
1C

