0E
F0
FA
F3
FB
EE
FC
05
FF
FC
01
01
F1
EE
09
05
FD
F7
F8
FB
0F
F3
F9
FA
07
F7
0E
EE
F3
12
F6
12
F7
02
F7
FF
F9
FE
04
EE
D0
DB
E7
CD
FA
F0
ED
D9
F6
E5
E0
DE
F9
06
08
05
F5
11
FD
ED
DF
FF
07
00
1C
24
1F
1A
FE
E7
FD
F8
F1
19
05
EE
F9
F4
ED
EF
0B
05
F2
FF
04
F0
0F
FC
E6
E5
EB
09
01
FA
FD
EE
F6
E1
E6
06
EB
FB
E9
13
E8
0C
06
F2
F8
F7
F4
0E
FF
F8
10
EF
F5
FC
08
08
F3
E1
FF
F6
EA
F7
03
F8
E9
F9
EE
FC
00
05
EA
13
14
06
F6
0A
FC
02
13
EF
EF
02
FB
ED
F9
05
DB
E3
04
12
0A
F7
E7
FD
11
F1
0E
F5
03
F2
F1
05
1F
13
02
03
F3
E3
15
D7
E1
EF
F0
E8
E9
F8
01
FF
05
EF
FD
05
08
FF
04
04
F8
E0
D8
18
05
0E
F9
F0
02
F4
1B
E9
DA
CB
FD
E4
FF
04
FA
F2
FF
08
F5
EC
05
FF
FA
F8
EE
F9
F4
2B
0E
17
03
05
11
02
0F
F6
CF
DC
D0
DC
FF
F0
F8
09
03
F3
FF
0E
01
10
FF
0D
EC
F3
1D
23
01
02
F1
EA
F1
F3
06
F8
02
E4
CE
F3
F1
FD
16
25
0A
02
0F
14
FC
EC
EF
FC
EF
FF
28
F5
DC
CD
F1
F5
06
19
0D
FE
0D
FB
CE
E9
DF
E6
15
16
03
04
E6
F5
00
E2
E0
06
DE
FE
16
03
F3
E4
0E
F9
17
11
12
29
1C
E5
E0
01
F7
F5
FC
F9
EA
E7
EE
F2
CF
F1
01
03
07
FC
21
3B
F9
E8
07
02
F1
19
11
2C
22
EA
06
FA
EE
E2
D5
DE
D2
DE
DF
E5
F4
00
14
15
09
02
20
21
03
DF
0A
01
00
F1
19
10
12
06
F7
01
ED
DF
D2
FC
F3
E6
0D
0B
04
07
19
11
17
21
07
15
1C
22
ED
F0
EF
1D
30
F7
FE
03
13
04
07
F5
EC
05
F1
01
07
0C
06
03
1C
18
2C
EF
15
43
28
16
05
EF
DA
1E
0F
0B
09
16
22
22
14
FF
1A
15
FF
07
1C
07
0C
FC
11
05
0F
DF
11
2B
1C
15
12
E2
EB
06
05
19
1F
05
01
1A
16
2C
08
03
0E
10
26
15
16
00
03
00
10
F4
F2
35
2F
2C
EE
F3
06
FC
03
FD
1A
18
04
24
18
13
22
F8
04
3E
1C
15
00
0A
FC
FB
E5
DB
E0
33
21
27
0F
EE
EC
0E
07
00
22
2E
0B
14
1E
1B
01
FE
14
29
08
05
17
00
07
08
F2
FD
16
27
FF
20
07
F6
F9
01
18
FE
1B
2E
1E
04
0D
12
07
09
0E
26
00
F5
17
05
17
FE
FE
12
F4
06
1D
15
00
FE
23
0C
1A
29
0C
0F
15
0F
06
0A
F8
F2
EC
19
11
FD
0A
14
03
05
27
1E
31
33
19
F3
F6
F9
F7
13
33
13
05
19
10
0F
FF
EA
F1
07
04
FA
09
0F
F7
09
F9
12
07
31
39
05
EC
F4
F4
08
11
12
27
18
10
08
E7
FF
EC
12
FA
EB
EA
ED
01
FB
EB
ED
18
0C
0A
14
17
FC
C6
0C
02
F9
F8
1D
07
11
05
E5
0A
FC
F4
E1
F3
DC
E5
EC
DF
DA
F8
00
0E
1A
1C
17
10
E8
04
11
F6
FC
F4
0F
EB
C3
F8
FF
12
1A
00
07
FB
F4
05
ED
F4
E7
FF
0A
1D
05
16
1F
E7
08
1F
02
00
FA
14
08
FA
FA
1D
1B
FD
F5
EE
FA
FD
FD
00
16
F1
F7
26
36
14
23
18
16
F1
18
02
FE
0E
12
F8
0C
18
34
1A
15
14
F5
E5
F3
0F
28
0E
12
14
06
15
06
11
0B
0B
20
08
E9
02
03
F5
F2
00
10
0E
00
F4
16
1A
0D
09
10
1A
03
10
F7
08
19
1D
15
0B
E8
F3
CD
0B
F4
FC
F5

