16
F9
E2
19
1A
D8
22
0C
FC
17
30
AA
49
0F
E6
D8
1A
E2
04
FD
23
2B
1F
0D
16
12
E0
DF
15
E6
34
EE
0A
29
37
E9
1C
F2
FC
E3
05
26
1B
09
26
F1
FE
C0
FC
3F
1E
18
E2
E1
0B
EE
35
31
5A
28
2D
3F
35
2B
D9
E8
04
E9
54
CF
32
F9
30
E0
0C
08
EC
13
02
2E
17
01
11
E7
F3
FB
1E
21
13
F4
D8
05
E8
EC
E1
F8
D5
1B
1B
1D
16
D9
13
12
2D
13
C9
2B
01
02
29
E5
0A
0C
EC
32
21
2C
FB
C3
AE
E7
EC
09
EA
F8
F9
D5

