F0
F6
09
F3
08
FD
0F
0B
04
FB
FB
FD
1D
14
06
00
FB
02
0E
09
0C
FB
11
04
02
00
04
0D
F9
00
0E
08
05
FC
04
03
1C
01
F4
E4
01
0E
1A
1A
DE
F1
10
0A
02
08
F3
FB
F8
FE
F2
0C
0E
0C
07
07
09
04
03
09
18
FA
06
F9
FE
04
F7
14
16
08
06
0B
05
1D
07
1D
15
04
FA
F9
0E
12
08
09
08
06
F1
09
F2
06
02
FE
E5
07
0F
09
1F
32
2C
1A
32
0E
1B
06
F5
F7
08
F9
F0
0D
0B
0E
19
EE
EB
F2
00
F6
04
FC
09
1C
00
F1
01
E4
08
1A
1A
09
FD
03
10
0F
02
F7
07
0A
0B
0C
0D
F6
FB
DE
FA
FF
13
FC
F0
FF
EB
01
EE
FF
FA
FC
0E
FB
FB
0C
03
02
EB
EF
F5
FD
00
1C
0E
EA
E4
E1
F6
1A
F8
06
01
0E
FB
02
00
00
1C
02
F9
0F
EE
F1
10
EF
06
F1
09
39
08
1C
F9
E7
E0
F3
06
F6
FB
E8
F1
F0
18
05
1B
FC
08
06
0C
F5
03
E1
DD
E6
1E
F5
F2
24
E4
F3
FD
08
FD
FC
F3
E1
FE
F1
F6
E6
05
F9
0F
02
FC
EF
F0
FB
FB
EE
E3
E0
E6
08
03
25
EA
F8
0B
FD
05
F5
FF
EB
F7
FF
F7
FA
0C
0F
15
FF
07
FF
E4
F1
06
D6
E2
07
FD
19
F4
19
F6
1B
02
F8
FD
02
10
F1
F8
E8
FD
10
21
09
18
12
F7
FA
F5
E4
FD
ED
0F
10
0E
18
09
03
11
21
06
FA
F1
05
FC
EB
0E
16
11
21
2B
06
0F
01
03
FC
F9
F8
FD
04
EA
E3
F7
1D
07
07
1C
EB
12
01
F6
0D
F0
01
08
00
06
1D
11
29
F7
0F
0F
E7
ED
FC
ED
F2
CB
FB
0C
23
F4
F6
1C
00
FF
01
01
FF
08
FC
F5
0B
F5
1C
0D
FA
10
07
11
01
0F
07
E5
F9
09
F6
FF
0B
EE
03
14
FE
17
F7
FC
F4
FA
06
01
F8
0B
FE
0A
FC
04
EA
11
07
18
06
F8
E1
DD
F5
E3
F2
FD
F4
0D
04
0D
FD
02
FE
F7
07
19
FA
02
02
06
F6
F2
FA
10
22
0D
01
FA
ED
DD
D7
F0
F4
13
05
F7
11
08
07
EC
F7
FA
F9
1E
07
FB
03
08
E5
E8
FB
FF
0A
0D
0A
FB
EE
E2
D2
D2
E1
07
13
F4
07
11
15
06
F5
F6
F3
FF
E8
07
0C
FC
F9
00
0C
FD
09
06
FF
EE
04
F0
13
0F
D2
11
F5
FF
0E
F2
0D
0B
FD
F3
EB
DC
FC
02
05
12
19
01
0F
14
17
EE
E5
E5
DE
DF
01
28
12
F1
EC
06
FD
E2
15
0F
10
F2
F7
E4
04
10
18
08
09
08
07
F2
F5
D5
D8
D5
E2
08
08
00
06
01
F1
E0
16
02
02
03
01
F1
0F
F3
E6
00
FA
FF
0F
11
FF
04
DB
EA
EC
E4
ED
02
11
FF
07
FB
FE
F9
FA
EF
E2
0A
FF
F9
FC
12
08
0B
F1
11
FA
12
F5
F9
E1
D9
E1
E2
E6
09
F5
EC
13
0D
07
EE
F2
03
F7
EB
EC
F9
FF
0F
FC
EC
FA
04
09
0A
FB
EA
ED
FE
E4
FA
08
FB
09
FE
07
F2
09
13
17
ED
FC
F0
F6
07
01
FE
04
FA
EE
EC
E6
F7
F3
E8
E4
EE
E2
F6
FB
FC
04
0A
EE
EF
11
05
10
2A
28
EF
07
13
07
10
F7
FD
F2
12
F2
EF
06
ED
FB
F8
D9
F0
F4
08
01
18
F4
EE
FC
0D
F4
2C
42
10
3D
36
2A
0C
14
03
13
02
F1
22
00
F7
FD
DD
F3
F2
F5
09
FA
11
12
F1
0C
07
1B
1A
3A
28
3F
1E
28
1F
13
25
36
2F
17
35
13
0F
00
0D
15
09
FF
F5
FA
F8
F9
F4
FB
F1
F1
10
06
F6
FE
1F
1F
13
12
18
26
1C
07
19
1C
0A
19
F7
0A
F5
F5
FF
08
0D
10

