08
11
00
0B
EF
08
07
07
FF
0E
11
07
E1
E5
F1
FE
01
EF
0B
0C
F4
F5
EE
11
0F
FB
ED
F8
F6
07
00
EF
F6
F0
0F
08
F9
F9
E1
02
FC
01
F9
19
0C
1C
FA
02
E4
DE
EF
02
F8
09
F2
08
F8
0B
08
25
16
01
FC
F3
E9
E3
E9
E7
DE
C7
D7
F2
08
F1
DD
F0
0A
FC
EC
EE
08
17
10
09
FE
02
05
10
0D
DE
E8
D8
F7
EF
DA
F0
E3
E8
C7
B5
E2
E9
09
07
F4
06
FD
F7
F8
15
FE
FC
02
EE
02
07
F4
EF
EA
E0
C9
DB
CF
CC
E7
B0
AA
AF
C0
D2
E1
EA
ED
D6
D8
E7
FA
F4
EA
00
0B
11
0E
12
25
08
01
FC
EA
EB
E6
EF
B2
B6
99
CA
BA
AB
C5
D6
D1
E2
D6
CA
E3
E1
FA
1F
09
FF
FF
35
28
F7
0C
29
F7
EC
F4
F1
CE
DB
C9
B1
C0
CC
CB
BD
CC
DC
D7
E3
DA
F0
F5
11
12
F7
10
01
0C
08
10
22
02
DE
F7
04
FF
FE
F7
D6
D7
CB
D6
C3
D4
EB
E1
0A
F9
F8
02
22
F7
F9
FF
EF
F6
F5
FE
EC
E6
E7
06
0B
0D
2A
10
FF
EC
FD
06
F1
F6
F5
F1
0E
0A
DD
EA
14
F3
01
B3
E9
07
18
0D
FE
EF
F2
10
10
2C
2A
23
22
14
0B
0C
02
E5
E2
16
12
09
0C
F6
34
FD
D7
FB
F1
F4
F8
F9
F8
FE
07
12
1B
0D
1B
24
2E
31
1D
1A
07
1B
08
FA
1F
28
47
34
11
E4
EE
16
19
0A
14
EC
F3
10
F5
04
11
0C
1C
2A
29
21
28
26
01
FA
FE
01
0D
2B
29
14
1B
F4
F4
12
0B
15
11
11
06
13
06
0A
19
00
1D
24
05
05
0E
15
F7
F1
F5
08
10
EB
20
3D
27
F4
F5
0D
04
FB
0C
03
0B
04
FE
01
1F
FB
07
00
E9
F9
F8
F2
F6
F0
0F
0B
F9
28
36
11
0D
F5
06
0D
EE
08
FF
07
01
06
05
04
04
12
ED
DB
F9
E8
06
01
FA
0E
17
09
FD
25
0A
2C
08
09
F6
DE
DA
03
06
F9
F0
04
F9
FB
06
F3
F9
E5
F3
F7
F9
05
05
18
02
F1
05
1C
F7
14
F7
E0
08
05
01
FF
24
FE
F3
FA
F8
FD
06
05
06
EB
F1
E5
F6
0D
18
FC
00
19
1D
00
F6
23
1F
08
F0
F8
FD
FC
24
02
F3
03
07
03
16
22
FD
F4
08
FF
FC
F7
0F
04
09
08
08
E9
E0
1C
31
FC
F0
17
EC
F1
0B
07
F9
00
17
28
2B
26
1A
11
F8
EA
F1
0D
FF
02
13
2B
1B
F4
15
0D
1D
07
0E
29
D1
13
20
06
EC
FD
08
FF
17
23
17
09
F4
FE
FE
01
F8
EB
08
1F
20
FA
FF
11
0E
11
1F
01
F9
F1
D3
E4
DE
F9
F7
07
F6
FE
10
02
E7
F0
04
FA
16
F0
12
11
1B
EA
12
0C
12
12
0B
08
07
0C
D2
E6
D7
D4
EF
D6
EA
DF
DA
E3
FB
F0
EC
16
09
F5
F0
FD
23
FE
1A
04
0C
10
F4
08
F2
EE
CC
D3
E1
D9
F4
D4
CD
EA
E7
DA
F2
ED
FE
14
E3
F4
FD
2A
10
14
25
FE
0F
0F
F0
10
03
E4
CB
BA
D2
0A
E3
E5
D5
CC
EF
FD
F6
F5
00
E7
F2
F8
EE
FF
05
0C
18
F8
FB
03
05
06
F9
E5
E6
EE
D8
E5
F3
0A
F0
DB
0A
07
0C
0E
14
F7
EA
F8
EC
02
1D
2A
EE
EF
F3
12
F5
05
08
08
0A
29
3D
F0
D8
07
E7
E8
07
21
1B
38
1D
EC
13
FF
F8
EB
18
12
10
E1
04
F4
F5
FA
F3
E8
01
06
38
F9
0D
1C
2C
3D
30
3C
1B
39
0E
0B
1E
35
19
28
03
E6
01
F3
0C
10
03
03
05
F6
D4
F7
0C
08
F4
23
14
19
0E
1D
08
0B
07
FC
F1
DB
F2
22
1E
F9
F2
01
0E

