EE
01
FE
09
06
12
F7
0D
FA
08
FA
EE
13
0D
F7
F9
F7
13
12
0B
08
F1
05
00
FB
11
00
0B
01
0E
00
F4
F5
06
04
F7
FC
0F
F1
E3
01
0E
03
FE
DB
D9
1B
FC
17
04
10
EF
FA
F7
07
0F
F7
01
07
04
F7
F4
0B
0A
EA
F8
F6
0A
0A
FB
14
17
08
13
F1
13
F9
01
07
03
FF
05
F6
FD
EE
FD
F9
08
F2
E9
F0
01
F2
01
FF
05
F3
0D
1D
04
12
08
09
00
08
12
F2
E3
EA
08
0D
07
F7
12
02
05
EC
FF
08
ED
05
EA
EC
06
F6
0A
09
05
FC
F8
F2
EB
F3
F5
D6
E0
ED
FA
EE
FC
FE
FF
15
F9
F1
FE
EF
F9
04
F1
F5
E1
E8
FE
06
09
02
FD
FE
DE
EF
E4
C4
FA
14
04
E6
F2
09
E8
F1
FE
F6
00
FD
EB
FA
E4
E2
E1
FF
14
0D
27
0D
FC
0C
E5
F0
FB
EA
00
06
D7
EB
FF
0A
F7
F2
EB
EC
01
ED
E3
F0
F7
E1
FA
14
00
22
05
15
FF
E7
E1
EB
EF
F9
FD
E1
E5
FA
D4
F7
F0
E4
E3
F2
F2
01
EA
E7
FF
FC
0E
F7
02
18
0A
E0
D3
E2
E3
E6
EF
0B
EB
EF
F4
0C
FC
10
FA
EF
D3
E4
00
DD
C5
ED
F1
17
F7
12
1C
13
06
D3
D9
E4
03
D8
EE
00
FA
DA
EB
FE
15
F7
FB
E9
F3
F4
F3
DF
F2
EE
E9
F6
15
16
16
19
02
EB
E8
F3
F3
E8
FC
FC
0D
F9
EC
06
02
F9
02
06
F7
EC
E3
DA
0C
F6
FC
19
09
13
F5
01
01
0D
FE
F9
FA
F7
04
F1
F9
D2
CC
C8
FB
05
F2
11
FB
E3
EA
E2
FB
EA
06
1F
2C
17
F5
0D
17
29
17
10
E3
06
F5
05
F7
E1
E5
C5
FE
06
0C
EB
E4
F5
ED
E4
04
F8
08
2C
1D
13
0F
1A
18
27
0B
06
DC
E7
EF
EB
D4
D7
D0
DD
E8
EF
F1
EA
01
DA
CC
D3
D6
00
21
17
03
F4
01
FD
FF
1B
15
FA
F4
0F
E7
E1
CB
EA
EB
D9
F6
FA
06
FB
EE
FA
EE
F0
CA
09
16
22
10
F5
02
F1
04
25
16
0B
EE
F9
24
0D
F3
01
F8
E1
FC
EF
0E
F7
06
0C
FD
F0
00
1B
00
1A
2B
08
EE
05
23
15
F8
FD
06
FF
0B
01
23
F8
D7
E9
F1
0E
F1
F0
00
0C
0A
0E
0C
03
11
19
13
F2
01
15
04
0C
F1
08
F7
F7
E8
F2
1F
14
CA
EC
DB
0B
EF
00
15
12
01
F7
DD
FE
0A
05
EC
0C
F5
15
00
E9
F4
E1
E3
DD
EE
04
18
E9
C9
DD
18
F7
F9
D1
08
01
00
E2
FA
EE
E8
DF
FF
EF
00
12
0E
EF
E5
D7
EA
CC
F0
02
08
EC
ED
F8
08
EE
07
E1
F3
13
0B
0C
F4
DD
DE
E2
EB
03
F8
1A
F8
08
F7
04
F8
FC
02
04
E5
F8
00
12
10
13
0A
FB
FF
FD
15
FD
E6
F4
E1
E1
EF
05
05
10
ED
0D
FB
FE
EC
FB
FC
E5
E8
F5
10
FD
F2
0B
08
FA
EE
05
E7
D4
D6
02
DE
F7
E0
02
FA
E5
F9
0A
08
19
10
0E
26
DB
FE
F2
0A
05
F9
11
EF
F0
F6
F3
D7
B9
C3
F2
FF
0B
FA
F4
F3
06
E5
01
0A
04
0C
1C
0F
05
02
F0
E7
22
F9
FD
11
04
F5
F2
04
F9
DD
FC
0D
02
ED
F5
F7
E5
0B
0F
03
0D
F2
F9
15
10
20
FE
01
0C
F9
11
F9
F2
03
EF
07
FB
08
10
F5
10
02
FC
FB
01
FE
FB
F1
03
EF
00
09
13
15
EC
FF
FF
EF
FE
FB
F6
0B
10
15
11
24
15
02
08
FF
18
EC
21
29
0E
0A
EB
00
02
F5
EC
17
15
F2
FE
11
10
0A
EE
01
F7
FE
F9
16
14
EF
1B
03
15
FD
24
23
0C
11
FC
0D
03
22
02
F4
03
FE
11
01

