16
FD
51
DD
E4
26
10
0A
FC
2D
1A
F6
04
C8
E6
E2
05
F3
DE
FD
E5
05
E3
ED
B7
2A
B8
ED
29
29
D0
13
0E
FF
E6
D5
E2
27
ED
CE
CA
ED
0C
FC
F5
EB
0A
50
BD
E7
ED
46
28
F2
E2
45
B0
FC
D9
26
1F
20
1D
30
18
02
D5
0D
16
F3
05
F7
13
47
10
03
E9
F2
12
1E
FA
F5
F3
1B
F0
F8
D9
13
D6
15
E8
0A
06
C3
C1
F1
24
18
30
14
11
55
DD
F7
0C
FC
C5
12
F6
0E
B5
E4
1A
EE
08
17
22
0A
D9
0B
DF
BF
15
E8
F7
EF
14
EA

