F1
F0
05
0D
00
F9
EF
12
03
F8
0F
06
00
0A
27
0F
03
03
FA
07
F9
0D
04
F3
F8
FD
02
FF
F8
0D
10
0C
04
FC
02
0A
F4
FE
EF
FB
E3
E9
E5
02
0A
0B
FF
FD
F8
EA
E9
FE
F6
F3
F3
FD
00
0C
EE
04
09
F8
F4
03
1B
1F
14
FB
FA
F5
DE
FE
11
FF
0A
D6
F5
1A
FA
E6
05
12
FA
04
F1
F7
02
08
F2
05
F5
03
18
19
0D
18
FF
E7
E2
F5
03
05
FD
EC
0E
0E
12
F6
F5
F7
D4
F1
04
0C
1E
18
ED
10
F4
F9
03
FA
0A
1C
F7
DE
F0
E9
FF
F1
12
0E
EE
06
F7
FD
F3
08
CF
E0
04
0A
FF
10
16
0D
ED
0B
FC
E4
E7
F6
E8
F9
F8
06
19
FF
F7
0C
05
F9
FE
FD
ED
EF
DC
EE
F0
0D
06
FD
12
20
2F
11
0B
0F
25
08
07
0E
16
0C
05
FC
15
18
07
08
21
03
DF
01
EA
F5
F5
23
0A
05
0C
15
10
10
18
07
15
25
28
1F
06
F9
09
12
05
07
00
FC
09
0B
ED
D9
01
FE
12
07
EE
FC
FE
1C
FA
FD
02
21
16
29
0C
05
23
05
FC
F3
06
0F
0F
00
11
09
EB
CC
08
14
FA
EF
DF
03
EF
01
14
08
08
25
08
11
15
00
FD
FC
E8
0A
F8
F8
00
F8
30
10
C8
EC
2B
21
FB
FF
EA
E7
D3
F3
0B
F4
04
F1
E5
EE
E5
BF
C2
D6
DE
FF
0F
F5
F2
FD
F6
0D
02
13
2F
32
09
F8
E1
E2
D2
E5
C7
C2
CA
AF
AB
A0
9E
D4
CD
EC
FE
EB
EE
03
F6
03
1E
17
03
10
E4
ED
EF
F0
E3
EC
C2
BC
95
8F
94
8C
96
B5
EA
07
0B
00
FF
FC
FC
F9
E8
13
F9
EA
EB
24
12
13
ED
05
EE
DC
B5
B9
BE
BD
C6
CE
DE
07
2A
33
0E
03
F6
ED
EA
FA
04
F2
ED
10
29
13
12
21
01
03
FD
F7
FB
F0
FE
05
FD
00
34
38
21
29
1C
14
07
F2
F6
17
F5
FC
FC
00
1A
1E
29
14
03
0C
0B
04
08
22
0F
1B
2B
20
2A
13
1C
1F
03
18
FC
20
0D
FD
09
08
21
29
20
02
02
FE
F1
F9
29
0B
44
28
16
0F
1B
1A
23
20
02
07
FA
21
14
0D
1E
1E
11
26
0D
1F
0B
04
0D
FF
FE
08
1F
0C
29
04
1F
02
21
0A
07
FA
FA
EB
03
09
08
FF
12
F4
0E
14
FA
0F
FC
05
FE
0A
EA
F0
FA
15
16
1E
F6
02
06
16
02
EF
E8
FB
F8
F5
13
0A
22
10
01
F7
03
F6
E6
02
21
07
EE
E9
00
E8
0B
13
0A
0D
F8
05
0F
F3
E8
ED
01
02
ED
F3
06
06
10
F4
02
01
FB
F3
12
EE
09
ED
03
0A
EE
09
FD
10
12
FA
0E
0E
05
0E
ED
07
E4
EE
09
FD
EF
FD
DB
00
F2
E8
FD
F5
0D
02
08
F4
EB
EF
03
F3
F6
FA
0A
FF
0C
FE
F4
F2
F0
EC
F6
13
F0
E7
DE
01
E3
F4
0A
0B
01
EC
FC
E6
13
1F
EE
EB
00
0C
03
13
FE
F6
E4
E4
E8
EB
F5
00
ED
FC
E5
0D
09
E9
F1
F2
F1
08
F0
EA
F7
FA
FE
05
FD
FB
E5
F7
E8
F9
F1
04
08
02
F2
E9
E4
0E
14
EE
EE
0E
FC
02
08
FE
04
E5
07
F5
EF
00
1C
16
11
01
F7
FC
FB
F4
F8
15
D7
D3
E9
F5
F4
EA
11
0A
0F
F6
FB
F4
F9
04
07
15
23
0B
0D
03
15
09
02
D5
01
1C
2B
F0
E9
F6
E5
E6
FA
FA
06
FC
F7
0C
11
09
11
FA
E1
E5
E3
16
F3
0B
FA
16
0F
21
13
1B
F8
0D
02
04
F4
E0
EE
FC
EF
14
07
FB
0E
FA
0C
FF
F2
14
15
31
28
0A
FB
04
04
1B
F0
0B
04
1F
03
0C
FB
FD
EA
08
11
F4
0E
F4

