F7
0D
EF
12
EF
05
09
F5
03
F0
0D
03
20
00
F0
11
0F
0A
F5
0D
08
0E
10
07
F7
0B
F0
FB
01
0B
EE
EE
FF
F9
EB
F2
EB
0B
FB
FE
02
22
FF
FF
FA
F9
02
F6
0E
06
15
11
FA
0F
F9
06
0A
10
FC
FA
E8
FD
08
FA
F7
08
03
F5
14
FD
14
FC
FA
09
06
00
ED
EF
F8
EE
EB
F7
0D
FE
07
0C
F3
E0
FF
14
10
21
22
0D
25
1E
0A
17
32
21
02
F0
11
F6
14
3A
1C
12
FC
03
00
FB
05
F9
15
11
2B
25
0D
13
05
11
22
14
07
17
28
20
22
1C
24
17
34
1A
14
21
46
23
2C
25
FC
F2
FE
FE
FF
F4
15
15
18
EC
05
00
03
E2
FA
F3
07
03
13
1F
2D
FD
0F
21
39
25
21
26
FB
10
0C
FD
08
16
04
FA
01
0A
E8
F0
F5
EB
EC
0D
FB
F9
E8
00
F3
04
1C
1D
3D
16
28
11
0C
EC
EF
F1
17
23
00
ED
0E
0E
05
E9
F8
F7
04
00
04
F5
E6
EA
EB
F8
11
08
2E
0E
17
2C
FA
E7
04
FF
18
FC
03
FF
FD
00
ED
F6
EE
0A
07
FA
EA
EF
F7
FE
06
10
ED
07
27
2E
2C
0C
F6
F1
19
FC
D7
FD
FB
0B
01
E6
FD
02
F1
05
E5
E0
E3
03
F4
FF
FE
00
F8
FB
0E
0F
FA
F9
FD
F2
0A
0F
ED
E7
07
F6
FE
F0
FE
FD
F7
E3
F4
E2
03
0A
F6
0C
09
F6
F2
F2
E6
F8
EB
DE
F7
F9
D6
FC
E2
F1
F8
0B
08
0F
F7
F9
0D
F7
02
05
10
1F
1C
16
02
FF
FC
DA
F2
11
1F
DE
02
EE
FA
06
DA
FA
01
08
03
FE
1F
1D
1A
34
11
06
F9
17
15
21
FF
03
F2
F7
0C
EC
EA
EC
07
F5
D9
F2
E8
08
F8
1C
04
1F
1C
18
17
08
08
0F
14
10
01
04
10
03
F1
01
F5
DF
ED
E8
FA
01
DC
E1
00
0F
11
11
F8
09
09
F5
07
26
01
09
F2
0F
ED
0C
EB
F5
F0
E9
F5
01
D9
FF
F3
0F
05
04
10
1A
13
11
FE
09
11
12
13
1D
09
EB
F5
F5
00
0D
02
01
10
F3
04
04
05
EF
F7
18
FC
F8
0C
F7
11
03
04
FA
04
11
14
F8
05
00
E9
F2
0F
0A
F9
00
07
05
14
0E
EC
F3
04
F8
00
0D
20
0F
FB
0C
02
F2
03
0F
06
F6
F5
FE
03
0B
10
15
05
07
06
00
ED
F0
DF
02
EC
0B
FF
0D
1F
0A
F4
09
14
06
FF
06
FD
F3
0E
0F
11
04
F5
FD
02
09
01
E4
E7
E0
D6
E4
F2
1A
F1
2D
EE
06
03
08
FB
F2
F5
00
FF
FF
02
06
0C
01
1C
16
18
F9
F3
D8
F6
EE
02
17
0A
1E
11
0D
07
02
F5
FD
FF
08
F6
FD
08
FF
21
16
14
FB
0A
09
FE
0C
03
F7
EC
F1
F2
06
F2
FF
01
0D
0A
EF
03
FC
1C
14
FD
02
FC
12
1A
14
0C
F6
01
16
FE
FA
0F
F8
E6
03
24
0E
F2
FB
FA
0E
FA
F7
F6
12
F0
F3
03
0B
0B
15
15
FA
08
F2
F0
F8
FD
09
10
0E
EE
F0
14
F1
EE
0E
19
2F
24
EC
F4
09
0E
0D
1D
07
0C
FE
1B
05
16
F4
19
1A
13
21
06
0B
00
FA
E3
F8
F8
12
FC
1B
16
03
E6
07
F3
07
F2
F8
0C
ED
FB
05
25
0E
12
11
0F
19
1D
08
01
06
FB
F6
04
F7
09
00
E9
E1
E4
DE
E5
F9
FA
FC
DA
06
E3
06
0B
1B
F9
EA
F7
FB
09
F9
1E
08
FE
F3
F5
0A
FD
19
12
DC
E7
FB
E6
FA
E9
02
F0
E4
FB
E6
F6
FF
0B
E3
E2
F4
F6
F0
07
01
F8
00
05
FA
0B
FE
F5
07
FD
FC
FF
F4
D1
EE
EC
EF
EE
01
E6
D4
FC
F9
E4
FA
F7
F1
F4
F2
0A
0A

