CC
FC
FF
F2
1B
36
15
CF
ED
E2
D8
EF
12
E5
1C
2C
D8
E8
1A
DF
23
11
1A
2D
08
12
EC
F2
FF
32
D7
F6
28
20
08
FB
02
F1
23
D6
09
00
29
F3
FE
03
D6
F6
13
08
EB
DB
10
EC
2C
B8
EA
DF
BF
3C
16
10
D1
F5
C7
1F
0B
F6
FD
0E
2C
00
0D
F3
E9
F6
31
05
FD
3F
F9
14
0E
10
F4
FF
F7
09
F9
0B
11
EC
DC
29
10
07
A4
18
D3
23
EA
E9
FA
26
0D
05
1E
EF
14
F0
46
0B
1F
E9
DB
DF
0E
E9
0D
2C
FC
2F
4F
2B
F6
2A
2B
DF
F6
F9
FA
08
FD
3B
0C
04
C5
DC
31
22
E5
1D
FD
15
33
17
C3
0C
E4
D1
04
0B
E6
1E
E4
F4
0C
F0
7F
2A
00
E0
10
0C
DE
DF
03
DB
1D
E7
D0
24
E9
2A
05
F6
11
17
E8
ED
FB
FA
EF
C8
18
10
EC
04
DB
F5
23
FC
0C
10
4F
FC
F4
0C
E5
2E
01
15
FC
19
27
EF
0A
20
3C
23
1A
0B
24
1C
ED
00
EB
C9
18
01
F3
E7
F3
0F
1E
33
EB
DA
19
13
27
2A
09
20
1B
E5
1D
17
DC
13
F1
0C
F9
26
1A
F9
15
F8
FE
05
5C
39
1D
22
1C
B6

