ED
E2
FE
E5
32
B8
0D
0E
FE
15
27
A0
4F
1A
F6
C4
F1
03
07
1A
F1
23
F9
08
38
08
FE
0E
2C
27
15
D1
D7
2F
F1
EC
23
03
ED
42
E6
37
26
DE
09
08
1E
CE
1D
D6
EF
06
DF
10
25
46
1F
36
42
E3
4A
2C
04
FD
F8
16
FB
EC
25
D8
1B
07
F1
DB
EA
E9
0E
1B
0A
CE
1B
14
DB
EB
FC
E8
22
22
2A
FC
23
17
DD
0E
FF
0E
F8
0A
E0
26
1B
0B
19
EB
F4
07
07
34
EC
1D
14
14
E3
FA
3B
37
DE
E2
30
E1
0A
E0
BA
BC
0F
DA
DD
4A
C8
F2
E4
04
F0
45
D3
DE
00
E6
F4
0C
03
28
38
F6
16
03
21
20
F2
23
24
1F
FB
AF
1C
C4
FE
0F
34
09
E4
F0
11
DA
F8
CD
34
19
17
19
9D
1D
E5
2A
12
FE
E4
EE
3E
D2
06
02
FF
FF
01
0D
42
E1
13
1F
35
1D
CA
0A
23
E8
26
CB
00
F4
1A
07
0E
0C
1C
EB
0B
32
D4
14
16
B7
00
AC
21
23
14
11
30
F7
41
31
05
BE
CC
08
43
0D
30
20
35
04
19
2A
E3
1E
CD
29
D3
F5
08
F3
1C
05
F5
14
1D
DD
CB
2B
60
FE
2A
27
03
EC

