44
28
2A
CD
EC
D7
CE
09
04
D1
2D
FC
DB
E8
ED
05
FA
1C
D8
1B
E5
F4
EF
D2
21
10
2C
3C
CA
1A
EC
EF
01
1D
1B
2B
34
59
1A
16
06
E7
01
11
E4
17
EA
2F
18
B4
C6
11
EE
22
1C
F3
FD
D7
20
1E
2F
09
DA
D5
16
F5
05
F0
33
D8
C0
E7
21
30
B2
21
13
14
01
A7
E8
F9
26
07
BF
08
33
06
0A
4E
11
CB
E1
18
04
0F
32
EE
02
00
0A
34
FC
20
16
23
38
C6
08
20
DD
F8
D1
00
F8
1C
E3
F5
20
F1
62
F3
E3
A6
F4
09
03
47
F9
EE
EE
EE
FC
39
10
41
B5
FD
1B
16
1F
1D
DA
DC
1D
F5
D9
DF
E5
1F
D8
1C
05
2A
9C
F0
1A
EC
2D
01
2A
E6
A9
CE
1A
0F
18
10
1E
26
C4
1D
D2
F6
E1
05
C7
2F
DB
12
1E
E9
DF
A7
2A
17
FD
1C
2B
3D
46
E8
1A
2A
34
0F
41
0B
10
15
03
E4
C7
F0
0E
3C
E2
27
F3
D0
FC
36
E9
FD
EA
04
F2
18
CD
23
17
0B
F6
ED
04
1B
01
29
28
1A
EE
05
20
03
E6
20
F7
FC
D6
16
05
2D
EF
32
15
CE
EE
1C
F8
D9
28
FD
24
F0
EB
DB

