0E
F6
E0
E6
1F
06
F2
F4
DF
E4
F3
F1
E1
16
1F
05
DD
D4
D8
E6
F0
FF
F6
EB
FA
E0
14
08
F3
27
03
F7
DD
F5
E9
0C
1D
03
09
F9
ED
DC
2D
09
02
E0
F3
F6
E5
F1
FE
2B
F2
E3
1B
D2
05
F1
10
12
1D
FF
44
EA
D6
F6
01
01
D9
0D
E4
F0
DF
1A
F9
1A
EF
EA
08
F0
3A
DA
1C
E4
FA
1E
FF
10
EE
F8
1E
26
13
09
04
08
1E
F6
F8
FA
20
E1
ED
23
CB
18
EC
13
0C
F4
08
E5
D8
08
F0
1F
E6
24
F7
10
1C
ED
0F
ED
DF
CE
DB
16
F9
14
D4
EF
F8
DD
20
10
06
D2
24
FF
06
CE
2D
E4
01
0C
CC
06
0E
D0
CB
CB
E7
15
F2
3C
DD
08
35
14
09
0E
22
E9
0B
25
12
27
24
ED
29
32
0C
DE
DF
F6
02
1B
DE
01
11
DF
F0
12
28
E5
E6
FA
43
14
01
F0
F2
F0
0C
22
00
F3
FB
08
2D
09
FB
F8
F6
11
37
C2
21
FB
EC
ED
AC
2A
1D
E8
03
2C
DC
BB
DC
E9
29
31
EB
21
EA
FD
EF
19
02
37
28
18
08
DA
0E
F7
0C
E6
F4
38
C1
3E
EF
D6
35
11
1E
D5
F1
E5
FB
FE
07
DB

