19
F3
0C
22
02
2A
FD
FC
EA
20
E3
B9
07
43
21
C4
F1
CE
F9
1F
E2
F0
23
F5
E5
E7
26
AB
DB
F2
CD
D4
DD
07
0B
EF
39
22
E8
1A
E3
F5
15
DC
1C
DD
24
29
E8
1A
FE
F3
09
F5
28
E4
EC
16
E7
B1
DC
01
CC
05
13
F5
FA
10
D7
03
EE
22
3B
FE
EB
E9
1A
F3
BE
FF
21
E3
F8
27
10
16
ED
12
F4
F2
DC
14
EE
1B
FC
00
D7
F4
D6
F5
DD
D2
F0
2A
14
FD
05
FC
EB
D3
21
E8
1D
C4
F7
E8
22
42
DF
FD
BC
14
0B
DA
0B
E8
30
17
16
F9
E2
19
1A
D8
22
0C
FC
17
30
AA
49
0F
E6
D8
1A
E2
04
FD
23
2B
1F
0D
16
12
E0
DF
15
E6
34
EE
0A
29
37
E9
1C
F2
FC
E3
05
26
1B
09
26
F1
FE
C0
FC
3F
1E
18
E2
E1
0B
EE
35
31
5A
28
2D
3F
35
2B
D9
E8
04
E9
54
CF
32
F9
30
E0
0C
08
EC
13
02
2E
17
01
11
E7
F3
FB
1E
21
13
F4
D8
05
E8
EC
E1
F8
D5
1B
1B
1D
16
D9
13
12
2D
13
C9
2B
01
02
29
E5
0A
0C
EC
32
21
2C
FB
C3
AE
E7
EC
09
EA
F8
F9
D5

