D1
14
FB
15
1C
0B
46
DE
06
0B
0A
E3
3F
13
FB
E8
D8
2F
C9
E3
FD
10
E2
F1
16
07
0A
CC
E8
0E
0D
DF
09
F6
CE
F2
04
F7
22
F6
EA
EB
E4
2F
05
26
EE
CB
F8
3D
0C
CB
0E
EA
0E
17
0F
F7
F9
FA
E9
D6
18
FD
F3
F9
08
25
04
08
10
21
D4
1C
1F
FE
15
D0
F0
FE
36
1A
11
CB
13
EC
05
E1
0C
FF
CE
12
1C
12
0F
F0
0F
D3
2A
EB
02
FC
FF
F2
FF
0A
C7
15
FB
17
EA
F5
1F
00
EB
24
1D
24
1F
C7
04
E8
D3
1E
1B
1D
22
9D
02
03
08
2B
03
26
07
00
07
EC
04
21
DF
B8
17
E8
CA
E7
02
F9
D5
CF
F7
DE
03
F6
C5
EA
03
27
16
04
11
18
CC
E9
DF
EC
E6
DB
F1
FA
1E
E8
CD
D9
FD
F4
00
46
2B
E3
F4
EE
1D
FE
15
05
1B
DF
EA
14
FF
0F
23
DE
F6
04
E9
10
C8
E3
D8
C7
FA
EF
D5
12
EE
06
E4
14
E5
0E
C5
06
05
DE
0B
D6
D6
CB
1B
D6
F0
F6
0D
08
FF
DC
EF
F0
0E
1D
12
DE
17
31
32
0F
E1
E0
DF
C9
EA
FA
F1
0C
D6
30
CB
FC
1A
DE
EB
1E
19
1C

