2C
1C
00
FB
19
00
17
F9
0E
08
E1
E7
CD
06
E6
17
F1
B7
1E
17
15
2E
E2
FF
09
00
E5
F8
23
DD
E9
1C
27
F5
26
19
D5
DE
23
00
29
0A
23
FA
EE
F9
05
D5
2C
11
48
19
FE
D8
1D
CA
2F
11
26
1C
08
DC
EA
16
DF
31
DB
1C
EC
12
33
1D
0E
F4
3B
F6
F5
E8
0D
35
CB
F5
E0
33
FB
2C
0C
FA
16
DA
E9
37
13
23
0C
26
CB
02
F8
16
E5
C3
E1
17
F2
F9
14
25
F9
20
07
15
24
26
43
FA
0E
FF
11
10
CE
D8
1E
ED
FD
00
0F
0D
08
14
2C
ED
17
DA
1C
E1
E5
D8
EF
25
17
2D
17
0B
F5
2B
D3
FC
19
DF
08
FE
D5
18
F8
F9
DE
FC
2D
ED
EE
CB
E4
19
4B
24
1C
35
EA
1C
0D
11
FC
F0
21
D5
00
F8
19
46
F3
24
F1
3A
0E
F6
26
FB
1C
EA
36
0C
F7
2D
0D
17
1F
DA
EB
15
F2
F0
FC
E2
00
05
E2
E4
20
F5
10
F0
EC
1B
21
E3
0D
ED
ED
09
06
21
FB
25
0C
DB
1E
E2
E1
05
1A
34
13
20
16
FF
0F
04
DF
FC
1A
02
AE
2B
19
F7
16
CA
30
E0
ED
B6
F9
F2
0C
1D

