D7
13
FA
25
15
F8
26
24
E3
02
0B
5F
F1
E1
F5
01
E3
38
13
25
DE
E5
F3
E0
E6
2C
10
0B
BB
FD
32
D7
D2
23
C0
23
0A
15
0C
15
EC
29
EA
09
2F
F4
ED
0B
D9
2D
E8
EB
EE
FB
FA
DC
EC
D6
B2
21
E8
EF
DA
D0
1A
E5
EA
FB
E0
CA
D0
30
0D
11
F8
25
10
22
D8
34
FA
F0
ED
0B
ED
EC
1F
04
FD
0E
EA
CC
27
DF
22
E7
1F
27
0D
05
29
0F
0B
14
E4
26
EA
EE
13
25
FD
01
26
EE
2E
17
0A
2F
20
04
02
D3
27
19
E7
00
2F
AE
FE
03
05
EC
F0
E7
2E
27
FC
FE
12
03
E1
BC
03
16
28
11
F1
10
F2
07
11
D0
ED
4B
1C
F6
E7
0D
11
01
07
28
F7
0D
FE
EF
E1
06
F1
F9
E6
FE
EE
FE
08
16
F5
23
C6
08
18
15
0E
1C
1A
07
C6
26
29
E9
F3
04
4E
E1
24
10
D7
28
F4
1D
0D
EB
19
0D
19
05
09
20
41
01
09
E2
C9
EB
1B
DE
DA
E4
06
C1
1C
04
29
E7
1C
1D
16
F3
10
43
E5
0D
0D
15
F6
CA
08
03
2F
10
F1
1D
EB
1D
0C
E5
EE
07
F4
F0
18
3C
F3
02
07
F0

