06
32
00
1B
7E
6F
EA
E3
46
BE
48
41
14
71
2C
26
A5
E8
47
EF
6F
7D
15
08
16
20
AD
3E
38
46
C5
EF
9E
E9
1F
8C
DE
31
ED
1C
8F
E7
BB
8C
77
98
C7
F0
4E
C8
75
91
A7
E2
6E
45
D1
8A
ED
65
D8
CD
F8
D7
C9
14
BE
1E
10
C4
DB
04
92
D9
05
28
A0
11
5D
E1
96
F7
04
E2
F5
CF
2C
30
2D
2B
85
D6
55
71
8B
F4
ED
73
4F
92
E3
1A
62
66
00
88
E7
70
60
A3
2C
92
F8
71
15
F3
9F
E2
BB
39
1F
39
AA
A7
1B
A7
FE
06
9D
B3
B1
94
B2
DB
4E
F0
AD
EF
1C
99
27
D7
A3
81
C9
FC
4C
9F
7E
47
59
01
52
72
F1
78
2C
EB
99
54
0B
FE
6B
D5
5E
8C
34
1D
D4
BD
0B
22
FE
5A
26
B2
C8
63
D9
0E
93
85
4C
79
22
07
59
73
81
16
CD
B5
47
FA
58
C7
94
3F
AE
F2
3B
83
98
5C
05
35
93
FB
DA
D7
03
36
78
4F
BC
45
B3
0F
E9
2B
70
C2
EA
D9
00
47
E4
00
08
DD
71
C2
04
3D
9C
41
0C
BC
00
6F
42
F8
17
15
74
E7
32
47
5A
FC
9A
B2
24
5E
74
1B
37
98
E4
EF
84
F4
E6
1E
95
CD
09
E4
C0
55
D6
D3
E5
FE
15
34
2C
52
51
1E
55
12
5F
69
47
A5
13
70
91
F4
48
4A
29
C3
92
2D
D6
64
D5
7B
6E
DD
BA
26
68
B0
B3
12
DD
38
E4
1C
15
29
37
40
61
21
CE
4A

